const unsigned char model[] = {
  0x1c, 0x00, 0x00, 0x00, 0x54, 0x46, 0x4c, 0x33, 0x14, 0x00, 0x20, 0x00,
  0x1c, 0x00, 0x18, 0x00, 0x14, 0x00, 0x10, 0x00, 0x0c, 0x00, 0x00, 0x00,
  0x08, 0x00, 0x04, 0x00, 0x14, 0x00, 0x00, 0x00, 0x1c, 0x00, 0x00, 0x00,
  0x98, 0x00, 0x00, 0x00, 0xf0, 0x00, 0x00, 0x00, 0xa0, 0x2e, 0x00, 0x00,
  0xb0, 0x2e, 0x00, 0x00, 0xac, 0x34, 0x00, 0x00, 0x03, 0x00, 0x00, 0x00,
  0x01, 0x00, 0x00, 0x00, 0x10, 0x00, 0x00, 0x00, 0x00, 0x00, 0x0a, 0x00,
  0x10, 0x00, 0x0c, 0x00, 0x08, 0x00, 0x04, 0x00, 0x0a, 0x00, 0x00, 0x00,
  0x0c, 0x00, 0x00, 0x00, 0x1c, 0x00, 0x00, 0x00, 0x3c, 0x00, 0x00, 0x00,
  0x0f, 0x00, 0x00, 0x00, 0x73, 0x65, 0x72, 0x76, 0x69, 0x6e, 0x67, 0x5f,
  0x64, 0x65, 0x66, 0x61, 0x75, 0x6c, 0x74, 0x00, 0x01, 0x00, 0x00, 0x00,
  0x04, 0x00, 0x00, 0x00, 0x90, 0xff, 0xff, 0xff, 0x0a, 0x00, 0x00, 0x00,
  0x04, 0x00, 0x00, 0x00, 0x08, 0x00, 0x00, 0x00, 0x64, 0x65, 0x6e, 0x73,
  0x65, 0x5f, 0x32, 0x31, 0x00, 0x00, 0x00, 0x00, 0x01, 0x00, 0x00, 0x00,
  0x04, 0x00, 0x00, 0x00, 0x46, 0xd1, 0xff, 0xff, 0x04, 0x00, 0x00, 0x00,
  0x0e, 0x00, 0x00, 0x00, 0x64, 0x65, 0x6e, 0x73, 0x65, 0x5f, 0x31, 0x39,
  0x5f, 0x69, 0x6e, 0x70, 0x75, 0x74, 0x00, 0x00, 0x02, 0x00, 0x00, 0x00,
  0x34, 0x00, 0x00, 0x00, 0x04, 0x00, 0x00, 0x00, 0xdc, 0xff, 0xff, 0xff,
  0x0d, 0x00, 0x00, 0x00, 0x04, 0x00, 0x00, 0x00, 0x13, 0x00, 0x00, 0x00,
  0x43, 0x4f, 0x4e, 0x56, 0x45, 0x52, 0x53, 0x49, 0x4f, 0x4e, 0x5f, 0x4d,
  0x45, 0x54, 0x41, 0x44, 0x41, 0x54, 0x41, 0x00, 0x08, 0x00, 0x0c, 0x00,
  0x08, 0x00, 0x04, 0x00, 0x08, 0x00, 0x00, 0x00, 0x0c, 0x00, 0x00, 0x00,
  0x04, 0x00, 0x00, 0x00, 0x13, 0x00, 0x00, 0x00, 0x6d, 0x69, 0x6e, 0x5f,
  0x72, 0x75, 0x6e, 0x74, 0x69, 0x6d, 0x65, 0x5f, 0x76, 0x65, 0x72, 0x73,
  0x69, 0x6f, 0x6e, 0x00, 0x0e, 0x00, 0x00, 0x00, 0xac, 0x2d, 0x00, 0x00,
  0xa4, 0x2d, 0x00, 0x00, 0x78, 0x2d, 0x00, 0x00, 0x68, 0x2c, 0x00, 0x00,
  0xd8, 0x2b, 0x00, 0x00, 0xc8, 0x27, 0x00, 0x00, 0xb8, 0x07, 0x00, 0x00,
  0xa8, 0x00, 0x00, 0x00, 0xa0, 0x00, 0x00, 0x00, 0x98, 0x00, 0x00, 0x00,
  0x90, 0x00, 0x00, 0x00, 0x88, 0x00, 0x00, 0x00, 0x68, 0x00, 0x00, 0x00,
  0x04, 0x00, 0x00, 0x00, 0xfa, 0xd1, 0xff, 0xff, 0x04, 0x00, 0x00, 0x00,
  0x54, 0x00, 0x00, 0x00, 0x0c, 0x00, 0x00, 0x00, 0x08, 0x00, 0x0e, 0x00,
  0x08, 0x00, 0x04, 0x00, 0x08, 0x00, 0x00, 0x00, 0x10, 0x00, 0x00, 0x00,
  0x24, 0x00, 0x00, 0x00, 0x00, 0x00, 0x06, 0x00, 0x08, 0x00, 0x04, 0x00,
  0x06, 0x00, 0x00, 0x00, 0x04, 0x00, 0x00, 0x00, 0x00, 0x00, 0x00, 0x00,
  0x00, 0x00, 0x0a, 0x00, 0x10, 0x00, 0x0c, 0x00, 0x08, 0x00, 0x04, 0x00,
  0x0a, 0x00, 0x00, 0x00, 0x02, 0x00, 0x00, 0x00, 0x02, 0x00, 0x00, 0x00,
  0x04, 0x00, 0x00, 0x00, 0x06, 0x00, 0x00, 0x00, 0x32, 0x2e, 0x31, 0x35,
  0x2e, 0x30, 0x00, 0x00, 0x5a, 0xd2, 0xff, 0xff, 0x04, 0x00, 0x00, 0x00,
  0x10, 0x00, 0x00, 0x00, 0x31, 0x2e, 0x35, 0x2e, 0x30, 0x00, 0x00, 0x00,
  0x00, 0x00, 0x00, 0x00, 0x00, 0x00, 0x00, 0x00, 0x2c, 0xcd, 0xff, 0xff,
  0x30, 0xcd, 0xff, 0xff, 0x34, 0xcd, 0xff, 0xff, 0x38, 0xcd, 0xff, 0xff,
  0x86, 0xd2, 0xff, 0xff, 0x04, 0x00, 0x00, 0x00, 0x00, 0x07, 0x00, 0x00,
  0x2e, 0x1d, 0x00, 0x40, 0xa4, 0xb6, 0xd1, 0x40, 0x57, 0x1e, 0x34, 0x3d,
  0xad, 0xd8, 0x56, 0xbd, 0xe7, 0x61, 0x38, 0x3a, 0x11, 0x07, 0x8e, 0x40,
  0x0e, 0xce, 0x78, 0xbf, 0x45, 0xcb, 0x87, 0xc0, 0x67, 0x72, 0x52, 0x3f,
  0xb2, 0x13, 0x41, 0x40, 0xfe, 0xa8, 0x28, 0x40, 0x7b, 0x27, 0xc5, 0x3f,
  0x89, 0x6c, 0xb8, 0xbe, 0x53, 0x27, 0xa3, 0x40, 0x13, 0x40, 0x4e, 0xc0,
  0xe4, 0xf7, 0xed, 0xbe, 0xba, 0x78, 0xab, 0x3e, 0x93, 0xde, 0xfd, 0xbf,
  0xbb, 0x22, 0x83, 0x40, 0xeb, 0x29, 0x1e, 0x40, 0xd0, 0x52, 0xb9, 0x3f,
  0x37, 0x74, 0xa8, 0xbf, 0x14, 0x1f, 0xb5, 0xbf, 0xdc, 0x9e, 0xc3, 0x3f,
  0x47, 0xb7, 0x90, 0xbe, 0xc3, 0xb2, 0x88, 0xbc, 0xb4, 0x64, 0x25, 0x40,
  0x9d, 0x65, 0xdf, 0x3f, 0xaa, 0x10, 0x6d, 0xc0, 0xa1, 0x79, 0x1d, 0x40,
  0x52, 0xcb, 0x76, 0x3f, 0x7c, 0x77, 0x44, 0x40, 0x06, 0x7b, 0x83, 0x3f,
  0x97, 0xf2, 0x23, 0x40, 0x12, 0xc5, 0x8d, 0x3e, 0xdd, 0x48, 0x76, 0x3f,
  0x5c, 0x1b, 0x30, 0xc0, 0x71, 0x8b, 0x42, 0x3f, 0x5b, 0x7e, 0x96, 0xbf,
  0xb7, 0x79, 0x6d, 0x40, 0xc6, 0xf3, 0x3f, 0xbf, 0x9c, 0x2b, 0xc4, 0x40,
  0x14, 0xda, 0xdd, 0x3f, 0x78, 0xed, 0xbb, 0x3f, 0xc0, 0xd6, 0x91, 0x3f,
  0x0c, 0x49, 0x50, 0xbf, 0x4a, 0x20, 0x01, 0xc0, 0x9a, 0x3c, 0x9b, 0xc0,
  0x93, 0x2b, 0xb3, 0x3f, 0xf3, 0xce, 0xa1, 0x40, 0x6f, 0x66, 0x81, 0x3f,
  0x73, 0x21, 0x78, 0x3f, 0xfe, 0x92, 0x11, 0x40, 0x3f, 0x7e, 0x29, 0x40,
  0xe6, 0x92, 0x2e, 0xbf, 0xf1, 0xc3, 0x92, 0x3f, 0x25, 0xd1, 0x54, 0x3e,
  0xc3, 0xff, 0x19, 0x40, 0xd6, 0xdf, 0x27, 0xbd, 0xda, 0x72, 0x53, 0x3f,
  0x64, 0x1a, 0xa5, 0x3f, 0x88, 0x29, 0xf2, 0xbf, 0xec, 0x2c, 0xc6, 0xbe,
  0xba, 0x90, 0xb0, 0x3e, 0x6a, 0xa4, 0x50, 0x3f, 0x25, 0x55, 0x3b, 0x40,
  0xea, 0x42, 0x96, 0xbe, 0xa3, 0x53, 0x15, 0xc0, 0xe7, 0x3d, 0xe9, 0x40,
  0x3d, 0xf3, 0xa5, 0x3f, 0xc3, 0x8a, 0x0e, 0xc0, 0x32, 0x52, 0x96, 0xc0,
  0x50, 0xdb, 0x41, 0xc0, 0x86, 0x5d, 0x73, 0xc0, 0x26, 0xbe, 0xc8, 0xc0,
  0xb0, 0x6a, 0xf7, 0xbe, 0xa6, 0x0b, 0x4c, 0xc0, 0x02, 0xb3, 0x23, 0xbf,
  0xce, 0x89, 0xa8, 0x40, 0x55, 0x9c, 0x5b, 0x40, 0x70, 0xde, 0x94, 0xbf,
  0x13, 0x5b, 0x40, 0x3f, 0xdc, 0x55, 0xe0, 0xbe, 0x09, 0x96, 0x45, 0x40,
  0x59, 0x52, 0xcb, 0xbe, 0x28, 0x00, 0xb8, 0xbd, 0xb2, 0x4f, 0xec, 0xbe,
  0xf4, 0x67, 0x1b, 0xc0, 0xf4, 0x6b, 0x8b, 0x40, 0x88, 0x43, 0x3f, 0xbe,
  0x78, 0x1b, 0x6b, 0xc0, 0x60, 0x02, 0xdf, 0xbf, 0xad, 0xa5, 0x02, 0xc0,
  0x3c, 0x31, 0x2a, 0x40, 0x1a, 0x71, 0x90, 0xbf, 0x38, 0x8c, 0xca, 0x3f,
  0x52, 0xbf, 0x62, 0x3f, 0xd7, 0xdb, 0x19, 0xc0, 0xe6, 0xac, 0x9f, 0xbf,
  0x36, 0xda, 0x30, 0xc0, 0xd4, 0xcb, 0xff, 0x3e, 0x2e, 0x06, 0x0f, 0x40,
  0x48, 0xeb, 0x20, 0xc0, 0x37, 0x64, 0xa2, 0x3f, 0xfa, 0x72, 0xba, 0xbf,
  0xa3, 0x97, 0xc0, 0xc0, 0x0a, 0x08, 0x3a, 0x40, 0x77, 0x02, 0xf4, 0xbf,
  0xc5, 0xfd, 0x6f, 0x40, 0x47, 0x66, 0x4d, 0xbf, 0xb5, 0x1c, 0x24, 0x40,
  0x0d, 0x45, 0x5a, 0xc0, 0x42, 0x19, 0xfa, 0x3f, 0xda, 0xc9, 0x81, 0x40,
  0x9c, 0x5f, 0xf7, 0xbf, 0xe0, 0x91, 0x1e, 0x40, 0xd8, 0xb7, 0x47, 0x40,
  0x32, 0xc0, 0x89, 0x40, 0xc0, 0xac, 0xda, 0x3f, 0x48, 0x62, 0xc5, 0xc0,
  0x73, 0xac, 0x3c, 0x40, 0x52, 0xcf, 0x6d, 0x40, 0xd7, 0xa1, 0x8a, 0x40,
  0x77, 0x8d, 0x6f, 0x3f, 0x48, 0x76, 0x4e, 0xc0, 0xe9, 0xc6, 0x0f, 0xc0,
  0x32, 0x78, 0x46, 0x3f, 0xb9, 0x51, 0x27, 0xc0, 0xf6, 0x9b, 0xda, 0x3f,
  0x51, 0x8a, 0xd2, 0xbf, 0x3c, 0x20, 0xec, 0x40, 0x9a, 0x8a, 0x0e, 0xc0,
  0x6c, 0xa0, 0x66, 0xbf, 0x9f, 0x99, 0x62, 0x40, 0xf5, 0xc9, 0xde, 0xbf,
  0xe6, 0x1a, 0x6a, 0xbf, 0x2a, 0x12, 0xd2, 0xc0, 0x5a, 0x8f, 0xb0, 0xbf,
  0x4d, 0xc4, 0x31, 0x40, 0xc6, 0xbd, 0x4d, 0x40, 0xbb, 0x5a, 0x67, 0xc0,
  0xd4, 0x51, 0xe3, 0x3f, 0x9c, 0x06, 0x0e, 0xc0, 0xb5, 0x61, 0x6c, 0xc0,
  0x97, 0x82, 0x38, 0xbf, 0x94, 0xcd, 0xfe, 0x3e, 0x69, 0x40, 0x0b, 0x40,
  0x87, 0x11, 0x13, 0x40, 0x50, 0xad, 0x9e, 0xbe, 0xa2, 0x7f, 0x5d, 0xc0,
  0x38, 0x83, 0x86, 0xc0, 0x00, 0x44, 0x58, 0x40, 0xa9, 0x06, 0x35, 0x40,
  0x27, 0xc0, 0xbf, 0xbc, 0x3a, 0xd4, 0xa0, 0xc0, 0x07, 0xf5, 0x3b, 0xc0,
  0x10, 0xf6, 0x0a, 0xc0, 0xb3, 0xbc, 0xfa, 0x3f, 0xa2, 0x8b, 0xa6, 0x40,
  0x2f, 0xff, 0x46, 0x40, 0x4a, 0x7b, 0xaa, 0xc0, 0x82, 0xa1, 0xc2, 0xbf,
  0x49, 0x37, 0x25, 0x40, 0x8d, 0xc3, 0x05, 0xc0, 0x20, 0x50, 0xc4, 0xbf,
  0xfc, 0x86, 0xef, 0x3f, 0x93, 0x6a, 0x03, 0x3f, 0x66, 0x35, 0x57, 0x40,
  0xb1, 0xdd, 0x46, 0xbe, 0x83, 0xd8, 0xa3, 0xc0, 0x21, 0xba, 0x18, 0x40,
  0xbb, 0x4a, 0xc1, 0xbf, 0x25, 0x3a, 0x80, 0x3f, 0xb3, 0xec, 0xd9, 0xc0,
  0xf0, 0x05, 0xed, 0xbe, 0x4d, 0xd7, 0xc2, 0x40, 0x50, 0x5b, 0xdc, 0x3f,
  0x68, 0xdb, 0x61, 0x40, 0x7f, 0x56, 0x3e, 0xc0, 0x2e, 0x72, 0xaa, 0xc0,
  0x77, 0xf8, 0x0e, 0x40, 0xe8, 0x13, 0x50, 0xbf, 0x26, 0x40, 0x4e, 0xbf,
  0xb2, 0x23, 0x2e, 0x40, 0x45, 0x23, 0xb7, 0xbf, 0x4b, 0xd7, 0x2b, 0x40,
  0x4f, 0x02, 0x23, 0x40, 0x25, 0x32, 0xa0, 0x3f, 0x9f, 0x5c, 0xb4, 0xbf,
  0x12, 0x9a, 0xc4, 0x3f, 0xd9, 0xa0, 0x13, 0x40, 0x2a, 0xa2, 0xc6, 0xbf,
  0x23, 0xdc, 0xc0, 0x3f, 0x97, 0xf9, 0x71, 0xbd, 0x2a, 0xe2, 0x34, 0xc0,
  0x1b, 0xfe, 0x3e, 0xbf, 0x47, 0xaf, 0x0a, 0xc0, 0x0f, 0x74, 0x5a, 0x40,
  0x99, 0x0f, 0x06, 0x40, 0xaf, 0x76, 0x2f, 0xbf, 0xfd, 0xf5, 0x62, 0xbf,
  0x63, 0xf2, 0xb8, 0xc0, 0x09, 0xe0, 0xa7, 0xbf, 0x40, 0xcb, 0x47, 0x40,
  0xb7, 0x49, 0x86, 0xbe, 0xb4, 0xfb, 0x45, 0x40, 0x3b, 0x5f, 0xa0, 0xbf,
  0xe0, 0x7d, 0xe3, 0xbf, 0xae, 0x51, 0xbf, 0xbf, 0x96, 0x97, 0x03, 0x40,
  0xc8, 0x48, 0xab, 0xbd, 0x54, 0x28, 0x0a, 0x40, 0x75, 0xe1, 0x48, 0xbe,
  0x77, 0x39, 0xce, 0xbf, 0xf9, 0x3b, 0xab, 0xc0, 0xea, 0x76, 0xd1, 0xbf,
  0x17, 0xaa, 0x35, 0x40, 0x5a, 0x36, 0x7e, 0x3e, 0xc0, 0xee, 0x89, 0xc0,
  0xc9, 0x5a, 0x92, 0x3e, 0x16, 0x80, 0x4b, 0x40, 0x30, 0x97, 0x23, 0x40,
  0xa6, 0xb3, 0x3d, 0x3f, 0x13, 0x48, 0x14, 0x40, 0xf9, 0xa3, 0x9c, 0x40,
  0x00, 0x2d, 0x3e, 0xc0, 0xba, 0x78, 0x15, 0x40, 0x46, 0x22, 0x32, 0xc0,
  0xb0, 0x19, 0x27, 0x40, 0x25, 0xf8, 0x46, 0xbf, 0x7b, 0x50, 0x90, 0x40,
  0x4f, 0x2c, 0x29, 0x40, 0xe9, 0xed, 0x14, 0xbf, 0x41, 0xbe, 0xee, 0x3d,
  0xa7, 0xd3, 0x36, 0x40, 0xf1, 0x55, 0x76, 0xbf, 0x37, 0x31, 0xd9, 0x3d,
  0x08, 0xfe, 0x00, 0x40, 0x51, 0x21, 0x82, 0xc0, 0x1a, 0x7c, 0x9d, 0xbf,
  0x13, 0xe8, 0x18, 0x40, 0x47, 0x63, 0x54, 0x40, 0x14, 0xfb, 0xc1, 0x3e,
  0x50, 0x22, 0x3a, 0xc0, 0x5c, 0x8f, 0x00, 0x40, 0x4a, 0x16, 0x43, 0x3f,
  0xdd, 0xfb, 0x06, 0xc0, 0x70, 0xb1, 0x99, 0xbf, 0x55, 0xdb, 0xac, 0xc0,
  0x4f, 0xc4, 0x42, 0x40, 0xd0, 0x35, 0x06, 0xbf, 0x06, 0xf6, 0x4c, 0x3f,
  0xaa, 0x7d, 0x02, 0x40, 0x1d, 0xc8, 0xba, 0x3f, 0x79, 0x83, 0x84, 0x3f,
  0xe1, 0x24, 0x1c, 0xc0, 0x57, 0x4a, 0x59, 0x40, 0x17, 0x70, 0x08, 0x41,
  0x31, 0x8e, 0xc2, 0x3f, 0xa3, 0x19, 0x75, 0xbe, 0x33, 0x9c, 0x18, 0x3f,
  0xa4, 0x9b, 0x2e, 0x40, 0xe1, 0x87, 0xc8, 0x3d, 0x12, 0x02, 0x9e, 0xbe,
  0x4d, 0x1c, 0x89, 0xbf, 0xa2, 0x9f, 0x09, 0x40, 0xf8, 0x58, 0xf9, 0xbe,
  0x7d, 0xa7, 0x51, 0x3f, 0xe1, 0x2f, 0x53, 0xc0, 0x72, 0xb6, 0x3b, 0x40,
  0xd4, 0x88, 0x41, 0xbf, 0x85, 0xcb, 0xa1, 0x40, 0x93, 0xd7, 0xf5, 0x3f,
  0x16, 0xc7, 0x35, 0x40, 0x24, 0xfb, 0x6e, 0x40, 0x19, 0x50, 0x14, 0x40,
  0x94, 0x28, 0xe4, 0x3e, 0x51, 0xeb, 0xde, 0xbf, 0x2c, 0xce, 0x12, 0x3e,
  0x65, 0x94, 0x90, 0xbe, 0x38, 0xd5, 0x8e, 0x3d, 0xa1, 0xb6, 0x5a, 0x3e,
  0xac, 0xe4, 0xb3, 0x3f, 0x44, 0xe7, 0xa4, 0xbf, 0x1c, 0x98, 0x1a, 0x40,
  0x1f, 0x58, 0x05, 0x40, 0x14, 0x07, 0xdb, 0xbf, 0xac, 0x6e, 0xf3, 0xbf,
  0x34, 0x1f, 0x79, 0x3f, 0x32, 0x17, 0x44, 0xbe, 0xe1, 0x62, 0x53, 0x40,
  0x81, 0x93, 0x43, 0xc0, 0x52, 0x4a, 0x96, 0x3e, 0x47, 0x6d, 0x91, 0xc0,
  0xf8, 0x0c, 0x16, 0x3e, 0xc2, 0x65, 0x1c, 0x40, 0x29, 0xbb, 0xc2, 0xbf,
  0x9a, 0xcc, 0x3d, 0x40, 0x4b, 0xcb, 0x26, 0x40, 0x56, 0xc8, 0x0c, 0x3e,
  0x08, 0x50, 0x96, 0xc0, 0x45, 0x2e, 0x37, 0xc0, 0xd0, 0x38, 0x2c, 0xbf,
  0xc7, 0xed, 0xe4, 0xbf, 0xa3, 0xd2, 0xe1, 0x3f, 0xa9, 0x0f, 0x35, 0x40,
  0x4d, 0x54, 0xbd, 0xbf, 0x09, 0x9e, 0xc1, 0x3f, 0xc1, 0x23, 0x1b, 0x40,
  0xcf, 0x14, 0xe1, 0xbe, 0xd0, 0xfd, 0xa9, 0xbf, 0x74, 0xf6, 0x83, 0x3e,
  0x85, 0x9a, 0x89, 0x40, 0x61, 0x45, 0x2a, 0x40, 0x25, 0xd4, 0x88, 0x40,
  0x6e, 0x6e, 0xa1, 0x3d, 0xdc, 0x21, 0x8d, 0xbf, 0xed, 0x23, 0x94, 0x3f,
  0x38, 0x25, 0x28, 0x3f, 0xac, 0x80, 0x1c, 0x3d, 0x6b, 0x79, 0x2e, 0xc0,
  0x42, 0x7f, 0x6f, 0xc0, 0x9e, 0x41, 0x29, 0x40, 0x9a, 0x29, 0x78, 0x40,
  0x68, 0x01, 0x21, 0x40, 0xd8, 0x5e, 0x11, 0x40, 0x2f, 0xf4, 0x43, 0xbf,
  0x20, 0x0a, 0x52, 0x40, 0xfa, 0xf2, 0x32, 0x40, 0xb7, 0x8e, 0xd7, 0x3f,
  0x32, 0x3f, 0xab, 0x3f, 0x73, 0xa4, 0x32, 0x40, 0x69, 0xea, 0xa4, 0x3e,
  0xe8, 0xfa, 0x26, 0x40, 0x6b, 0xd7, 0x7e, 0xbc, 0x08, 0x5e, 0x0c, 0x40,
  0x0a, 0xd2, 0x47, 0x3f, 0xc7, 0x88, 0x38, 0xbe, 0xc7, 0x0b, 0x72, 0x40,
  0x85, 0xa2, 0xff, 0x3f, 0xbd, 0xc4, 0x2b, 0x40, 0x8a, 0xde, 0xe8, 0x3e,
  0x55, 0xe9, 0xb0, 0x3f, 0xec, 0x4c, 0x86, 0x40, 0x38, 0xcb, 0x64, 0x40,
  0xf9, 0xa0, 0x22, 0xbe, 0x9c, 0x30, 0xe6, 0xbe, 0x8c, 0x00, 0x19, 0xc0,
  0xdb, 0x4c, 0xa1, 0xbf, 0xbc, 0x2f, 0x0c, 0x40, 0xe9, 0xbb, 0x97, 0x3f,
  0xa7, 0x77, 0x8a, 0x40, 0xab, 0x53, 0x95, 0xbf, 0xe2, 0x51, 0xe6, 0x3f,
  0xf8, 0x3d, 0x08, 0x40, 0x9b, 0x05, 0x45, 0xbf, 0x2a, 0xa6, 0x8a, 0x3f,
  0x60, 0x05, 0x4a, 0x3f, 0xa4, 0xce, 0x44, 0x40, 0xdc, 0xc9, 0x06, 0x40,
  0x78, 0x16, 0xef, 0x3f, 0xfe, 0xf9, 0x59, 0x40, 0x12, 0x83, 0x36, 0x40,
  0x66, 0x62, 0x45, 0x40, 0x87, 0xba, 0xbe, 0x40, 0x99, 0xc1, 0x17, 0x40,
  0xce, 0xb0, 0x4a, 0x40, 0xcb, 0x3c, 0x58, 0x40, 0x4e, 0x83, 0x80, 0x3f,
  0xe2, 0xdf, 0xca, 0x40, 0xab, 0x9f, 0x07, 0x40, 0xe9, 0x8d, 0x1a, 0x40,
  0x72, 0x35, 0x0b, 0x40, 0xb5, 0x45, 0x77, 0xbe, 0x22, 0x13, 0xb1, 0xbf,
  0x6f, 0x28, 0x8c, 0xbf, 0x18, 0xe9, 0x82, 0xc0, 0xc1, 0x74, 0x98, 0x40,
  0xb4, 0xea, 0x12, 0x40, 0x5b, 0xee, 0x34, 0xbe, 0xbe, 0x02, 0x7f, 0xbc,
  0xdc, 0x73, 0xfb, 0x3f, 0x08, 0x0b, 0x29, 0x3e, 0x9f, 0x6c, 0x76, 0x40,
  0x04, 0x05, 0x03, 0xbf, 0xa0, 0x11, 0x9a, 0xc0, 0x79, 0x74, 0x76, 0x40,
  0x70, 0x2d, 0x02, 0x40, 0xd7, 0x98, 0x14, 0x40, 0x2b, 0x45, 0xde, 0x3f,
  0xb4, 0x97, 0x83, 0xbf, 0x73, 0x98, 0x00, 0xc0, 0x04, 0x5d, 0x2a, 0x40,
  0x2a, 0x37, 0x9c, 0x3c, 0xa0, 0x8d, 0x1b, 0xc0, 0x9b, 0x6e, 0x4c, 0x40,
  0x95, 0x6a, 0xea, 0x3f, 0xaa, 0x8b, 0xd0, 0x3f, 0xc0, 0x30, 0xb2, 0xbf,
  0xd4, 0x0a, 0x65, 0x40, 0x19, 0x80, 0x84, 0xbe, 0x86, 0xd9, 0x4f, 0x40,
  0xeb, 0x6b, 0x84, 0xbf, 0x3a, 0x7e, 0x05, 0x40, 0x62, 0xbb, 0xae, 0xbf,
  0xea, 0xe2, 0xf3, 0x3f, 0x73, 0xc4, 0x58, 0x40, 0xf4, 0x76, 0xc9, 0xbf,
  0x26, 0x7b, 0xbf, 0x40, 0x84, 0xbd, 0x27, 0xbd, 0x81, 0x0d, 0x25, 0x40,
  0x6a, 0x35, 0xf8, 0x3e, 0x5f, 0xa0, 0x7d, 0x3f, 0x50, 0x0a, 0xfd, 0x3f,
  0x58, 0x52, 0xb5, 0x40, 0x5e, 0x7b, 0x55, 0x40, 0x19, 0x20, 0xa2, 0x3f,
  0x97, 0x74, 0x23, 0xbf, 0x8b, 0xb4, 0xb0, 0x3f, 0xed, 0x7e, 0x87, 0x3f,
  0xec, 0xd4, 0x72, 0xbd, 0x83, 0xbf, 0x75, 0x40, 0x5d, 0xa3, 0x7b, 0x40,
  0xb4, 0x81, 0xba, 0x3f, 0x71, 0x3b, 0xd3, 0x3f, 0x4b, 0x05, 0xcc, 0x3f,
  0x23, 0x89, 0xae, 0x40, 0xf1, 0xa8, 0xaf, 0x3f, 0xd6, 0xef, 0xdd, 0x40,
  0x4c, 0x10, 0x29, 0x40, 0xbe, 0xa4, 0x3c, 0x40, 0xc5, 0x32, 0xd6, 0x40,
  0xd6, 0xc6, 0x3c, 0x40, 0x82, 0x22, 0x42, 0x40, 0x71, 0x8d, 0x6e, 0x40,
  0x22, 0x06, 0x20, 0x40, 0xff, 0x8e, 0x1c, 0x40, 0xee, 0xc6, 0xeb, 0x3f,
  0x2a, 0x7d, 0x62, 0xc0, 0x57, 0x7c, 0x53, 0xbe, 0xa5, 0x97, 0x8c, 0xbf,
  0x6e, 0x94, 0x08, 0x40, 0x4a, 0x09, 0x37, 0xc0, 0xc1, 0x37, 0x09, 0xbf,
  0x26, 0x16, 0xdc, 0x3f, 0x0d, 0x0f, 0x40, 0xc0, 0xd0, 0x2c, 0x0c, 0x40,
  0x92, 0x06, 0x07, 0x40, 0x92, 0xd9, 0xff, 0xff, 0x04, 0x00, 0x00, 0x00,
  0x00, 0x20, 0x00, 0x00, 0xf2, 0x01, 0x8f, 0x3e, 0xc0, 0x58, 0xe7, 0xbd,
  0x39, 0x54, 0x8b, 0x3f, 0x10, 0x01, 0x17, 0x3f, 0xfc, 0x76, 0x64, 0xbf,
  0x6c, 0x73, 0x15, 0xbf, 0xd5, 0xe4, 0x13, 0xbf, 0xf2, 0x06, 0xa5, 0x3f,
  0x74, 0x1a, 0x5e, 0x3e, 0xed, 0xd2, 0x06, 0xbe, 0x1d, 0x21, 0x68, 0x3c,
  0xcc, 0xc8, 0x10, 0xbe, 0x0f, 0x39, 0xc6, 0x3e, 0x12, 0x24, 0x59, 0x3e,
  0x98, 0x7a, 0x79, 0x3f, 0xaf, 0x23, 0xc2, 0xbd, 0x74, 0x0a, 0x60, 0xbe,
  0x58, 0x3c, 0x2b, 0x3e, 0xd6, 0xb2, 0x5c, 0xbf, 0x14, 0x9a, 0xc1, 0xbe,
  0x95, 0xd7, 0xe6, 0x3e, 0xef, 0x57, 0x86, 0x3e, 0x4d, 0x41, 0x03, 0x40,
  0x74, 0x4b, 0xc8, 0xbc, 0x70, 0xcf, 0x6c, 0x3d, 0xdd, 0xbe, 0xe9, 0x3f,
  0xba, 0xc5, 0x04, 0xc0, 0xe7, 0x22, 0x7d, 0xbf, 0xd6, 0x91, 0xff, 0x3d,
  0x97, 0x0d, 0xa9, 0x3f, 0xb9, 0xc6, 0xbe, 0x3e, 0x75, 0x5e, 0xb1, 0x3f,
  0x32, 0xbf, 0xcf, 0xbf, 0xc4, 0x57, 0x5f, 0x3e, 0x92, 0xe3, 0xf9, 0x3e,
  0xbc, 0xc3, 0xbb, 0x3e, 0x91, 0x43, 0xb7, 0xbf, 0xce, 0x86, 0x57, 0xbf,
  0xb9, 0xab, 0xf8, 0x3e, 0xa4, 0x56, 0x3b, 0x3f, 0x44, 0xf3, 0x70, 0xbe,
  0x30, 0x94, 0x35, 0x3e, 0x73, 0x17, 0x55, 0xbe, 0x00, 0x26, 0x64, 0x3e,
  0x6f, 0x77, 0xa7, 0xbe, 0x2c, 0x27, 0x37, 0x3e, 0xe8, 0x50, 0x3e, 0xbe,
  0xf6, 0x58, 0xb0, 0xbd, 0x30, 0x17, 0xb1, 0xbd, 0x64, 0xbc, 0x23, 0x3e,
  0xea, 0xf0, 0xd1, 0xbf, 0xe4, 0x86, 0x89, 0x3e, 0xf3, 0x1f, 0x2f, 0xbf,
  0x78, 0x1a, 0x82, 0x3f, 0x89, 0xa9, 0xda, 0xbe, 0x70, 0x24, 0x54, 0xbe,
  0x34, 0xe7, 0x66, 0x3e, 0xe6, 0xfe, 0xbd, 0x3f, 0x21, 0x74, 0x6d, 0xbf,
  0xec, 0xac, 0xdb, 0xbe, 0xbe, 0xa3, 0xa5, 0xbe, 0x7f, 0xeb, 0x40, 0x40,
  0x98, 0x50, 0xa1, 0xbf, 0xb7, 0xea, 0x4c, 0x40, 0x60, 0x64, 0xed, 0x3e,
  0x0c, 0xf2, 0x10, 0xbe, 0x01, 0x37, 0x34, 0x3f, 0xa4, 0x6a, 0x7b, 0xbe,
  0x57, 0x84, 0x88, 0xbf, 0xc3, 0xd4, 0x8a, 0xbf, 0x37, 0x2d, 0xcb, 0x3e,
  0x35, 0xca, 0xb6, 0x3f, 0x80, 0xc4, 0xc6, 0xbd, 0xc0, 0xfa, 0x33, 0xbe,
  0xc4, 0x2e, 0x7f, 0x3e, 0xf0, 0x42, 0x30, 0x3e, 0xc8, 0x2e, 0xc8, 0xbc,
  0x80, 0xc6, 0x67, 0xbd, 0x3a, 0x53, 0x0f, 0x3f, 0x35, 0xf6, 0x39, 0xbe,
  0xb8, 0xa8, 0x19, 0xbe, 0xc0, 0x09, 0x93, 0x3c, 0x9a, 0xe2, 0x4e, 0x3c,
  0xac, 0xc3, 0x7f, 0x3e, 0x3d, 0x2d, 0xb8, 0x3f, 0x70, 0xce, 0x36, 0xbd,
  0xa8, 0x0c, 0x3b, 0x3f, 0x22, 0x62, 0x53, 0xbf, 0x60, 0x6e, 0xf5, 0x3d,
  0xa8, 0xe7, 0x29, 0xc0, 0x20, 0xd8, 0x8e, 0xbf, 0xee, 0xad, 0xd8, 0xbe,
  0x0b, 0xa5, 0x5f, 0xbe, 0x3f, 0x1d, 0x94, 0xbf, 0x4d, 0x3c, 0xbf, 0xbf,
  0xec, 0xcf, 0x0f, 0x40, 0x14, 0xd2, 0x4e, 0xbf, 0x8c, 0x2a, 0x6c, 0x3e,
  0x18, 0x53, 0x61, 0x3f, 0x5c, 0xda, 0x84, 0xbe, 0x97, 0x43, 0xa6, 0x3e,
  0xb8, 0xf5, 0x09, 0x40, 0x08, 0xb4, 0x4a, 0x3f, 0x95, 0x9f, 0x4d, 0x3e,
  0xe4, 0xb4, 0x8f, 0xbc, 0xaa, 0xbf, 0x76, 0xbd, 0xd7, 0xb6, 0x4d, 0x3e,
  0xf4, 0xcf, 0x33, 0x3e, 0x44, 0xe5, 0x6b, 0x3b, 0xd8, 0x5d, 0xd0, 0x3d,
  0xdc, 0xb2, 0x88, 0xbf, 0xc6, 0xcd, 0x85, 0xbe, 0xfc, 0xbe, 0x1a, 0x3e,
  0xac, 0x78, 0x08, 0xbe, 0xcb, 0x7a, 0x64, 0xbd, 0x03, 0x67, 0x13, 0x3f,
  0xb8, 0x55, 0x8b, 0xbe, 0xf7, 0xda, 0x28, 0x3f, 0x27, 0x1c, 0xd0, 0xbf,
  0x74, 0x17, 0x89, 0x3e, 0xa8, 0x23, 0xd8, 0xbd, 0x41, 0x8f, 0xb7, 0xbe,
  0x79, 0x13, 0x3a, 0xbe, 0x96, 0x59, 0x00, 0x3f, 0xed, 0xc8, 0xb8, 0x3e,
  0x64, 0x87, 0xd6, 0xbf, 0xd5, 0x03, 0x0b, 0xc0, 0x98, 0x51, 0xfb, 0xbf,
  0x32, 0xde, 0x2a, 0xbf, 0x50, 0x8b, 0xc1, 0x3d, 0x09, 0x55, 0xaf, 0xbf,
  0xfb, 0x41, 0xa4, 0xbe, 0xb6, 0xf3, 0x5c, 0xbd, 0xd5, 0xce, 0x1d, 0x40,
  0xe6, 0x01, 0x42, 0x3f, 0x9f, 0x30, 0x32, 0x40, 0xc8, 0x2a, 0x6c, 0x3d,
  0xbd, 0xe8, 0x41, 0x3e, 0xcc, 0xdf, 0x7a, 0x3e, 0xf0, 0x80, 0xf9, 0x3d,
  0x39, 0x60, 0x73, 0xbe, 0x4b, 0x3f, 0x0a, 0xbe, 0x23, 0x1e, 0xc5, 0xbf,
  0xbd, 0x76, 0x89, 0x3b, 0x80, 0x73, 0xbd, 0xbd, 0x84, 0x2b, 0x38, 0xbe,
  0x02, 0xe2, 0x1c, 0xbf, 0x6a, 0x68, 0xf0, 0xbf, 0x05, 0xb9, 0x76, 0xc0,
  0xa6, 0xad, 0x97, 0x3f, 0x8a, 0xc8, 0xd4, 0xbe, 0x1f, 0x9e, 0xf6, 0xbe,
  0xd0, 0x43, 0x67, 0x3e, 0x99, 0x6e, 0x48, 0x3f, 0x0c, 0xb5, 0x84, 0xbf,
  0x4b, 0x3e, 0x04, 0xbe, 0x35, 0x2c, 0x9b, 0x3e, 0x25, 0xd0, 0xf8, 0x3f,
  0xa0, 0x8b, 0xd3, 0x3f, 0x92, 0xdd, 0xbd, 0x3f, 0x94, 0x4a, 0x8c, 0x3f,
  0x00, 0x4d, 0x86, 0x3d, 0x9d, 0x26, 0x88, 0x3e, 0xa1, 0x02, 0x80, 0x3e,
  0x23, 0xb0, 0x8d, 0xbe, 0xf9, 0xda, 0x17, 0xbf, 0x03, 0xdb, 0x59, 0x3b,
  0x3c, 0xe0, 0xb3, 0x3f, 0xfc, 0xee, 0x02, 0xbe, 0x70, 0x45, 0xf0, 0xbd,
  0xc8, 0x01, 0x36, 0xbe, 0xe4, 0xcd, 0x21, 0xbe, 0x81, 0xee, 0x79, 0xbd,
  0x60, 0x0c, 0xca, 0xbd, 0xc3, 0xd1, 0xb0, 0x3e, 0x99, 0x6f, 0xe4, 0x3e,
  0x20, 0x6f, 0x04, 0xbd, 0x80, 0x6b, 0x5d, 0xbc, 0x81, 0xae, 0x68, 0xbe,
  0x90, 0x93, 0x2c, 0x3e, 0x19, 0xe6, 0xe2, 0xbe, 0xc1, 0xab, 0x9c, 0x3e,
  0x7d, 0xb8, 0x86, 0x3a, 0x6d, 0x05, 0x31, 0xbf, 0x40, 0x48, 0x29, 0xbd,
  0x58, 0xfd, 0x30, 0x3f, 0x66, 0x16, 0xd3, 0xbd, 0x45, 0x80, 0x1f, 0xbe,
  0x5d, 0x93, 0x9c, 0xbe, 0x7c, 0xb0, 0x18, 0x3f, 0x9d, 0x33, 0x29, 0x40,
  0xf5, 0x32, 0xc5, 0x3e, 0x0d, 0x3e, 0xa4, 0x3f, 0xe0, 0xcd, 0xbd, 0xbd,
  0xd1, 0x3d, 0xbd, 0xbf, 0x17, 0x05, 0x49, 0xbd, 0x29, 0xcf, 0x25, 0x3f,
  0xd0, 0x3b, 0xe0, 0xbd, 0xdc, 0xd9, 0xe2, 0x3b, 0x6e, 0x42, 0x21, 0xc0,
  0xc8, 0x78, 0x73, 0x3e, 0xa0, 0x21, 0xc0, 0xbc, 0x2a, 0xee, 0xc9, 0xbb,
  0xc0, 0xa4, 0xc2, 0x3c, 0x12, 0xa9, 0x46, 0xbc, 0xb9, 0xa1, 0x4c, 0xbd,
  0x49, 0x12, 0xbc, 0x3e, 0x50, 0x4d, 0xad, 0x3e, 0xe0, 0x1e, 0xad, 0x3d,
  0xa0, 0x9c, 0x03, 0xbe, 0x00, 0x42, 0x0b, 0xbf, 0xaf, 0xbb, 0xa3, 0xbc,
  0x42, 0xd7, 0x76, 0xbf, 0xc5, 0xfb, 0x79, 0xbf, 0x65, 0xee, 0x35, 0xc0,
  0x39, 0x54, 0x05, 0xbf, 0x80, 0x59, 0x3a, 0x3e, 0xf2, 0x50, 0x15, 0x40,
  0x94, 0xb0, 0x67, 0xbf, 0x70, 0x1f, 0x83, 0xbe, 0x53, 0x62, 0x5b, 0xbf,
  0x0f, 0xc6, 0x42, 0xc0, 0x1c, 0x24, 0x91, 0xbf, 0x28, 0x4e, 0x06, 0xbf,
  0x3e, 0x08, 0x5f, 0x3f, 0x88, 0x5f, 0xdf, 0x3d, 0x80, 0x8c, 0x86, 0xc0,
  0xed, 0x42, 0xae, 0xbe, 0xbf, 0xc7, 0x55, 0x3f, 0xde, 0x66, 0xec, 0x3c,
  0x04, 0x7b, 0x40, 0xbe, 0xb7, 0x22, 0xb3, 0x3f, 0x20, 0x13, 0x5d, 0x3d,
  0xc0, 0x82, 0x0c, 0x3c, 0x58, 0x31, 0xc6, 0x3d, 0xe8, 0xfd, 0x77, 0xbe,
  0xc0, 0x30, 0x5e, 0x3e, 0xcb, 0x63, 0xa5, 0x3d, 0x38, 0x3f, 0xfc, 0xbd,
  0x07, 0x1c, 0x31, 0x3f, 0x18, 0x40, 0xc9, 0xbd, 0xf0, 0x2e, 0x22, 0x3d,
  0x6d, 0x0b, 0xf5, 0x3e, 0x26, 0xf0, 0x80, 0xbf, 0x58, 0x20, 0x36, 0xc0,
  0x91, 0x2f, 0x80, 0x3e, 0xc8, 0x03, 0x57, 0xbf, 0x57, 0xda, 0x83, 0xbf,
  0x60, 0x35, 0xfd, 0x3d, 0xe9, 0x09, 0x7a, 0x3f, 0x98, 0xab, 0x02, 0xc0,
  0xb9, 0x94, 0x93, 0x3e, 0x07, 0x53, 0x29, 0x3f, 0xfb, 0x73, 0x8f, 0xbf,
  0xf1, 0x82, 0x2c, 0xbe, 0x75, 0x3b, 0x9c, 0xbf, 0x53, 0x1b, 0x00, 0xbf,
  0x00, 0x92, 0x42, 0x3e, 0x1b, 0x68, 0x1f, 0x3e, 0xee, 0xbe, 0x24, 0x3f,
  0x93, 0x89, 0xc5, 0x3f, 0x88, 0x45, 0x07, 0x40, 0x10, 0x16, 0x67, 0xbd,
  0xa5, 0x23, 0x4b, 0x3e, 0x40, 0x7f, 0x6d, 0xbe, 0x45, 0x82, 0x33, 0xbe,
  0xea, 0x13, 0x2d, 0x3e, 0x38, 0x9b, 0x48, 0xbe, 0x4c, 0x79, 0xa3, 0x3d,
  0x18, 0x6e, 0xa0, 0xbc, 0x19, 0x0e, 0x73, 0xbf, 0xf8, 0xd9, 0x66, 0x3f,
  0xa0, 0xee, 0xf5, 0x3d, 0x28, 0x79, 0x19, 0x3e, 0x24, 0xdd, 0x45, 0xbe,
  0xf1, 0xe2, 0xf1, 0x3e, 0x29, 0xcb, 0x05, 0xc0, 0x2f, 0x2e, 0x22, 0xbf,
  0x88, 0x38, 0x94, 0x3f, 0xa4, 0xaf, 0x1c, 0xbf, 0x30, 0xb5, 0x2d, 0x3e,
  0x61, 0xbf, 0x9a, 0x3e, 0xae, 0xcf, 0xbe, 0xbf, 0xfa, 0xae, 0xc8, 0xbe,
  0xc0, 0x91, 0x2f, 0xbf, 0x5c, 0x8b, 0xf1, 0xbe, 0x0e, 0xc7, 0x6d, 0xc0,
  0xf6, 0x81, 0x89, 0x3f, 0xec, 0xe9, 0xc3, 0x3f, 0x20, 0x31, 0x90, 0x3c,
  0x9b, 0x2a, 0xc4, 0xbf, 0x55, 0x4d, 0x4d, 0xbf, 0x58, 0xe7, 0xd2, 0xbf,
  0x58, 0x92, 0xe5, 0x3e, 0xef, 0xd8, 0x50, 0x3f, 0x45, 0x2a, 0x38, 0x3f,
  0x88, 0xcb, 0xc1, 0x3d, 0x09, 0xb7, 0x78, 0x3d, 0xa9, 0xfe, 0x78, 0xbd,
  0x7c, 0xf6, 0x18, 0x3e, 0xe9, 0xce, 0xa5, 0xbf, 0x2d, 0x65, 0x50, 0x3e,
  0x46, 0xfa, 0xdc, 0xbf, 0x88, 0xd9, 0x87, 0x3e, 0xb4, 0x11, 0x2e, 0xbe,
  0x14, 0x80, 0x67, 0x3e, 0x64, 0xbc, 0x80, 0x3e, 0xac, 0x48, 0x68, 0x3e,
  0x80, 0x47, 0xbd, 0x3f, 0x47, 0x36, 0x0c, 0x3f, 0x1c, 0xaa, 0x5a, 0x3f,
  0x3a, 0xf7, 0xe1, 0xbc, 0xc4, 0xcb, 0x62, 0x3e, 0x8a, 0x57, 0x01, 0xc0,
  0x0e, 0xd2, 0x0f, 0xbe, 0x65, 0xb2, 0x62, 0x3f, 0xa6, 0x3e, 0x87, 0xbf,
  0x03, 0x2f, 0x6a, 0xbf, 0x7c, 0x94, 0xf8, 0x3e, 0x47, 0x59, 0xc6, 0x3f,
  0xb2, 0xa8, 0xd9, 0x3d, 0x3c, 0x55, 0x44, 0x3e, 0x7d, 0x76, 0x84, 0x3f,
  0x93, 0x78, 0x95, 0x3e, 0xee, 0x55, 0x00, 0xbf, 0x55, 0x29, 0x48, 0x3f,
  0x24, 0xd0, 0x29, 0xbf, 0x1b, 0x8d, 0x32, 0x3f, 0xe0, 0xfa, 0xf7, 0xbc,
  0x14, 0x9f, 0x4d, 0xbe, 0x80, 0x56, 0x68, 0xbc, 0x58, 0xa8, 0x9e, 0x3d,
  0xf2, 0xbf, 0x9d, 0x3e, 0x20, 0xd5, 0xe5, 0x3c, 0x53, 0x16, 0xb3, 0xbe,
  0x58, 0x39, 0x56, 0x3c, 0x9c, 0x91, 0x67, 0xbe, 0x00, 0x3d, 0x82, 0xbd,
  0x9a, 0x42, 0xf9, 0x3e, 0xf9, 0xcd, 0xa4, 0xbf, 0x2d, 0x44, 0x5c, 0x3f,
  0x27, 0xd5, 0xdf, 0x3e, 0xa8, 0x3f, 0x27, 0x3e, 0xad, 0xdb, 0x68, 0xc0,
  0x70, 0x01, 0x47, 0xbe, 0xc1, 0x32, 0x45, 0xbe, 0x1d, 0x38, 0x13, 0x40,
  0xaa, 0xcc, 0x69, 0xbe, 0xf7, 0x08, 0x40, 0x3f, 0x19, 0xbc, 0x04, 0xc0,
  0x41, 0xbf, 0x95, 0x40, 0x17, 0x84, 0x0c, 0x3f, 0xf2, 0x51, 0x59, 0x3f,
  0xd8, 0xb7, 0x8e, 0xbd, 0x26, 0xc0, 0x13, 0xbf, 0x8b, 0x81, 0x0f, 0xbe,
  0x2b, 0x84, 0xde, 0x3f, 0xf5, 0x04, 0x2f, 0xc0, 0x9c, 0xbe, 0xc2, 0x3e,
  0xc0, 0x97, 0xe6, 0xc0, 0x20, 0x2a, 0x17, 0x3e, 0x6c, 0x85, 0x4f, 0xbe,
  0x40, 0xfb, 0x06, 0x3c, 0x24, 0xdb, 0x07, 0xbe, 0x1c, 0x84, 0x9d, 0xbb,
  0x60, 0x9a, 0x18, 0xbd, 0x4c, 0x02, 0xd6, 0x3c, 0xa5, 0xae, 0xed, 0xbd,
  0xb0, 0xb8, 0x65, 0x3e, 0xf8, 0xa1, 0x44, 0xbe, 0xfe, 0xe3, 0x0f, 0xbe,
  0x26, 0x9e, 0xf5, 0x3e, 0x70, 0x29, 0xcf, 0x3e, 0x04, 0xc5, 0x44, 0x3f,
  0x3e, 0x59, 0xb8, 0x3f, 0x81, 0xd1, 0x92, 0xbf, 0xec, 0xe9, 0x0d, 0xbe,
  0x2f, 0x71, 0x1f, 0x40, 0x32, 0xac, 0x0f, 0x3f, 0xa4, 0xc1, 0xa1, 0x3d,
  0xf9, 0x72, 0x2e, 0xbf, 0x5d, 0x25, 0x0f, 0x3f, 0x45, 0xf1, 0x1e, 0xc0,
  0x57, 0x97, 0xd8, 0x3f, 0xdb, 0xfa, 0xcc, 0x3f, 0xb8, 0x78, 0xb9, 0xbd,
  0xef, 0x53, 0xf3, 0xbf, 0x9c, 0x54, 0x75, 0x3e, 0x80, 0x86, 0x2e, 0x3f,
  0x3e, 0x7f, 0xa6, 0x3f, 0x93, 0x99, 0x75, 0xbe, 0x6c, 0xa7, 0xe8, 0x3e,
  0xf1, 0x08, 0x1c, 0x3d, 0xe8, 0x69, 0x55, 0xbe, 0x00, 0x85, 0xaa, 0xbd,
  0x00, 0xcb, 0xc0, 0xbb, 0xd4, 0xf6, 0x21, 0x3e, 0x6e, 0x32, 0xed, 0x3c,
  0xe0, 0x7e, 0x80, 0xbd, 0x2e, 0x3f, 0x64, 0x3f, 0x38, 0xb4, 0x49, 0x3e,
  0x38, 0x39, 0xcb, 0x3d, 0x20, 0x5c, 0xb6, 0x3c, 0x56, 0x40, 0xe4, 0xbf,
  0x0c, 0x78, 0xb3, 0xbf, 0xa7, 0x2b, 0x1a, 0xbf, 0xe0, 0x18, 0xfe, 0x3c,
  0x02, 0x09, 0xed, 0xbf, 0xec, 0x96, 0x6a, 0x3e, 0xd4, 0x3a, 0x87, 0x3e,
  0x6f, 0xae, 0x0d, 0x3f, 0xce, 0x54, 0x9f, 0xbe, 0x6d, 0x27, 0xa5, 0x3c,
  0xfb, 0x9b, 0x5e, 0xbf, 0xce, 0x70, 0x43, 0x3e, 0xe0, 0x1a, 0x4d, 0x3e,
  0x57, 0xe3, 0xb0, 0xbe, 0xe0, 0xa0, 0x97, 0xbc, 0x96, 0xa4, 0xd4, 0x3e,
  0xf1, 0xef, 0x52, 0xbe, 0x7e, 0xfb, 0xd5, 0xbf, 0x90, 0x38, 0x6f, 0xbe,
  0xce, 0xc0, 0x06, 0x3d, 0x05, 0x7c, 0x6c, 0x3f, 0x60, 0xbd, 0x24, 0x3e,
  0x34, 0x8e, 0x29, 0xbe, 0xb4, 0x9c, 0x40, 0xbe, 0x08, 0x43, 0x43, 0x3e,
  0xfc, 0x5e, 0xcb, 0x3e, 0x34, 0xf3, 0x39, 0xbe, 0x41, 0xd6, 0xda, 0x3e,
  0x3e, 0xf4, 0x93, 0xbe, 0x00, 0x32, 0xcf, 0xba, 0x10, 0x9f, 0x30, 0x3d,
  0x91, 0x93, 0xf4, 0x3e, 0x78, 0xd7, 0x18, 0xbf, 0x4e, 0xb8, 0xa9, 0xbe,
  0x67, 0x6f, 0x9b, 0xbe, 0x34, 0x7a, 0x12, 0xbe, 0xce, 0xda, 0xce, 0xbe,
  0x00, 0x20, 0x1f, 0x39, 0x5f, 0x56, 0x37, 0x3f, 0x40, 0x5d, 0x77, 0xbe,
  0xbc, 0xa3, 0x00, 0x3e, 0xa0, 0x07, 0xd6, 0x3d, 0x33, 0xa8, 0x97, 0x3f,
  0xac, 0x81, 0x9a, 0x3f, 0x30, 0x5c, 0x9b, 0xbf, 0x63, 0xac, 0x3b, 0xbf,
  0xa8, 0x39, 0xc1, 0xbd, 0x28, 0x7d, 0x62, 0xc0, 0xe0, 0x6e, 0xaf, 0xbf,
  0x03, 0xd8, 0x16, 0xc0, 0xbf, 0xc3, 0x66, 0xbf, 0x1b, 0x2a, 0x56, 0x3f,
  0xfa, 0xee, 0x37, 0x3e, 0x98, 0xcf, 0x4a, 0xbe, 0x86, 0x2c, 0x30, 0x3e,
  0x83, 0x91, 0x3f, 0x3e, 0xd0, 0xd3, 0x91, 0x3d, 0x4a, 0x16, 0x07, 0xbf,
  0xa0, 0xc0, 0x0a, 0x3e, 0xe6, 0xd9, 0x57, 0x3f, 0x4e, 0x89, 0x6b, 0xbf,
  0x30, 0x73, 0x06, 0x3d, 0x3c, 0xe2, 0x58, 0x3e, 0x3e, 0xe1, 0x22, 0x3f,
  0xa4, 0x77, 0x6a, 0xbf, 0x3d, 0xb2, 0xc7, 0x3e, 0xe6, 0x31, 0x52, 0xbf,
  0x54, 0x1b, 0xe1, 0xbe, 0xe5, 0xa3, 0x93, 0xc0, 0xfc, 0x71, 0x01, 0xbe,
  0x8c, 0xbf, 0x48, 0x3f, 0x81, 0x54, 0x02, 0xbf, 0x56, 0x7a, 0xd5, 0xbf,
  0x6a, 0x22, 0x58, 0x3f, 0xdf, 0x14, 0x24, 0x40, 0x6f, 0x5b, 0x38, 0x40,
  0x13, 0x0b, 0xf9, 0xbf, 0xa0, 0x86, 0x5f, 0xc0, 0xd0, 0x1a, 0x69, 0xbd,
  0x46, 0x40, 0xf4, 0x3d, 0x6c, 0x87, 0xc2, 0x3e, 0x5c, 0xeb, 0x2d, 0x3f,
  0xf7, 0xde, 0x73, 0x3f, 0x89, 0xed, 0x3e, 0x3f, 0xdb, 0x28, 0x3e, 0x3f,
  0xc8, 0x96, 0x43, 0x3e, 0x7c, 0x22, 0x6c, 0xbd, 0x51, 0x8f, 0x77, 0x3e,
  0xc8, 0x42, 0x3e, 0xbe, 0x34, 0x1f, 0xab, 0x3e, 0x88, 0x63, 0xde, 0xbd,
  0x3b, 0x08, 0x57, 0x3e, 0xb6, 0x81, 0xf1, 0x3e, 0x08, 0x83, 0x9a, 0x3d,
  0x20, 0xa7, 0xb9, 0x3c, 0xfb, 0xc4, 0xe7, 0xbd, 0x97, 0x9c, 0xa3, 0xbd,
  0x07, 0x8b, 0x12, 0xbf, 0x06, 0xe0, 0x03, 0x3e, 0xb0, 0x32, 0x30, 0x3f,
  0x1c, 0xf4, 0xe4, 0xbf, 0xc0, 0xfe, 0x70, 0x3d, 0xf8, 0x14, 0x13, 0xbf,
  0xa8, 0x24, 0xc3, 0xc0, 0x47, 0x80, 0x03, 0xbf, 0xd7, 0xf5, 0x9a, 0xbf,
  0x8a, 0x1c, 0x7e, 0xbf, 0xdc, 0x26, 0x07, 0xbf, 0xfe, 0x48, 0x08, 0x3f,
  0x56, 0x6e, 0x7c, 0xc0, 0x90, 0x96, 0x2d, 0x3d, 0xf2, 0x28, 0x00, 0x40,
  0xfd, 0x73, 0x40, 0x3f, 0x10, 0x41, 0xe6, 0x3f, 0xb0, 0xc0, 0x22, 0x40,
  0x3f, 0x00, 0xd0, 0xbc, 0x8f, 0x88, 0xab, 0x3f, 0xea, 0x96, 0x6b, 0xbe,
  0x49, 0xf2, 0x6e, 0x3e, 0x4b, 0x93, 0xb2, 0xbc, 0x00, 0x61, 0xf6, 0x3d,
  0xf2, 0x14, 0x80, 0x3f, 0x19, 0x3d, 0x85, 0x3e, 0x2d, 0xbe, 0xdf, 0xbf,
  0x35, 0x55, 0x58, 0x3e, 0x1c, 0x0e, 0x47, 0xbe, 0x30, 0x08, 0x62, 0xbd,
  0x9c, 0x2c, 0xd6, 0xbe, 0xd2, 0x06, 0x45, 0xbf, 0xaf, 0xbc, 0x80, 0xc0,
  0xa7, 0xba, 0x5a, 0xbf, 0x4a, 0x7b, 0x63, 0xc0, 0xc7, 0xae, 0x42, 0x3f,
  0x50, 0xbd, 0xc9, 0x3d, 0xd3, 0x35, 0xe2, 0xbd, 0xad, 0xd9, 0xa6, 0xbe,
  0x59, 0x29, 0xa2, 0x3e, 0xd8, 0x39, 0x06, 0x3e, 0x72, 0xe5, 0x7f, 0xbf,
  0x8d, 0xa1, 0x20, 0xc0, 0x2b, 0xa3, 0x6f, 0xbf, 0xcf, 0x00, 0x91, 0xbf,
  0x58, 0x52, 0x6f, 0xbe, 0x89, 0x50, 0x13, 0xbf, 0xf9, 0x99, 0x7b, 0xbf,
  0x70, 0x2d, 0xa6, 0xbf, 0x85, 0x52, 0x78, 0x3e, 0x71, 0x80, 0x6b, 0x3e,
  0x31, 0x77, 0xd5, 0xbf, 0xa0, 0x60, 0xbe, 0xbd, 0x3e, 0x30, 0x40, 0x3e,
  0xae, 0x6e, 0x64, 0x3d, 0xb0, 0xba, 0xe6, 0x3d, 0xf8, 0x42, 0xb1, 0xbf,
  0x8d, 0x63, 0x9d, 0xbd, 0xaf, 0xf7, 0x6a, 0xbe, 0x32, 0xb4, 0x90, 0xbe,
  0x70, 0x59, 0x41, 0x3e, 0xc0, 0x2b, 0x78, 0xbc, 0xdc, 0x1a, 0x34, 0xbd,
  0xb9, 0xad, 0xbd, 0x3f, 0x13, 0x5c, 0x09, 0x40, 0xd9, 0xe7, 0x22, 0x3f,
  0x31, 0x4c, 0xa7, 0x3f, 0x47, 0xe9, 0x93, 0x3e, 0x50, 0xff, 0x3b, 0x3e,
  0xdb, 0xbb, 0xf3, 0xbd, 0xa2, 0xe4, 0x28, 0x40, 0x56, 0xc1, 0x85, 0x3e,
  0x94, 0x11, 0x38, 0xbe, 0x94, 0xd8, 0x10, 0x40, 0xd3, 0x12, 0x96, 0x3f,
  0xca, 0x5a, 0xe9, 0xbd, 0xe9, 0xef, 0x14, 0x3d, 0xc0, 0x12, 0xdb, 0x3c,
  0xea, 0xf1, 0xcd, 0x3f, 0x69, 0x9a, 0x99, 0x3e, 0x58, 0xb2, 0x19, 0xbd,
  0x13, 0x42, 0x70, 0x3e, 0x50, 0xc6, 0x2f, 0x3e, 0xa9, 0x67, 0x63, 0x3e,
  0xbc, 0xfe, 0x77, 0x3c, 0x10, 0xe9, 0x30, 0x3d, 0x7c, 0x9d, 0x7b, 0xbe,
  0x44, 0xde, 0x00, 0x3e, 0xe3, 0x1a, 0x7e, 0x3c, 0xa4, 0x46, 0xa9, 0x3d,
  0x6d, 0x59, 0x86, 0x3e, 0x21, 0xf0, 0x20, 0xbf, 0xac, 0x86, 0x4b, 0x3e,
  0x00, 0x1c, 0x7f, 0x3e, 0x86, 0x96, 0x19, 0x3e, 0xaf, 0x21, 0x70, 0x3e,
  0xf6, 0xe3, 0xac, 0x3e, 0xd6, 0x32, 0xe6, 0x3e, 0x76, 0xd4, 0x9a, 0xbf,
  0xf8, 0x35, 0x8f, 0xbf, 0x30, 0x21, 0x36, 0xbd, 0x1b, 0xf0, 0x20, 0x3f,
  0x57, 0x33, 0xe2, 0x3f, 0x63, 0x9b, 0x01, 0xbf, 0x75, 0xf7, 0x11, 0x40,
  0x05, 0x5c, 0xee, 0xbf, 0xe0, 0xd0, 0x64, 0x40, 0x30, 0x38, 0xc2, 0xbf,
  0xa3, 0x8c, 0x8a, 0x40, 0x24, 0x77, 0x01, 0x3e, 0x73, 0x91, 0xb3, 0x3f,
  0x9a, 0x4d, 0x36, 0x40, 0x80, 0x6a, 0x86, 0x40, 0xa8, 0x35, 0x47, 0x40,
  0x12, 0xa2, 0x80, 0x40, 0xe9, 0x30, 0x80, 0xbf, 0xc7, 0x3b, 0x9c, 0xbc,
  0x05, 0xd6, 0x31, 0x3e, 0xac, 0x80, 0x8e, 0xbd, 0x50, 0x82, 0x3c, 0xbd,
  0x6e, 0x69, 0x53, 0x40, 0x35, 0x86, 0x4a, 0x3d, 0xbc, 0x66, 0xb8, 0x40,
  0x3f, 0x7a, 0x53, 0x40, 0xd0, 0x9c, 0xcb, 0xbd, 0x4c, 0xb4, 0x48, 0x3e,
  0x49, 0xa9, 0x56, 0x40, 0x66, 0x76, 0x90, 0x40, 0x4b, 0x00, 0x8e, 0x40,
  0x88, 0x10, 0xb7, 0xbb, 0xef, 0xe4, 0x40, 0x40, 0xb6, 0x98, 0x8d, 0x3f,
  0x50, 0x3d, 0x01, 0xbe, 0x50, 0x9f, 0x23, 0x40, 0x13, 0x11, 0x05, 0x3f,
  0x2b, 0x3b, 0x03, 0x3f, 0xe3, 0xf8, 0x8d, 0x3f, 0x3e, 0x7f, 0x41, 0x40,
  0x27, 0x62, 0x64, 0x3f, 0x16, 0x8c, 0xbf, 0x3f, 0x53, 0x31, 0x19, 0x3f,
  0x80, 0x8c, 0x7f, 0x3e, 0x22, 0x95, 0x16, 0xbf, 0xc3, 0x53, 0x86, 0xbd,
  0x8c, 0xd9, 0xe2, 0x3e, 0xc4, 0xed, 0x84, 0x3f, 0xcd, 0xc3, 0xd9, 0x3e,
  0x4a, 0x3c, 0xb1, 0x3e, 0xd8, 0xe6, 0x8e, 0xbd, 0x10, 0x85, 0x4f, 0xbd,
  0x50, 0xd9, 0x15, 0xbe, 0xa0, 0xec, 0xb2, 0x3c, 0x77, 0x2a, 0xda, 0xbe,
  0xac, 0x53, 0x65, 0xbe, 0x7b, 0x88, 0x04, 0xc0, 0xf4, 0x32, 0xd7, 0x3e,
  0xa0, 0x5b, 0xed, 0x3c, 0xa0, 0x9a, 0x3c, 0xbe, 0xce, 0xc5, 0x80, 0x3d,
  0x0f, 0x3c, 0x38, 0x3e, 0x69, 0x5e, 0x3d, 0x3f, 0xa9, 0x91, 0xd2, 0x3e,
  0x19, 0xba, 0x24, 0x3e, 0x27, 0x99, 0x84, 0x3e, 0x90, 0xf0, 0x4b, 0xbe,
  0x52, 0xa6, 0x18, 0xbf, 0xca, 0x8f, 0x65, 0x3f, 0x3a, 0x21, 0x6e, 0xbe,
  0x2c, 0x1b, 0x47, 0x3d, 0xf0, 0x3d, 0x57, 0xbf, 0x95, 0xd6, 0x91, 0xbf,
  0x59, 0xf6, 0x50, 0xbf, 0xc7, 0x3a, 0x14, 0xc0, 0x10, 0x93, 0x33, 0x3d,
  0x36, 0xaf, 0x4f, 0xbf, 0x0c, 0x7b, 0xd8, 0xbe, 0x25, 0x84, 0x69, 0x3e,
  0x66, 0xf1, 0x06, 0xbe, 0xfe, 0xba, 0x18, 0x3f, 0x2e, 0x6f, 0x95, 0xbf,
  0x47, 0xe5, 0x24, 0x3e, 0xbc, 0xfb, 0x23, 0x3d, 0x0a, 0xd3, 0x4e, 0x3e,
  0xc0, 0xf7, 0x87, 0xbd, 0x99, 0x09, 0x6c, 0x3e, 0x62, 0x27, 0x2a, 0x3e,
  0xd5, 0x53, 0x35, 0xbf, 0xc0, 0xd7, 0x23, 0x3f, 0x54, 0x78, 0x38, 0xbe,
  0x90, 0x53, 0x77, 0xbe, 0xa5, 0x8c, 0xb5, 0xbd, 0x17, 0x96, 0x31, 0xbf,
  0x3b, 0x3a, 0x33, 0xbf, 0xe8, 0x73, 0x47, 0xbf, 0xce, 0xbd, 0xca, 0x3e,
  0x31, 0xef, 0x72, 0xbf, 0xe8, 0xde, 0xf1, 0xbd, 0x02, 0x49, 0x16, 0xc0,
  0xe0, 0xff, 0x36, 0xc0, 0x93, 0x94, 0xad, 0xbe, 0xe8, 0xe0, 0xca, 0xbe,
  0xcb, 0x35, 0x74, 0xc0, 0x81, 0x70, 0x38, 0xc0, 0x00, 0xc5, 0x0e, 0xbf,
  0xf6, 0x7e, 0x05, 0xc0, 0x48, 0x7f, 0xac, 0xbd, 0x9d, 0xf7, 0x17, 0xbc,
  0xe4, 0x79, 0x37, 0x3f, 0x52, 0x85, 0xba, 0x3e, 0x48, 0x68, 0xb4, 0x3f,
  0x52, 0x8e, 0x27, 0x3f, 0x04, 0xa5, 0x2d, 0x3f, 0x69, 0x82, 0x55, 0xbe,
  0x43, 0x48, 0x12, 0x3d, 0xca, 0x2f, 0x3b, 0x3e, 0x90, 0xc5, 0xa5, 0xbd,
  0x96, 0xc4, 0xc8, 0xbd, 0x14, 0x91, 0x7e, 0xbd, 0x20, 0x33, 0x6f, 0xbe,
  0x57, 0xef, 0x87, 0x3f, 0xfc, 0x42, 0x61, 0xbe, 0x04, 0x36, 0x1b, 0xbe,
  0x9e, 0x63, 0xd6, 0xbd, 0x99, 0x0c, 0x4c, 0x3f, 0x7a, 0x6d, 0x24, 0x3d,
  0xb7, 0xda, 0x83, 0xbf, 0x42, 0x51, 0xa8, 0x3f, 0xde, 0x1c, 0x95, 0xbf,
  0x00, 0xd0, 0xb0, 0x39, 0xaa, 0x86, 0xd7, 0xbf, 0xfe, 0x50, 0x54, 0xc0,
  0x3f, 0x0f, 0xed, 0x3d, 0x42, 0xdf, 0xd4, 0xbf, 0x97, 0xa5, 0x13, 0xc0,
  0x5f, 0x19, 0xd4, 0xbf, 0xa6, 0xd4, 0xf2, 0xbf, 0x8b, 0x2d, 0x97, 0x3f,
  0xb4, 0x5f, 0x6d, 0xbe, 0x18, 0x65, 0xe9, 0x3f, 0xd3, 0xdc, 0x85, 0x3f,
  0x8d, 0xb1, 0x45, 0x3e, 0x4b, 0x06, 0x5e, 0x40, 0xfa, 0x13, 0x5f, 0xbf,
  0x51, 0x0a, 0xf4, 0x3d, 0x69, 0x89, 0xe1, 0x3d, 0x1b, 0x34, 0x3f, 0xbe,
  0xfb, 0xa8, 0x44, 0xbe, 0xf8, 0xca, 0x9f, 0xbd, 0xce, 0x20, 0x60, 0x3f,
  0xd0, 0x37, 0xf5, 0x3c, 0x26, 0xd3, 0x4e, 0x3e, 0x7d, 0xfa, 0xbf, 0xbf,
  0x80, 0x8c, 0x77, 0x3e, 0x70, 0xab, 0x46, 0xbe, 0x1f, 0x1e, 0x74, 0x3e,
  0x92, 0xad, 0xa7, 0x3f, 0x4a, 0xc4, 0x6d, 0x3f, 0xa5, 0x62, 0x1b, 0xbf,
  0x61, 0x72, 0xfd, 0xbf, 0x52, 0x38, 0x18, 0xbe, 0x90, 0x7c, 0xe2, 0x3d,
  0x70, 0x5e, 0x99, 0x3f, 0x5e, 0xf9, 0x56, 0x3f, 0xfe, 0x35, 0xaf, 0xbf,
  0xbe, 0xbd, 0x0b, 0xbf, 0xc6, 0xf5, 0x63, 0x3e, 0x8f, 0x3a, 0x82, 0x3e,
  0xa2, 0x33, 0x0e, 0xc0, 0x9d, 0xfe, 0xca, 0x3f, 0x54, 0x6f, 0x21, 0xbe,
  0x5d, 0x7b, 0x35, 0x40, 0x2b, 0x22, 0x91, 0xbe, 0xd9, 0x6c, 0x6f, 0xc0,
  0x0f, 0xd6, 0xa2, 0x3f, 0x56, 0xb5, 0x03, 0xbf, 0x56, 0x2e, 0x50, 0x40,
  0x44, 0xfb, 0x1c, 0x3e, 0xf4, 0x12, 0x7f, 0x3e, 0xbe, 0x9d, 0xfb, 0xbd,
  0x00, 0x56, 0xc2, 0xbb, 0x11, 0x34, 0x9a, 0xbe, 0x42, 0x15, 0x83, 0xbd,
  0xd0, 0xc4, 0xc6, 0xbe, 0xbd, 0xcf, 0xf6, 0xbf, 0x30, 0x34, 0xe1, 0xbd,
  0x20, 0x6b, 0xf5, 0xbd, 0xde, 0x9a, 0x23, 0xbe, 0x8b, 0xa3, 0xa5, 0x3f,
  0x4b, 0xff, 0xff, 0x3f, 0x35, 0xe2, 0x22, 0x3f, 0xf2, 0xe2, 0xc0, 0xbe,
  0x81, 0xe2, 0x17, 0x40, 0x00, 0xdb, 0x35, 0x3b, 0x7c, 0x2e, 0x04, 0x3f,
  0x2e, 0x5b, 0x1a, 0xbc, 0xa6, 0x43, 0xc6, 0x3f, 0x4d, 0x6f, 0x86, 0x3f,
  0x56, 0xb9, 0xdc, 0x3d, 0x00, 0x27, 0xe2, 0x3e, 0xa7, 0xba, 0x2c, 0x3f,
  0x4b, 0x42, 0x91, 0x3d, 0xa8, 0x55, 0x68, 0xbe, 0x89, 0xa0, 0xc4, 0xbc,
  0x3f, 0x2c, 0x42, 0xbe, 0xcc, 0x4e, 0x6c, 0xbe, 0x24, 0x7b, 0x25, 0xbe,
  0xb4, 0x2c, 0x25, 0x3d, 0xc0, 0x55, 0x67, 0xbc, 0x78, 0x36, 0xf4, 0xbd,
  0xc0, 0x18, 0x63, 0xbe, 0x68, 0x78, 0xe2, 0x3d, 0x80, 0x13, 0x9e, 0x3d,
  0xe6, 0x11, 0x1e, 0x3e, 0x58, 0xb7, 0xe8, 0xbd, 0x91, 0xe3, 0x9c, 0x3d,
  0x72, 0xff, 0x34, 0xbe, 0x20, 0xb2, 0x4a, 0xbd, 0x40, 0xd0, 0x20, 0xbc,
  0xd5, 0x2e, 0x81, 0xbe, 0xd0, 0x4e, 0x40, 0x3c, 0xea, 0x18, 0x80, 0xbd,
  0x90, 0xc3, 0x29, 0x3d, 0xf6, 0x56, 0x6d, 0xbd, 0xa3, 0xbd, 0x38, 0xbe,
  0x90, 0x5a, 0xc2, 0xbd, 0xbb, 0xa0, 0x3e, 0xbe, 0x13, 0xdc, 0xe5, 0xbd,
  0xc0, 0xf0, 0x42, 0xbc, 0xa4, 0xf9, 0x61, 0xbe, 0xea, 0x72, 0x34, 0x3d,
  0x42, 0x2f, 0xfa, 0xbd, 0xe8, 0xb8, 0xde, 0x3d, 0x28, 0x85, 0x4b, 0x3e,
  0xd4, 0x24, 0x31, 0xbe, 0x78, 0xf1, 0xf7, 0xbd, 0x2b, 0x4f, 0x24, 0xbf,
  0xfd, 0xae, 0x99, 0xbf, 0xae, 0xf3, 0x05, 0x40, 0x41, 0x53, 0x16, 0x3f,
  0x2d, 0x23, 0x12, 0xbf, 0x8e, 0x76, 0x73, 0x3e, 0xb5, 0x91, 0x21, 0x3e,
  0xf2, 0x36, 0x00, 0x3e, 0xa0, 0x0e, 0x11, 0xbe, 0x5f, 0x55, 0x22, 0xbf,
  0xda, 0x1f, 0x8a, 0x3d, 0x02, 0x38, 0x29, 0xbe, 0x1d, 0xc4, 0x9d, 0x3f,
  0x00, 0xe8, 0xa1, 0x3b, 0x54, 0x71, 0x5d, 0xbe, 0x8e, 0x5c, 0x9c, 0xbe,
  0x8e, 0x93, 0xe0, 0xbe, 0x58, 0x2d, 0x4f, 0xbe, 0xf2, 0x75, 0x0a, 0x3f,
  0x56, 0x5d, 0x12, 0xbf, 0x64, 0x9e, 0x24, 0x3e, 0x40, 0xa7, 0x0b, 0xbe,
  0xd0, 0x43, 0xc5, 0xbf, 0xf7, 0xe8, 0x01, 0xc0, 0x3a, 0x3c, 0x8c, 0x3f,
  0x95, 0x5c, 0x00, 0xc0, 0x8b, 0x95, 0x0c, 0xc0, 0xcc, 0xec, 0x39, 0x3f,
  0xfe, 0x8c, 0xd4, 0xbd, 0x9e, 0x87, 0x2d, 0xbe, 0xcc, 0x3e, 0x09, 0xbe,
  0xed, 0x04, 0x32, 0x3f, 0xcc, 0xb2, 0x43, 0x3e, 0x95, 0x69, 0x27, 0xbe,
  0x9a, 0x08, 0x2f, 0x3e, 0xdf, 0x73, 0x19, 0xbf, 0x09, 0x68, 0x93, 0x3f,
  0x44, 0xdf, 0x60, 0xbe, 0xc0, 0x82, 0x48, 0x3d, 0x20, 0x4f, 0x7c, 0x3d,
  0x90, 0xb5, 0x0b, 0xbd, 0x61, 0x24, 0xad, 0x3e, 0x2b, 0x91, 0x62, 0x3e,
  0x8e, 0xe9, 0x55, 0x3e, 0xa3, 0x60, 0xbe, 0x3e, 0x68, 0x39, 0x48, 0x3e,
  0x20, 0xc4, 0x74, 0x3e, 0xa7, 0x63, 0x2c, 0xbf, 0xc6, 0x37, 0x0b, 0xbf,
  0x14, 0xd1, 0x02, 0xbf, 0x3f, 0x83, 0xe0, 0xbf, 0x01, 0x1c, 0xa7, 0xbf,
  0x81, 0x1d, 0x47, 0x3f, 0x58, 0x8a, 0x3c, 0xbe, 0x64, 0x11, 0xb3, 0x3f,
  0xa3, 0x00, 0x86, 0xbf, 0x51, 0xfb, 0x16, 0x3b, 0xcb, 0x87, 0xea, 0x3e,
  0xe5, 0xc2, 0x26, 0x3d, 0xe1, 0xfa, 0x9f, 0xbd, 0xd1, 0xca, 0x43, 0x3f,
  0xc9, 0x3d, 0xd4, 0xbe, 0x90, 0xa9, 0xdd, 0x3d, 0x3a, 0x2d, 0x59, 0x3f,
  0x56, 0x0a, 0x44, 0xbe, 0xa7, 0xfb, 0x4e, 0xbf, 0x3b, 0xb3, 0x44, 0xbe,
  0x61, 0x5a, 0x90, 0xbd, 0xb5, 0x93, 0xe2, 0x3f, 0x64, 0x52, 0x28, 0xbe,
  0x81, 0xf6, 0x8a, 0xbd, 0xab, 0x1a, 0x30, 0x3e, 0x18, 0x37, 0x88, 0x3d,
  0x1b, 0xdf, 0xa5, 0xbf, 0x0b, 0xf1, 0x3c, 0x3e, 0x9c, 0xac, 0xa6, 0x3e,
  0x5a, 0x8c, 0x0c, 0xbf, 0x70, 0x1e, 0x2d, 0xbe, 0x04, 0x9b, 0x34, 0xbe,
  0x62, 0x06, 0x47, 0xbf, 0xa1, 0x8e, 0xa7, 0xbe, 0x75, 0x9d, 0x1e, 0x3f,
  0xd4, 0x16, 0xd6, 0x3f, 0xd2, 0x4d, 0xb6, 0x3f, 0x05, 0xde, 0xd0, 0x3f,
  0xf8, 0x16, 0xe4, 0xbd, 0x8f, 0xf1, 0x8f, 0xbd, 0x0c, 0x61, 0x9f, 0x3f,
  0xa6, 0x74, 0x1f, 0x3f, 0x72, 0x0c, 0xe3, 0x3e, 0x60, 0x9b, 0x28, 0x3f,
  0xe2, 0x2d, 0xe8, 0x3e, 0x59, 0x5a, 0x37, 0x40, 0x21, 0x1a, 0xf7, 0x3f,
  0xe0, 0xf1, 0x99, 0xbc, 0x90, 0xe1, 0x45, 0xbf, 0x71, 0x56, 0x1d, 0x3f,
  0xb9, 0x46, 0x37, 0x40, 0xdc, 0x95, 0xdf, 0xbf, 0x96, 0x78, 0xb0, 0x3f,
  0x79, 0x6d, 0xb9, 0xbf, 0x4d, 0xff, 0xed, 0xbd, 0x28, 0x06, 0x25, 0x3e,
  0x35, 0x95, 0x8b, 0x3d, 0xec, 0x7c, 0x10, 0x3e, 0x0d, 0xcf, 0xec, 0x3f,
  0xef, 0x9b, 0x85, 0xbd, 0x1c, 0x23, 0x4a, 0x40, 0xc6, 0x27, 0x45, 0x40,
  0x28, 0x4a, 0xa2, 0x3d, 0x20, 0x2b, 0x5a, 0xbd, 0x5c, 0x3c, 0x0a, 0x40,
  0xf7, 0xa3, 0x06, 0x40, 0xad, 0x5d, 0x5a, 0x40, 0xdd, 0xc6, 0xdb, 0x3f,
  0x78, 0xf6, 0xbc, 0x3f, 0xa3, 0xf1, 0xc0, 0x3e, 0x88, 0x3e, 0xb7, 0x3d,
  0xac, 0xe0, 0x15, 0x40, 0xd6, 0x86, 0x3a, 0x3f, 0xf3, 0xcd, 0x34, 0xbf,
  0x70, 0xee, 0x05, 0x40, 0x87, 0x08, 0x5e, 0x40, 0x7f, 0xfc, 0x26, 0x40,
  0xaf, 0xcd, 0x06, 0x40, 0xb2, 0x2a, 0xa8, 0x3f, 0x00, 0xe8, 0xac, 0xbd,
  0x83, 0x1b, 0x2a, 0x3f, 0x76, 0x62, 0x23, 0xbe, 0xeb, 0x9c, 0x27, 0xbf,
  0x83, 0x35, 0x99, 0x3f, 0x6a, 0x4a, 0xba, 0xbf, 0x66, 0x83, 0x13, 0x40,
  0x24, 0xd3, 0x40, 0x3e, 0xc9, 0x92, 0x7d, 0x3e, 0x70, 0x22, 0xa3, 0xbd,
  0x5c, 0xaf, 0x74, 0x3e, 0xb8, 0xb4, 0xbf, 0x3d, 0x72, 0x16, 0x9d, 0x3c,
  0x50, 0x2b, 0x4c, 0x3f, 0x8d, 0x85, 0xd3, 0x3e, 0xb0, 0x8d, 0x7d, 0x3e,
  0x98, 0xac, 0x5a, 0x3e, 0xd6, 0x82, 0x20, 0x3e, 0x78, 0xb6, 0x7e, 0xbf,
  0xbf, 0x44, 0x65, 0x3f, 0x39, 0x9a, 0xaa, 0x3f, 0x51, 0x89, 0xab, 0x3f,
  0xda, 0x4b, 0x4c, 0x3e, 0x80, 0x76, 0x4b, 0x3e, 0x22, 0xf7, 0xb7, 0xbf,
  0xaf, 0x83, 0x10, 0x40, 0x33, 0x86, 0xd1, 0xbd, 0x07, 0x14, 0x97, 0x3e,
  0xc4, 0x6e, 0x36, 0xbd, 0xf9, 0x6e, 0x41, 0x40, 0xf1, 0x64, 0x11, 0x3f,
  0x57, 0x03, 0x86, 0x3f, 0x80, 0xf1, 0x9a, 0xbb, 0x07, 0xe3, 0x70, 0xbf,
  0x1d, 0xa2, 0xfc, 0xbf, 0x4d, 0x33, 0x15, 0xc0, 0xc5, 0xcc, 0x8a, 0xbf,
  0x0f, 0x51, 0xd9, 0x3e, 0x0b, 0xe9, 0x44, 0xbf, 0xfc, 0x78, 0x8e, 0xbd,
  0xae, 0x2d, 0xc8, 0xbd, 0xa9, 0x02, 0x12, 0xbe, 0x00, 0x25, 0xd6, 0xbd,
  0xa0, 0xc1, 0x9d, 0xbf, 0x99, 0xd9, 0xbe, 0xbd, 0x23, 0x68, 0xcd, 0x3f,
  0xe5, 0xca, 0xb2, 0xbf, 0xb8, 0x2e, 0xb9, 0x3d, 0x48, 0xab, 0xd1, 0x3d,
  0x52, 0xfc, 0xde, 0xbd, 0x25, 0x6e, 0x29, 0x3e, 0xf6, 0xe5, 0x9e, 0x3f,
  0x80, 0x22, 0x76, 0x3e, 0xd1, 0x49, 0xda, 0x3f, 0x82, 0xdd, 0x77, 0xbf,
  0xa0, 0x58, 0xe2, 0xbc, 0x9c, 0x96, 0x92, 0xbf, 0x8e, 0xd1, 0x4e, 0xbf,
  0x16, 0x82, 0x01, 0x3d, 0x21, 0x31, 0x1a, 0xbe, 0xb0, 0xb0, 0x8b, 0x3f,
  0x9f, 0x42, 0xad, 0x3f, 0x7a, 0x4a, 0x6f, 0x3f, 0x96, 0x8c, 0xb3, 0xbe,
  0x18, 0x49, 0x6a, 0xbe, 0x7f, 0x7c, 0xaf, 0x3f, 0x1a, 0x9e, 0x37, 0x3f,
  0xb5, 0x52, 0x13, 0x3f, 0xa2, 0x82, 0xf6, 0x3f, 0xc5, 0x40, 0x62, 0xbf,
  0x1a, 0xad, 0xfa, 0x3b, 0x23, 0x3e, 0xe6, 0x3d, 0x70, 0x9a, 0xa7, 0x3d,
  0xbe, 0xb9, 0x6e, 0x3d, 0x7c, 0x15, 0x47, 0x3e, 0xec, 0xe8, 0x10, 0x3d,
  0x4a, 0x74, 0x6f, 0xbe, 0x4b, 0x56, 0xc8, 0xbd, 0x41, 0xae, 0xa2, 0x3e,
  0x80, 0x5e, 0xb4, 0x3c, 0x60, 0x4a, 0xfa, 0xbc, 0x43, 0x79, 0x08, 0xbf,
  0x0e, 0x12, 0xe8, 0x3d, 0x27, 0x48, 0x6e, 0xbf, 0x04, 0xb9, 0xb6, 0x3e,
  0x1e, 0xcf, 0x02, 0x3f, 0xd1, 0x39, 0xb1, 0x3f, 0xe0, 0x9a, 0x11, 0x3e,
  0x9d, 0xcf, 0x77, 0x3f, 0x33, 0x08, 0x9d, 0x3c, 0x0e, 0x28, 0x74, 0x3f,
  0x7d, 0x18, 0xc9, 0x3c, 0xee, 0xc6, 0x87, 0x3f, 0xa1, 0xf5, 0xda, 0x3f,
  0xc5, 0xe2, 0x13, 0x40, 0x32, 0xf8, 0x95, 0x3f, 0xc0, 0xc1, 0x9f, 0xbd,
  0xb9, 0xb2, 0x57, 0xc0, 0xcf, 0xf3, 0x7e, 0xbe, 0xd9, 0x1a, 0x50, 0x3e,
  0x4b, 0xf0, 0xdf, 0x3f, 0x4d, 0xdf, 0x17, 0xbe, 0xea, 0x81, 0x62, 0xbf,
  0x08, 0x12, 0x71, 0x3d, 0x7e, 0xcb, 0x35, 0x3e, 0xcd, 0x1b, 0x97, 0x3d,
  0xe0, 0x14, 0xe2, 0xbc, 0xf9, 0x20, 0x21, 0x3d, 0xf1, 0x41, 0x96, 0xbd,
  0x90, 0x56, 0xcf, 0x3e, 0x8c, 0xff, 0xa2, 0xbe, 0xf4, 0xf7, 0x0a, 0x3e,
  0xa0, 0x0f, 0xd8, 0xbd, 0x5d, 0x70, 0x37, 0x3f, 0xe8, 0xc3, 0xc8, 0x3e,
  0xe9, 0xb3, 0xbe, 0xbf, 0xc3, 0xa7, 0xf7, 0xbf, 0x8b, 0xaa, 0x75, 0xbd,
  0x08, 0xe5, 0xf1, 0xbf, 0x14, 0xf9, 0x3d, 0x3e, 0x40, 0xee, 0xc4, 0xbe,
  0xeb, 0x4b, 0x90, 0x3e, 0x2e, 0xaf, 0xd2, 0xbf, 0x5e, 0x0a, 0x2e, 0xbf,
  0x93, 0x0d, 0x37, 0xbf, 0xde, 0xe3, 0x11, 0xc0, 0x86, 0xe2, 0xfa, 0x3d,
  0x1b, 0x27, 0xf9, 0xbe, 0xa8, 0x72, 0x52, 0x3e, 0x71, 0xad, 0x36, 0x3f,
  0x68, 0xaf, 0x6b, 0xbd, 0x7e, 0xd1, 0xce, 0xbf, 0x0c, 0x7c, 0xcf, 0xbe,
  0x22, 0xd6, 0xa9, 0x3f, 0x0a, 0x54, 0x86, 0x3f, 0x00, 0x2b, 0x9b, 0xbc,
  0x5e, 0xbc, 0x7a, 0xbe, 0xd0, 0xe3, 0x0f, 0x3d, 0xa4, 0x9e, 0x7a, 0x3e,
  0x4a, 0x1b, 0x92, 0xbf, 0x5a, 0x8d, 0x1f, 0x3e, 0x1a, 0x35, 0x59, 0x3e,
  0xf3, 0xbd, 0x6a, 0x3f, 0xe0, 0xb3, 0x75, 0x3e, 0x34, 0xf6, 0x69, 0x3e,
  0xfa, 0x3e, 0x02, 0xbe, 0x05, 0x30, 0xab, 0xbd, 0x95, 0x3e, 0x4f, 0xbd,
  0xa4, 0x46, 0x61, 0x40, 0x72, 0x93, 0x05, 0x40, 0x76, 0xf3, 0x81, 0x3f,
  0x90, 0xc7, 0x37, 0x3d, 0x35, 0x89, 0x3f, 0xbe, 0xa7, 0x0d, 0x8a, 0x40,
  0x30, 0x1a, 0x98, 0x3f, 0x26, 0x31, 0xb3, 0xbf, 0xc0, 0x79, 0x18, 0x40,
  0x72, 0x40, 0x70, 0x40, 0xa4, 0xe5, 0x7d, 0x3f, 0x22, 0x97, 0x9d, 0xbf,
  0x5c, 0xd8, 0x3b, 0x3e, 0x3e, 0xe3, 0x29, 0x3f, 0x95, 0x72, 0xca, 0x3e,
  0xb8, 0x5a, 0x76, 0x3d, 0x00, 0xea, 0xaa, 0x3e, 0x7e, 0x1a, 0x08, 0xbf,
  0x21, 0x90, 0x18, 0xbe, 0x5e, 0xd7, 0x47, 0x3e, 0x7c, 0x57, 0x5d, 0x3e,
  0xc1, 0x92, 0x9b, 0x3d, 0x50, 0x7a, 0x66, 0xbd, 0xe6, 0xb5, 0x67, 0x3e,
  0xb5, 0x86, 0xb8, 0x3d, 0x44, 0xb4, 0xe3, 0xbb, 0x9b, 0xdb, 0xc0, 0xbe,
  0xe4, 0x59, 0x59, 0x3e, 0xb0, 0x78, 0x78, 0xbd, 0xa6, 0x78, 0x14, 0x3d,
  0xa4, 0xd1, 0x02, 0x3e, 0x02, 0x6b, 0xa9, 0x3d, 0xae, 0xe8, 0xcb, 0x3e,
  0xe8, 0x20, 0x72, 0xbe, 0xf3, 0xeb, 0xaa, 0xbe, 0x40, 0x52, 0x86, 0xbd,
  0xe0, 0xa3, 0xe9, 0xbf, 0xec, 0x8b, 0xf7, 0x3e, 0x79, 0xe1, 0x0b, 0x3f,
  0x7a, 0x4b, 0x54, 0x3f, 0xb2, 0x72, 0xa9, 0xbf, 0xd5, 0xe8, 0x01, 0xbf,
  0xf0, 0x52, 0x20, 0xbf, 0x89, 0xe6, 0x23, 0x40, 0x00, 0x00, 0x36, 0xb7,
  0xbb, 0xd1, 0x9a, 0xc0, 0x11, 0x97, 0xfa, 0xbf, 0xb4, 0x7e, 0x84, 0x3f,
  0x6b, 0xfe, 0x82, 0xc0, 0x46, 0xfb, 0x22, 0xbf, 0xdb, 0xed, 0x40, 0x40,
  0x18, 0x55, 0xa6, 0x3d, 0x38, 0x13, 0xf5, 0x3d, 0xd4, 0xf5, 0x62, 0x3e,
  0x88, 0xb3, 0x8d, 0xbd, 0x1b, 0x17, 0x81, 0x3e, 0xec, 0x4e, 0x5c, 0x3e,
  0xba, 0x47, 0xac, 0x3e, 0xd8, 0x12, 0xdb, 0x3f, 0x00, 0x48, 0x4b, 0xbd,
  0x40, 0xe5, 0x80, 0x3c, 0x21, 0x9d, 0x6d, 0x3f, 0x38, 0xb3, 0xf2, 0xbf,
  0x4b, 0x56, 0x0a, 0xc0, 0xed, 0x39, 0x9f, 0xbf, 0xba, 0xd3, 0x22, 0xc0,
  0x98, 0xd7, 0x51, 0xc0, 0x78, 0x19, 0x18, 0xbe, 0x88, 0x9d, 0x27, 0xc0,
  0xe1, 0xaf, 0xe3, 0xbf, 0x5d, 0x0a, 0x06, 0xbf, 0x88, 0xdc, 0x37, 0x3f,
  0xea, 0xee, 0x89, 0x3d, 0x9e, 0xc0, 0xca, 0x3f, 0x42, 0x98, 0x65, 0xc0,
  0x76, 0xb3, 0xf8, 0x3c, 0x10, 0xc1, 0x34, 0x3d, 0x79, 0xd1, 0xbf, 0x3f,
  0x96, 0xb0, 0xef, 0x3e, 0xb7, 0xe0, 0xda, 0x3e, 0x84, 0x68, 0x15, 0x40,
  0x2e, 0x19, 0xb5, 0x3e, 0x08, 0xc2, 0x70, 0xbe, 0xbb, 0x3e, 0x05, 0x3e,
  0x18, 0x4f, 0xd5, 0xbd, 0xda, 0xba, 0xb3, 0x3a, 0x98, 0x5c, 0x66, 0xbe,
  0xf1, 0x1f, 0x96, 0xbe, 0x26, 0x01, 0x94, 0xbd, 0x8a, 0x7c, 0xa4, 0xbe,
  0xc9, 0xc8, 0xb3, 0xbe, 0xa8, 0xb2, 0x9d, 0xbd, 0x38, 0xa9, 0x3e, 0xbe,
  0x8f, 0xd4, 0xaf, 0xbf, 0x0b, 0xf6, 0xeb, 0xbd, 0x7b, 0x0c, 0x89, 0xbe,
  0xfa, 0xb3, 0x29, 0x3f, 0xa0, 0x12, 0xae, 0x3f, 0x95, 0x20, 0x1f, 0x40,
  0xf0, 0x2f, 0xf4, 0xbd, 0xb7, 0xbb, 0x2a, 0x3f, 0x7f, 0x88, 0x2b, 0x40,
  0x57, 0xd9, 0xd2, 0xbc, 0x77, 0xa7, 0xd6, 0xbe, 0xac, 0x0b, 0xb2, 0x3f,
  0x0a, 0xdd, 0x79, 0xc0, 0x57, 0xc2, 0xbc, 0x3f, 0x24, 0x44, 0x55, 0xbf,
  0xdc, 0x6e, 0x66, 0x3e, 0xb4, 0x08, 0xbe, 0x3e, 0xa4, 0x22, 0x32, 0x3f,
  0x75, 0x10, 0x0b, 0xbf, 0xa8, 0x24, 0x30, 0xbd, 0xae, 0x4a, 0x1e, 0x3e,
  0x99, 0x27, 0xe7, 0xbf, 0x88, 0x52, 0xc7, 0xbd, 0x00, 0x62, 0x32, 0x3c,
  0x3c, 0x0a, 0x3c, 0xbe, 0x78, 0xcc, 0xa3, 0x3d, 0x78, 0x2e, 0x0d, 0x3e,
  0xc8, 0x06, 0xec, 0xbd, 0x3e, 0xd0, 0x16, 0x3f, 0x15, 0x1d, 0x6e, 0xbf,
  0x44, 0x52, 0x0c, 0xbe, 0x00, 0xb8, 0x13, 0x3e, 0x5a, 0x83, 0x30, 0x3e,
  0xdc, 0x57, 0xd3, 0xbd, 0x25, 0x72, 0x51, 0x3c, 0xaf, 0x2f, 0x6d, 0xc0,
  0xbc, 0x84, 0xc9, 0x3e, 0x72, 0x3f, 0xfe, 0x3e, 0xa4, 0xe0, 0x4e, 0x3e,
  0x7f, 0xfe, 0x27, 0x40, 0x06, 0x73, 0xa3, 0xbe, 0xbb, 0x53, 0x8d, 0xbe,
  0x7e, 0x60, 0x36, 0xbf, 0xa1, 0x6c, 0x90, 0x3e, 0x3e, 0xfe, 0x23, 0xc0,
  0x39, 0xb7, 0xfa, 0xc0, 0xf8, 0x65, 0xd7, 0xbf, 0x8c, 0x0e, 0x39, 0xbe,
  0x6e, 0x1b, 0x74, 0x3f, 0x4b, 0x8a, 0xfa, 0xbd, 0x69, 0x5e, 0xe5, 0x3e,
  0x00, 0x2e, 0x67, 0x40, 0x27, 0xe1, 0x85, 0x40, 0xd7, 0xb6, 0xcf, 0xbe,
  0x61, 0x92, 0x9d, 0x3d, 0xa0, 0x32, 0x0e, 0x3e, 0x78, 0xd7, 0x40, 0x3e,
  0x04, 0xb0, 0x64, 0x3e, 0xe6, 0x68, 0xe1, 0x3e, 0x9c, 0x20, 0x5c, 0x3e,
  0x63, 0x8d, 0x95, 0x3f, 0x21, 0x1a, 0x24, 0x40, 0xf8, 0x32, 0xed, 0xbd,
  0x00, 0xcf, 0xf7, 0xbd, 0x73, 0xdf, 0xd0, 0xbe, 0x82, 0x20, 0xc8, 0x3e,
  0xd3, 0x49, 0x81, 0x3d, 0x26, 0x85, 0x40, 0x40, 0x30, 0xc0, 0x60, 0x40,
  0x74, 0xc5, 0x25, 0x3e, 0xa8, 0x15, 0x4b, 0xbe, 0x95, 0x5e, 0x63, 0x40,
  0xe0, 0x40, 0x6a, 0x40, 0x8a, 0x32, 0x5e, 0xbd, 0x5e, 0xb4, 0x86, 0xbe,
  0x4a, 0x50, 0xba, 0x40, 0x4c, 0xe0, 0x68, 0x40, 0xee, 0x9a, 0x1b, 0x40,
  0x69, 0xc3, 0x5b, 0xbf, 0xa0, 0x83, 0x98, 0x3d, 0x3b, 0x54, 0xb1, 0x3f,
  0xdc, 0x00, 0x1d, 0x3e, 0xba, 0x66, 0x72, 0x3f, 0xa0, 0x13, 0xd2, 0x3c,
  0xc6, 0x0f, 0x2e, 0x3e, 0x9b, 0xb8, 0x8f, 0x3f, 0x95, 0x9b, 0x49, 0x3c,
  0x1d, 0xa0, 0x32, 0x3e, 0x51, 0xc4, 0xf8, 0x3d, 0xe0, 0xaf, 0x08, 0xbe,
  0xc2, 0x6b, 0x1b, 0xbe, 0xa9, 0xfd, 0xb5, 0xbd, 0x61, 0x3b, 0x8e, 0xbf,
  0xf8, 0x06, 0x28, 0xbf, 0x00, 0x39, 0x71, 0xbd, 0x80, 0xcd, 0x81, 0xbb,
  0x26, 0xd6, 0x57, 0xbf, 0x77, 0xc2, 0xc1, 0x3f, 0x5f, 0x67, 0x93, 0x3f,
  0xcd, 0xeb, 0x0f, 0x3f, 0xef, 0xc5, 0xe0, 0x3f, 0x80, 0xfe, 0xb5, 0x3f,
  0xd8, 0xfb, 0x19, 0x3e, 0xae, 0xb1, 0x11, 0xbf, 0xc2, 0x64, 0x51, 0x3f,
  0x74, 0xe9, 0x91, 0x3f, 0x95, 0x48, 0x1b, 0xbe, 0x7e, 0x02, 0x99, 0xbf,
  0xdf, 0xb9, 0x09, 0x3f, 0x01, 0xf0, 0x05, 0x40, 0xd4, 0xbe, 0x91, 0xbe,
  0x30, 0x40, 0xee, 0xbd, 0xc3, 0xe5, 0x82, 0x3f, 0xfb, 0xb8, 0x24, 0x3f,
  0x26, 0x26, 0x0c, 0x3e, 0x0b, 0x91, 0xde, 0x3f, 0x75, 0xbf, 0x64, 0xbd,
  0xc0, 0x5f, 0x00, 0x40, 0x8b, 0xba, 0x0c, 0x3e, 0x76, 0x73, 0xff, 0x3b,
  0x83, 0xb3, 0x28, 0x3e, 0x08, 0x8e, 0xd8, 0xbd, 0x4c, 0xb7, 0x64, 0x3e,
  0xd8, 0x77, 0x99, 0x3c, 0x26, 0xae, 0x86, 0xbf, 0x81, 0xb4, 0x22, 0x3f,
  0x60, 0x0a, 0xd7, 0x3d, 0xb0, 0x90, 0x56, 0xbe, 0x65, 0x65, 0x97, 0x3d,
  0xc6, 0xbf, 0x36, 0x3e, 0x74, 0x48, 0xbb, 0x3f, 0xad, 0x8d, 0xcb, 0xbe,
  0x81, 0x51, 0x94, 0xc0, 0x0c, 0xd5, 0x66, 0xbf, 0xa4, 0x0f, 0x0b, 0x3e,
  0x76, 0x72, 0x32, 0x3f, 0xda, 0x6f, 0xab, 0x3f, 0xac, 0xfb, 0x79, 0x3f,
  0x8e, 0x66, 0xf3, 0x3e, 0x11, 0xa0, 0x9e, 0xbe, 0xf0, 0xc3, 0x25, 0x40,
  0xd5, 0xd6, 0xc5, 0xbf, 0x76, 0xf9, 0x5d, 0x40, 0x98, 0x4c, 0xe0, 0xbd,
  0x79, 0x82, 0x1e, 0x3f, 0x5c, 0x37, 0x88, 0xbe, 0xfe, 0x46, 0x5e, 0x3f,
  0x4b, 0xe0, 0x43, 0xc0, 0xf0, 0x0b, 0xef, 0xbe, 0x28, 0x4f, 0x86, 0x3f,
  0x51, 0x13, 0x15, 0x3e, 0x30, 0x3f, 0x03, 0x3d, 0xd4, 0x7f, 0xe4, 0xbd,
  0x14, 0x27, 0x0d, 0x3e, 0x35, 0x70, 0xa6, 0xbe, 0x33, 0xeb, 0x97, 0xbc,
  0xc9, 0x39, 0x01, 0x40, 0x38, 0xe9, 0x63, 0xbf, 0x2c, 0xd0, 0x68, 0x3e,
  0xe8, 0xbc, 0xa2, 0xbd, 0x0a, 0x6b, 0x49, 0x3f, 0xb4, 0xd8, 0x05, 0x40,
  0xe6, 0x9c, 0x16, 0x40, 0x42, 0xfc, 0x4c, 0x3f, 0x03, 0xc8, 0xbd, 0xbe,
  0x23, 0xb3, 0x20, 0x3f, 0x94, 0xb9, 0x07, 0xbe, 0x65, 0x6a, 0x46, 0x40,
  0xc4, 0x35, 0x82, 0x40, 0xf2, 0x77, 0x32, 0xbf, 0xbd, 0x97, 0x0b, 0x3f,
  0x4a, 0x9f, 0x36, 0x40, 0xec, 0x4c, 0x66, 0x3d, 0x8c, 0xc6, 0xe4, 0x3d,
  0x9b, 0xfa, 0x98, 0x3f, 0x30, 0xf3, 0x0a, 0xbd, 0xc0, 0x28, 0x6f, 0xbe,
  0x7e, 0x7d, 0xd7, 0xbd, 0x89, 0xc8, 0x93, 0x3f, 0xc8, 0x34, 0x60, 0x3f,
  0xb3, 0xcf, 0xaa, 0xbe, 0xcf, 0x01, 0xcd, 0x3f, 0xa2, 0x02, 0x4c, 0x3d,
  0xc0, 0xe8, 0xd0, 0x3c, 0xd0, 0xf1, 0x1a, 0x3e, 0xf8, 0xca, 0xdc, 0xbd,
  0xb3, 0xd6, 0x51, 0xbe, 0xa0, 0x5e, 0xf5, 0xbc, 0x8f, 0xe1, 0xe1, 0xbf,
  0xfc, 0x1d, 0x97, 0xbe, 0xb0, 0x22, 0x11, 0xbd, 0x90, 0x5d, 0x18, 0xbd,
  0xcd, 0xce, 0x27, 0xbe, 0x60, 0x3a, 0x67, 0x3e, 0x31, 0x35, 0x8f, 0xbf,
  0x63, 0x72, 0x2d, 0x3f, 0xde, 0x25, 0x3b, 0x3d, 0x2f, 0xa0, 0x8e, 0x3f,
  0xc0, 0x6b, 0xd7, 0xbd, 0xde, 0x78, 0x3b, 0xbf, 0xf0, 0xcb, 0x95, 0x3c,
  0x8e, 0xdc, 0x65, 0x3f, 0xdc, 0x1b, 0xdf, 0xbd, 0xa0, 0x48, 0xa5, 0xbf,
  0x3b, 0x96, 0xfd, 0x3d, 0xb0, 0x2f, 0x45, 0x3e, 0x83, 0x19, 0x48, 0xbf,
  0xf0, 0x38, 0x1e, 0x3e, 0x3c, 0xaf, 0xa5, 0x3f, 0xce, 0x79, 0xcc, 0x3c,
  0x4b, 0xb3, 0x49, 0xc0, 0xb1, 0x5b, 0x2c, 0x3f, 0xd4, 0x4b, 0x1e, 0x3f,
  0xfa, 0x77, 0xd3, 0x3f, 0x31, 0xcf, 0x71, 0x3e, 0xf0, 0xe0, 0x81, 0xbd,
  0x40, 0x46, 0x63, 0x3e, 0x80, 0x37, 0x2c, 0x3e, 0xa2, 0x67, 0xac, 0xbe,
  0xdb, 0x89, 0xe8, 0xbc, 0xfa, 0x36, 0xd0, 0xbe, 0x57, 0x04, 0x62, 0xbf,
  0xc8, 0x92, 0x2a, 0xbe, 0x98, 0x4a, 0x7b, 0xbe, 0xf0, 0x22, 0x90, 0xbe,
  0x3f, 0x64, 0x16, 0x3e, 0x7b, 0x84, 0xdf, 0x3f, 0xf0, 0xf2, 0x61, 0x3f,
  0xd3, 0x43, 0x81, 0x3c, 0xe4, 0x37, 0x50, 0x3f, 0x2c, 0x84, 0x5e, 0xbe,
  0x94, 0xa0, 0x6b, 0xbf, 0x27, 0xd1, 0x16, 0xc0, 0x05, 0x0a, 0xe8, 0x3d,
  0x2b, 0x7e, 0x14, 0x40, 0x9b, 0x76, 0xcb, 0xbf, 0xeb, 0x3c, 0x01, 0x3c,
  0x31, 0xa8, 0x87, 0xbf, 0x63, 0x2b, 0x60, 0xbf, 0xb0, 0x87, 0xb0, 0xbd,
  0xd7, 0xe0, 0x29, 0xbf, 0x98, 0xe5, 0xba, 0xbe, 0x28, 0x90, 0xf4, 0x3e,
  0x2a, 0x25, 0x2d, 0xc0, 0x30, 0x5d, 0x2c, 0x3f, 0x47, 0xac, 0x74, 0x3f,
  0xa8, 0x85, 0x3e, 0x3e, 0xd8, 0xfc, 0x5b, 0x3e, 0x40, 0xa5, 0x2f, 0xbc,
  0xf4, 0x41, 0x2a, 0x3e, 0xc8, 0xbd, 0xaf, 0xbf, 0x80, 0x8c, 0xe2, 0xbc,
  0xb7, 0x62, 0x4f, 0xbe, 0x47, 0xd7, 0xb9, 0x3d, 0xe8, 0x2c, 0xf8, 0xbd,
  0x60, 0x81, 0x78, 0xbd, 0xb5, 0x12, 0x1c, 0xbf, 0x3c, 0x62, 0x3c, 0xbf,
  0x8b, 0x68, 0x95, 0xbe, 0xe1, 0xe4, 0xb4, 0x3e, 0x59, 0x46, 0x2c, 0x3f,
  0xf0, 0x0c, 0xdc, 0x3e, 0x20, 0x67, 0x12, 0x3d, 0x07, 0xad, 0x82, 0x3e,
  0xf9, 0x7a, 0x9f, 0x3f, 0x52, 0xa9, 0xb6, 0x3e, 0x30, 0x19, 0xfc, 0x3f,
  0x9e, 0x7f, 0x57, 0x3f, 0x64, 0xda, 0x1f, 0xbf, 0xf3, 0xcf, 0x90, 0xc0,
  0xd2, 0x00, 0x4f, 0x3f, 0xcc, 0x65, 0x53, 0x3e, 0xe0, 0x88, 0x13, 0xc0,
  0xa6, 0x65, 0xe3, 0xbf, 0x2b, 0x74, 0x91, 0xbf, 0x72, 0x12, 0x75, 0x3f,
  0xe4, 0xd6, 0x17, 0xbf, 0x59, 0x53, 0x9f, 0x3f, 0x20, 0x4f, 0xa3, 0xbd,
  0xff, 0x97, 0x87, 0x3d, 0xb9, 0x97, 0x8b, 0x3d, 0xa0, 0x76, 0x6d, 0x3e,
  0x49, 0xa5, 0xd1, 0xbf, 0x0b, 0x7a, 0x49, 0x3e, 0x98, 0x8f, 0x8c, 0x3f,
  0x59, 0xd5, 0x04, 0x3e, 0x60, 0xbe, 0x04, 0x3d, 0xa0, 0xd7, 0x01, 0xbe,
  0x84, 0x52, 0xae, 0x3d, 0x9b, 0xf3, 0x04, 0xbf, 0xaa, 0x79, 0x56, 0x3f,
  0xe5, 0x63, 0xb3, 0x3f, 0xc4, 0xd4, 0x7a, 0xbf, 0xd8, 0xcf, 0xbe, 0xbc,
  0x50, 0x51, 0x3e, 0x3d, 0x9b, 0x7f, 0x04, 0xc0, 0x0f, 0x0e, 0x4a, 0x40,
  0xdd, 0x10, 0xfa, 0x3e, 0xf6, 0x2d, 0x03, 0xbf, 0x87, 0xe6, 0x6a, 0x3f,
  0xbb, 0x09, 0x45, 0x40, 0x16, 0x20, 0x76, 0xbd, 0x90, 0x2c, 0x8c, 0xc0,
  0x80, 0x4a, 0x3f, 0xbe, 0x09, 0x5b, 0x08, 0x40, 0x19, 0x73, 0x78, 0x3f,
  0xca, 0xee, 0x36, 0x3f, 0x8f, 0x18, 0x92, 0x3e, 0x6c, 0x73, 0x01, 0xbf,
  0xf2, 0xf1, 0x43, 0xbf, 0xed, 0x9d, 0x70, 0xbe, 0x65, 0x29, 0xf0, 0x3d,
  0xfe, 0x87, 0x73, 0xbe, 0x20, 0xaa, 0x84, 0xbc, 0x2e, 0x52, 0xfe, 0x3e,
  0x3c, 0x19, 0x49, 0xbd, 0x85, 0x3b, 0xaf, 0x3d, 0xae, 0x20, 0xd5, 0x3e,
  0x88, 0xeb, 0x07, 0x3e, 0x6c, 0xab, 0x18, 0x3e, 0x33, 0xc2, 0x9a, 0x3d,
  0x6e, 0x86, 0xa1, 0x3e, 0xae, 0x5a, 0x61, 0x3f, 0xa3, 0x30, 0xd6, 0x3e,
  0x00, 0x4d, 0xc1, 0x3e, 0xb6, 0x5d, 0x9c, 0x3f, 0x20, 0x62, 0xb2, 0xbc,
  0xf0, 0xb4, 0x64, 0x3e, 0xdd, 0xa7, 0x03, 0xc0, 0xcd, 0x6e, 0x4d, 0x3f,
  0x79, 0x05, 0x19, 0xbf, 0xbc, 0x36, 0xa5, 0xbf, 0xb2, 0xd6, 0x0a, 0xc0,
  0x1e, 0xc5, 0x6e, 0xbf, 0xb7, 0x00, 0x88, 0x40, 0x60, 0xd3, 0x43, 0xbd,
  0xaa, 0xe6, 0x89, 0x3f, 0xe0, 0xaa, 0x23, 0x3e, 0x94, 0x4a, 0xdb, 0x3e,
  0x1f, 0xbd, 0x5a, 0xbf, 0xb1, 0x8e, 0xac, 0x3f, 0x8f, 0x42, 0x37, 0x40,
  0x66, 0x00, 0x57, 0x3e, 0x66, 0xf0, 0x53, 0xbd, 0x91, 0xe6, 0x43, 0x3e,
  0x80, 0xbe, 0x8f, 0xbd, 0xbc, 0xbe, 0x9f, 0x3f, 0x0b, 0x4b, 0xfc, 0x3c,
  0x65, 0xc8, 0x1a, 0x40, 0x0f, 0xc6, 0xc7, 0x3f, 0xf0, 0x88, 0x40, 0x3d,
  0xf0, 0x88, 0x7b, 0x3e, 0x04, 0xde, 0x02, 0x40, 0x96, 0x66, 0x9e, 0xbf,
  0xc8, 0x06, 0x80, 0x3f, 0x7e, 0xfc, 0xd3, 0x3f, 0xa1, 0x45, 0xb9, 0x3f,
  0x10, 0x1f, 0x49, 0x3e, 0x0c, 0x52, 0x6c, 0x3e, 0x7f, 0xb1, 0x7a, 0xbf,
  0x54, 0x05, 0x08, 0xc0, 0xce, 0x59, 0x3f, 0xbe, 0x2a, 0xa3, 0x0e, 0x3f,
  0xad, 0x60, 0x87, 0x3e, 0x43, 0xda, 0x96, 0x40, 0x42, 0x04, 0x16, 0x40,
  0x6e, 0xdc, 0x45, 0xbe, 0x00, 0xd3, 0x63, 0xbe, 0xf9, 0x17, 0x28, 0x40,
  0x03, 0xb2, 0x67, 0xbf, 0x85, 0x40, 0x08, 0xbd, 0x63, 0xac, 0xa2, 0xbe,
  0xac, 0x50, 0x31, 0xbf, 0x2a, 0x8b, 0xe5, 0x3e, 0xf4, 0x14, 0x13, 0xbe,
  0x90, 0x30, 0x76, 0x3e, 0xda, 0xf3, 0x2a, 0x3d, 0x30, 0x94, 0x7a, 0x3d,
  0x63, 0x7d, 0xd3, 0xbe, 0x58, 0xff, 0x52, 0xbe, 0xa6, 0xa0, 0x1e, 0xbe,
  0x41, 0xf4, 0xf1, 0xbf, 0x40, 0x7a, 0xaa, 0xbd, 0x10, 0x81, 0xd4, 0xbd,
  0xf5, 0x87, 0xcf, 0x3e, 0x3b, 0x12, 0x16, 0x3f, 0x33, 0xe8, 0x8d, 0x3f,
  0x47, 0xba, 0xc5, 0x3f, 0xba, 0x37, 0x31, 0xbf, 0xbc, 0xe9, 0xa3, 0x3f,
  0xb8, 0x19, 0x27, 0x3e, 0xea, 0x39, 0xd0, 0x3f, 0xc6, 0xc2, 0x37, 0x40,
  0x47, 0xed, 0x69, 0x3e, 0x5a, 0x3e, 0x9a, 0x3f, 0x8f, 0x57, 0x00, 0x3f,
  0x7d, 0xce, 0x9e, 0x3f, 0x38, 0x8f, 0xbc, 0xbe, 0x8b, 0x4c, 0x8b, 0x3e,
  0x60, 0xa9, 0x79, 0xbe, 0xa9, 0x8d, 0xa1, 0xbf, 0xcb, 0x07, 0x1b, 0xbf,
  0xae, 0xd9, 0x82, 0xbf, 0x7f, 0xb5, 0x7f, 0x3f, 0xdc, 0xa3, 0x01, 0xc0,
  0x33, 0xf6, 0x73, 0x3f, 0xe0, 0xfc, 0xf7, 0xbc, 0xe8, 0x37, 0x61, 0x3e,
  0x00, 0xfc, 0x16, 0x3b, 0x38, 0xfa, 0x28, 0xbe, 0xa0, 0xda, 0x9f, 0xbe,
  0x82, 0x0c, 0x19, 0xbe, 0x6e, 0xd9, 0xe4, 0x3e, 0x94, 0x4a, 0x26, 0x3f,
  0xb8, 0xdd, 0x5f, 0x3e, 0x28, 0xe6, 0xd3, 0x3d, 0x9d, 0x1d, 0xdb, 0x3e,
  0xd9, 0x8f, 0x06, 0xbf, 0x94, 0x72, 0x66, 0x3f, 0x28, 0x52, 0x25, 0xbf,
  0x5d, 0x9b, 0x30, 0xbf, 0xbc, 0x31, 0x6b, 0x3e, 0x8c, 0xd6, 0x67, 0x3e,
  0x19, 0x68, 0xcc, 0xbe, 0x29, 0x2e, 0xea, 0x3f, 0xfb, 0xba, 0x09, 0x3e,
  0x4c, 0x35, 0xda, 0x3e, 0x34, 0xeb, 0x62, 0xbe, 0xab, 0x59, 0x03, 0xbf,
  0x20, 0xe5, 0x1f, 0xbe, 0xc6, 0x86, 0x35, 0xbf, 0x48, 0x19, 0x5f, 0x3e,
  0xe7, 0xce, 0xc3, 0x3f, 0x65, 0xdb, 0x1a, 0x3c, 0x4c, 0xd1, 0x02, 0xc0,
  0x8a, 0x91, 0x07, 0xbe, 0xdb, 0x7e, 0x36, 0x3f, 0x89, 0xe7, 0x67, 0x3f,
  0x0a, 0x52, 0x29, 0xbe, 0x12, 0xf2, 0x60, 0xbe, 0x00, 0x0d, 0xc2, 0xbd,
  0xe0, 0xe0, 0x56, 0x3d, 0x4b, 0x71, 0xe2, 0xbe, 0x1a, 0x32, 0x97, 0xbd,
  0x28, 0x80, 0x06, 0xc0, 0x76, 0x1a, 0x3d, 0xbf, 0xf4, 0x43, 0x69, 0x3e,
  0xe0, 0xe5, 0x6e, 0xbd, 0x67, 0xe9, 0x02, 0x3d, 0xd0, 0xc0, 0xeb, 0x3e,
  0x37, 0xb9, 0xc4, 0x3f, 0xe9, 0x0f, 0xaa, 0x3f, 0x23, 0xec, 0x0a, 0x40,
  0xa8, 0x9c, 0x6b, 0x3f, 0x80, 0x55, 0xfe, 0x3d, 0x69, 0x4a, 0x3b, 0xc0,
  0x27, 0xa4, 0xcb, 0xbf, 0x26, 0x9c, 0x92, 0x3e, 0x40, 0x17, 0xde, 0xbf,
  0x3d, 0xe4, 0xd1, 0xbf, 0xbc, 0xb9, 0x2d, 0x40, 0x2f, 0x03, 0xdf, 0x3f,
  0x65, 0x16, 0x49, 0x40, 0x40, 0xec, 0x4d, 0xbe, 0x48, 0x1a, 0xba, 0x3f,
  0x31, 0x30, 0x2b, 0x40, 0x58, 0x4b, 0x3c, 0x40, 0xe2, 0x3b, 0x96, 0x3f,
  0x88, 0xf1, 0x1f, 0x40, 0x96, 0x42, 0x5e, 0xbf, 0xcf, 0x0b, 0xdf, 0x3b,
  0x20, 0xb6, 0xa6, 0x3d, 0xef, 0xfd, 0x44, 0xbe, 0x20, 0xee, 0xdf, 0xbc,
  0xc3, 0xb8, 0x1d, 0x40, 0x4c, 0x40, 0x13, 0x3d, 0x9f, 0x53, 0x71, 0x40,
  0x0e, 0x0f, 0x5c, 0x3f, 0x78, 0x48, 0x74, 0xbe, 0xc0, 0x4f, 0x36, 0x3d,
  0x37, 0xa2, 0x30, 0x40, 0x73, 0x19, 0x83, 0x40, 0xfb, 0xa4, 0x89, 0x40,
  0x3b, 0xa9, 0x68, 0xc0, 0xf2, 0x69, 0x1b, 0x40, 0x5f, 0xb4, 0xd0, 0xbe,
  0x68, 0x7c, 0x42, 0x3e, 0x40, 0x3e, 0xbd, 0xbd, 0x7d, 0xc2, 0xbc, 0xbe,
  0x15, 0x49, 0xb7, 0x3e, 0xd7, 0x0d, 0x8e, 0x3f, 0xf4, 0xde, 0x40, 0x3f,
  0x9d, 0xac, 0x2d, 0xbf, 0x3b, 0x63, 0x06, 0xbf, 0x05, 0xa4, 0xf8, 0xbf,
  0x58, 0x71, 0xd8, 0xbd, 0xad, 0xaa, 0x9c, 0x3d, 0x2d, 0x62, 0xdd, 0x3e,
  0x88, 0xa1, 0x8b, 0xbe, 0xc4, 0x71, 0x92, 0x3f, 0x7f, 0xed, 0x49, 0xbe,
  0x42, 0x15, 0x08, 0x40, 0xac, 0xee, 0x56, 0xbe, 0x4b, 0x3f, 0xa4, 0xbd,
  0xf0, 0x11, 0x5b, 0xbe, 0xd4, 0xe6, 0x09, 0x3e, 0xdd, 0x50, 0x37, 0xbf,
  0x90, 0xc5, 0x6f, 0xbc, 0x39, 0xf9, 0x84, 0x3f, 0x6d, 0x6d, 0x60, 0xbf,
  0x00, 0x68, 0x55, 0x3a, 0x50, 0xf9, 0x09, 0xbd, 0xea, 0x64, 0xa7, 0xbf,
  0xad, 0x40, 0xa0, 0xbf, 0x25, 0xe7, 0xdc, 0xbf, 0x7a, 0x46, 0x1f, 0x3f,
  0x77, 0xbc, 0x75, 0x3f, 0x9c, 0x8e, 0x59, 0x3f, 0x68, 0xc0, 0x5b, 0x3e,
  0xe8, 0x43, 0xe0, 0x3e, 0xf6, 0x27, 0x2b, 0x40, 0x48, 0x3d, 0x56, 0xbd,
  0x8a, 0x5b, 0xc3, 0xbe, 0x81, 0xd2, 0xb0, 0x3f, 0xe6, 0xa8, 0x3f, 0x3e,
  0x72, 0xa4, 0x01, 0x40, 0x9f, 0x7f, 0x48, 0xbd, 0x70, 0x25, 0x35, 0xbd,
  0xf8, 0xca, 0x41, 0xc0, 0x0d, 0x04, 0xd5, 0xbf, 0xdf, 0xb3, 0xe7, 0xbf,
  0x34, 0xaf, 0x8c, 0xbf, 0xd3, 0x09, 0x23, 0x3f, 0x49, 0xe4, 0x88, 0xbf,
  0x08, 0xe7, 0x7d, 0xbd, 0x74, 0x66, 0x75, 0x3d, 0x39, 0xc7, 0xe5, 0x3c,
  0x08, 0x16, 0x51, 0xbe, 0xc8, 0xbc, 0x1d, 0xbf, 0xce, 0x7f, 0x38, 0xbe,
  0xd4, 0xfe, 0xca, 0x3f, 0xff, 0x9d, 0xa8, 0xbf, 0x40, 0x5f, 0x62, 0x3c,
  0xa4, 0x44, 0x62, 0xbe, 0x7a, 0xc0, 0x55, 0xbc, 0x47, 0x2d, 0xce, 0xbf,
  0x4c, 0x6a, 0x3d, 0xbf, 0xfd, 0x01, 0x22, 0xc0, 0xdb, 0xae, 0x08, 0xbf,
  0xd1, 0x11, 0x77, 0xc0, 0xac, 0xa4, 0x69, 0xbe, 0x0d, 0x54, 0x73, 0x3e,
  0x6b, 0x05, 0x00, 0xc0, 0x2d, 0xa4, 0x92, 0xbe, 0xfb, 0x6c, 0x01, 0x3f,
  0xf0, 0x94, 0x02, 0x40, 0x67, 0x38, 0xb2, 0x3e, 0x1a, 0x08, 0xae, 0x3e,
  0xb4, 0xf9, 0x41, 0x40, 0x74, 0x99, 0x1d, 0xbe, 0x02, 0x7a, 0xb8, 0xbe,
  0x85, 0xf7, 0xb1, 0x3d, 0xb7, 0xcc, 0x3b, 0x3f, 0xac, 0x33, 0x27, 0xc0,
  0x09, 0xea, 0xf9, 0xbf, 0x93, 0x32, 0x94, 0x3f, 0xa7, 0x44, 0xee, 0xbc,
  0xd0, 0xad, 0x56, 0xbe, 0x60, 0xf3, 0xf6, 0x3c, 0x38, 0xb1, 0x7b, 0x3e,
  0x99, 0x73, 0x38, 0x3f, 0x0f, 0xd8, 0x31, 0xbe, 0x6e, 0x65, 0xe6, 0x3e,
  0x08, 0x58, 0xcf, 0xbe, 0x88, 0x34, 0x60, 0xbe, 0x78, 0xee, 0x62, 0xbe,
  0xba, 0x0c, 0x84, 0x3f, 0xa5, 0xea, 0x34, 0x3f, 0xc0, 0x46, 0x93, 0x3f,
  0x66, 0x21, 0x13, 0xc0, 0xc8, 0x1d, 0x88, 0x3e, 0xee, 0x48, 0xb2, 0x3e,
  0x00, 0xcd, 0xcf, 0x3d, 0x48, 0x57, 0xc1, 0x3f, 0x58, 0x01, 0x09, 0xbe,
  0xa7, 0xc6, 0xbe, 0xbe, 0x6a, 0x2c, 0x1d, 0xbe, 0x6d, 0xae, 0xab, 0x3e,
  0x87, 0xdc, 0xc2, 0x3f, 0x1e, 0x35, 0x00, 0x3f, 0x40, 0x3b, 0xb1, 0xbd,
  0x20, 0x36, 0xbc, 0x3d, 0x7b, 0xd2, 0xf1, 0xbf, 0xd0, 0xd5, 0x19, 0xc0,
  0xa2, 0xac, 0xe4, 0xbf, 0x99, 0x40, 0x0a, 0x3f, 0x1e, 0x10, 0x15, 0xbe,
  0xdc, 0x30, 0x37, 0xbf, 0x30, 0x93, 0x4a, 0xbe, 0xc0, 0x13, 0x78, 0xbe,
  0x66, 0x7f, 0x46, 0xbe, 0xb4, 0x54, 0x3f, 0xbe, 0xcd, 0xdd, 0x18, 0xc0,
  0x2c, 0x46, 0x14, 0x3e, 0x5c, 0x84, 0x13, 0xbd, 0x66, 0x0b, 0x12, 0x3f,
  0x14, 0xad, 0x4c, 0xbe, 0xe0, 0x28, 0xf1, 0x3c, 0xdc, 0x30, 0x23, 0xbe,
  0x42, 0x5a, 0x1c, 0xbe, 0xaa, 0xed, 0x9d, 0xbe, 0xc5, 0xe6, 0x0f, 0x40,
  0x8c, 0xad, 0xdb, 0xbe, 0x2a, 0x4c, 0x00, 0x40, 0xe4, 0xf7, 0x10, 0xbe,
  0x7a, 0x64, 0xb6, 0xbf, 0x84, 0xfc, 0x2b, 0x40, 0xaf, 0x8c, 0x36, 0x3f,
  0x91, 0x0b, 0x47, 0x3e, 0xd6, 0x8d, 0xe2, 0x3f, 0xb1, 0x79, 0x15, 0xc0,
  0x18, 0xcd, 0x27, 0xbf, 0x12, 0xa4, 0x19, 0x40, 0x50, 0xe9, 0x7f, 0xbd,
  0x9b, 0xd6, 0xf8, 0x3f, 0x10, 0x17, 0x43, 0xbf, 0x7d, 0x85, 0x17, 0x40,
  0xed, 0xa5, 0x62, 0xbf, 0xc3, 0x47, 0x21, 0x3f, 0x70, 0xda, 0x84, 0xbd,
  0x3a, 0x2a, 0x2d, 0xbd, 0x83, 0x6b, 0x21, 0xbc, 0x38, 0x48, 0x94, 0x3d,
  0x3c, 0x7c, 0x14, 0xbe, 0xea, 0x65, 0x63, 0x3e, 0xf7, 0xcd, 0x74, 0xbe,
  0xe2, 0xd7, 0x64, 0x3f, 0xd5, 0xfd, 0xd1, 0xbe, 0x50, 0x06, 0x8b, 0x3d,
  0x60, 0x98, 0xe7, 0x3d, 0xd8, 0xf9, 0x18, 0x3f, 0x54, 0xa6, 0x37, 0x40,
  0xd3, 0xf5, 0x30, 0x40, 0x92, 0xf7, 0xcc, 0x3f, 0xb6, 0x8e, 0xaa, 0x3e,
  0x81, 0x08, 0x49, 0x40, 0xbc, 0x69, 0x30, 0x3e, 0x6c, 0xa0, 0x82, 0x40,
  0x12, 0xa8, 0x99, 0x40, 0xbf, 0x9f, 0x39, 0xbc, 0x50, 0x4e, 0xf3, 0x3f,
  0xe0, 0xac, 0x83, 0x3f, 0x08, 0x79, 0xf9, 0xbf, 0xc4, 0x29, 0x04, 0xbf,
  0x31, 0xeb, 0xbc, 0xbf, 0x00, 0x1e, 0xd2, 0xbd, 0x57, 0x02, 0x4c, 0x3f,
  0xc6, 0x5d, 0x16, 0xbf, 0x3b, 0x39, 0x21, 0xc0, 0x75, 0xf4, 0xc4, 0x3e,
  0x8e, 0xde, 0x42, 0x3f, 0xc8, 0xbf, 0xb6, 0x3e, 0x00, 0x46, 0x87, 0x3a,
  0x0b, 0x03, 0x2a, 0x3e, 0x22, 0xb0, 0x55, 0x3d, 0x48, 0xc5, 0x83, 0xbd,
  0xe6, 0x76, 0x68, 0xbf, 0xa8, 0x39, 0x6c, 0x3e, 0x5b, 0xd0, 0x67, 0x3f,
  0xf4, 0x36, 0xbe, 0xbe, 0xd0, 0xeb, 0x54, 0x3e, 0x70, 0xcf, 0xa1, 0xbd,
  0x76, 0xe6, 0x84, 0x3e, 0x3b, 0x1a, 0x16, 0xc0, 0xf6, 0x49, 0x99, 0xbf,
  0xab, 0x36, 0x98, 0x3d, 0xc8, 0x74, 0xd0, 0x3f, 0x7b, 0xba, 0xb7, 0xbf,
  0xf0, 0x84, 0x6b, 0x3e, 0xe2, 0x0d, 0x0e, 0xc0, 0x14, 0xa7, 0x9f, 0xbf,
  0x2c, 0x2f, 0xf0, 0xbe, 0x54, 0xd8, 0x71, 0xbf, 0xf4, 0x89, 0x36, 0xbf,
  0xab, 0xb1, 0xfa, 0x3f, 0x22, 0x03, 0xf4, 0xbb, 0xe2, 0xee, 0xbf, 0xbd,
  0x8c, 0xea, 0x4a, 0x3e, 0x96, 0xf4, 0x73, 0xbf, 0xa8, 0xa7, 0x93, 0xbe,
  0x3d, 0xd4, 0x23, 0x3f, 0xa6, 0xf8, 0x6e, 0xbf, 0x8b, 0x0f, 0x64, 0x3b,
  0x2a, 0x32, 0xf3, 0xbf, 0xe0, 0x90, 0x74, 0x3e, 0x48, 0xdf, 0x69, 0xbe,
  0xa0, 0xda, 0x02, 0x3d, 0xc0, 0x18, 0xe7, 0xbd, 0x98, 0x00, 0x03, 0xbf,
  0x28, 0xc6, 0x06, 0x3e, 0x1f, 0x1b, 0xf3, 0x3e, 0x85, 0x60, 0xa2, 0xbe,
  0x80, 0xf8, 0xfe, 0xbc, 0x24, 0x8c, 0x78, 0xbe, 0xe6, 0x27, 0xca, 0x3d,
  0x3b, 0x35, 0x47, 0xbe, 0xaa, 0xe1, 0x17, 0x3e, 0x45, 0xa9, 0x8f, 0x3e,
  0xb8, 0x31, 0x2a, 0x3e, 0x9f, 0xe7, 0x7e, 0xbe, 0x80, 0xf7, 0x08, 0x3d,
  0x84, 0x56, 0x6d, 0x3f, 0xe9, 0xe2, 0xdc, 0x3f, 0xbc, 0xaf, 0x27, 0xbe,
  0x2d, 0x3b, 0x77, 0x3c, 0x1b, 0x4d, 0xb1, 0x3f, 0xb6, 0x11, 0xbe, 0x3e,
  0x39, 0xbc, 0x01, 0x3f, 0x8b, 0x66, 0x67, 0xbe, 0xb4, 0x5b, 0x5f, 0xbe,
  0x07, 0xaf, 0x13, 0x3f, 0xd0, 0x4e, 0xac, 0xbd, 0x74, 0x70, 0xe1, 0x3e,
  0x84, 0xaa, 0x58, 0xbd, 0x82, 0x59, 0xd8, 0xbf, 0x6a, 0x4e, 0xb0, 0x3e,
  0xbc, 0xb2, 0x0c, 0x3e, 0xa4, 0x3b, 0x0e, 0xbe, 0xe0, 0xa4, 0x8d, 0xbd,
  0xdc, 0x1c, 0x0a, 0xbe, 0xf9, 0x6f, 0x35, 0x3f, 0xde, 0xda, 0x2e, 0xbe,
  0x7e, 0xba, 0x86, 0x3f, 0x5a, 0x8c, 0x2f, 0xbe, 0x40, 0x9a, 0x03, 0x3c,
  0x24, 0xaf, 0x3b, 0x3e, 0x6a, 0x97, 0x50, 0x3c, 0x74, 0x62, 0x91, 0xbf,
  0xd1, 0x9d, 0x45, 0x3e, 0xc4, 0x51, 0xf8, 0x3d, 0xce, 0x5b, 0x07, 0x3f,
  0xeb, 0x86, 0x21, 0xbe, 0x28, 0x6c, 0xd7, 0x3d, 0x13, 0x95, 0xc3, 0xbe,
  0xfd, 0x88, 0x05, 0x40, 0x98, 0x0e, 0xa8, 0x3e, 0x1f, 0x52, 0x21, 0x3f,
  0x5f, 0x3d, 0x8a, 0xbf, 0x1b, 0xa3, 0x65, 0x3f, 0xfc, 0xfc, 0x17, 0x40,
  0x3b, 0x50, 0xff, 0x3f, 0xd4, 0x85, 0x79, 0xbe, 0x62, 0xc3, 0xdd, 0xbf,
  0xa9, 0xe0, 0x44, 0xbe, 0x74, 0x44, 0xca, 0xbf, 0xd7, 0x6b, 0x2a, 0x3f,
  0x6b, 0x56, 0xb0, 0x3f, 0x54, 0x2b, 0x82, 0x40, 0xc5, 0x0b, 0x6a, 0x3d,
  0x43, 0x16, 0x07, 0x3e, 0x53, 0x9c, 0x84, 0xbd, 0x5c, 0x58, 0x15, 0xbe,
  0x69, 0xb7, 0x45, 0x3f, 0x71, 0xeb, 0x09, 0xbe, 0x26, 0x91, 0xa1, 0xbf,
  0xcd, 0xbf, 0x50, 0xbd, 0x80, 0x49, 0xe4, 0x3b, 0xc0, 0x26, 0x69, 0x3e,
  0x17, 0x5d, 0x3d, 0x3f, 0x4f, 0xdb, 0x3d, 0xc0, 0x42, 0xcd, 0x54, 0xc0,
  0xde, 0x47, 0x55, 0xbf, 0x53, 0xba, 0x37, 0xbf, 0x10, 0x28, 0xbc, 0xbf,
  0x00, 0x02, 0x9a, 0xbc, 0x1f, 0x6d, 0x80, 0xc0, 0x10, 0xf5, 0xea, 0xbf,
  0x9d, 0xb9, 0xd0, 0x3d, 0xf7, 0xd9, 0xac, 0x3e, 0xdb, 0xed, 0xcd, 0xbf,
  0xcf, 0x77, 0xe8, 0x3d, 0x9d, 0x4d, 0x38, 0xc0, 0x04, 0xe1, 0xa3, 0x3d,
  0x14, 0x55, 0x25, 0xbe, 0x93, 0xb0, 0xbc, 0x3f, 0xc3, 0x17, 0x72, 0x3f,
  0xc6, 0x4b, 0x1d, 0x3f, 0x15, 0xd7, 0x47, 0xbf, 0x8e, 0x2f, 0xa9, 0xbf,
  0x7b, 0x15, 0x65, 0x40, 0xd7, 0x56, 0x7f, 0xbd, 0x60, 0xf9, 0xd7, 0x3d,
  0xef, 0x67, 0x71, 0xbd, 0xd4, 0x3d, 0x25, 0x3e, 0x7e, 0x24, 0xdc, 0x3e,
  0x76, 0x41, 0x35, 0x3d, 0x00, 0x02, 0x99, 0x3f, 0x7d, 0x03, 0xa2, 0x3e,
  0x90, 0x21, 0x58, 0x3d, 0x78, 0x83, 0x95, 0xbd, 0x1e, 0x44, 0x7c, 0xbe,
  0x45, 0x2f, 0x13, 0xbf, 0xa4, 0x40, 0xd9, 0xbf, 0xd0, 0x8f, 0xdf, 0x3f,
  0x2c, 0x10, 0x95, 0xbe, 0x0a, 0x41, 0x5c, 0xbf, 0xb0, 0xc7, 0xcb, 0x3d,
  0xe7, 0xa4, 0xd2, 0xbf, 0x7a, 0x88, 0x20, 0x40, 0x37, 0x0d, 0x97, 0xbd,
  0xdb, 0x0f, 0xff, 0x3f, 0xe4, 0x0b, 0x03, 0xc0, 0x2f, 0x87, 0xc0, 0x40,
  0x7a, 0x6f, 0xf9, 0x3f, 0xda, 0x5e, 0x05, 0x3e, 0xd0, 0x49, 0x5b, 0x3e,
  0xa0, 0x56, 0xc0, 0xbe, 0x31, 0x9f, 0x8a, 0xbe, 0x74, 0xa0, 0x73, 0x40,
  0x1d, 0x64, 0x21, 0x40, 0xf3, 0x0f, 0x54, 0xbf, 0x87, 0x8f, 0x25, 0x40,
  0x71, 0xeb, 0x2c, 0xbe, 0x99, 0x2d, 0x48, 0xbd, 0xd4, 0x07, 0x5a, 0x3e,
  0x0c, 0x1f, 0x1d, 0xbe, 0x3d, 0x02, 0x86, 0x3e, 0x60, 0xf1, 0x64, 0x3e,
  0xa6, 0xe2, 0x14, 0xc0, 0x7f, 0xba, 0x14, 0x3f, 0x80, 0x1c, 0xbb, 0x3b,
  0x48, 0x86, 0x2a, 0xbe, 0xa5, 0x0a, 0x5c, 0xbf, 0x86, 0x18, 0x59, 0xbf,
  0xca, 0x3a, 0x14, 0xc0, 0x12, 0x4a, 0xa5, 0x3f, 0xad, 0xb1, 0xed, 0x3e,
  0x8d, 0x05, 0x1d, 0x3f, 0xe0, 0x41, 0x0c, 0x3d, 0x52, 0xcc, 0xb9, 0xbf,
  0x06, 0x38, 0xdd, 0xbd, 0xda, 0x03, 0x2f, 0x3f, 0x69, 0x5f, 0x4c, 0xbd,
  0xb1, 0x82, 0xd0, 0xbf, 0x4f, 0x2f, 0x63, 0xbf, 0x3c, 0x22, 0x4e, 0x3f,
  0x9e, 0xf9, 0xff, 0xff, 0x04, 0x00, 0x00, 0x00, 0x00, 0x04, 0x00, 0x00,
  0x7e, 0xfe, 0x94, 0xbd, 0x08, 0xc3, 0x8f, 0xbf, 0x0b, 0x80, 0xff, 0xbe,
  0x59, 0x0e, 0x4f, 0x3e, 0x07, 0xe3, 0x9e, 0x3e, 0x17, 0x87, 0x1e, 0x3f,
  0x07, 0x44, 0x5e, 0xbf, 0xfc, 0xc5, 0x89, 0x3f, 0x22, 0x68, 0xc3, 0xbe,
  0x5c, 0x02, 0x87, 0xbe, 0x60, 0x7c, 0x52, 0xbc, 0x94, 0xda, 0x5a, 0x3e,
  0x85, 0x54, 0x64, 0xbe, 0x6d, 0x54, 0x2b, 0xbe, 0x00, 0x6b, 0x39, 0xbd,
  0x24, 0x12, 0x1d, 0x3e, 0x21, 0x76, 0x85, 0xbe, 0xc7, 0xb8, 0x5b, 0x3f,
  0xa9, 0xdf, 0xc1, 0xbc, 0xf6, 0x8e, 0x20, 0x3f, 0x91, 0x98, 0x0e, 0xbf,
  0x14, 0x0e, 0xec, 0x3d, 0x89, 0x2f, 0x35, 0xbf, 0x43, 0xe7, 0x42, 0x3e,
  0x80, 0x27, 0x06, 0xbf, 0x8d, 0x15, 0xd4, 0x3e, 0xba, 0x21, 0x75, 0x3e,
  0xf0, 0xe3, 0xc1, 0x3e, 0x6f, 0x11, 0x2a, 0xbf, 0xc5, 0x2a, 0x93, 0x3e,
  0x0e, 0x10, 0xf6, 0xbe, 0xcd, 0xce, 0x15, 0xbe, 0x71, 0xca, 0x92, 0xbd,
  0x90, 0x1b, 0xfb, 0xbd, 0xa9, 0x3a, 0xc3, 0x3e, 0xe9, 0xe6, 0x5e, 0x3e,
  0xd6, 0x29, 0x77, 0xbf, 0xc0, 0xf3, 0x0a, 0x40, 0x7a, 0xdf, 0xb8, 0x3c,
  0x82, 0x26, 0x07, 0xbf, 0x07, 0x7a, 0x5a, 0xbf, 0xd7, 0xf8, 0x01, 0x3f,
  0xcd, 0x96, 0x47, 0xbe, 0x61, 0xfb, 0x14, 0x3f, 0x76, 0x5f, 0x2a, 0xbf,
  0x46, 0xb3, 0x39, 0x3e, 0x21, 0xbc, 0xb0, 0x3f, 0x79, 0x63, 0x09, 0x3f,
  0x7c, 0x9f, 0x93, 0x3e, 0xca, 0x2e, 0x9c, 0xbe, 0xc3, 0xb4, 0xe4, 0x3e,
  0x66, 0xf3, 0x9e, 0xbe, 0xa4, 0x9b, 0x45, 0x3e, 0xa9, 0xa2, 0x66, 0xbf,
  0x9d, 0x2f, 0x25, 0x40, 0x01, 0x06, 0xa3, 0x3f, 0xf4, 0x73, 0x4a, 0xbf,
  0x76, 0x39, 0xc4, 0x3d, 0x21, 0xc6, 0x82, 0x3e, 0x01, 0x2a, 0x18, 0x3f,
  0x69, 0xf5, 0x9e, 0x3e, 0x0e, 0xdb, 0xad, 0xbe, 0x5a, 0x67, 0x8c, 0x3e,
  0xe9, 0x63, 0xc2, 0xbe, 0x7e, 0x7d, 0x98, 0xbe, 0xc1, 0xa0, 0xa9, 0xbe,
  0xff, 0x37, 0x87, 0xbe, 0xad, 0x16, 0x5c, 0xbe, 0x0d, 0x11, 0x8c, 0x3e,
  0x87, 0x44, 0x50, 0xbe, 0x39, 0x3e, 0x9f, 0x3e, 0xd7, 0x19, 0x46, 0x3e,
  0xe4, 0x5a, 0xc3, 0x3d, 0x7b, 0x67, 0xbe, 0xbd, 0x1a, 0x53, 0x05, 0x3e,
  0xa5, 0x9d, 0x48, 0x3e, 0x0a, 0xca, 0x8a, 0xbc, 0xf5, 0xca, 0xb4, 0xbe,
  0x89, 0x25, 0x02, 0xbe, 0x59, 0x32, 0xba, 0xbe, 0x47, 0x9e, 0x98, 0x3e,
  0x6e, 0xec, 0xb5, 0xbe, 0x95, 0x15, 0xb0, 0xbe, 0x16, 0x32, 0xb8, 0xbe,
  0x88, 0x8c, 0x43, 0x3e, 0x10, 0xc0, 0x93, 0x3d, 0x02, 0x62, 0x1e, 0xbe,
  0x9f, 0xa2, 0x46, 0x3e, 0xa8, 0x91, 0x6f, 0xbd, 0x4e, 0x08, 0x55, 0xbe,
  0xe0, 0x89, 0x4a, 0x3e, 0x68, 0x88, 0x36, 0xbd, 0xa0, 0x86, 0x73, 0xbd,
  0xa0, 0xa8, 0x19, 0x3d, 0xc8, 0xf8, 0x13, 0xbe, 0xa4, 0xe3, 0xff, 0xbd,
  0x81, 0x89, 0x43, 0xbf, 0x4b, 0x30, 0x24, 0xbf, 0x85, 0x6e, 0x35, 0x3f,
  0x76, 0x6d, 0xc3, 0x3f, 0x9f, 0xd5, 0x41, 0xbf, 0xce, 0xb8, 0x11, 0x3f,
  0xd8, 0x1d, 0x57, 0xbf, 0x3b, 0xdd, 0x64, 0x3f, 0xd3, 0xe0, 0x16, 0xbd,
  0xde, 0x36, 0x98, 0xbd, 0x0f, 0x98, 0x2e, 0xbe, 0x05, 0xbc, 0x41, 0x3d,
  0xea, 0x5b, 0x8d, 0xbc, 0x2b, 0x20, 0x9f, 0x3e, 0x53, 0xb0, 0x9d, 0xbe,
  0xf3, 0xc1, 0xb7, 0xbd, 0x2c, 0xab, 0x4f, 0xbe, 0xc1, 0x93, 0x99, 0xbe,
  0x38, 0x21, 0x97, 0x3f, 0x57, 0xfe, 0x9b, 0xbf, 0x6d, 0xd9, 0x22, 0x3f,
  0x81, 0x8d, 0x4d, 0xbd, 0x5e, 0x17, 0xa5, 0xbe, 0x73, 0xec, 0x81, 0x3f,
  0xc7, 0x4a, 0x54, 0x3d, 0x25, 0x51, 0x5c, 0xbf, 0x5b, 0x03, 0x26, 0x3e,
  0xdc, 0x92, 0x3f, 0x3f, 0xe6, 0xeb, 0x01, 0xbf, 0x34, 0xdc, 0xc4, 0x3f,
  0x9b, 0x56, 0xd1, 0x3f, 0x70, 0x12, 0xae, 0xbf, 0x40, 0xa7, 0x74, 0x3e,
  0xf8, 0xe5, 0x12, 0xbe, 0x1a, 0x6c, 0x87, 0xbe, 0x53, 0xea, 0x3a, 0xbe,
  0xe9, 0x63, 0x46, 0xbe, 0xe0, 0x16, 0xb1, 0xbd, 0x80, 0xda, 0x6a, 0x3e,
  0x60, 0xbb, 0x26, 0xbc, 0xc8, 0x0f, 0xa4, 0xbe, 0x04, 0x94, 0xb9, 0x3e,
  0xf4, 0x82, 0x3d, 0xbe, 0x64, 0x08, 0xe0, 0xbd, 0xd2, 0x90, 0x86, 0xbe,
  0xfc, 0x5c, 0x40, 0x3e, 0xb4, 0x1e, 0x2a, 0x3e, 0x72, 0x2e, 0x97, 0xbe,
  0xb0, 0x20, 0x50, 0x3d, 0x3d, 0x9d, 0x79, 0xbf, 0x06, 0x87, 0x22, 0xbe,
  0xde, 0xa3, 0x7a, 0x3f, 0x18, 0x04, 0xf7, 0x3e, 0x71, 0x3c, 0x32, 0xbf,
  0xe5, 0x24, 0xf3, 0x3e, 0x43, 0xdf, 0x87, 0x3f, 0xf6, 0xc8, 0x1f, 0xbb,
  0x14, 0x57, 0xc8, 0x3e, 0x2e, 0x3c, 0xb3, 0xbe, 0xb9, 0xf5, 0x7d, 0x3e,
  0x1f, 0x95, 0x02, 0xbf, 0xb7, 0x50, 0xbe, 0x3e, 0x34, 0x25, 0x9a, 0xbe,
  0xf8, 0x2d, 0xc7, 0x3e, 0x1b, 0x76, 0x04, 0x3f, 0xbd, 0x50, 0x44, 0x3c,
  0x3f, 0xce, 0x31, 0xbf, 0x9f, 0xc2, 0xd4, 0x3e, 0x4f, 0x87, 0x29, 0x3d,
  0xfe, 0x25, 0xe0, 0xbe, 0x2b, 0x08, 0xe8, 0xbe, 0x95, 0x17, 0xda, 0x3e,
  0x87, 0xaf, 0x26, 0xbe, 0xaf, 0x29, 0x76, 0x3f, 0x00, 0x63, 0x86, 0xbf,
  0x4e, 0x9c, 0x16, 0x3f, 0x86, 0x64, 0xb4, 0x3e, 0x04, 0xd0, 0x35, 0x3e,
  0x33, 0xc8, 0x2e, 0x3f, 0x49, 0x88, 0x8f, 0xbf, 0x80, 0xfd, 0xec, 0x3e,
  0x7a, 0x8f, 0x35, 0x3d, 0x7f, 0xc6, 0xb5, 0x3e, 0xea, 0xf5, 0xc2, 0x3e,
  0x0b, 0x6d, 0x98, 0xbe, 0x18, 0x34, 0x84, 0xbf, 0xd0, 0xb8, 0xf1, 0x3e,
  0x92, 0x29, 0xec, 0xbe, 0xd4, 0xba, 0xc8, 0xbe, 0xf7, 0x30, 0x8b, 0x3f,
  0x9d, 0x5b, 0x58, 0xbf, 0xf3, 0x9a, 0xaa, 0x3e, 0xc7, 0x50, 0xc3, 0xbc,
  0x21, 0x82, 0x3c, 0x3f, 0x7a, 0xc0, 0xd5, 0xbe, 0x9b, 0x79, 0xb8, 0x3e,
  0x60, 0x86, 0x80, 0xbe, 0x58, 0xea, 0xe0, 0x3d, 0x9a, 0x58, 0x1d, 0xbe,
  0x78, 0x5f, 0xa4, 0x3e, 0x80, 0x4f, 0xa3, 0xbe, 0xa8, 0xe9, 0x31, 0xbe,
  0x21, 0x95, 0x4e, 0xbe, 0x63, 0xd1, 0x85, 0xbe, 0x48, 0xcc, 0xe5, 0xbe,
  0xe0, 0x17, 0x6a, 0x3f, 0x4e, 0x3c, 0x49, 0x3f, 0x59, 0x1b, 0x62, 0xbf,
  0x3a, 0x70, 0xba, 0xbd, 0x6b, 0xcc, 0x5c, 0x3f, 0x6d, 0xa2, 0x10, 0xbf,
  0x18, 0x3d, 0xd4, 0xbd, 0x1a, 0x55, 0x18, 0x3d, 0xf4, 0x2d, 0xef, 0x3e,
  0x4a, 0x34, 0xbe, 0xbe, 0xc6, 0xa9, 0x7b, 0xbe, 0x1d, 0x81, 0x2e, 0x3f,
  0xde, 0x48, 0xf0, 0x3e, 0x6c, 0xda, 0x21, 0xbe, 0xca, 0x18, 0x5b, 0xbf,
  0xb4, 0x80, 0x2b, 0x3e, 0xff, 0x02, 0xc1, 0x3e, 0xeb, 0x41, 0x18, 0xbf,
  0x42, 0xfb, 0xdf, 0x3e, 0x3f, 0x15, 0x95, 0xbe, 0x04, 0x28, 0x48, 0x3d,
  0xf6, 0x3b, 0x87, 0xbe, 0x6b, 0x85, 0xcd, 0xbe, 0x51, 0x36, 0x2e, 0x3e,
  0x06, 0x6d, 0xec, 0xbe, 0xa3, 0x38, 0x03, 0x3f, 0x85, 0x1a, 0x6d, 0x3d,
  0x9a, 0x10, 0x8b, 0x3e, 0x30, 0x2e, 0xd2, 0x3c, 0xec, 0x98, 0x94, 0xbf,
  0xc8, 0xbf, 0x10, 0xbf, 0xa5, 0x60, 0x84, 0xbe, 0xc5, 0x2f, 0x8f, 0x3e,
  0xf0, 0x34, 0x8f, 0x3e, 0xf9, 0xc4, 0xa8, 0xbf, 0x47, 0xa3, 0x80, 0x3f,
  0x3e, 0x38, 0x8c, 0x3e, 0x5b, 0x09, 0x52, 0x3e, 0x9f, 0xd6, 0xc0, 0xbd,
  0x1b, 0xa1, 0x50, 0x3e, 0x02, 0x26, 0x3c, 0xbf, 0xbb, 0x89, 0xfe, 0x3d,
  0x5b, 0xcd, 0x11, 0x3e, 0xcd, 0x88, 0x89, 0x3f, 0x16, 0xee, 0x8e, 0xbf,
  0xb0, 0x07, 0x16, 0x3e, 0x0c, 0x9e, 0x15, 0xbe, 0xf3, 0x29, 0x20, 0xbe,
  0xc9, 0x61, 0x59, 0x3f, 0x5a, 0x50, 0xde, 0x3d, 0xe0, 0x63, 0x8e, 0x3f,
  0x64, 0x18, 0x13, 0xbe, 0x1c, 0x4d, 0x3e, 0xbf, 0xd9, 0x55, 0xb1, 0xbe,
  0xca, 0x1d, 0xe9, 0xbf, 0xaa, 0xfd, 0xff, 0xff, 0x04, 0x00, 0x00, 0x00,
  0x80, 0x00, 0x00, 0x00, 0x25, 0x81, 0x35, 0x3d, 0x00, 0x00, 0x00, 0x00,
  0x25, 0x99, 0x84, 0xbe, 0x31, 0x1a, 0xc8, 0xbd, 0x60, 0xac, 0x4f, 0x3d,
  0x2e, 0xea, 0xe5, 0xbd, 0x16, 0x77, 0x51, 0x3e, 0x7e, 0xab, 0x7e, 0xbd,
  0x55, 0x34, 0x28, 0xbc, 0x28, 0x58, 0x1e, 0xbc, 0xb8, 0x67, 0x96, 0xbc,
  0x00, 0x00, 0x00, 0x00, 0xfe, 0x04, 0x4d, 0x3d, 0x95, 0xa0, 0x45, 0xbd,
  0x5c, 0x39, 0x11, 0x3e, 0x4c, 0xde, 0xdb, 0x3d, 0x00, 0x00, 0x00, 0x00,
  0x00, 0x00, 0x00, 0x00, 0x94, 0xd7, 0xd8, 0x3d, 0xcb, 0x97, 0x1b, 0x3d,
  0xdb, 0x1b, 0xb6, 0xbd, 0xc0, 0x01, 0xbe, 0xbd, 0x50, 0x84, 0x1d, 0xbe,
  0x10, 0xce, 0xdf, 0xbc, 0x00, 0x00, 0x00, 0x00, 0xf6, 0xd7, 0x0a, 0xbc,
  0x29, 0xc9, 0xb2, 0xbd, 0xf3, 0x24, 0x27, 0xbd, 0xfe, 0x78, 0x20, 0xbe,
  0x33, 0x85, 0x95, 0x3b, 0x5b, 0x54, 0x17, 0xbe, 0x2c, 0x99, 0x93, 0xbd,
  0x36, 0xfe, 0xff, 0xff, 0x04, 0x00, 0x00, 0x00, 0x00, 0x01, 0x00, 0x00,
  0xfc, 0x5b, 0xd2, 0x3d, 0x59, 0x78, 0xbf, 0xbe, 0x7d, 0x57, 0x64, 0xbe,
  0xca, 0x99, 0xe6, 0xbe, 0x96, 0x46, 0x28, 0xbf, 0xdd, 0xda, 0x39, 0xbe,
  0xb0, 0x4a, 0xcb, 0xbe, 0x04, 0x11, 0xbc, 0xbe, 0x1c, 0xdf, 0x7d, 0xbe,
  0xe9, 0xb1, 0x54, 0x3e, 0xe0, 0x35, 0x68, 0x3d, 0xf4, 0x4a, 0x23, 0xbf,
  0x6f, 0xa8, 0x39, 0xbd, 0x62, 0xbc, 0x96, 0xbd, 0x4a, 0x39, 0xe2, 0x3d,
  0x16, 0xc5, 0x1a, 0xbf, 0xf4, 0x04, 0x41, 0xbd, 0x72, 0xcc, 0x7f, 0x3e,
  0x9a, 0x9b, 0x32, 0xbe, 0xc7, 0x0a, 0x86, 0x40, 0x00, 0xc3, 0x10, 0xbe,
  0x95, 0x64, 0xde, 0x3e, 0x93, 0x24, 0x7b, 0xbe, 0x3b, 0x1d, 0x04, 0xbe,
  0x68, 0x7c, 0x54, 0xbd, 0x9b, 0xab, 0x74, 0xbc, 0x25, 0xaf, 0x28, 0xbc,
  0x59, 0xfb, 0xe8, 0xbd, 0x9f, 0x91, 0xd3, 0xbe, 0x6b, 0x9e, 0x2d, 0x40,
  0x76, 0x59, 0x85, 0xbe, 0x0f, 0x2b, 0xf4, 0x3e, 0xb0, 0xe7, 0x89, 0xbe,
  0x17, 0x47, 0xdf, 0xbe, 0x19, 0x0e, 0x0b, 0x3f, 0xbf, 0x09, 0x89, 0xbe,
  0x33, 0x3e, 0xbf, 0x3e, 0xd7, 0x45, 0xed, 0xbe, 0xd2, 0x01, 0x74, 0x3d,
  0x6b, 0x31, 0x8d, 0x3f, 0xb9, 0xc9, 0x0a, 0xbf, 0x89, 0x4d, 0xe3, 0x3d,
  0x4a, 0x75, 0x03, 0x3f, 0x77, 0xc6, 0x99, 0xbe, 0xec, 0x8a, 0xa6, 0xbe,
  0x2c, 0x40, 0x2c, 0xbe, 0xac, 0x6b, 0x15, 0x3f, 0xbc, 0xd0, 0x37, 0x3d,
  0xbc, 0x5e, 0x98, 0x3f, 0xf2, 0x18, 0xb8, 0x3e, 0x78, 0x8c, 0xc2, 0x3e,
  0x8b, 0x74, 0x09, 0xbf, 0x17, 0x1d, 0x3e, 0x40, 0xf0, 0x5c, 0xbb, 0xbe,
  0xee, 0x8f, 0xb2, 0x3e, 0xe2, 0x6c, 0xbf, 0x3e, 0xd5, 0x78, 0x15, 0x3f,
  0x68, 0x2b, 0x3e, 0x3f, 0x5a, 0x86, 0x57, 0x3d, 0x42, 0xc5, 0x4b, 0x3e,
  0x82, 0x62, 0xfc, 0x3e, 0x2c, 0x50, 0xe8, 0xbd, 0x3a, 0x7e, 0x3b, 0xbe,
  0xa0, 0xc5, 0xf4, 0xbe, 0x42, 0xff, 0xff, 0xff, 0x04, 0x00, 0x00, 0x00,
  0x1c, 0x00, 0x00, 0x00, 0x65, 0x38, 0x3b, 0x40, 0x80, 0xe3, 0xd6, 0x3f,
  0x3a, 0xd2, 0x0e, 0x40, 0xb8, 0x6b, 0x1c, 0x40, 0x09, 0x47, 0x01, 0x40,
  0x98, 0x2e, 0x54, 0x40, 0xed, 0x8f, 0x15, 0x40, 0x20, 0xfa, 0xff, 0xff,
  0x24, 0xfa, 0xff, 0xff, 0x0f, 0x00, 0x00, 0x00, 0x4d, 0x4c, 0x49, 0x52,
  0x20, 0x43, 0x6f, 0x6e, 0x76, 0x65, 0x72, 0x74, 0x65, 0x64, 0x2e, 0x00,
  0x01, 0x00, 0x00, 0x00, 0x14, 0x00, 0x00, 0x00, 0x00, 0x00, 0x0e, 0x00,
  0x18, 0x00, 0x14, 0x00, 0x10, 0x00, 0x0c, 0x00, 0x08, 0x00, 0x04, 0x00,
  0x0e, 0x00, 0x00, 0x00, 0x14, 0x00, 0x00, 0x00, 0x1c, 0x00, 0x00, 0x00,
  0x24, 0x01, 0x00, 0x00, 0x28, 0x01, 0x00, 0x00, 0x2c, 0x01, 0x00, 0x00,
  0x04, 0x00, 0x00, 0x00, 0x6d, 0x61, 0x69, 0x6e, 0x00, 0x00, 0x00, 0x00,
  0x04, 0x00, 0x00, 0x00, 0xcc, 0x00, 0x00, 0x00, 0x84, 0x00, 0x00, 0x00,
  0x50, 0x00, 0x00, 0x00, 0x14, 0x00, 0x00, 0x00, 0x00, 0x00, 0x0e, 0x00,
  0x1a, 0x00, 0x14, 0x00, 0x10, 0x00, 0x0c, 0x00, 0x0b, 0x00, 0x04, 0x00,
  0x0e, 0x00, 0x00, 0x00, 0x1c, 0x00, 0x00, 0x00, 0x00, 0x00, 0x00, 0x09,
  0x1c, 0x00, 0x00, 0x00, 0x20, 0x00, 0x00, 0x00, 0x01, 0x00, 0x00, 0x00,
  0x00, 0x00, 0x06, 0x00, 0x08, 0x00, 0x04, 0x00, 0x06, 0x00, 0x00, 0x00,
  0x00, 0x00, 0x80, 0x3f, 0x01, 0x00, 0x00, 0x00, 0x0a, 0x00, 0x00, 0x00,
  0x01, 0x00, 0x00, 0x00, 0x09, 0x00, 0x00, 0x00, 0x9a, 0xff, 0xff, 0xff,
  0x10, 0x00, 0x00, 0x00, 0x00, 0x00, 0x00, 0x08, 0x0c, 0x00, 0x00, 0x00,
  0x10, 0x00, 0x00, 0x00, 0xe8, 0xfa, 0xff, 0xff, 0x01, 0x00, 0x00, 0x00,
  0x09, 0x00, 0x00, 0x00, 0x03, 0x00, 0x00, 0x00, 0x08, 0x00, 0x00, 0x00,
  0x06, 0x00, 0x00, 0x00, 0x01, 0x00, 0x00, 0x00, 0xca, 0xff, 0xff, 0xff,
  0x10, 0x00, 0x00, 0x00, 0x00, 0x00, 0x00, 0x08, 0x10, 0x00, 0x00, 0x00,
  0x14, 0x00, 0x00, 0x00, 0xba, 0xff, 0xff, 0xff, 0x00, 0x00, 0x00, 0x01,
  0x01, 0x00, 0x00, 0x00, 0x08, 0x00, 0x00, 0x00, 0x03, 0x00, 0x00, 0x00,
  0x07, 0x00, 0x00, 0x00, 0x05, 0x00, 0x00, 0x00, 0x02, 0x00, 0x00, 0x00,
  0x00, 0x00, 0x0e, 0x00, 0x16, 0x00, 0x00, 0x00, 0x10, 0x00, 0x0c, 0x00,
  0x0b, 0x00, 0x04, 0x00, 0x0e, 0x00, 0x00, 0x00, 0x18, 0x00, 0x00, 0x00,
  0x00, 0x00, 0x00, 0x08, 0x18, 0x00, 0x00, 0x00, 0x1c, 0x00, 0x00, 0x00,
  0x00, 0x00, 0x06, 0x00, 0x08, 0x00, 0x07, 0x00, 0x06, 0x00, 0x00, 0x00,
  0x00, 0x00, 0x00, 0x01, 0x01, 0x00, 0x00, 0x00, 0x07, 0x00, 0x00, 0x00,
  0x03, 0x00, 0x00, 0x00, 0x00, 0x00, 0x00, 0x00, 0x04, 0x00, 0x00, 0x00,
  0x03, 0x00, 0x00, 0x00, 0x01, 0x00, 0x00, 0x00, 0x0a, 0x00, 0x00, 0x00,
  0x01, 0x00, 0x00, 0x00, 0x00, 0x00, 0x00, 0x00, 0x0b, 0x00, 0x00, 0x00,
  0x40, 0x04, 0x00, 0x00, 0xcc, 0x03, 0x00, 0x00, 0x58, 0x03, 0x00, 0x00,
  0xfc, 0x02, 0x00, 0x00, 0xac, 0x02, 0x00, 0x00, 0x5c, 0x02, 0x00, 0x00,
  0x0c, 0x02, 0x00, 0x00, 0x74, 0x01, 0x00, 0x00, 0xdc, 0x00, 0x00, 0x00,
  0x60, 0x00, 0x00, 0x00, 0x04, 0x00, 0x00, 0x00, 0x02, 0xfc, 0xff, 0xff,
  0x00, 0x00, 0x00, 0x01, 0x14, 0x00, 0x00, 0x00, 0x1c, 0x00, 0x00, 0x00,
  0x1c, 0x00, 0x00, 0x00, 0x0b, 0x00, 0x00, 0x00, 0x34, 0x00, 0x00, 0x00,
  0x02, 0x00, 0x00, 0x00, 0xff, 0xff, 0xff, 0xff, 0x07, 0x00, 0x00, 0x00,
  0xec, 0xfb, 0xff, 0xff, 0x19, 0x00, 0x00, 0x00, 0x53, 0x74, 0x61, 0x74,
  0x65, 0x66, 0x75, 0x6c, 0x50, 0x61, 0x72, 0x74, 0x69, 0x74, 0x69, 0x6f,
  0x6e, 0x65, 0x64, 0x43, 0x61, 0x6c, 0x6c, 0x3a, 0x30, 0x00, 0x00, 0x00,
  0x02, 0x00, 0x00, 0x00, 0x01, 0x00, 0x00, 0x00, 0x07, 0x00, 0x00, 0x00,
  0x5a, 0xfc, 0xff, 0xff, 0x00, 0x00, 0x00, 0x01, 0x14, 0x00, 0x00, 0x00,
  0x1c, 0x00, 0x00, 0x00, 0x1c, 0x00, 0x00, 0x00, 0x0a, 0x00, 0x00, 0x00,
  0x54, 0x00, 0x00, 0x00, 0x02, 0x00, 0x00, 0x00, 0xff, 0xff, 0xff, 0xff,
  0x07, 0x00, 0x00, 0x00, 0x44, 0xfc, 0xff, 0xff, 0x3a, 0x00, 0x00, 0x00,
  0x73, 0x65, 0x71, 0x75, 0x65, 0x6e, 0x74, 0x69, 0x61, 0x6c, 0x5f, 0x35,
  0x2f, 0x64, 0x65, 0x6e, 0x73, 0x65, 0x5f, 0x32, 0x31, 0x2f, 0x4d, 0x61,
  0x74, 0x4d, 0x75, 0x6c, 0x3b, 0x73, 0x65, 0x71, 0x75, 0x65, 0x6e, 0x74,
  0x69, 0x61, 0x6c, 0x5f, 0x35, 0x2f, 0x64, 0x65, 0x6e, 0x73, 0x65, 0x5f,
  0x32, 0x31, 0x2f, 0x42, 0x69, 0x61, 0x73, 0x41, 0x64, 0x64, 0x00, 0x00,
  0x02, 0x00, 0x00, 0x00, 0x01, 0x00, 0x00, 0x00, 0x07, 0x00, 0x00, 0x00,
  0xd2, 0xfc, 0xff, 0xff, 0x00, 0x00, 0x00, 0x01, 0x14, 0x00, 0x00, 0x00,
  0x1c, 0x00, 0x00, 0x00, 0x1c, 0x00, 0x00, 0x00, 0x09, 0x00, 0x00, 0x00,
  0x70, 0x00, 0x00, 0x00, 0x02, 0x00, 0x00, 0x00, 0xff, 0xff, 0xff, 0xff,
  0x40, 0x00, 0x00, 0x00, 0xbc, 0xfc, 0xff, 0xff, 0x55, 0x00, 0x00, 0x00,
  0x73, 0x65, 0x71, 0x75, 0x65, 0x6e, 0x74, 0x69, 0x61, 0x6c, 0x5f, 0x35,
  0x2f, 0x64, 0x65, 0x6e, 0x73, 0x65, 0x5f, 0x32, 0x30, 0x2f, 0x4d, 0x61,
  0x74, 0x4d, 0x75, 0x6c, 0x3b, 0x73, 0x65, 0x71, 0x75, 0x65, 0x6e, 0x74,
  0x69, 0x61, 0x6c, 0x5f, 0x35, 0x2f, 0x64, 0x65, 0x6e, 0x73, 0x65, 0x5f,
  0x32, 0x30, 0x2f, 0x52, 0x65, 0x6c, 0x75, 0x3b, 0x73, 0x65, 0x71, 0x75,
  0x65, 0x6e, 0x74, 0x69, 0x61, 0x6c, 0x5f, 0x35, 0x2f, 0x64, 0x65, 0x6e,
  0x73, 0x65, 0x5f, 0x32, 0x30, 0x2f, 0x42, 0x69, 0x61, 0x73, 0x41, 0x64,
  0x64, 0x00, 0x00, 0x00, 0x02, 0x00, 0x00, 0x00, 0x01, 0x00, 0x00, 0x00,
  0x40, 0x00, 0x00, 0x00, 0x66, 0xfd, 0xff, 0xff, 0x00, 0x00, 0x00, 0x01,
  0x14, 0x00, 0x00, 0x00, 0x1c, 0x00, 0x00, 0x00, 0x1c, 0x00, 0x00, 0x00,
  0x08, 0x00, 0x00, 0x00, 0x70, 0x00, 0x00, 0x00, 0x02, 0x00, 0x00, 0x00,
  0xff, 0xff, 0xff, 0xff, 0x20, 0x00, 0x00, 0x00, 0x50, 0xfd, 0xff, 0xff,
  0x55, 0x00, 0x00, 0x00, 0x73, 0x65, 0x71, 0x75, 0x65, 0x6e, 0x74, 0x69,
  0x61, 0x6c, 0x5f, 0x35, 0x2f, 0x64, 0x65, 0x6e, 0x73, 0x65, 0x5f, 0x31,
  0x39, 0x2f, 0x4d, 0x61, 0x74, 0x4d, 0x75, 0x6c, 0x3b, 0x73, 0x65, 0x71,
  0x75, 0x65, 0x6e, 0x74, 0x69, 0x61, 0x6c, 0x5f, 0x35, 0x2f, 0x64, 0x65,
  0x6e, 0x73, 0x65, 0x5f, 0x31, 0x39, 0x2f, 0x52, 0x65, 0x6c, 0x75, 0x3b,
  0x73, 0x65, 0x71, 0x75, 0x65, 0x6e, 0x74, 0x69, 0x61, 0x6c, 0x5f, 0x35,
  0x2f, 0x64, 0x65, 0x6e, 0x73, 0x65, 0x5f, 0x31, 0x39, 0x2f, 0x42, 0x69,
  0x61, 0x73, 0x41, 0x64, 0x64, 0x00, 0x00, 0x00, 0x02, 0x00, 0x00, 0x00,
  0x01, 0x00, 0x00, 0x00, 0x20, 0x00, 0x00, 0x00, 0x6a, 0xfe, 0xff, 0xff,
  0x00, 0x00, 0x00, 0x01, 0x10, 0x00, 0x00, 0x00, 0x10, 0x00, 0x00, 0x00,
  0x07, 0x00, 0x00, 0x00, 0x2c, 0x00, 0x00, 0x00, 0xd4, 0xfd, 0xff, 0xff,
  0x1c, 0x00, 0x00, 0x00, 0x73, 0x65, 0x71, 0x75, 0x65, 0x6e, 0x74, 0x69,
  0x61, 0x6c, 0x5f, 0x35, 0x2f, 0x64, 0x65, 0x6e, 0x73, 0x65, 0x5f, 0x32,
  0x31, 0x2f, 0x4d, 0x61, 0x74, 0x4d, 0x75, 0x6c, 0x00, 0x00, 0x00, 0x00,
  0x02, 0x00, 0x00, 0x00, 0x07, 0x00, 0x00, 0x00, 0x40, 0x00, 0x00, 0x00,
  0xb6, 0xfe, 0xff, 0xff, 0x00, 0x00, 0x00, 0x01, 0x10, 0x00, 0x00, 0x00,
  0x10, 0x00, 0x00, 0x00, 0x06, 0x00, 0x00, 0x00, 0x2c, 0x00, 0x00, 0x00,
  0x20, 0xfe, 0xff, 0xff, 0x1c, 0x00, 0x00, 0x00, 0x73, 0x65, 0x71, 0x75,
  0x65, 0x6e, 0x74, 0x69, 0x61, 0x6c, 0x5f, 0x35, 0x2f, 0x64, 0x65, 0x6e,
  0x73, 0x65, 0x5f, 0x32, 0x30, 0x2f, 0x4d, 0x61, 0x74, 0x4d, 0x75, 0x6c,
  0x00, 0x00, 0x00, 0x00, 0x02, 0x00, 0x00, 0x00, 0x40, 0x00, 0x00, 0x00,
  0x20, 0x00, 0x00, 0x00, 0x02, 0xff, 0xff, 0xff, 0x00, 0x00, 0x00, 0x01,
  0x10, 0x00, 0x00, 0x00, 0x10, 0x00, 0x00, 0x00, 0x05, 0x00, 0x00, 0x00,
  0x2c, 0x00, 0x00, 0x00, 0x6c, 0xfe, 0xff, 0xff, 0x1c, 0x00, 0x00, 0x00,
  0x73, 0x65, 0x71, 0x75, 0x65, 0x6e, 0x74, 0x69, 0x61, 0x6c, 0x5f, 0x35,
  0x2f, 0x64, 0x65, 0x6e, 0x73, 0x65, 0x5f, 0x31, 0x39, 0x2f, 0x4d, 0x61,
  0x74, 0x4d, 0x75, 0x6c, 0x00, 0x00, 0x00, 0x00, 0x02, 0x00, 0x00, 0x00,
  0x20, 0x00, 0x00, 0x00, 0x08, 0x00, 0x00, 0x00, 0x4e, 0xff, 0xff, 0xff,
  0x00, 0x00, 0x00, 0x01, 0x10, 0x00, 0x00, 0x00, 0x10, 0x00, 0x00, 0x00,
  0x04, 0x00, 0x00, 0x00, 0x3c, 0x00, 0x00, 0x00, 0xb8, 0xfe, 0xff, 0xff,
  0x2c, 0x00, 0x00, 0x00, 0x73, 0x65, 0x71, 0x75, 0x65, 0x6e, 0x74, 0x69,
  0x61, 0x6c, 0x5f, 0x35, 0x2f, 0x64, 0x65, 0x6e, 0x73, 0x65, 0x5f, 0x31,
  0x39, 0x2f, 0x42, 0x69, 0x61, 0x73, 0x41, 0x64, 0x64, 0x2f, 0x52, 0x65,
  0x61, 0x64, 0x56, 0x61, 0x72, 0x69, 0x61, 0x62, 0x6c, 0x65, 0x4f, 0x70,
  0x00, 0x00, 0x00, 0x00, 0x01, 0x00, 0x00, 0x00, 0x20, 0x00, 0x00, 0x00,
  0xa6, 0xff, 0xff, 0xff, 0x00, 0x00, 0x00, 0x01, 0x10, 0x00, 0x00, 0x00,
  0x10, 0x00, 0x00, 0x00, 0x03, 0x00, 0x00, 0x00, 0x3c, 0x00, 0x00, 0x00,
  0x10, 0xff, 0xff, 0xff, 0x2c, 0x00, 0x00, 0x00, 0x73, 0x65, 0x71, 0x75,
  0x65, 0x6e, 0x74, 0x69, 0x61, 0x6c, 0x5f, 0x35, 0x2f, 0x64, 0x65, 0x6e,
  0x73, 0x65, 0x5f, 0x32, 0x30, 0x2f, 0x42, 0x69, 0x61, 0x73, 0x41, 0x64,
  0x64, 0x2f, 0x52, 0x65, 0x61, 0x64, 0x56, 0x61, 0x72, 0x69, 0x61, 0x62,
  0x6c, 0x65, 0x4f, 0x70, 0x00, 0x00, 0x00, 0x00, 0x01, 0x00, 0x00, 0x00,
  0x40, 0x00, 0x00, 0x00, 0x00, 0x00, 0x16, 0x00, 0x18, 0x00, 0x14, 0x00,
  0x00, 0x00, 0x10, 0x00, 0x0c, 0x00, 0x08, 0x00, 0x00, 0x00, 0x00, 0x00,
  0x00, 0x00, 0x07, 0x00, 0x16, 0x00, 0x00, 0x00, 0x00, 0x00, 0x00, 0x01,
  0x10, 0x00, 0x00, 0x00, 0x10, 0x00, 0x00, 0x00, 0x02, 0x00, 0x00, 0x00,
  0x3c, 0x00, 0x00, 0x00, 0x80, 0xff, 0xff, 0xff, 0x2c, 0x00, 0x00, 0x00,
  0x73, 0x65, 0x71, 0x75, 0x65, 0x6e, 0x74, 0x69, 0x61, 0x6c, 0x5f, 0x35,
  0x2f, 0x64, 0x65, 0x6e, 0x73, 0x65, 0x5f, 0x32, 0x31, 0x2f, 0x42, 0x69,
  0x61, 0x73, 0x41, 0x64, 0x64, 0x2f, 0x52, 0x65, 0x61, 0x64, 0x56, 0x61,
  0x72, 0x69, 0x61, 0x62, 0x6c, 0x65, 0x4f, 0x70, 0x00, 0x00, 0x00, 0x00,
  0x01, 0x00, 0x00, 0x00, 0x07, 0x00, 0x00, 0x00, 0x00, 0x00, 0x16, 0x00,
  0x1c, 0x00, 0x18, 0x00, 0x00, 0x00, 0x14, 0x00, 0x10, 0x00, 0x0c, 0x00,
  0x00, 0x00, 0x00, 0x00, 0x08, 0x00, 0x07, 0x00, 0x16, 0x00, 0x00, 0x00,
  0x00, 0x00, 0x00, 0x01, 0x14, 0x00, 0x00, 0x00, 0x20, 0x00, 0x00, 0x00,
  0x20, 0x00, 0x00, 0x00, 0x01, 0x00, 0x00, 0x00, 0x40, 0x00, 0x00, 0x00,
  0x02, 0x00, 0x00, 0x00, 0xff, 0xff, 0xff, 0xff, 0x08, 0x00, 0x00, 0x00,
  0x04, 0x00, 0x04, 0x00, 0x04, 0x00, 0x00, 0x00, 0x20, 0x00, 0x00, 0x00,
  0x73, 0x65, 0x72, 0x76, 0x69, 0x6e, 0x67, 0x5f, 0x64, 0x65, 0x66, 0x61,
  0x75, 0x6c, 0x74, 0x5f, 0x64, 0x65, 0x6e, 0x73, 0x65, 0x5f, 0x31, 0x39,
  0x5f, 0x69, 0x6e, 0x70, 0x75, 0x74, 0x3a, 0x30, 0x00, 0x00, 0x00, 0x00,
  0x02, 0x00, 0x00, 0x00, 0x01, 0x00, 0x00, 0x00, 0x08, 0x00, 0x00, 0x00,
  0x02, 0x00, 0x00, 0x00, 0x20, 0x00, 0x00, 0x00, 0x04, 0x00, 0x00, 0x00,
  0xf4, 0xff, 0xff, 0xff, 0x19, 0x00, 0x00, 0x00, 0x00, 0x00, 0x00, 0x19,
  0x0c, 0x00, 0x0c, 0x00, 0x0b, 0x00, 0x00, 0x00, 0x00, 0x00, 0x04, 0x00,
  0x0c, 0x00, 0x00, 0x00, 0x09, 0x00, 0x00, 0x00, 0x00, 0x00, 0x00, 0x09
};
