const unsigned char model[] = {
  0x1c, 0x00, 0x00, 0x00, 0x54, 0x46, 0x4c, 0x33, 0x14, 0x00, 0x20, 0x00,
  0x1c, 0x00, 0x18, 0x00, 0x14, 0x00, 0x10, 0x00, 0x0c, 0x00, 0x00, 0x00,
  0x08, 0x00, 0x04, 0x00, 0x14, 0x00, 0x00, 0x00, 0x1c, 0x00, 0x00, 0x00,
  0x94, 0x00, 0x00, 0x00, 0xec, 0x00, 0x00, 0x00, 0x3c, 0x16, 0x00, 0x00,
  0x4c, 0x16, 0x00, 0x00, 0x24, 0x1c, 0x00, 0x00, 0x03, 0x00, 0x00, 0x00,
  0x01, 0x00, 0x00, 0x00, 0x10, 0x00, 0x00, 0x00, 0x00, 0x00, 0x0a, 0x00,
  0x10, 0x00, 0x0c, 0x00, 0x08, 0x00, 0x04, 0x00, 0x0a, 0x00, 0x00, 0x00,
  0x0c, 0x00, 0x00, 0x00, 0x1c, 0x00, 0x00, 0x00, 0x38, 0x00, 0x00, 0x00,
  0x0f, 0x00, 0x00, 0x00, 0x73, 0x65, 0x72, 0x76, 0x69, 0x6e, 0x67, 0x5f,
  0x64, 0x65, 0x66, 0x61, 0x75, 0x6c, 0x74, 0x00, 0x01, 0x00, 0x00, 0x00,
  0x04, 0x00, 0x00, 0x00, 0x94, 0xff, 0xff, 0xff, 0x0a, 0x00, 0x00, 0x00,
  0x04, 0x00, 0x00, 0x00, 0x07, 0x00, 0x00, 0x00, 0x64, 0x65, 0x6e, 0x73,
  0x65, 0x5f, 0x35, 0x00, 0x01, 0x00, 0x00, 0x00, 0x04, 0x00, 0x00, 0x00,
  0xa6, 0xe9, 0xff, 0xff, 0x04, 0x00, 0x00, 0x00, 0x0d, 0x00, 0x00, 0x00,
  0x64, 0x65, 0x6e, 0x73, 0x65, 0x5f, 0x33, 0x5f, 0x69, 0x6e, 0x70, 0x75,
  0x74, 0x00, 0x00, 0x00, 0x02, 0x00, 0x00, 0x00, 0x34, 0x00, 0x00, 0x00,
  0x04, 0x00, 0x00, 0x00, 0xdc, 0xff, 0xff, 0xff, 0x0d, 0x00, 0x00, 0x00,
  0x04, 0x00, 0x00, 0x00, 0x13, 0x00, 0x00, 0x00, 0x43, 0x4f, 0x4e, 0x56,
  0x45, 0x52, 0x53, 0x49, 0x4f, 0x4e, 0x5f, 0x4d, 0x45, 0x54, 0x41, 0x44,
  0x41, 0x54, 0x41, 0x00, 0x08, 0x00, 0x0c, 0x00, 0x08, 0x00, 0x04, 0x00,
  0x08, 0x00, 0x00, 0x00, 0x0c, 0x00, 0x00, 0x00, 0x04, 0x00, 0x00, 0x00,
  0x13, 0x00, 0x00, 0x00, 0x6d, 0x69, 0x6e, 0x5f, 0x72, 0x75, 0x6e, 0x74,
  0x69, 0x6d, 0x65, 0x5f, 0x76, 0x65, 0x72, 0x73, 0x69, 0x6f, 0x6e, 0x00,
  0x0e, 0x00, 0x00, 0x00, 0x4c, 0x15, 0x00, 0x00, 0x44, 0x15, 0x00, 0x00,
  0x20, 0x15, 0x00, 0x00, 0xd4, 0x14, 0x00, 0x00, 0xfc, 0x13, 0x00, 0x00,
  0xac, 0x0d, 0x00, 0x00, 0xe4, 0x01, 0x00, 0x00, 0xa8, 0x00, 0x00, 0x00,
  0xa0, 0x00, 0x00, 0x00, 0x98, 0x00, 0x00, 0x00, 0x90, 0x00, 0x00, 0x00,
  0x88, 0x00, 0x00, 0x00, 0x68, 0x00, 0x00, 0x00, 0x04, 0x00, 0x00, 0x00,
  0x5a, 0xea, 0xff, 0xff, 0x04, 0x00, 0x00, 0x00, 0x54, 0x00, 0x00, 0x00,
  0x0c, 0x00, 0x00, 0x00, 0x08, 0x00, 0x0e, 0x00, 0x08, 0x00, 0x04, 0x00,
  0x08, 0x00, 0x00, 0x00, 0x10, 0x00, 0x00, 0x00, 0x24, 0x00, 0x00, 0x00,
  0x00, 0x00, 0x06, 0x00, 0x08, 0x00, 0x04, 0x00, 0x06, 0x00, 0x00, 0x00,
  0x04, 0x00, 0x00, 0x00, 0x00, 0x00, 0x00, 0x00, 0x00, 0x00, 0x0a, 0x00,
  0x10, 0x00, 0x0c, 0x00, 0x08, 0x00, 0x04, 0x00, 0x0a, 0x00, 0x00, 0x00,
  0x02, 0x00, 0x00, 0x00, 0x02, 0x00, 0x00, 0x00, 0x04, 0x00, 0x00, 0x00,
  0x06, 0x00, 0x00, 0x00, 0x32, 0x2e, 0x31, 0x33, 0x2e, 0x30, 0x00, 0x00,
  0xba, 0xea, 0xff, 0xff, 0x04, 0x00, 0x00, 0x00, 0x10, 0x00, 0x00, 0x00,
  0x31, 0x2e, 0x35, 0x2e, 0x30, 0x00, 0x00, 0x00, 0x00, 0x00, 0x00, 0x00,
  0x00, 0x00, 0x00, 0x00, 0xac, 0xe5, 0xff, 0xff, 0xb0, 0xe5, 0xff, 0xff,
  0xb4, 0xe5, 0xff, 0xff, 0xb8, 0xe5, 0xff, 0xff, 0xe6, 0xea, 0xff, 0xff,
  0x04, 0x00, 0x00, 0x00, 0x2c, 0x01, 0x00, 0x00, 0x04, 0x7b, 0x6d, 0x3f,
  0xc1, 0x4b, 0x80, 0x3e, 0x58, 0xd7, 0x72, 0xbe, 0x7a, 0x70, 0x3b, 0x3e,
  0x23, 0x91, 0x13, 0x3f, 0xa7, 0x90, 0x88, 0xbf, 0x3a, 0xea, 0x01, 0xbf,
  0x2d, 0x38, 0x5b, 0xbe, 0xe6, 0x98, 0xee, 0xbe, 0xd4, 0x14, 0x91, 0xbe,
  0x11, 0x2f, 0x26, 0xbf, 0x62, 0x91, 0x8e, 0xbf, 0x45, 0x04, 0xff, 0x3e,
  0x0f, 0x56, 0x48, 0xbf, 0x60, 0x09, 0x96, 0x3d, 0xb2, 0x0e, 0xdd, 0xbe,
  0xbb, 0x21, 0x20, 0x3f, 0xce, 0x01, 0x25, 0x3e, 0x7f, 0xa6, 0xa6, 0x3d,
  0xc6, 0x58, 0xca, 0x3d, 0x5c, 0x06, 0x17, 0x3e, 0x4e, 0x1e, 0x02, 0x3f,
  0xa5, 0x76, 0xd9, 0x3d, 0xc3, 0x5e, 0xa5, 0xbe, 0x76, 0x9d, 0x6d, 0x3e,
  0x00, 0xe9, 0x04, 0xbf, 0xb8, 0xe6, 0x19, 0xbf, 0x11, 0xe5, 0x7b, 0x3d,
  0x17, 0x71, 0x10, 0x3e, 0x11, 0xe5, 0x80, 0xbe, 0xf3, 0x1f, 0x81, 0xbf,
  0x14, 0xb2, 0xd5, 0xbe, 0x5a, 0x78, 0x1d, 0xbf, 0x3a, 0xbd, 0xe4, 0xbf,
  0x1e, 0x4d, 0xb7, 0xbf, 0xa8, 0xf1, 0x0b, 0x3f, 0x92, 0x4a, 0x58, 0xbd,
  0xcd, 0x85, 0x60, 0x3e, 0x8b, 0x8b, 0x01, 0x3f, 0x26, 0x8f, 0xf0, 0x3e,
  0x4a, 0xee, 0x66, 0xbf, 0x15, 0xa6, 0x20, 0xbe, 0xab, 0xf6, 0x9a, 0xbe,
  0xfd, 0x35, 0x4e, 0x3f, 0x9e, 0x02, 0xb5, 0x3e, 0xb2, 0x36, 0x8b, 0xbf,
  0x18, 0xbf, 0x3b, 0xbf, 0x90, 0xbc, 0x6f, 0xbe, 0xaa, 0xd6, 0x14, 0xbf,
  0x2f, 0x48, 0xb3, 0x3e, 0x5c, 0x31, 0x3a, 0xbe, 0xeb, 0x61, 0x07, 0x3f,
  0xf9, 0xa4, 0x07, 0x3f, 0xe9, 0x87, 0x91, 0x3e, 0x60, 0x1d, 0x3c, 0xbe,
  0xe0, 0x67, 0xf9, 0xbe, 0x00, 0x9b, 0x08, 0x3f, 0xc0, 0xed, 0x64, 0xbe,
  0x98, 0xa3, 0xab, 0xbd, 0x0f, 0x73, 0xf5, 0xbe, 0x72, 0x07, 0x21, 0x3f,
  0xcb, 0xf9, 0x5f, 0x3f, 0xcf, 0xc2, 0xc1, 0xbf, 0x05, 0x63, 0xed, 0xbc,
  0x0b, 0xfd, 0x52, 0xbf, 0xbc, 0xda, 0x3a, 0x3f, 0x49, 0xa3, 0xcf, 0x3d,
  0x64, 0x1d, 0xa7, 0xbe, 0x78, 0xb1, 0x51, 0xbf, 0x12, 0x96, 0x20, 0x3e,
  0x23, 0xe4, 0x2f, 0x3f, 0xed, 0x22, 0x71, 0x3e, 0x24, 0xc3, 0xf1, 0xbf,
  0xdd, 0xd9, 0xe3, 0x3e, 0x68, 0x0e, 0xf6, 0xbe, 0x1e, 0xec, 0xff, 0xff,
  0x04, 0x00, 0x00, 0x00, 0xb8, 0x0b, 0x00, 0x00, 0x60, 0x02, 0x1d, 0x3e,
  0xb1, 0x10, 0xeb, 0x3d, 0xdd, 0x4a, 0x68, 0x3e, 0xed, 0xb6, 0x0d, 0xbe,
  0x7b, 0x07, 0x27, 0x3f, 0xd4, 0xaa, 0x4c, 0xbe, 0x38, 0xa3, 0x5e, 0xbd,
  0xb7, 0x4d, 0xa1, 0xbb, 0xda, 0xec, 0x4f, 0x3e, 0x7e, 0xb8, 0x8e, 0xbe,
  0xa3, 0x43, 0x1c, 0xbf, 0xc6, 0x70, 0x29, 0x3f, 0x6f, 0xcb, 0x26, 0xbe,
  0xbc, 0xf8, 0x97, 0xbe, 0x08, 0xe0, 0xd3, 0x3e, 0xed, 0xf4, 0x91, 0xbe,
  0x44, 0xc2, 0x7d, 0x3e, 0xcc, 0xec, 0xd5, 0x3c, 0x61, 0x3f, 0x0f, 0x3f,
  0xce, 0x1d, 0x47, 0xbe, 0x67, 0xf2, 0x2c, 0xbf, 0x04, 0x3a, 0xa6, 0xbe,
  0x18, 0xe1, 0x2f, 0xbd, 0x84, 0x25, 0x10, 0x3e, 0x1e, 0xf8, 0x7f, 0x3e,
  0x8c, 0x74, 0x6c, 0xbe, 0xe8, 0x92, 0x92, 0x3e, 0x05, 0x1e, 0x18, 0x3f,
  0xce, 0x3f, 0x94, 0xbe, 0x5f, 0x19, 0x31, 0x3c, 0x7a, 0xbd, 0x97, 0x3e,
  0xe8, 0x97, 0x9c, 0xbe, 0x60, 0x92, 0x52, 0x3e, 0xc1, 0xf4, 0x9c, 0x3e,
  0xbc, 0x61, 0x80, 0xbc, 0x97, 0x12, 0x4c, 0x3f, 0xfd, 0xed, 0x15, 0xbf,
  0xf0, 0x77, 0xfe, 0xbe, 0xb1, 0x76, 0x6a, 0x3f, 0xe7, 0xa5, 0x26, 0x3e,
  0x15, 0x9d, 0x9a, 0x3e, 0x80, 0x27, 0x78, 0x3e, 0x45, 0x63, 0x38, 0x3e,
  0x70, 0x08, 0x64, 0x3e, 0x9c, 0x4b, 0x8c, 0xbd, 0x00, 0xa3, 0x64, 0x3c,
  0xf4, 0xd8, 0xbc, 0x3d, 0x2a, 0x8c, 0x6d, 0x3e, 0xbc, 0xf1, 0x2f, 0x3e,
  0x90, 0xdb, 0x36, 0xbd, 0x63, 0x02, 0x02, 0xbe, 0xbd, 0xad, 0xa6, 0xbe,
  0xca, 0x96, 0x68, 0x3e, 0xc0, 0xe6, 0x1e, 0x3c, 0x26, 0x0a, 0x43, 0x3f,
  0xe0, 0xc0, 0xce, 0xbd, 0x24, 0xa6, 0x7a, 0xbe, 0x3d, 0x10, 0x29, 0x3e,
  0xb2, 0x26, 0x33, 0x3e, 0xe2, 0x18, 0x79, 0xbe, 0x03, 0xf0, 0x87, 0x3e,
  0x72, 0xdf, 0x5b, 0x3e, 0x8c, 0xd1, 0xa4, 0x3e, 0x98, 0x6d, 0x5a, 0x3e,
  0x4a, 0x5e, 0xce, 0x3e, 0x24, 0x60, 0x80, 0x3d, 0x83, 0xd3, 0x47, 0xbe,
  0x6c, 0xf2, 0xea, 0xbd, 0x23, 0x6e, 0x2b, 0x3e, 0x9b, 0x6d, 0x40, 0xbe,
  0x6c, 0x85, 0x99, 0x3d, 0x5b, 0x76, 0x04, 0x3d, 0xe7, 0xfe, 0x5e, 0x3e,
  0xfc, 0xd6, 0x98, 0x3e, 0x31, 0xc8, 0xfe, 0xbd, 0xbc, 0xe5, 0x99, 0x3e,
  0x00, 0xd6, 0x0c, 0x3b, 0x00, 0x4d, 0x15, 0x3b, 0xb4, 0x78, 0x86, 0x3e,
  0x8c, 0xe1, 0x15, 0x3e, 0xe4, 0xab, 0x60, 0xbd, 0xc6, 0x24, 0xa2, 0xbe,
  0x6e, 0x6c, 0x8f, 0xbe, 0xcd, 0x1d, 0x44, 0xbe, 0x58, 0x35, 0x93, 0x3e,
  0x4a, 0x10, 0xe1, 0x3e, 0x48, 0x63, 0x88, 0x3d, 0x12, 0x98, 0x44, 0xbe,
  0x5d, 0x30, 0x0a, 0xbe, 0x43, 0xff, 0x90, 0x3e, 0xf9, 0x70, 0x23, 0x3e,
  0x00, 0x7a, 0x41, 0xba, 0x1c, 0xf5, 0xdf, 0xbd, 0x4d, 0xac, 0x81, 0xbe,
  0xac, 0xd6, 0xd4, 0xbe, 0x00, 0x09, 0x89, 0xbb, 0x10, 0x37, 0x54, 0xbd,
  0x02, 0x15, 0x98, 0x3d, 0x00, 0x0e, 0x1c, 0x3b, 0x94, 0x93, 0x80, 0xbe,
  0x67, 0x51, 0x0c, 0xbe, 0x5c, 0x95, 0xed, 0x3c, 0x4f, 0x87, 0xa9, 0xbe,
  0x26, 0x92, 0x8a, 0xbe, 0x0e, 0x49, 0x80, 0xbe, 0x66, 0x55, 0x88, 0x3e,
  0x40, 0x8b, 0x57, 0x3c, 0x9d, 0x4f, 0xce, 0x3e, 0x9a, 0xf1, 0x90, 0x3d,
  0x7e, 0x42, 0xcf, 0x3d, 0x89, 0x99, 0x71, 0xbe, 0x0a, 0x27, 0xfd, 0xbc,
  0xf4, 0xd8, 0x85, 0x3e, 0x85, 0xb2, 0x2d, 0x3e, 0xbe, 0x8f, 0xb4, 0x3e,
  0xec, 0xa9, 0x28, 0x3e, 0xe1, 0x92, 0x92, 0xbe, 0xa4, 0x52, 0x5b, 0xbe,
  0xea, 0xcf, 0xdc, 0x3e, 0xb1, 0x3f, 0x93, 0xbd, 0xb9, 0xf0, 0x2a, 0x3c,
  0xee, 0x0f, 0xf0, 0xbd, 0x64, 0x11, 0x63, 0x3d, 0xb2, 0x2c, 0x95, 0x3e,
  0xf9, 0xd0, 0xa3, 0xbd, 0xda, 0xcd, 0xff, 0xbc, 0x84, 0xd4, 0xa4, 0xbd,
  0xcf, 0x3f, 0xfe, 0x3d, 0x60, 0x67, 0x7c, 0x3d, 0x4b, 0x43, 0xb4, 0x3d,
  0xe6, 0xf7, 0x86, 0xbe, 0xee, 0x78, 0x88, 0xbd, 0x78, 0x86, 0x48, 0x3e,
  0xfa, 0x2d, 0xca, 0x3e, 0x03, 0x60, 0xad, 0x3e, 0xad, 0xfb, 0x8d, 0x3e,
  0xd0, 0xeb, 0xcc, 0xbd, 0x72, 0x52, 0x4b, 0x3e, 0xe1, 0x6a, 0x33, 0x3e,
  0x5c, 0x19, 0xdf, 0x3e, 0x96, 0xc9, 0x8c, 0x3e, 0x6a, 0xc7, 0x35, 0xbd,
  0xeb, 0x3e, 0x19, 0xbd, 0xf2, 0x79, 0x11, 0x3e, 0x5f, 0xbf, 0xb5, 0xbe,
  0x80, 0x5d, 0x6e, 0x3e, 0xf8, 0x1a, 0xd5, 0x3d, 0x4b, 0x98, 0xa5, 0x3e,
  0xb8, 0xb2, 0x05, 0x3e, 0xee, 0xf9, 0x22, 0xbe, 0xd8, 0x65, 0x51, 0x3e,
  0xcb, 0x35, 0x53, 0x3e, 0xe8, 0x13, 0x73, 0x3e, 0x87, 0x4a, 0x29, 0xbe,
  0x04, 0x41, 0xc1, 0x3e, 0x88, 0x79, 0xbb, 0x3d, 0x2e, 0x3c, 0x2c, 0x3e,
  0x95, 0x04, 0xf7, 0x3d, 0x3a, 0x17, 0x83, 0xbe, 0x7c, 0xd5, 0x61, 0xbe,
  0x20, 0xf0, 0xbb, 0xbe, 0x25, 0xb5, 0x41, 0x3f, 0xfc, 0x6c, 0x48, 0x3e,
  0x1e, 0x19, 0x57, 0xbe, 0x2f, 0x3f, 0x37, 0x3f, 0x1b, 0x03, 0x8a, 0xbe,
  0x0b, 0x6b, 0x5d, 0xbe, 0x81, 0xe5, 0x26, 0xbd, 0x1f, 0x28, 0x48, 0x3f,
  0xa0, 0xeb, 0xde, 0x3d, 0x89, 0xaa, 0xa5, 0x3d, 0x26, 0x64, 0xe0, 0xbe,
  0xb6, 0xe9, 0x47, 0xbd, 0x1c, 0x1a, 0x91, 0x3e, 0x5b, 0x1e, 0x2e, 0x3e,
  0xf6, 0xb0, 0x36, 0x3e, 0xa4, 0xca, 0x81, 0x3d, 0x42, 0x24, 0xa9, 0x3e,
  0x90, 0xa3, 0xdb, 0x3c, 0x2c, 0x79, 0x19, 0xbd, 0x38, 0xb5, 0x90, 0xbe,
  0xb9, 0x6e, 0x58, 0x3d, 0xf8, 0x1e, 0x02, 0x3e, 0x93, 0xd6, 0x03, 0x3e,
  0x9a, 0x33, 0x90, 0x3e, 0x54, 0x55, 0x80, 0x3f, 0x30, 0xa3, 0xd7, 0xbe,
  0x37, 0xfb, 0x96, 0xbe, 0xc5, 0xb2, 0x64, 0x3f, 0x42, 0xfe, 0xdf, 0x3e,
  0x20, 0x34, 0xb6, 0x3e, 0xe0, 0xb6, 0x57, 0xbd, 0x44, 0x65, 0x0e, 0xbe,
  0x32, 0xef, 0x95, 0x3e, 0x07, 0x30, 0xf6, 0xbe, 0xc8, 0x34, 0x5c, 0x3d,
  0xf0, 0xa3, 0x46, 0x3d, 0xf4, 0xcc, 0x49, 0x3e, 0x10, 0xfb, 0x43, 0x3e,
  0xbe, 0x0f, 0x9d, 0xbd, 0x0f, 0x9b, 0x93, 0xbe, 0xc1, 0x2f, 0x97, 0xbe,
  0xef, 0x1e, 0x36, 0xbf, 0x71, 0x7f, 0x23, 0xbe, 0x2d, 0x9f, 0x35, 0x3e,
  0xf8, 0x14, 0xdf, 0x3d, 0x68, 0x21, 0x13, 0x3d, 0xc0, 0x91, 0x93, 0xbe,
  0xc2, 0xc2, 0xdd, 0x3d, 0x93, 0x9a, 0x3a, 0x3e, 0x50, 0x34, 0x28, 0xbe,
  0xb8, 0x36, 0xa5, 0x3e, 0x94, 0x17, 0xe8, 0x3d, 0xbc, 0x0f, 0x2d, 0x3e,
  0xfb, 0x62, 0xe7, 0x3e, 0x08, 0x84, 0x00, 0x3e, 0x68, 0x66, 0xfd, 0xbd,
  0x2f, 0x66, 0xff, 0xbd, 0xc3, 0x6b, 0xd0, 0x3e, 0x16, 0x45, 0xb2, 0x3e,
  0x98, 0xec, 0xde, 0xbe, 0x63, 0x1d, 0x36, 0xbe, 0x50, 0x2c, 0x40, 0x3e,
  0xf9, 0xbd, 0x7f, 0xbe, 0x20, 0x93, 0x9e, 0x3e, 0x54, 0x2c, 0x34, 0xbe,
  0x82, 0xab, 0x38, 0x3e, 0x5c, 0xfc, 0x83, 0xbe, 0x90, 0x96, 0xd2, 0x3d,
  0xb8, 0x02, 0xe2, 0x3e, 0x60, 0xe7, 0x24, 0xbc, 0x6d, 0xc2, 0xb3, 0xbe,
  0x28, 0x38, 0x14, 0x3e, 0x74, 0xb9, 0xc3, 0xbd, 0x08, 0xfc, 0xdb, 0x3e,
  0xed, 0xf5, 0x90, 0xbe, 0x0f, 0xdc, 0xba, 0xbd, 0x63, 0x89, 0x88, 0xbe,
  0x25, 0x3e, 0xec, 0x3e, 0x74, 0xd0, 0xdf, 0x3e, 0x3a, 0x4a, 0x56, 0xbd,
  0x10, 0x2e, 0xff, 0xbc, 0xc7, 0xbd, 0xd6, 0xbc, 0x80, 0x56, 0x87, 0x3c,
  0x26, 0xa3, 0x2c, 0xbe, 0x42, 0xb9, 0x81, 0x3e, 0xb0, 0x9b, 0xcb, 0x3c,
  0xba, 0x19, 0xfc, 0x3e, 0x50, 0xfe, 0xcd, 0x3d, 0x58, 0xc6, 0x79, 0x3d,
  0x00, 0x92, 0x14, 0xbd, 0xca, 0xa7, 0x80, 0x3e, 0x20, 0x6e, 0x7c, 0x3f,
  0x68, 0xdd, 0x82, 0x3d, 0x1d, 0x1d, 0xec, 0x3e, 0x04, 0x2c, 0xa0, 0x3e,
  0x1a, 0x16, 0xed, 0xbd, 0xf7, 0x70, 0x11, 0x3e, 0x7c, 0xf5, 0xb7, 0xba,
  0xa7, 0x92, 0xa0, 0x3e, 0xc6, 0x90, 0xb7, 0x3e, 0xcb, 0xa5, 0x68, 0xbe,
  0xf4, 0xa6, 0x6e, 0x3e, 0x4c, 0xb2, 0x91, 0xbe, 0x96, 0x6d, 0x8c, 0xbe,
  0x40, 0x6b, 0x9b, 0x3b, 0x35, 0x1e, 0x83, 0x3e, 0x68, 0xf7, 0x19, 0x3c,
  0x89, 0x6d, 0x9c, 0xbe, 0xb0, 0x92, 0x3e, 0xbe, 0xb6, 0x93, 0x36, 0x3f,
  0x5b, 0x93, 0x72, 0x3e, 0x96, 0x14, 0xa9, 0x3e, 0x9d, 0xa2, 0x9a, 0xbe,
  0x8c, 0x0a, 0xa1, 0x3e, 0x4d, 0xf7, 0x89, 0xbe, 0xd8, 0xdc, 0x36, 0x3e,
  0xb4, 0x59, 0x22, 0x3e, 0xc1, 0x9a, 0x07, 0xbe, 0x51, 0xf4, 0xda, 0xbe,
  0x4c, 0xed, 0x71, 0x3e, 0x59, 0x81, 0x36, 0x3f, 0xfa, 0x38, 0x37, 0xbe,
  0x88, 0x54, 0x33, 0x3d, 0xcc, 0xd8, 0x8f, 0xbe, 0xed, 0xc6, 0x14, 0x3e,
  0x3c, 0x7e, 0x36, 0x3f, 0xf9, 0xfd, 0xa3, 0x3e, 0x6b, 0xa7, 0x81, 0xbe,
  0x75, 0xdf, 0x7f, 0xbe, 0x40, 0xfd, 0xc7, 0xbc, 0x0e, 0x2c, 0x59, 0xbe,
  0x30, 0x05, 0x53, 0x3e, 0xcc, 0x9d, 0x2c, 0xbe, 0x75, 0x03, 0x34, 0x3e,
  0x6c, 0x0d, 0xa2, 0x3d, 0x74, 0x79, 0xdf, 0x3d, 0xda, 0xff, 0xc4, 0x3d,
  0xbc, 0x77, 0x48, 0x3e, 0x27, 0xcd, 0x1d, 0xbe, 0xd0, 0x92, 0x98, 0x3e,
  0xd6, 0x97, 0x55, 0x3e, 0x5e, 0x67, 0x8b, 0xbd, 0x44, 0x49, 0xee, 0x3d,
  0x3a, 0x1d, 0x53, 0xbe, 0xfa, 0x0b, 0xba, 0xbd, 0x0a, 0xf2, 0x96, 0x3e,
  0x56, 0x63, 0xa0, 0x3d, 0x3b, 0xfb, 0x72, 0xbe, 0xf0, 0x17, 0x40, 0xbd,
  0x72, 0xf8, 0x86, 0xbd, 0xb4, 0x54, 0xc3, 0x3d, 0x97, 0x03, 0xc0, 0xbd,
  0xe8, 0xe3, 0x2d, 0x3d, 0xea, 0x8a, 0x1d, 0xbe, 0x12, 0xb7, 0x85, 0xbe,
  0xaf, 0x67, 0x24, 0xbe, 0x38, 0x0d, 0xe8, 0x3d, 0xfc, 0x89, 0x84, 0xbd,
  0xac, 0xcf, 0xf5, 0xbd, 0xd8, 0x64, 0x2f, 0xbe, 0x5f, 0x4e, 0x12, 0x3d,
  0x14, 0xc3, 0xa8, 0xbd, 0x10, 0x2d, 0xb7, 0xbc, 0x8d, 0xf0, 0x5b, 0x3d,
  0x30, 0xf4, 0x90, 0xbe, 0x4c, 0xb6, 0x45, 0x3e, 0x54, 0xba, 0x95, 0x3e,
  0x52, 0x4e, 0x39, 0xbe, 0x38, 0xb0, 0x7e, 0x3e, 0x98, 0x84, 0xdc, 0xbd,
  0x0e, 0xdb, 0x4a, 0xbe, 0x10, 0xd8, 0x2d, 0x3e, 0x15, 0x61, 0x37, 0x3c,
  0xfc, 0x9f, 0x1b, 0xbe, 0x64, 0xc2, 0x4f, 0x3e, 0x96, 0xca, 0xf5, 0xbd,
  0xcc, 0x90, 0x87, 0x3e, 0x4e, 0xec, 0x07, 0xbe, 0x9a, 0xf2, 0x01, 0x3d,
  0x69, 0x3e, 0x92, 0xbd, 0x58, 0x17, 0x28, 0x3d, 0x06, 0xb4, 0x89, 0xbd,
  0x5c, 0xf9, 0x41, 0xbe, 0x7e, 0xdd, 0x67, 0x3c, 0xb8, 0x26, 0x55, 0x3e,
  0xf0, 0xa1, 0xf6, 0x3d, 0x87, 0xb4, 0xcb, 0x3d, 0x6c, 0x59, 0xbb, 0x3d,
  0xf0, 0x04, 0x77, 0xbe, 0x30, 0x33, 0x83, 0x3c, 0x8b, 0x10, 0x24, 0xbd,
  0xaa, 0xf6, 0xa6, 0xbd, 0x4c, 0x57, 0xbb, 0x3d, 0xea, 0x94, 0x4d, 0x3c,
  0xd6, 0x0c, 0x27, 0x3e, 0x62, 0xc6, 0x99, 0x3e, 0x03, 0x18, 0x90, 0xbd,
  0x98, 0xb5, 0x24, 0x3e, 0xf5, 0x41, 0xa8, 0xbd, 0x5b, 0x9e, 0x86, 0x3e,
  0x18, 0x02, 0x55, 0xbd, 0x20, 0x36, 0xa5, 0xbe, 0x6a, 0xe3, 0xfc, 0xbd,
  0xf2, 0x2e, 0x8d, 0xbe, 0x68, 0xc1, 0x91, 0x3e, 0x3c, 0xde, 0x67, 0x3e,
  0x68, 0x67, 0x50, 0xbd, 0xf0, 0xbd, 0xd7, 0xbc, 0x86, 0x2b, 0xa0, 0xbe,
  0xae, 0x02, 0x30, 0x3e, 0x94, 0x23, 0x10, 0x3e, 0x4c, 0xa8, 0xad, 0xbc,
  0xd2, 0x6e, 0x0a, 0x3e, 0x70, 0x94, 0xd0, 0xbd, 0x04, 0x5c, 0x76, 0x3e,
  0x80, 0x14, 0x31, 0x3d, 0xa6, 0x91, 0xee, 0x3d, 0x1c, 0x4a, 0x8f, 0x3e,
  0x46, 0x64, 0x26, 0x3e, 0xf0, 0x93, 0x8e, 0x3d, 0xd8, 0xb8, 0xba, 0x3d,
  0x62, 0x7c, 0x36, 0x3e, 0xcd, 0x77, 0x8d, 0xbe, 0xb4, 0x3d, 0x0b, 0xbe,
  0x90, 0x25, 0x63, 0x3e, 0x2f, 0xcc, 0x95, 0xbe, 0x5b, 0xf9, 0x8f, 0x3e,
  0x61, 0xa6, 0x88, 0x3e, 0x2d, 0xd7, 0x14, 0x3e, 0xfe, 0x22, 0xa1, 0xbe,
  0x70, 0xbd, 0x12, 0x3d, 0xa8, 0xdb, 0x8a, 0xbe, 0x4c, 0xa4, 0x80, 0x3e,
  0x39, 0x5d, 0x17, 0xbe, 0xf8, 0xde, 0xb3, 0x3d, 0xda, 0xd1, 0x1c, 0x3e,
  0x5c, 0x21, 0x5d, 0x3e, 0x5a, 0x7b, 0x2c, 0x3e, 0x28, 0xe5, 0x47, 0xbd,
  0x06, 0xd9, 0x07, 0x3e, 0xa2, 0xa6, 0x38, 0x3e, 0x0d, 0x1f, 0x00, 0xbe,
  0xae, 0xbd, 0x9a, 0x3e, 0x9b, 0x32, 0x4d, 0xbf, 0xd5, 0xd2, 0x87, 0xbe,
  0xa6, 0x18, 0x44, 0x3e, 0x02, 0xd4, 0x7c, 0x3d, 0x7b, 0xf2, 0xa5, 0x3e,
  0xb0, 0xa1, 0xc9, 0x3e, 0x9c, 0x1c, 0x34, 0x3e, 0x1e, 0xf0, 0xf8, 0xbe,
  0x30, 0x2d, 0xaf, 0xbd, 0xa0, 0x35, 0x98, 0xbe, 0x4b, 0xde, 0xf3, 0xbe,
  0x72, 0xac, 0x8b, 0xbe, 0x0e, 0x55, 0xfe, 0x3e, 0x84, 0x90, 0x1a, 0x3e,
  0xcd, 0x60, 0x61, 0xbe, 0x01, 0xfa, 0x02, 0xbe, 0xb2, 0x81, 0xe1, 0xbc,
  0x8c, 0x0e, 0x7c, 0xbd, 0x2e, 0x23, 0x10, 0xbf, 0x18, 0x93, 0x88, 0x3e,
  0xc7, 0x00, 0xe8, 0x3e, 0x17, 0x68, 0x2e, 0x3d, 0x35, 0xb3, 0x1c, 0xbe,
  0xfc, 0xc2, 0xeb, 0xbe, 0xa6, 0x4b, 0xbc, 0xbd, 0x1a, 0x59, 0xba, 0xbd,
  0x80, 0xbf, 0xc5, 0x3b, 0x95, 0x35, 0xf5, 0x3d, 0x7f, 0xa7, 0x52, 0xbe,
  0x49, 0xc4, 0xbe, 0x3e, 0xd2, 0xd4, 0x3b, 0xbb, 0xe7, 0x0c, 0x2e, 0xbf,
  0x10, 0x47, 0x21, 0x3e, 0x27, 0x82, 0x55, 0x3c, 0x29, 0x73, 0x07, 0xbf,
  0x6c, 0xe6, 0xcf, 0x3d, 0xa4, 0x25, 0x5f, 0xbe, 0x68, 0x90, 0x83, 0x3e,
  0xd9, 0x7d, 0xa7, 0xbb, 0x78, 0x9a, 0x16, 0x3d, 0x93, 0x89, 0xd2, 0x3e,
  0x8a, 0xdf, 0xed, 0xbd, 0x60, 0x45, 0x61, 0x3c, 0x05, 0xb2, 0x29, 0x3e,
  0x36, 0xd5, 0x80, 0x3e, 0x66, 0x79, 0x36, 0x3e, 0x3a, 0x82, 0x05, 0xbe,
  0x61, 0xe9, 0x33, 0x3e, 0x73, 0x4d, 0x20, 0x3e, 0x14, 0x35, 0x94, 0xbe,
  0x82, 0x28, 0xf1, 0xbc, 0x14, 0x74, 0x11, 0xbe, 0x9e, 0x5d, 0x91, 0x3e,
  0x0b, 0x73, 0xc2, 0x3d, 0xc6, 0x3c, 0xe5, 0xbd, 0xd6, 0x21, 0x70, 0x3e,
  0xd5, 0x55, 0xac, 0x3d, 0xa2, 0x34, 0xcc, 0x3c, 0x7e, 0x70, 0x17, 0xbe,
  0x3a, 0x5f, 0x97, 0x3e, 0x3d, 0xc7, 0xb6, 0xbd, 0xb4, 0xd5, 0xae, 0x3d,
  0xe0, 0xd3, 0x0f, 0xbe, 0xa0, 0xce, 0x8d, 0xbc, 0xcb, 0x57, 0x94, 0x3e,
  0x85, 0x66, 0x6f, 0xbe, 0x29, 0xf1, 0x23, 0x3e, 0xed, 0x13, 0x8c, 0xbe,
  0x06, 0x50, 0x7c, 0x3e, 0x53, 0x92, 0x29, 0xbe, 0x79, 0xd2, 0x8b, 0xbe,
  0x75, 0x50, 0x49, 0xbe, 0xf1, 0x5b, 0x81, 0xbe, 0x5a, 0x5e, 0x00, 0x3e,
  0x04, 0xba, 0xb3, 0xbd, 0x5d, 0xf5, 0x97, 0xbe, 0x7c, 0x8d, 0x57, 0xbe,
  0x4c, 0x1d, 0x89, 0x3e, 0x2b, 0x83, 0x71, 0xbe, 0x4a, 0x26, 0xc5, 0xbd,
  0x25, 0xbf, 0x55, 0x3d, 0x40, 0x9c, 0x28, 0x3e, 0x44, 0x46, 0x73, 0xbe,
  0x3b, 0xec, 0x2d, 0x3e, 0x5a, 0xde, 0x7d, 0xbe, 0xf5, 0x79, 0x37, 0x3e,
  0xca, 0xd4, 0xa5, 0xbc, 0xac, 0x8b, 0x87, 0x3d, 0x28, 0x0b, 0xfa, 0x3d,
  0x48, 0x8d, 0x5b, 0x3d, 0x48, 0xf8, 0xf8, 0xbd, 0xe2, 0x2c, 0x32, 0xbe,
  0x24, 0xd0, 0x8a, 0x3d, 0x12, 0x74, 0x88, 0x3e, 0xb0, 0xfc, 0xea, 0xbc,
  0xde, 0xe7, 0x59, 0xbe, 0xd1, 0x04, 0x94, 0xbe, 0xe8, 0x0e, 0x4b, 0x3d,
  0xeb, 0xa4, 0x8e, 0x3d, 0x77, 0x14, 0x29, 0xbe, 0xf6, 0x83, 0x95, 0x3e,
  0x7f, 0xd6, 0x8b, 0xbd, 0x58, 0x2b, 0x16, 0xbd, 0x1f, 0xec, 0xd2, 0xbe,
  0x29, 0xdf, 0x3f, 0xbd, 0xce, 0x19, 0x07, 0xbe, 0x46, 0xde, 0xd7, 0xbe,
  0xe7, 0xef, 0x92, 0x3e, 0xd9, 0xbe, 0xfa, 0xbe, 0x9c, 0xe8, 0x76, 0x3e,
  0xa3, 0xa9, 0x81, 0x3e, 0x0e, 0x75, 0x8b, 0xbe, 0x8e, 0x46, 0xb1, 0x3e,
  0x32, 0x4d, 0x56, 0xbe, 0x75, 0x90, 0x40, 0x3e, 0x7e, 0x3f, 0x7d, 0xbe,
  0x6a, 0xf7, 0xa4, 0xbe, 0x72, 0xaa, 0x80, 0x3e, 0xa3, 0x10, 0x10, 0x3e,
  0xd8, 0x1c, 0x6b, 0x3d, 0x9b, 0xf3, 0xab, 0x3d, 0x3c, 0xe2, 0x7b, 0x3e,
  0xc2, 0x55, 0x2a, 0x3e, 0x0b, 0xe6, 0x99, 0x3e, 0xdc, 0x38, 0xf3, 0x3d,
  0x78, 0x05, 0x9a, 0xbe, 0xde, 0xf4, 0x1e, 0x3e, 0x50, 0x8c, 0x37, 0x3e,
  0x08, 0xf0, 0x58, 0xbd, 0x76, 0x5b, 0x1f, 0x3e, 0x30, 0xa4, 0x24, 0xba,
  0x47, 0x0f, 0x65, 0xbe, 0x05, 0x58, 0xcf, 0xbd, 0xcf, 0x98, 0xe7, 0xbd,
  0xf2, 0xdd, 0x96, 0x3e, 0xc5, 0x4e, 0x3a, 0xbe, 0x83, 0xa0, 0xca, 0x3e,
  0x06, 0xc5, 0x0e, 0xbe, 0xd8, 0xab, 0x34, 0x3d, 0x10, 0xfc, 0x7a, 0x3e,
  0x56, 0x05, 0xfa, 0x3e, 0x50, 0x74, 0x7e, 0xbd, 0xb3, 0x80, 0x32, 0xbe,
  0x1d, 0x7b, 0x23, 0xbe, 0xf0, 0x24, 0x91, 0xbc, 0x40, 0x1d, 0x37, 0x3c,
  0x42, 0xda, 0x27, 0x3e, 0x7f, 0xa0, 0x50, 0x3e, 0x08, 0xe5, 0xe0, 0x3c,
  0x89, 0x23, 0x8c, 0xbe, 0xa1, 0xd0, 0x41, 0x3f, 0x00, 0x63, 0x6f, 0xbe,
  0x88, 0xf7, 0x54, 0xbd, 0xa1, 0x8f, 0xbe, 0xbb, 0x21, 0x42, 0xcb, 0x3e,
  0xea, 0x14, 0xbf, 0xbd, 0x86, 0x36, 0x25, 0x3f, 0xc0, 0xfb, 0x32, 0xbe,
  0x26, 0xf8, 0xcf, 0x3d, 0x66, 0xeb, 0x4e, 0x3e, 0xd0, 0xea, 0xa3, 0xbd,
  0xc4, 0xb9, 0x68, 0x3e, 0x97, 0x5f, 0x06, 0x3e, 0x82, 0xf6, 0xad, 0xbd,
  0x81, 0x22, 0x5e, 0xbe, 0xac, 0x20, 0x83, 0x3e, 0x1f, 0x95, 0x17, 0x3f,
  0x14, 0xd2, 0x28, 0x3f, 0x57, 0x73, 0x07, 0x3f, 0xb0, 0xa7, 0x11, 0x3e,
  0x2f, 0x8e, 0xbc, 0x3d, 0xd9, 0xf7, 0x43, 0xbe, 0x45, 0xe6, 0x95, 0xbe,
  0x21, 0x14, 0xfc, 0x3d, 0x30, 0xfb, 0xe5, 0x3c, 0x94, 0x2d, 0xa2, 0xbe,
  0x74, 0x49, 0x4e, 0x3e, 0x8c, 0x98, 0xad, 0x3e, 0x68, 0x4f, 0x76, 0x3e,
  0xa1, 0xe3, 0x4b, 0xbe, 0xfb, 0x44, 0x5c, 0xbe, 0x39, 0xc9, 0x29, 0xbf,
  0x8a, 0x6e, 0x91, 0x3e, 0x5e, 0x8f, 0xe3, 0x3e, 0xa1, 0x73, 0xec, 0xbe,
  0x05, 0xa7, 0xe2, 0xbb, 0x06, 0x95, 0xa5, 0x3e, 0x89, 0x22, 0x84, 0xbe,
  0x6d, 0x07, 0x73, 0x3d, 0xa0, 0x0e, 0x6b, 0x3e, 0xf6, 0x81, 0x0b, 0x3f,
  0xa0, 0x5c, 0x4e, 0x3e, 0x38, 0xbb, 0x55, 0x3e, 0xd8, 0x80, 0x62, 0x3e,
  0x44, 0xb7, 0x5c, 0xbd, 0x28, 0x6d, 0x5b, 0x3d, 0x38, 0x98, 0xe4, 0x3d,
  0xde, 0x71, 0x79, 0xbe, 0xd9, 0x27, 0x8a, 0x3e, 0x04, 0x1c, 0x6a, 0x3e,
  0xb8, 0xe4, 0x40, 0xbe, 0x2f, 0xd5, 0x62, 0x3e, 0xd2, 0x91, 0x5d, 0xbe,
  0x87, 0x9c, 0x36, 0x3e, 0x21, 0x3d, 0x9b, 0x3d, 0x6d, 0xcb, 0x0c, 0x3e,
  0x44, 0x86, 0xba, 0xbe, 0x74, 0xfc, 0x0e, 0x3f, 0x08, 0x6f, 0x2c, 0x3e,
  0x80, 0xe1, 0x9a, 0x3d, 0xf0, 0x8d, 0xbc, 0x3e, 0x1b, 0x12, 0x80, 0xbe,
  0x6d, 0x96, 0x9f, 0xbe, 0xbf, 0x25, 0x81, 0x3d, 0xc6, 0x4c, 0xd2, 0x3e,
  0xeb, 0x9a, 0xae, 0x3e, 0xf3, 0x6d, 0xcf, 0xbe, 0xdf, 0xcb, 0x2a, 0x3e,
  0x66, 0x10, 0xa6, 0xbe, 0xc8, 0x8a, 0x9b, 0xbe, 0xea, 0x29, 0x5b, 0x3e,
  0xb0, 0x79, 0x49, 0xbd, 0x0c, 0x7e, 0x95, 0x3d, 0x3f, 0xaa, 0xe4, 0xbe,
  0x76, 0xdf, 0x05, 0xbe, 0x49, 0x6f, 0x4d, 0x3d, 0x70, 0x20, 0xf3, 0x3d,
  0xdd, 0xbe, 0xe6, 0xbe, 0x0f, 0x3b, 0x8d, 0xbe, 0x4a, 0xbf, 0xe2, 0x3e,
  0x7c, 0xc2, 0x0c, 0xbe, 0xa7, 0x94, 0x10, 0x3f, 0xa8, 0x42, 0xbd, 0xbe,
  0xbf, 0x4a, 0x25, 0x3e, 0x2a, 0xca, 0x83, 0x3e, 0xa3, 0xdf, 0xd0, 0x3e,
  0x06, 0xc4, 0xcf, 0xbb, 0x21, 0xeb, 0x17, 0xbe, 0x69, 0xa1, 0x8c, 0xbe,
  0xc0, 0x88, 0x0c, 0xbc, 0x7b, 0xc2, 0x22, 0xbe, 0xa0, 0x5a, 0x8f, 0xbc,
  0x08, 0xe8, 0x4d, 0x3e, 0x67, 0x62, 0x5f, 0x3e, 0xd0, 0x92, 0x4c, 0xbd,
  0x74, 0x4b, 0x87, 0x3d, 0x94, 0x44, 0xb7, 0xbd, 0xa4, 0x99, 0xfd, 0x3e,
  0x9d, 0x4c, 0xe4, 0x3e, 0xc4, 0x9d, 0x17, 0xbe, 0xef, 0xbe, 0x33, 0xbe,
  0x4a, 0x9b, 0xc7, 0xbc, 0x1e, 0xfc, 0x38, 0x3e, 0x4e, 0xd2, 0x9c, 0x3e,
  0x35, 0x85, 0x4e, 0xbe, 0x22, 0xe5, 0x91, 0xbc, 0x86, 0x5f, 0xb0, 0x3e,
  0x65, 0xc0, 0x01, 0xbe, 0x9d, 0xc6, 0x23, 0x3c, 0x90, 0xf2, 0x6b, 0xbe,
  0x38, 0xae, 0x5e, 0xbe, 0xb8, 0x89, 0x3c, 0xbe, 0x6d, 0x89, 0x3b, 0x3e,
  0x75, 0xed, 0x15, 0x3e, 0x4d, 0xb3, 0xd3, 0xbe, 0xda, 0xb1, 0x8d, 0x3e,
  0xe5, 0x16, 0xad, 0x3e, 0x1f, 0x1c, 0x70, 0x3c, 0x83, 0x73, 0x8c, 0xbe,
  0xb8, 0xce, 0x2f, 0x3d, 0xd3, 0xd9, 0xfa, 0x3c, 0xe2, 0xf2, 0xc6, 0xbc,
  0x28, 0x2d, 0x5f, 0xbd, 0x41, 0xa8, 0x83, 0xbe, 0x10, 0x76, 0x5b, 0x3e,
  0xee, 0xed, 0x10, 0x3e, 0x7e, 0xda, 0x8b, 0xbe, 0x2f, 0xfd, 0x85, 0x3e,
  0x98, 0x74, 0x4c, 0xbd, 0xb5, 0xce, 0xc3, 0xbd, 0x19, 0x66, 0x81, 0xbe,
  0x31, 0x82, 0x19, 0xbe, 0xc9, 0x0c, 0x22, 0x3e, 0x03, 0x1e, 0x6a, 0x3e,
  0x1d, 0x2a, 0x08, 0xbf, 0xfb, 0xad, 0x41, 0x3e, 0xfd, 0x98, 0xb2, 0x3d,
  0x46, 0x1a, 0x9d, 0xbc, 0xda, 0x7b, 0x8e, 0x3e, 0x0e, 0x7c, 0xf9, 0xbd,
  0x49, 0x32, 0xa4, 0x3e, 0xae, 0xea, 0x3c, 0xbe, 0x9c, 0xcf, 0xf0, 0x3d,
  0x57, 0x93, 0x6c, 0x3d, 0x4b, 0x46, 0x1f, 0xbe, 0xe0, 0x1f, 0x41, 0xbe,
  0xa0, 0xba, 0xe0, 0x3c, 0x80, 0x75, 0xc2, 0xbc, 0xe0, 0x71, 0x49, 0xbd,
  0x40, 0xb9, 0x06, 0x3c, 0x9c, 0xc7, 0xbd, 0x3d, 0x46, 0x1f, 0xc4, 0xbd,
  0xa8, 0x70, 0x26, 0x3e, 0xf9, 0x05, 0x32, 0xbe, 0x38, 0xdc, 0x03, 0x3e,
  0xee, 0xfc, 0x50, 0xbe, 0x4e, 0xbb, 0x44, 0x3e, 0x58, 0x56, 0x7a, 0x3d,
  0xd0, 0x41, 0x87, 0xbd, 0x44, 0x33, 0x72, 0xbd, 0x00, 0xbd, 0x37, 0xbd,
  0x74, 0x73, 0x4e, 0xbe, 0x39, 0x90, 0x9a, 0xbe, 0xae, 0xd4, 0x0d, 0xbe,
  0x26, 0xcb, 0x36, 0xbe, 0x66, 0xcd, 0x6f, 0xbe, 0xf6, 0x05, 0x7e, 0xbe,
  0x14, 0x1a, 0x76, 0xbd, 0x74, 0x4a, 0x6b, 0x3e, 0x00, 0x66, 0x01, 0xbd,
  0xe4, 0xc6, 0x53, 0xbe, 0xc4, 0x57, 0x8d, 0x3d, 0x18, 0x75, 0x86, 0x3e,
  0x8c, 0x3f, 0x8b, 0x3e, 0x40, 0xb8, 0xe2, 0xbb, 0xba, 0x81, 0x46, 0x3e,
  0xc8, 0xde, 0x3d, 0x3d, 0xba, 0xd2, 0xb6, 0xbd, 0x0c, 0xdc, 0xf8, 0x3d,
  0x3f, 0x4e, 0x1f, 0xbe, 0xa0, 0x97, 0xca, 0xbc, 0xb4, 0xdc, 0x22, 0x3e,
  0xc8, 0xb3, 0x98, 0x3e, 0xd7, 0x5c, 0x82, 0xbe, 0x8a, 0xc9, 0x8f, 0x3e,
  0x31, 0xb8, 0x2c, 0xbe, 0x2e, 0xf1, 0x3d, 0x3e, 0x0a, 0x57, 0x88, 0xbe,
  0x6e, 0xcc, 0x9f, 0xbd, 0x8e, 0xf3, 0x77, 0xbe, 0xe0, 0xcf, 0x66, 0xbc,
  0x5c, 0xbf, 0xd8, 0x3d, 0x54, 0x48, 0xb5, 0xbd, 0x1c, 0xb5, 0xc0, 0x3d,
  0xbc, 0x66, 0x97, 0x3d, 0xc8, 0xc4, 0x8a, 0x3e, 0xe2, 0xf7, 0xff, 0xff,
  0x04, 0x00, 0x00, 0x00, 0x40, 0x06, 0x00, 0x00, 0x36, 0xd4, 0xcf, 0xbd,
  0x00, 0xe4, 0x89, 0x3e, 0xe8, 0x76, 0x44, 0x3d, 0x80, 0x9e, 0x99, 0x3e,
  0x70, 0xa2, 0x38, 0x3e, 0x54, 0x0e, 0xf8, 0x3d, 0x38, 0x01, 0x94, 0xbd,
  0x67, 0x2a, 0xa0, 0xbe, 0x05, 0x79, 0x4c, 0xbf, 0xf8, 0x38, 0x19, 0xbe,
  0x7b, 0xf4, 0x87, 0xbe, 0xcf, 0x87, 0xee, 0x3d, 0x08, 0x17, 0x90, 0x3c,
  0x0e, 0xf7, 0x59, 0x3d, 0x81, 0x75, 0xa7, 0xbd, 0x55, 0x14, 0x87, 0x3e,
  0xa0, 0x0e, 0x13, 0xbf, 0x2c, 0x09, 0x40, 0xbf, 0xa5, 0xe9, 0xb7, 0x3e,
  0x3f, 0x24, 0x5a, 0xbe, 0x6e, 0x7f, 0xfe, 0x3d, 0x90, 0x41, 0x8a, 0xbd,
  0xb2, 0x86, 0x00, 0xbf, 0x93, 0x05, 0xce, 0x3d, 0xf0, 0x9c, 0x2f, 0x3e,
  0xd0, 0x24, 0xd3, 0xbc, 0x00, 0x80, 0x06, 0x3e, 0x80, 0x9a, 0x48, 0x3e,
  0xc8, 0x8e, 0x5f, 0xbd, 0x00, 0x85, 0xaf, 0xbd, 0x50, 0xa4, 0x1c, 0xbe,
  0x40, 0xe3, 0x8c, 0xbd, 0x8d, 0xd6, 0x51, 0xbf, 0x45, 0x2d, 0x78, 0xbe,
  0x28, 0xc4, 0xa0, 0x3f, 0x00, 0xf2, 0x40, 0xbe, 0x50, 0xaf, 0x8d, 0xbb,
  0x51, 0x6a, 0xed, 0x3d, 0x19, 0x3c, 0xf6, 0x3d, 0x07, 0xd3, 0x10, 0xbe,
  0xb8, 0xd4, 0x06, 0x3e, 0xed, 0xe2, 0x2a, 0xbd, 0x44, 0xbd, 0x39, 0xbc,
  0x88, 0xf4, 0x11, 0x3d, 0x89, 0x8b, 0xa7, 0xbe, 0x3d, 0x7e, 0x5b, 0xbe,
  0xd9, 0xad, 0x6e, 0xbe, 0x25, 0x40, 0x2f, 0x3e, 0xb8, 0x3e, 0x16, 0x3d,
  0xfb, 0xce, 0xa3, 0xbe, 0x1a, 0x5e, 0xdf, 0xbd, 0xe4, 0xef, 0x42, 0x3e,
  0x5d, 0x6f, 0x9b, 0xbe, 0xf8, 0xb7, 0x5b, 0x3e, 0x9c, 0x8b, 0x24, 0xbe,
  0xe6, 0x21, 0x03, 0xbe, 0xd6, 0x52, 0x25, 0xbd, 0x56, 0xee, 0x22, 0x3e,
  0x98, 0xfc, 0xad, 0xbe, 0xe0, 0x4b, 0xd0, 0xbd, 0x76, 0xf0, 0xa0, 0x3d,
  0x51, 0x80, 0x5d, 0xbe, 0x21, 0xcc, 0x52, 0x3f, 0x51, 0x10, 0xc8, 0x3e,
  0x64, 0x8e, 0x12, 0xbf, 0xb6, 0x55, 0xdc, 0x3c, 0x14, 0xe4, 0x0f, 0xbd,
  0x5a, 0x29, 0x8d, 0xbb, 0x54, 0xe5, 0xdd, 0x3d, 0x2b, 0xb5, 0xd1, 0x3e,
  0xb8, 0xe5, 0x02, 0xbf, 0x9f, 0x42, 0x37, 0x3e, 0x9f, 0xa7, 0x24, 0xbf,
  0x76, 0x7d, 0xe6, 0xbd, 0x9e, 0x02, 0xbc, 0xbe, 0xde, 0x35, 0xdc, 0xbd,
  0xfa, 0x59, 0x44, 0x3e, 0x21, 0x85, 0x6e, 0x3e, 0x97, 0xbc, 0xbe, 0xbe,
  0xf8, 0xc3, 0xbe, 0x3e, 0xb0, 0x32, 0xad, 0xbf, 0x5d, 0xe8, 0x1c, 0xbf,
  0x05, 0x3d, 0x45, 0xbe, 0x21, 0x18, 0x70, 0x3d, 0xdb, 0x20, 0x39, 0x3e,
  0xb6, 0x05, 0xbb, 0x3e, 0x41, 0xc8, 0x23, 0x3f, 0xd3, 0xc0, 0xec, 0xbc,
  0xeb, 0x99, 0x8c, 0x3f, 0xad, 0x65, 0x40, 0x3f, 0xf7, 0xe7, 0x8d, 0xbe,
  0x32, 0xda, 0xb2, 0x3d, 0x6f, 0x10, 0x0a, 0xbd, 0x8d, 0x95, 0x7f, 0x3e,
  0x96, 0xb3, 0x7d, 0xbe, 0x90, 0x5d, 0x55, 0xbe, 0x09, 0xd8, 0xa3, 0xbb,
  0x55, 0xc2, 0xfa, 0x3e, 0x23, 0xf4, 0xa8, 0xbe, 0x07, 0x5c, 0xab, 0xbe,
  0xca, 0x11, 0x4c, 0xbe, 0x08, 0x73, 0x86, 0x3e, 0x3c, 0x64, 0xab, 0x3f,
  0x16, 0xf3, 0xed, 0x3e, 0x83, 0x5f, 0xd7, 0x3d, 0xbf, 0x19, 0x87, 0xbe,
  0xb7, 0xc3, 0x52, 0xbb, 0xf2, 0x08, 0x14, 0xbe, 0x71, 0xf9, 0xa0, 0xbe,
  0x17, 0x51, 0x6d, 0xbe, 0x92, 0xb0, 0x82, 0x3e, 0x44, 0xf0, 0xd5, 0x3d,
  0x76, 0xcd, 0x8c, 0x3f, 0x9a, 0x3a, 0xf6, 0x3e, 0xf0, 0x19, 0xd2, 0xbe,
  0x18, 0x32, 0x37, 0x3d, 0xbc, 0x62, 0x39, 0xbe, 0xe3, 0xe0, 0x82, 0x3d,
  0xff, 0xa4, 0x89, 0xbd, 0x26, 0xc9, 0x95, 0x3e, 0xf0, 0xaf, 0xc5, 0xbc,
  0x28, 0x54, 0x05, 0xbe, 0xc4, 0x05, 0x9c, 0x3d, 0xec, 0x89, 0x8e, 0x3e,
  0x69, 0x82, 0x9d, 0xbe, 0x5c, 0x09, 0xc2, 0x3d, 0x70, 0xc8, 0xb9, 0x3c,
  0xf2, 0xa3, 0x8a, 0xbe, 0xcb, 0x51, 0x9a, 0xbf, 0xc0, 0x02, 0x1f, 0xbf,
  0xd0, 0x3a, 0xc8, 0xbd, 0x60, 0xae, 0x84, 0xbd, 0x6d, 0xf6, 0x9f, 0x3e,
  0x39, 0xc3, 0x98, 0x3e, 0x8d, 0xbe, 0x6f, 0xbf, 0xad, 0x50, 0xcb, 0x3e,
  0xa9, 0x26, 0x64, 0x3e, 0xf3, 0x3d, 0x68, 0x3e, 0xdc, 0x5c, 0x3c, 0x3e,
  0x95, 0x5f, 0x7b, 0x3d, 0x43, 0xee, 0x1f, 0x3e, 0x5d, 0x8c, 0xf8, 0xbc,
  0xa7, 0x5d, 0x82, 0x3e, 0xf6, 0xa3, 0xe5, 0x3c, 0xc9, 0xb1, 0x92, 0x3f,
  0x15, 0xbb, 0xf2, 0x3e, 0x85, 0xe6, 0x71, 0x3d, 0xb5, 0x69, 0x3f, 0xbe,
  0x30, 0x27, 0x9c, 0xbd, 0x9d, 0x02, 0x08, 0x3e, 0x44, 0x71, 0x05, 0xbe,
  0xff, 0x22, 0x0a, 0x3e, 0x4c, 0x72, 0xdb, 0xbe, 0x0f, 0x3f, 0x3c, 0xbe,
  0x37, 0x08, 0x8d, 0xbe, 0x7a, 0x0f, 0xd5, 0xbe, 0x36, 0xb6, 0x8a, 0x3e,
  0x6f, 0x82, 0x02, 0x3f, 0x0e, 0x34, 0xd6, 0xbe, 0x40, 0xa0, 0xa5, 0xbc,
  0xf9, 0x54, 0xbf, 0xbf, 0x2a, 0xba, 0x8b, 0xbe, 0x14, 0x6d, 0x8b, 0xbd,
  0x4a, 0xd5, 0x0c, 0x3d, 0xcb, 0x88, 0xff, 0xbd, 0x22, 0x79, 0xd0, 0x3e,
  0xb3, 0x2b, 0x98, 0x3f, 0x51, 0x9b, 0x87, 0x3e, 0xca, 0xdd, 0x94, 0xbf,
  0x73, 0xf4, 0x1b, 0xbf, 0x44, 0x3c, 0x7a, 0x3d, 0xc6, 0xfa, 0x92, 0xbd,
  0x54, 0x76, 0x42, 0x3e, 0xdb, 0x50, 0xda, 0x3e, 0x3a, 0x7d, 0x2d, 0x3e,
  0xba, 0x14, 0x0a, 0xbe, 0x63, 0xa4, 0x13, 0xbf, 0xb8, 0x9f, 0x6e, 0xbe,
  0x6e, 0x2c, 0x17, 0x3f, 0x63, 0x62, 0xd5, 0xbd, 0x0f, 0xde, 0x17, 0xbd,
  0x54, 0xc6, 0x52, 0xbe, 0x8b, 0xde, 0xe1, 0x3e, 0xd6, 0x53, 0x43, 0x3e,
  0x16, 0x3c, 0xa4, 0x3e, 0x40, 0x9f, 0x6b, 0xbc, 0x10, 0x9b, 0x8d, 0xbd,
  0xd8, 0x4b, 0x82, 0x3e, 0x25, 0x30, 0x20, 0xbe, 0xc3, 0x39, 0x9b, 0xbe,
  0xd0, 0xdc, 0x4c, 0x3e, 0xa0, 0x20, 0x9e, 0xbe, 0xee, 0x23, 0xd7, 0xbe,
  0x86, 0x28, 0xb0, 0x3d, 0x13, 0x7e, 0x8a, 0xbe, 0x60, 0x36, 0xab, 0xbe,
  0x90, 0x57, 0xd0, 0x3e, 0xc8, 0x66, 0xfd, 0x3e, 0xe9, 0x27, 0xa8, 0xbf,
  0x9c, 0x99, 0xe8, 0x3e, 0x85, 0x18, 0xe2, 0x3d, 0xfb, 0xec, 0xbd, 0x3d,
  0x75, 0xc4, 0x8b, 0x3e, 0x2a, 0x7b, 0xd6, 0xbd, 0xd0, 0xca, 0xda, 0x3c,
  0x31, 0x99, 0x8a, 0xbe, 0xc6, 0x22, 0x13, 0x3e, 0x98, 0xdd, 0xa5, 0xbc,
  0x10, 0xfb, 0x8f, 0xbc, 0x7e, 0x66, 0x88, 0xbe, 0xea, 0xa1, 0x11, 0x3e,
  0x8a, 0xef, 0x20, 0x3e, 0x00, 0x15, 0xe5, 0x3a, 0x9c, 0x7b, 0xd7, 0xbd,
  0xc0, 0xb1, 0x47, 0x3c, 0x00, 0x89, 0xb4, 0xbd, 0x36, 0xcb, 0xc5, 0x3d,
  0x0c, 0x19, 0xa7, 0x3d, 0x9d, 0x32, 0x52, 0x3f, 0x34, 0x51, 0x94, 0x3d,
  0x3e, 0x80, 0x2b, 0x3e, 0x95, 0x64, 0xee, 0x3d, 0x88, 0x49, 0xd9, 0xbe,
  0x81, 0xbe, 0x94, 0x3e, 0x72, 0xd0, 0x31, 0x3e, 0x9e, 0xe5, 0x7e, 0xbe,
  0x00, 0x73, 0xd5, 0x3c, 0xac, 0xdf, 0x75, 0x3e, 0xf0, 0xe6, 0xc6, 0x3c,
  0x7f, 0xca, 0x99, 0xbe, 0xf4, 0x30, 0x83, 0x3d, 0xf4, 0xfd, 0x34, 0x3e,
  0x8e, 0xdc, 0x3c, 0x3f, 0x15, 0xbf, 0xc9, 0x3d, 0x14, 0x4f, 0x41, 0xbe,
  0x8c, 0x75, 0x57, 0xbe, 0x44, 0xac, 0x26, 0xbc, 0x9e, 0x5e, 0x17, 0xbd,
  0x2c, 0xdf, 0x30, 0xbe, 0x71, 0xe1, 0xaf, 0xbe, 0x00, 0x67, 0x96, 0xba,
  0x78, 0x15, 0x31, 0x3d, 0x81, 0xc3, 0x0f, 0xbe, 0x8c, 0x04, 0x30, 0x3e,
  0x69, 0x25, 0x8a, 0xbe, 0x5c, 0x83, 0x51, 0x3e, 0x5a, 0xfb, 0x13, 0x3e,
  0xa4, 0xf6, 0x87, 0xbe, 0xe3, 0x07, 0x98, 0xbf, 0x4b, 0x75, 0x8a, 0xbe,
  0x51, 0xd4, 0x87, 0x3e, 0x4a, 0xae, 0xef, 0xbd, 0x7c, 0xc0, 0x14, 0x3c,
  0xdf, 0x42, 0x08, 0x3e, 0x84, 0x09, 0xa9, 0x3e, 0x30, 0x8a, 0x86, 0x3e,
  0x38, 0xff, 0x97, 0x3e, 0xc0, 0x80, 0x23, 0x3e, 0xd4, 0xd6, 0x1b, 0xbe,
  0x82, 0xd2, 0x89, 0x3e, 0x96, 0x59, 0xc5, 0xbd, 0x20, 0x23, 0x7f, 0x3e,
  0xf2, 0x21, 0x13, 0xbe, 0xd0, 0x68, 0x1f, 0xbd, 0x3b, 0x3e, 0xf1, 0x3e,
  0x97, 0xa8, 0xe6, 0x3e, 0x22, 0x80, 0xb9, 0xbe, 0x1a, 0xfd, 0xb3, 0xbe,
  0x52, 0x38, 0x20, 0xbe, 0x40, 0x8b, 0x79, 0x3d, 0xbc, 0x51, 0xe3, 0xbe,
  0x45, 0x70, 0xec, 0x3e, 0x82, 0xbd, 0x24, 0x3f, 0xde, 0x9d, 0xbb, 0x3e,
  0xa6, 0xa0, 0xc3, 0xbe, 0x09, 0xc0, 0x62, 0xbc, 0x02, 0xa0, 0x3c, 0x3e,
  0xff, 0xc5, 0x7c, 0xbe, 0xac, 0xa7, 0x7e, 0x3d, 0x31, 0xd9, 0x29, 0x3b,
  0xb8, 0x31, 0x90, 0x3f, 0x9e, 0x42, 0xf8, 0x3e, 0xd9, 0xfb, 0x97, 0xbe,
  0x69, 0xd5, 0x08, 0xbe, 0xab, 0xab, 0xb3, 0xbe, 0x4e, 0xf6, 0xd0, 0xbd,
  0xab, 0xda, 0x69, 0x3d, 0x4f, 0xab, 0x02, 0x3e, 0x39, 0x19, 0xae, 0xbf,
  0xf3, 0xf3, 0xdb, 0xbe, 0xdd, 0x82, 0x39, 0x3e, 0x1c, 0xfc, 0x22, 0xbe,
  0x73, 0x23, 0x42, 0xbd, 0xe2, 0x94, 0xd4, 0x3e, 0xce, 0x3d, 0x53, 0x3f,
  0x00, 0x98, 0x69, 0xbd, 0xdc, 0x35, 0xb4, 0xbf, 0x83, 0x24, 0x36, 0xbd,
  0x58, 0x6e, 0xad, 0xbe, 0x2c, 0xb1, 0x2a, 0x3e, 0xae, 0x4f, 0x95, 0x3b,
  0xa9, 0x26, 0xb4, 0x3e, 0xba, 0xda, 0xd1, 0x3e, 0x20, 0x4f, 0x8d, 0x3e,
  0xf3, 0xb7, 0x5a, 0x3f, 0x92, 0xbb, 0xbd, 0x3e, 0xad, 0x5a, 0x8c, 0x3d,
  0x17, 0x93, 0xae, 0xbe, 0x36, 0x44, 0xa4, 0x3d, 0x23, 0xa8, 0x80, 0xbe,
  0x0c, 0x72, 0xf4, 0xbe, 0x3d, 0x26, 0x7a, 0xbd, 0xe3, 0xa2, 0x58, 0x3f,
  0x13, 0x83, 0x41, 0x3f, 0xab, 0x7e, 0xf2, 0xbe, 0xc9, 0x59, 0x11, 0xbd,
  0x87, 0x45, 0xb5, 0x3e, 0x5a, 0x7d, 0xc1, 0x3c, 0x36, 0xa9, 0x80, 0x3d,
  0x94, 0x78, 0xba, 0x3e, 0xcc, 0x12, 0x8c, 0xbd, 0xfa, 0xa6, 0xbb, 0x3e,
  0x15, 0x2b, 0x76, 0x3e, 0x04, 0xe4, 0xe3, 0xbe, 0x9a, 0x27, 0x42, 0x3e,
  0x85, 0xc6, 0x21, 0x3e, 0xad, 0x8e, 0xd3, 0x3e, 0xb8, 0x86, 0x89, 0x3e,
  0x9d, 0x3c, 0x88, 0xbe, 0x36, 0x6f, 0x73, 0x3e, 0x00, 0x6c, 0xd9, 0xbd,
  0xea, 0xae, 0x3c, 0x3e, 0x79, 0xc7, 0x20, 0xbe, 0x4c, 0x17, 0x61, 0x3c,
  0x8a, 0x4c, 0x57, 0x3e, 0x71, 0x36, 0x5f, 0xbd, 0x5d, 0xf5, 0x8d, 0x3e,
  0xbb, 0xef, 0xa5, 0xbe, 0x0b, 0xd4, 0x6d, 0xbe, 0x3b, 0x54, 0xac, 0x3d,
  0xd8, 0x64, 0x7f, 0xbe, 0xf4, 0xfb, 0xd7, 0x3c, 0x53, 0x78, 0x52, 0xbe,
  0x76, 0x4b, 0x27, 0x3e, 0x40, 0x2b, 0xc5, 0xbc, 0x38, 0x47, 0x2f, 0x3d,
  0x10, 0x2d, 0xe5, 0x3c, 0xa6, 0x9d, 0x8a, 0x3e, 0x00, 0x35, 0x44, 0x3b,
  0x3d, 0xed, 0x11, 0xbe, 0x76, 0x73, 0x8b, 0x3e, 0x40, 0xdb, 0x5f, 0x3d,
  0x56, 0xff, 0xac, 0xbf, 0xb8, 0xb0, 0x54, 0xbe, 0xdd, 0x86, 0xa3, 0x3e,
  0x07, 0xe4, 0x7b, 0xbd, 0x46, 0x22, 0xe6, 0x3e, 0xde, 0x3a, 0x89, 0xbb,
  0xaf, 0xd6, 0x20, 0xbf, 0x68, 0x54, 0x53, 0x3e, 0xc6, 0x38, 0x8e, 0x3e,
  0x84, 0x98, 0x2d, 0x3e, 0x24, 0xc8, 0x64, 0xbe, 0xaa, 0x10, 0x2b, 0x3e,
  0x96, 0xf6, 0x10, 0xbe, 0x86, 0x48, 0x92, 0xbe, 0x12, 0x44, 0x6f, 0xbe,
  0x25, 0xc1, 0x2a, 0xbe, 0x4c, 0x9c, 0x5b, 0x3e, 0x94, 0xfc, 0x1d, 0x3e,
  0xc0, 0x5f, 0x58, 0x3d, 0xae, 0xb4, 0x32, 0x3e, 0xc8, 0x58, 0x3e, 0xbe,
  0x70, 0xbb, 0x03, 0x3e, 0xe0, 0x84, 0x4f, 0xbc, 0xb0, 0x80, 0x13, 0x3e,
  0x9a, 0xe6, 0x07, 0x3f, 0xb4, 0x2d, 0xba, 0x3e, 0xb6, 0xa2, 0xe6, 0xbe,
  0x95, 0x23, 0xec, 0xbe, 0x95, 0x96, 0x06, 0x3f, 0x9e, 0x65, 0x5a, 0x3e,
  0xc7, 0x10, 0xb3, 0xbe, 0x5a, 0x35, 0x48, 0xbc, 0xa0, 0x54, 0x83, 0x3d,
  0x94, 0x5b, 0xff, 0x3d, 0xa4, 0xe6, 0xed, 0xbd, 0xb0, 0x25, 0x90, 0x3d,
  0x66, 0x94, 0x6d, 0xbe, 0x1b, 0x26, 0x45, 0xbe, 0x5a, 0x6d, 0xa3, 0x3e,
  0xa0, 0x50, 0x57, 0xbc, 0x00, 0xdc, 0x21, 0x3d, 0x82, 0x96, 0x2e, 0x3e,
  0xdb, 0xe5, 0x9f, 0xbe, 0xa8, 0xfc, 0x78, 0x3d, 0x95, 0xd1, 0x1c, 0xbe,
  0x1a, 0xe1, 0x9c, 0xbe, 0x08, 0x12, 0x26, 0x3e, 0x6e, 0x69, 0x7a, 0xbe,
  0x2e, 0xfe, 0xff, 0xff, 0x04, 0x00, 0x00, 0x00, 0xc8, 0x00, 0x00, 0x00,
  0x00, 0x00, 0x00, 0x00, 0x75, 0x21, 0x61, 0x3d, 0x3a, 0xb5, 0xd0, 0xbc,
  0x00, 0x00, 0x00, 0x00, 0xc3, 0x16, 0x92, 0x3e, 0xa5, 0x9b, 0x90, 0xbd,
  0x00, 0x00, 0x00, 0x00, 0xf7, 0xdd, 0x17, 0x3d, 0xe3, 0x26, 0x7a, 0x3d,
  0xda, 0xc9, 0xd9, 0x3c, 0x62, 0xfe, 0xb7, 0x3d, 0x43, 0xf1, 0xb3, 0x3d,
  0xfb, 0xd8, 0x4f, 0x3e, 0xa2, 0x66, 0xbd, 0xbb, 0x66, 0xce, 0xd4, 0x3d,
  0x00, 0x00, 0x00, 0x00, 0x5d, 0xda, 0x9d, 0xbb, 0x79, 0x2e, 0x2e, 0xbd,
  0x09, 0x7e, 0xd3, 0x3d, 0x6f, 0xda, 0xf6, 0x3d, 0x68, 0x7b, 0xba, 0x3d,
  0x72, 0xa7, 0x29, 0x3e, 0x58, 0x62, 0xa2, 0x3d, 0x00, 0x00, 0x00, 0x00,
  0x74, 0x1e, 0xa1, 0x3e, 0x48, 0x6e, 0xd7, 0xbc, 0x00, 0x00, 0x00, 0x00,
  0x5c, 0x77, 0xf9, 0x3d, 0x00, 0x00, 0x00, 0x00, 0x65, 0xf2, 0x26, 0xbd,
  0x00, 0x00, 0x00, 0x00, 0x54, 0x23, 0x8d, 0x3d, 0x00, 0x00, 0x00, 0x00,
  0x5a, 0x98, 0x0a, 0x3e, 0xcf, 0x99, 0xe1, 0x3c, 0xd4, 0x9a, 0xb5, 0xbb,
  0x60, 0xb2, 0x72, 0x3d, 0xb7, 0x3d, 0xc4, 0x3d, 0x76, 0x03, 0x30, 0x3d,
  0xf0, 0x2e, 0x39, 0x3e, 0xff, 0xbb, 0x00, 0x3e, 0x3a, 0xf7, 0xb4, 0xbc,
  0x0e, 0xf2, 0xf0, 0xbc, 0x00, 0x00, 0x00, 0x00, 0x16, 0xa5, 0x9f, 0x3d,
  0x00, 0x00, 0x00, 0x00, 0x00, 0x00, 0x00, 0x00, 0xfa, 0xb8, 0x6e, 0x3e,
  0x00, 0x00, 0x00, 0x00, 0x00, 0x00, 0x00, 0x00, 0x02, 0xff, 0xff, 0xff,
  0x04, 0x00, 0x00, 0x00, 0x3c, 0x00, 0x00, 0x00, 0x65, 0xef, 0x76, 0x3d,
  0xf2, 0x2e, 0x0e, 0x3d, 0x40, 0xca, 0x61, 0x3d, 0x28, 0x12, 0xf8, 0x3d,
  0x2d, 0xa2, 0xd2, 0x3d, 0x98, 0xeb, 0x9e, 0x3d, 0xff, 0x2d, 0x4f, 0xbb,
  0x02, 0x3d, 0x9d, 0xbc, 0x17, 0x3e, 0x50, 0x3d, 0x36, 0x25, 0x7d, 0xba,
  0x52, 0x85, 0xbf, 0x3d, 0x06, 0x9d, 0x86, 0x3d, 0xe0, 0x41, 0xa8, 0x3d,
  0x09, 0xfe, 0x76, 0x3d, 0x00, 0x00, 0x00, 0x00, 0x4a, 0xff, 0xff, 0xff,
  0x04, 0x00, 0x00, 0x00, 0x14, 0x00, 0x00, 0x00, 0x31, 0x60, 0x40, 0xbe,
  0xbb, 0x9c, 0x2c, 0xbe, 0x5c, 0x98, 0xbc, 0x3b, 0x4d, 0x19, 0x6d, 0xbd,
  0x4a, 0x5d, 0x85, 0xbd, 0x40, 0xfa, 0xff, 0xff, 0x44, 0xfa, 0xff, 0xff,
  0x0f, 0x00, 0x00, 0x00, 0x4d, 0x4c, 0x49, 0x52, 0x20, 0x43, 0x6f, 0x6e,
  0x76, 0x65, 0x72, 0x74, 0x65, 0x64, 0x2e, 0x00, 0x01, 0x00, 0x00, 0x00,
  0x14, 0x00, 0x00, 0x00, 0x00, 0x00, 0x0e, 0x00, 0x18, 0x00, 0x14, 0x00,
  0x10, 0x00, 0x0c, 0x00, 0x08, 0x00, 0x04, 0x00, 0x0e, 0x00, 0x00, 0x00,
  0x14, 0x00, 0x00, 0x00, 0x1c, 0x00, 0x00, 0x00, 0x24, 0x01, 0x00, 0x00,
  0x28, 0x01, 0x00, 0x00, 0x2c, 0x01, 0x00, 0x00, 0x04, 0x00, 0x00, 0x00,
  0x6d, 0x61, 0x69, 0x6e, 0x00, 0x00, 0x00, 0x00, 0x04, 0x00, 0x00, 0x00,
  0xcc, 0x00, 0x00, 0x00, 0x84, 0x00, 0x00, 0x00, 0x50, 0x00, 0x00, 0x00,
  0x14, 0x00, 0x00, 0x00, 0x00, 0x00, 0x0e, 0x00, 0x1a, 0x00, 0x14, 0x00,
  0x10, 0x00, 0x0c, 0x00, 0x0b, 0x00, 0x04, 0x00, 0x0e, 0x00, 0x00, 0x00,
  0x1c, 0x00, 0x00, 0x00, 0x00, 0x00, 0x00, 0x09, 0x1c, 0x00, 0x00, 0x00,
  0x20, 0x00, 0x00, 0x00, 0x01, 0x00, 0x00, 0x00, 0x00, 0x00, 0x06, 0x00,
  0x08, 0x00, 0x04, 0x00, 0x06, 0x00, 0x00, 0x00, 0x00, 0x00, 0x80, 0x3f,
  0x01, 0x00, 0x00, 0x00, 0x0a, 0x00, 0x00, 0x00, 0x01, 0x00, 0x00, 0x00,
  0x09, 0x00, 0x00, 0x00, 0x9a, 0xff, 0xff, 0xff, 0x10, 0x00, 0x00, 0x00,
  0x00, 0x00, 0x00, 0x08, 0x0c, 0x00, 0x00, 0x00, 0x10, 0x00, 0x00, 0x00,
  0x08, 0xfb, 0xff, 0xff, 0x01, 0x00, 0x00, 0x00, 0x09, 0x00, 0x00, 0x00,
  0x03, 0x00, 0x00, 0x00, 0x08, 0x00, 0x00, 0x00, 0x06, 0x00, 0x00, 0x00,
  0x01, 0x00, 0x00, 0x00, 0xca, 0xff, 0xff, 0xff, 0x10, 0x00, 0x00, 0x00,
  0x00, 0x00, 0x00, 0x08, 0x10, 0x00, 0x00, 0x00, 0x14, 0x00, 0x00, 0x00,
  0xba, 0xff, 0xff, 0xff, 0x00, 0x00, 0x00, 0x01, 0x01, 0x00, 0x00, 0x00,
  0x08, 0x00, 0x00, 0x00, 0x03, 0x00, 0x00, 0x00, 0x07, 0x00, 0x00, 0x00,
  0x05, 0x00, 0x00, 0x00, 0x02, 0x00, 0x00, 0x00, 0x00, 0x00, 0x0e, 0x00,
  0x16, 0x00, 0x00, 0x00, 0x10, 0x00, 0x0c, 0x00, 0x0b, 0x00, 0x04, 0x00,
  0x0e, 0x00, 0x00, 0x00, 0x18, 0x00, 0x00, 0x00, 0x00, 0x00, 0x00, 0x08,
  0x18, 0x00, 0x00, 0x00, 0x1c, 0x00, 0x00, 0x00, 0x00, 0x00, 0x06, 0x00,
  0x08, 0x00, 0x07, 0x00, 0x06, 0x00, 0x00, 0x00, 0x00, 0x00, 0x00, 0x01,
  0x01, 0x00, 0x00, 0x00, 0x07, 0x00, 0x00, 0x00, 0x03, 0x00, 0x00, 0x00,
  0x00, 0x00, 0x00, 0x00, 0x04, 0x00, 0x00, 0x00, 0x03, 0x00, 0x00, 0x00,
  0x01, 0x00, 0x00, 0x00, 0x0a, 0x00, 0x00, 0x00, 0x01, 0x00, 0x00, 0x00,
  0x00, 0x00, 0x00, 0x00, 0x0b, 0x00, 0x00, 0x00, 0x20, 0x04, 0x00, 0x00,
  0xb0, 0x03, 0x00, 0x00, 0x40, 0x03, 0x00, 0x00, 0xe8, 0x02, 0x00, 0x00,
  0x9c, 0x02, 0x00, 0x00, 0x50, 0x02, 0x00, 0x00, 0x04, 0x02, 0x00, 0x00,
  0x70, 0x01, 0x00, 0x00, 0xdc, 0x00, 0x00, 0x00, 0x60, 0x00, 0x00, 0x00,
  0x04, 0x00, 0x00, 0x00, 0x22, 0xfc, 0xff, 0xff, 0x00, 0x00, 0x00, 0x01,
  0x14, 0x00, 0x00, 0x00, 0x1c, 0x00, 0x00, 0x00, 0x1c, 0x00, 0x00, 0x00,
  0x0b, 0x00, 0x00, 0x00, 0x34, 0x00, 0x00, 0x00, 0x02, 0x00, 0x00, 0x00,
  0xff, 0xff, 0xff, 0xff, 0x05, 0x00, 0x00, 0x00, 0x0c, 0xfc, 0xff, 0xff,
  0x19, 0x00, 0x00, 0x00, 0x53, 0x74, 0x61, 0x74, 0x65, 0x66, 0x75, 0x6c,
  0x50, 0x61, 0x72, 0x74, 0x69, 0x74, 0x69, 0x6f, 0x6e, 0x65, 0x64, 0x43,
  0x61, 0x6c, 0x6c, 0x3a, 0x30, 0x00, 0x00, 0x00, 0x02, 0x00, 0x00, 0x00,
  0x01, 0x00, 0x00, 0x00, 0x05, 0x00, 0x00, 0x00, 0x7a, 0xfc, 0xff, 0xff,
  0x00, 0x00, 0x00, 0x01, 0x14, 0x00, 0x00, 0x00, 0x1c, 0x00, 0x00, 0x00,
  0x1c, 0x00, 0x00, 0x00, 0x0a, 0x00, 0x00, 0x00, 0x54, 0x00, 0x00, 0x00,
  0x02, 0x00, 0x00, 0x00, 0xff, 0xff, 0xff, 0xff, 0x05, 0x00, 0x00, 0x00,
  0x64, 0xfc, 0xff, 0xff, 0x38, 0x00, 0x00, 0x00, 0x73, 0x65, 0x71, 0x75,
  0x65, 0x6e, 0x74, 0x69, 0x61, 0x6c, 0x5f, 0x31, 0x2f, 0x64, 0x65, 0x6e,
  0x73, 0x65, 0x5f, 0x35, 0x2f, 0x4d, 0x61, 0x74, 0x4d, 0x75, 0x6c, 0x3b,
  0x73, 0x65, 0x71, 0x75, 0x65, 0x6e, 0x74, 0x69, 0x61, 0x6c, 0x5f, 0x31,
  0x2f, 0x64, 0x65, 0x6e, 0x73, 0x65, 0x5f, 0x35, 0x2f, 0x42, 0x69, 0x61,
  0x73, 0x41, 0x64, 0x64, 0x00, 0x00, 0x00, 0x00, 0x02, 0x00, 0x00, 0x00,
  0x01, 0x00, 0x00, 0x00, 0x05, 0x00, 0x00, 0x00, 0xf2, 0xfc, 0xff, 0xff,
  0x00, 0x00, 0x00, 0x01, 0x14, 0x00, 0x00, 0x00, 0x1c, 0x00, 0x00, 0x00,
  0x1c, 0x00, 0x00, 0x00, 0x09, 0x00, 0x00, 0x00, 0x6c, 0x00, 0x00, 0x00,
  0x02, 0x00, 0x00, 0x00, 0xff, 0xff, 0xff, 0xff, 0x0f, 0x00, 0x00, 0x00,
  0xdc, 0xfc, 0xff, 0xff, 0x52, 0x00, 0x00, 0x00, 0x73, 0x65, 0x71, 0x75,
  0x65, 0x6e, 0x74, 0x69, 0x61, 0x6c, 0x5f, 0x31, 0x2f, 0x64, 0x65, 0x6e,
  0x73, 0x65, 0x5f, 0x34, 0x2f, 0x4d, 0x61, 0x74, 0x4d, 0x75, 0x6c, 0x3b,
  0x73, 0x65, 0x71, 0x75, 0x65, 0x6e, 0x74, 0x69, 0x61, 0x6c, 0x5f, 0x31,
  0x2f, 0x64, 0x65, 0x6e, 0x73, 0x65, 0x5f, 0x34, 0x2f, 0x52, 0x65, 0x6c,
  0x75, 0x3b, 0x73, 0x65, 0x71, 0x75, 0x65, 0x6e, 0x74, 0x69, 0x61, 0x6c,
  0x5f, 0x31, 0x2f, 0x64, 0x65, 0x6e, 0x73, 0x65, 0x5f, 0x34, 0x2f, 0x42,
  0x69, 0x61, 0x73, 0x41, 0x64, 0x64, 0x00, 0x00, 0x02, 0x00, 0x00, 0x00,
  0x01, 0x00, 0x00, 0x00, 0x0f, 0x00, 0x00, 0x00, 0x82, 0xfd, 0xff, 0xff,
  0x00, 0x00, 0x00, 0x01, 0x14, 0x00, 0x00, 0x00, 0x1c, 0x00, 0x00, 0x00,
  0x1c, 0x00, 0x00, 0x00, 0x08, 0x00, 0x00, 0x00, 0x6c, 0x00, 0x00, 0x00,
  0x02, 0x00, 0x00, 0x00, 0xff, 0xff, 0xff, 0xff, 0x32, 0x00, 0x00, 0x00,
  0x6c, 0xfd, 0xff, 0xff, 0x52, 0x00, 0x00, 0x00, 0x73, 0x65, 0x71, 0x75,
  0x65, 0x6e, 0x74, 0x69, 0x61, 0x6c, 0x5f, 0x31, 0x2f, 0x64, 0x65, 0x6e,
  0x73, 0x65, 0x5f, 0x33, 0x2f, 0x4d, 0x61, 0x74, 0x4d, 0x75, 0x6c, 0x3b,
  0x73, 0x65, 0x71, 0x75, 0x65, 0x6e, 0x74, 0x69, 0x61, 0x6c, 0x5f, 0x31,
  0x2f, 0x64, 0x65, 0x6e, 0x73, 0x65, 0x5f, 0x33, 0x2f, 0x52, 0x65, 0x6c,
  0x75, 0x3b, 0x73, 0x65, 0x71, 0x75, 0x65, 0x6e, 0x74, 0x69, 0x61, 0x6c,
  0x5f, 0x31, 0x2f, 0x64, 0x65, 0x6e, 0x73, 0x65, 0x5f, 0x33, 0x2f, 0x42,
  0x69, 0x61, 0x73, 0x41, 0x64, 0x64, 0x00, 0x00, 0x02, 0x00, 0x00, 0x00,
  0x01, 0x00, 0x00, 0x00, 0x32, 0x00, 0x00, 0x00, 0x7e, 0xfe, 0xff, 0xff,
  0x00, 0x00, 0x00, 0x01, 0x10, 0x00, 0x00, 0x00, 0x10, 0x00, 0x00, 0x00,
  0x07, 0x00, 0x00, 0x00, 0x28, 0x00, 0x00, 0x00, 0xec, 0xfd, 0xff, 0xff,
  0x1b, 0x00, 0x00, 0x00, 0x73, 0x65, 0x71, 0x75, 0x65, 0x6e, 0x74, 0x69,
  0x61, 0x6c, 0x5f, 0x31, 0x2f, 0x64, 0x65, 0x6e, 0x73, 0x65, 0x5f, 0x35,
  0x2f, 0x4d, 0x61, 0x74, 0x4d, 0x75, 0x6c, 0x00, 0x02, 0x00, 0x00, 0x00,
  0x05, 0x00, 0x00, 0x00, 0x0f, 0x00, 0x00, 0x00, 0xc6, 0xfe, 0xff, 0xff,
  0x00, 0x00, 0x00, 0x01, 0x10, 0x00, 0x00, 0x00, 0x10, 0x00, 0x00, 0x00,
  0x06, 0x00, 0x00, 0x00, 0x28, 0x00, 0x00, 0x00, 0x34, 0xfe, 0xff, 0xff,
  0x1b, 0x00, 0x00, 0x00, 0x73, 0x65, 0x71, 0x75, 0x65, 0x6e, 0x74, 0x69,
  0x61, 0x6c, 0x5f, 0x31, 0x2f, 0x64, 0x65, 0x6e, 0x73, 0x65, 0x5f, 0x34,
  0x2f, 0x4d, 0x61, 0x74, 0x4d, 0x75, 0x6c, 0x00, 0x02, 0x00, 0x00, 0x00,
  0x0f, 0x00, 0x00, 0x00, 0x32, 0x00, 0x00, 0x00, 0x0e, 0xff, 0xff, 0xff,
  0x00, 0x00, 0x00, 0x01, 0x10, 0x00, 0x00, 0x00, 0x10, 0x00, 0x00, 0x00,
  0x05, 0x00, 0x00, 0x00, 0x28, 0x00, 0x00, 0x00, 0x7c, 0xfe, 0xff, 0xff,
  0x1b, 0x00, 0x00, 0x00, 0x73, 0x65, 0x71, 0x75, 0x65, 0x6e, 0x74, 0x69,
  0x61, 0x6c, 0x5f, 0x31, 0x2f, 0x64, 0x65, 0x6e, 0x73, 0x65, 0x5f, 0x33,
  0x2f, 0x4d, 0x61, 0x74, 0x4d, 0x75, 0x6c, 0x00, 0x02, 0x00, 0x00, 0x00,
  0x32, 0x00, 0x00, 0x00, 0x08, 0x00, 0x00, 0x00, 0x56, 0xff, 0xff, 0xff,
  0x00, 0x00, 0x00, 0x01, 0x10, 0x00, 0x00, 0x00, 0x10, 0x00, 0x00, 0x00,
  0x04, 0x00, 0x00, 0x00, 0x38, 0x00, 0x00, 0x00, 0xc4, 0xfe, 0xff, 0xff,
  0x2b, 0x00, 0x00, 0x00, 0x73, 0x65, 0x71, 0x75, 0x65, 0x6e, 0x74, 0x69,
  0x61, 0x6c, 0x5f, 0x31, 0x2f, 0x64, 0x65, 0x6e, 0x73, 0x65, 0x5f, 0x33,
  0x2f, 0x42, 0x69, 0x61, 0x73, 0x41, 0x64, 0x64, 0x2f, 0x52, 0x65, 0x61,
  0x64, 0x56, 0x61, 0x72, 0x69, 0x61, 0x62, 0x6c, 0x65, 0x4f, 0x70, 0x00,
  0x01, 0x00, 0x00, 0x00, 0x32, 0x00, 0x00, 0x00, 0xaa, 0xff, 0xff, 0xff,
  0x00, 0x00, 0x00, 0x01, 0x10, 0x00, 0x00, 0x00, 0x10, 0x00, 0x00, 0x00,
  0x03, 0x00, 0x00, 0x00, 0x38, 0x00, 0x00, 0x00, 0x18, 0xff, 0xff, 0xff,
  0x2b, 0x00, 0x00, 0x00, 0x73, 0x65, 0x71, 0x75, 0x65, 0x6e, 0x74, 0x69,
  0x61, 0x6c, 0x5f, 0x31, 0x2f, 0x64, 0x65, 0x6e, 0x73, 0x65, 0x5f, 0x34,
  0x2f, 0x42, 0x69, 0x61, 0x73, 0x41, 0x64, 0x64, 0x2f, 0x52, 0x65, 0x61,
  0x64, 0x56, 0x61, 0x72, 0x69, 0x61, 0x62, 0x6c, 0x65, 0x4f, 0x70, 0x00,
  0x01, 0x00, 0x00, 0x00, 0x0f, 0x00, 0x00, 0x00, 0x00, 0x00, 0x16, 0x00,
  0x18, 0x00, 0x14, 0x00, 0x00, 0x00, 0x10, 0x00, 0x0c, 0x00, 0x08, 0x00,
  0x00, 0x00, 0x00, 0x00, 0x00, 0x00, 0x07, 0x00, 0x16, 0x00, 0x00, 0x00,
  0x00, 0x00, 0x00, 0x01, 0x10, 0x00, 0x00, 0x00, 0x10, 0x00, 0x00, 0x00,
  0x02, 0x00, 0x00, 0x00, 0x38, 0x00, 0x00, 0x00, 0x84, 0xff, 0xff, 0xff,
  0x2b, 0x00, 0x00, 0x00, 0x73, 0x65, 0x71, 0x75, 0x65, 0x6e, 0x74, 0x69,
  0x61, 0x6c, 0x5f, 0x31, 0x2f, 0x64, 0x65, 0x6e, 0x73, 0x65, 0x5f, 0x35,
  0x2f, 0x42, 0x69, 0x61, 0x73, 0x41, 0x64, 0x64, 0x2f, 0x52, 0x65, 0x61,
  0x64, 0x56, 0x61, 0x72, 0x69, 0x61, 0x62, 0x6c, 0x65, 0x4f, 0x70, 0x00,
  0x01, 0x00, 0x00, 0x00, 0x05, 0x00, 0x00, 0x00, 0x00, 0x00, 0x16, 0x00,
  0x1c, 0x00, 0x18, 0x00, 0x00, 0x00, 0x14, 0x00, 0x10, 0x00, 0x0c, 0x00,
  0x00, 0x00, 0x00, 0x00, 0x08, 0x00, 0x07, 0x00, 0x16, 0x00, 0x00, 0x00,
  0x00, 0x00, 0x00, 0x01, 0x14, 0x00, 0x00, 0x00, 0x20, 0x00, 0x00, 0x00,
  0x20, 0x00, 0x00, 0x00, 0x01, 0x00, 0x00, 0x00, 0x3c, 0x00, 0x00, 0x00,
  0x02, 0x00, 0x00, 0x00, 0xff, 0xff, 0xff, 0xff, 0x08, 0x00, 0x00, 0x00,
  0x04, 0x00, 0x04, 0x00, 0x04, 0x00, 0x00, 0x00, 0x1f, 0x00, 0x00, 0x00,
  0x73, 0x65, 0x72, 0x76, 0x69, 0x6e, 0x67, 0x5f, 0x64, 0x65, 0x66, 0x61,
  0x75, 0x6c, 0x74, 0x5f, 0x64, 0x65, 0x6e, 0x73, 0x65, 0x5f, 0x33, 0x5f,
  0x69, 0x6e, 0x70, 0x75, 0x74, 0x3a, 0x30, 0x00, 0x02, 0x00, 0x00, 0x00,
  0x01, 0x00, 0x00, 0x00, 0x08, 0x00, 0x00, 0x00, 0x02, 0x00, 0x00, 0x00,
  0x20, 0x00, 0x00, 0x00, 0x04, 0x00, 0x00, 0x00, 0xf4, 0xff, 0xff, 0xff,
  0x19, 0x00, 0x00, 0x00, 0x00, 0x00, 0x00, 0x19, 0x0c, 0x00, 0x0c, 0x00,
  0x0b, 0x00, 0x00, 0x00, 0x00, 0x00, 0x04, 0x00, 0x0c, 0x00, 0x00, 0x00,
  0x09, 0x00, 0x00, 0x00, 0x00, 0x00, 0x00, 0x09
};
