const unsigned char model[] = {
  0x1c, 0x00, 0x00, 0x00, 0x54, 0x46, 0x4c, 0x33, 0x14, 0x00, 0x20, 0x00,
  0x1c, 0x00, 0x18, 0x00, 0x14, 0x00, 0x10, 0x00, 0x0c, 0x00, 0x00, 0x00,
  0x08, 0x00, 0x04, 0x00, 0x14, 0x00, 0x00, 0x00, 0x1c, 0x00, 0x00, 0x00,
  0x94, 0x00, 0x00, 0x00, 0xec, 0x00, 0x00, 0x00, 0x94, 0x2c, 0x00, 0x00,
  0xa4, 0x2c, 0x00, 0x00, 0x7c, 0x32, 0x00, 0x00, 0x03, 0x00, 0x00, 0x00,
  0x01, 0x00, 0x00, 0x00, 0x10, 0x00, 0x00, 0x00, 0x00, 0x00, 0x0a, 0x00,
  0x10, 0x00, 0x0c, 0x00, 0x08, 0x00, 0x04, 0x00, 0x0a, 0x00, 0x00, 0x00,
  0x0c, 0x00, 0x00, 0x00, 0x1c, 0x00, 0x00, 0x00, 0x38, 0x00, 0x00, 0x00,
  0x0f, 0x00, 0x00, 0x00, 0x73, 0x65, 0x72, 0x76, 0x69, 0x6e, 0x67, 0x5f,
  0x64, 0x65, 0x66, 0x61, 0x75, 0x6c, 0x74, 0x00, 0x01, 0x00, 0x00, 0x00,
  0x04, 0x00, 0x00, 0x00, 0x94, 0xff, 0xff, 0xff, 0x0a, 0x00, 0x00, 0x00,
  0x04, 0x00, 0x00, 0x00, 0x07, 0x00, 0x00, 0x00, 0x64, 0x65, 0x6e, 0x73,
  0x65, 0x5f, 0x35, 0x00, 0x01, 0x00, 0x00, 0x00, 0x04, 0x00, 0x00, 0x00,
  0x4e, 0xd3, 0xff, 0xff, 0x04, 0x00, 0x00, 0x00, 0x0d, 0x00, 0x00, 0x00,
  0x64, 0x65, 0x6e, 0x73, 0x65, 0x5f, 0x33, 0x5f, 0x69, 0x6e, 0x70, 0x75,
  0x74, 0x00, 0x00, 0x00, 0x02, 0x00, 0x00, 0x00, 0x34, 0x00, 0x00, 0x00,
  0x04, 0x00, 0x00, 0x00, 0xdc, 0xff, 0xff, 0xff, 0x0d, 0x00, 0x00, 0x00,
  0x04, 0x00, 0x00, 0x00, 0x13, 0x00, 0x00, 0x00, 0x43, 0x4f, 0x4e, 0x56,
  0x45, 0x52, 0x53, 0x49, 0x4f, 0x4e, 0x5f, 0x4d, 0x45, 0x54, 0x41, 0x44,
  0x41, 0x54, 0x41, 0x00, 0x08, 0x00, 0x0c, 0x00, 0x08, 0x00, 0x04, 0x00,
  0x08, 0x00, 0x00, 0x00, 0x0c, 0x00, 0x00, 0x00, 0x04, 0x00, 0x00, 0x00,
  0x13, 0x00, 0x00, 0x00, 0x6d, 0x69, 0x6e, 0x5f, 0x72, 0x75, 0x6e, 0x74,
  0x69, 0x6d, 0x65, 0x5f, 0x76, 0x65, 0x72, 0x73, 0x69, 0x6f, 0x6e, 0x00,
  0x0e, 0x00, 0x00, 0x00, 0xa4, 0x2b, 0x00, 0x00, 0x9c, 0x2b, 0x00, 0x00,
  0x78, 0x2b, 0x00, 0x00, 0x68, 0x2a, 0x00, 0x00, 0xd8, 0x29, 0x00, 0x00,
  0xc8, 0x25, 0x00, 0x00, 0xb8, 0x05, 0x00, 0x00, 0xa8, 0x00, 0x00, 0x00,
  0xa0, 0x00, 0x00, 0x00, 0x98, 0x00, 0x00, 0x00, 0x90, 0x00, 0x00, 0x00,
  0x88, 0x00, 0x00, 0x00, 0x68, 0x00, 0x00, 0x00, 0x04, 0x00, 0x00, 0x00,
  0x02, 0xd4, 0xff, 0xff, 0x04, 0x00, 0x00, 0x00, 0x54, 0x00, 0x00, 0x00,
  0x0c, 0x00, 0x00, 0x00, 0x08, 0x00, 0x0e, 0x00, 0x08, 0x00, 0x04, 0x00,
  0x08, 0x00, 0x00, 0x00, 0x10, 0x00, 0x00, 0x00, 0x24, 0x00, 0x00, 0x00,
  0x00, 0x00, 0x06, 0x00, 0x08, 0x00, 0x04, 0x00, 0x06, 0x00, 0x00, 0x00,
  0x04, 0x00, 0x00, 0x00, 0x00, 0x00, 0x00, 0x00, 0x00, 0x00, 0x0a, 0x00,
  0x10, 0x00, 0x0c, 0x00, 0x08, 0x00, 0x04, 0x00, 0x0a, 0x00, 0x00, 0x00,
  0x02, 0x00, 0x00, 0x00, 0x02, 0x00, 0x00, 0x00, 0x04, 0x00, 0x00, 0x00,
  0x06, 0x00, 0x00, 0x00, 0x32, 0x2e, 0x31, 0x35, 0x2e, 0x30, 0x00, 0x00,
  0x62, 0xd4, 0xff, 0xff, 0x04, 0x00, 0x00, 0x00, 0x10, 0x00, 0x00, 0x00,
  0x31, 0x2e, 0x35, 0x2e, 0x30, 0x00, 0x00, 0x00, 0x00, 0x00, 0x00, 0x00,
  0x00, 0x00, 0x00, 0x00, 0x54, 0xcf, 0xff, 0xff, 0x58, 0xcf, 0xff, 0xff,
  0x5c, 0xcf, 0xff, 0xff, 0x60, 0xcf, 0xff, 0xff, 0x8e, 0xd4, 0xff, 0xff,
  0x04, 0x00, 0x00, 0x00, 0x00, 0x05, 0x00, 0x00, 0x90, 0x2f, 0xb3, 0x3e,
  0x38, 0x52, 0x62, 0x3e, 0xdf, 0x34, 0x6b, 0x3c, 0xf1, 0xfb, 0xc7, 0x3d,
  0x82, 0x2e, 0xb0, 0x3e, 0x6d, 0x88, 0x8f, 0xbe, 0x74, 0xf1, 0x85, 0xbd,
  0x76, 0x21, 0x5e, 0x3e, 0x8d, 0x9a, 0x96, 0x3e, 0xf6, 0x72, 0x0f, 0x3e,
  0x32, 0x47, 0x85, 0xbf, 0x2a, 0xa8, 0xba, 0x3d, 0x29, 0x0c, 0x70, 0x3e,
  0x40, 0x34, 0x5c, 0x3e, 0xe1, 0xa8, 0x3d, 0xbe, 0x38, 0x80, 0x68, 0x3e,
  0x1e, 0x87, 0xcc, 0xbd, 0x17, 0x07, 0xab, 0x3e, 0x86, 0xd6, 0xea, 0xbe,
  0x11, 0xa9, 0x62, 0xbe, 0x29, 0x9f, 0x35, 0xbf, 0xa7, 0x27, 0x59, 0xbe,
  0xc4, 0xd8, 0x37, 0xbc, 0x2c, 0xe7, 0xa5, 0x3d, 0xf7, 0x26, 0xa6, 0xbd,
  0x45, 0x66, 0xc0, 0xbc, 0xe6, 0x5c, 0xa9, 0x3d, 0x2b, 0x0c, 0x26, 0xbf,
  0xc4, 0xd5, 0xdd, 0x3e, 0xe8, 0xf7, 0x6d, 0x3d, 0x3d, 0xce, 0x5b, 0x3e,
  0x95, 0xff, 0x01, 0x3f, 0x61, 0x80, 0x8a, 0xbb, 0x07, 0x42, 0x8e, 0xbd,
  0x57, 0x0d, 0x6f, 0x3e, 0x78, 0x99, 0xe3, 0x3e, 0xb6, 0x83, 0x95, 0xbd,
  0x0a, 0x76, 0x1a, 0xbf, 0xcf, 0xc3, 0x11, 0x3e, 0xe0, 0xff, 0xc3, 0xbe,
  0x54, 0x84, 0x36, 0xbf, 0x1c, 0x60, 0x8a, 0xbd, 0x53, 0x7a, 0x6a, 0xbe,
  0x3a, 0x6d, 0x2c, 0xbf, 0x54, 0x1c, 0x45, 0xbe, 0x36, 0xa7, 0x06, 0x3f,
  0x7a, 0xbd, 0x05, 0xbe, 0xc8, 0x2e, 0x61, 0x3e, 0xf1, 0x21, 0x90, 0xbd,
  0xce, 0xf1, 0x93, 0xbe, 0xf0, 0x31, 0xb1, 0xbd, 0x93, 0xc1, 0x75, 0xbe,
  0xa2, 0x35, 0x2b, 0xbf, 0x46, 0x9c, 0xa4, 0x3e, 0x06, 0x2f, 0xe9, 0xbe,
  0x2c, 0x28, 0x25, 0xbe, 0x42, 0x4c, 0xf6, 0xbe, 0xce, 0x84, 0x47, 0xbe,
  0xa9, 0x98, 0x30, 0xbe, 0x28, 0x6c, 0x4f, 0xbd, 0xb0, 0x79, 0x01, 0x3f,
  0x3e, 0xbe, 0xb0, 0xbd, 0xdf, 0x4c, 0xe0, 0xbe, 0x16, 0x2b, 0xe5, 0x3e,
  0xd3, 0xd0, 0x7e, 0x3d, 0xbe, 0x49, 0xe7, 0xbd, 0x0b, 0xa0, 0xd4, 0xbc,
  0x0b, 0x39, 0x45, 0xbc, 0x22, 0x83, 0xa9, 0x3e, 0xd6, 0x7f, 0x67, 0x3e,
  0xf3, 0xf8, 0x99, 0x3d, 0xcf, 0x55, 0x56, 0xbe, 0xf0, 0xc6, 0xa5, 0xbe,
  0x01, 0x9f, 0x48, 0xbe, 0x5f, 0xc7, 0x88, 0xbe, 0x1e, 0x50, 0xb7, 0xbe,
  0x85, 0x67, 0xab, 0xbd, 0xb4, 0xea, 0xd3, 0xbe, 0x07, 0xd2, 0x21, 0x3e,
  0xb1, 0x7e, 0x35, 0xbf, 0xab, 0x25, 0x65, 0x3e, 0x22, 0xe7, 0xa9, 0xbe,
  0x63, 0x9d, 0x15, 0x3e, 0x29, 0xee, 0x52, 0xbf, 0x30, 0x54, 0xaa, 0x3d,
  0x02, 0x71, 0xf8, 0x3d, 0x14, 0xe3, 0x3d, 0x3e, 0x7f, 0x0a, 0x60, 0xbe,
  0x31, 0x8b, 0x65, 0x3e, 0x52, 0x15, 0xdf, 0x3d, 0xbb, 0x9d, 0x2c, 0x3e,
  0x39, 0x96, 0xfd, 0xbe, 0xf2, 0x13, 0xe3, 0xbe, 0xbf, 0x5d, 0x88, 0xbd,
  0xda, 0x1e, 0x06, 0xbf, 0x58, 0x5a, 0x28, 0xbf, 0xe4, 0xc5, 0x65, 0xbd,
  0xb1, 0xc6, 0x4d, 0x3e, 0xa1, 0xf6, 0xa2, 0xbb, 0x01, 0xbd, 0xed, 0xbe,
  0x1e, 0x63, 0x37, 0xbf, 0xb7, 0xfe, 0xf9, 0x3b, 0xcd, 0xd1, 0x31, 0xbf,
  0xb9, 0x48, 0x45, 0x3e, 0x0b, 0x0a, 0xe8, 0xbd, 0xf3, 0xdd, 0x39, 0x3e,
  0x09, 0x41, 0x22, 0x3e, 0x87, 0x00, 0x0e, 0xbf, 0x84, 0x4f, 0x0f, 0xbe,
  0xbd, 0x5b, 0x42, 0xbe, 0x54, 0x9f, 0x8c, 0xbe, 0x3b, 0x04, 0x2b, 0xbf,
  0x78, 0x64, 0xc1, 0x3d, 0xbd, 0x5a, 0x8a, 0xbe, 0xa0, 0x9b, 0x52, 0xbe,
  0x00, 0x95, 0xbc, 0x3e, 0x36, 0xb3, 0x2e, 0x3e, 0x46, 0x74, 0x24, 0xbe,
  0xf8, 0xb0, 0x44, 0x3e, 0x2f, 0xd0, 0x59, 0xbe, 0x04, 0x75, 0x17, 0x3e,
  0x34, 0x73, 0x31, 0xbe, 0x8a, 0x5c, 0x65, 0xbe, 0xbd, 0x8d, 0xa8, 0x3d,
  0x85, 0xbd, 0x1c, 0xbf, 0x60, 0xa0, 0x58, 0xbd, 0x0f, 0x56, 0x80, 0xbe,
  0x6d, 0x41, 0xb3, 0xbe, 0x86, 0x73, 0x50, 0xbe, 0xa6, 0x4b, 0x8a, 0xbd,
  0x49, 0xf6, 0x06, 0xbe, 0x1f, 0x1d, 0x19, 0xbf, 0x6a, 0xce, 0xa9, 0xbe,
  0x45, 0x33, 0x8f, 0x3e, 0x1c, 0x32, 0xef, 0x3d, 0x45, 0xe8, 0x38, 0xbf,
  0x59, 0x33, 0xe7, 0xbd, 0x7c, 0x9b, 0x00, 0xbf, 0x84, 0x13, 0x3c, 0x3c,
  0x37, 0xcd, 0xaa, 0x3e, 0xb5, 0xd5, 0x7c, 0xbd, 0xaf, 0x92, 0x58, 0xbe,
  0x99, 0x66, 0x71, 0xbd, 0x66, 0x07, 0x95, 0xbe, 0x31, 0xc6, 0x25, 0x3e,
  0x34, 0x44, 0xc1, 0xbe, 0xb6, 0xba, 0xae, 0x3e, 0xad, 0xec, 0xb5, 0xbe,
  0x3b, 0x22, 0x2d, 0xbe, 0x8b, 0xeb, 0xb3, 0xbe, 0x23, 0xc5, 0xed, 0xbe,
  0x74, 0x25, 0x58, 0xbe, 0xee, 0x1a, 0x3f, 0xbe, 0x45, 0x25, 0xe5, 0xbd,
  0x0e, 0x4e, 0x60, 0x3e, 0xeb, 0x7e, 0x12, 0x3e, 0x73, 0x2a, 0x20, 0xbd,
  0x59, 0x4a, 0x4b, 0x3d, 0x75, 0xb8, 0xa6, 0x3a, 0x95, 0xbc, 0xa1, 0x3d,
  0x12, 0x7e, 0x5c, 0x3e, 0xa0, 0x2e, 0x36, 0xbe, 0x1c, 0xe5, 0xae, 0x3e,
  0xbb, 0x4d, 0x86, 0xbe, 0xae, 0xfe, 0xde, 0x3e, 0x9a, 0x59, 0x51, 0xbf,
  0x41, 0x01, 0xb7, 0xba, 0x4d, 0x43, 0x62, 0x3e, 0x62, 0x0a, 0xa7, 0x3e,
  0xf3, 0x75, 0x49, 0xbf, 0x78, 0x40, 0x31, 0x3e, 0x3c, 0xb9, 0xd0, 0x3e,
  0x66, 0xff, 0xfa, 0x3e, 0x5a, 0x35, 0x41, 0xbd, 0xdf, 0x58, 0xa4, 0xbe,
  0x2b, 0xaf, 0x83, 0x3e, 0xcd, 0x01, 0xef, 0x3d, 0xd1, 0x20, 0xb1, 0xbe,
  0x01, 0x6e, 0x84, 0xbe, 0x11, 0x70, 0x31, 0xbf, 0xc5, 0x8e, 0x3f, 0x3e,
  0xfb, 0xc6, 0x0d, 0xbf, 0x2c, 0xbe, 0x89, 0xbe, 0x0c, 0x16, 0xd6, 0xbd,
  0xbd, 0xfe, 0xfd, 0x3d, 0x64, 0x10, 0xe0, 0x3c, 0xa5, 0xaf, 0x0c, 0x3e,
  0x97, 0x36, 0x0f, 0xbf, 0x7b, 0x8c, 0x9e, 0x3c, 0xa0, 0x80, 0x45, 0xbf,
  0xba, 0x15, 0xa4, 0x3d, 0x66, 0x69, 0x4b, 0xbf, 0xa5, 0x52, 0x32, 0x3e,
  0x30, 0xd4, 0x09, 0x3d, 0x03, 0xed, 0x49, 0xbf, 0xb6, 0x98, 0xb7, 0xbe,
  0xf4, 0x9a, 0x97, 0xbe, 0x56, 0x31, 0x92, 0xbe, 0xc3, 0x74, 0x5f, 0x3d,
  0x68, 0x38, 0x37, 0xbd, 0xe1, 0xfe, 0xa1, 0xbd, 0x3c, 0x4d, 0x9a, 0x3d,
  0x37, 0x23, 0x2d, 0x3e, 0x80, 0x5c, 0x04, 0xbf, 0x00, 0x20, 0xcf, 0xbc,
  0xb7, 0x6c, 0x09, 0xbf, 0xa1, 0x87, 0x67, 0x3e, 0x34, 0x81, 0xcd, 0x3d,
  0x72, 0x68, 0x83, 0x3e, 0x6d, 0xb0, 0xcb, 0x3c, 0xdb, 0x0f, 0xfc, 0xbe,
  0xb0, 0xdf, 0xef, 0x3c, 0x8f, 0xf6, 0x9b, 0x3e, 0x65, 0x38, 0x05, 0x3e,
  0x6a, 0x4e, 0x06, 0xbe, 0x66, 0xda, 0x90, 0xbe, 0xed, 0xaa, 0x40, 0xbe,
  0x34, 0x6c, 0x4c, 0x3c, 0xc9, 0x3d, 0x96, 0xbe, 0xf8, 0x1d, 0xfe, 0x3e,
  0x04, 0xed, 0x4e, 0xbf, 0x40, 0x9c, 0xeb, 0x3d, 0x43, 0x93, 0x93, 0x3e,
  0xea, 0x4e, 0xae, 0x3e, 0x73, 0x0d, 0x2d, 0x3b, 0xbb, 0xe2, 0xb7, 0x3d,
  0xbd, 0x7b, 0x22, 0xbf, 0x2d, 0xfd, 0x2c, 0xbe, 0x18, 0xa6, 0x04, 0xbf,
  0x7b, 0xea, 0xc0, 0x3e, 0x68, 0x6a, 0x11, 0x3f, 0xd9, 0x8e, 0x14, 0xbf,
  0xc0, 0x32, 0x3b, 0xbf, 0xad, 0x1f, 0x29, 0x3e, 0x04, 0xde, 0x15, 0x3e,
  0x66, 0xdb, 0x95, 0x3e, 0x1c, 0xc1, 0xf4, 0xbe, 0x52, 0xab, 0xe7, 0xbe,
  0x65, 0x25, 0x29, 0x3e, 0xb0, 0xc7, 0x07, 0xbe, 0x66, 0xb7, 0xf4, 0xbd,
  0x05, 0xbe, 0x0d, 0xbf, 0x2d, 0x0f, 0xc9, 0x3d, 0xda, 0x93, 0x8d, 0x3d,
  0xe1, 0xdc, 0xf2, 0x3d, 0x58, 0x38, 0xb7, 0xbd, 0x42, 0xb5, 0x8d, 0x3e,
  0x16, 0x32, 0xa9, 0x3e, 0x60, 0xd3, 0xb8, 0xbd, 0xe8, 0x0f, 0x25, 0x3e,
  0x8d, 0x0e, 0x67, 0xbd, 0xee, 0x85, 0x11, 0xbf, 0x88, 0x1a, 0xb0, 0xbe,
  0xb8, 0x18, 0x2f, 0xbd, 0x4c, 0x82, 0xc3, 0x3e, 0x70, 0xeb, 0x70, 0x3d,
  0x1b, 0x4c, 0x98, 0xbe, 0x40, 0xed, 0x86, 0x3c, 0x6f, 0x35, 0xce, 0x3d,
  0x0f, 0x65, 0xa0, 0xbe, 0x78, 0x4f, 0x46, 0xbe, 0x81, 0xfd, 0x2a, 0xbe,
  0x73, 0x5f, 0x88, 0x3e, 0x92, 0xdf, 0x0a, 0x3e, 0x5b, 0x87, 0x52, 0xbe,
  0x37, 0x04, 0xa9, 0xbe, 0x9e, 0x15, 0x8b, 0xbe, 0xd7, 0x90, 0xeb, 0x3d,
  0x42, 0x59, 0x05, 0x3e, 0xe1, 0xa4, 0x6f, 0x3e, 0x6b, 0xf8, 0x84, 0x3e,
  0xab, 0x57, 0xfe, 0x3d, 0x8e, 0xf3, 0x76, 0x3e, 0xde, 0x91, 0x9e, 0xbe,
  0x43, 0x5f, 0x2f, 0x3e, 0x20, 0xe6, 0xb5, 0x3d, 0x27, 0x89, 0x68, 0x3e,
  0x4f, 0x82, 0xc8, 0x3d, 0xf9, 0x83, 0xc0, 0xbe, 0xf0, 0xe8, 0x5f, 0xbd,
  0xc5, 0xb3, 0x27, 0x3d, 0x61, 0x8b, 0x33, 0xbd, 0x29, 0x30, 0x6a, 0xbf,
  0xc2, 0x63, 0xda, 0xbd, 0xb7, 0x9d, 0xde, 0xbe, 0x37, 0x19, 0x67, 0x3e,
  0xdf, 0xe3, 0x0d, 0xbe, 0xc9, 0x36, 0x4f, 0x3d, 0x7c, 0xc7, 0x3d, 0xbd,
  0x62, 0xcb, 0xdf, 0xbc, 0x70, 0x01, 0x1c, 0xbe, 0x90, 0x2b, 0xdd, 0x3e,
  0xa0, 0xdf, 0xbf, 0x3e, 0xe3, 0x3e, 0xaa, 0xbd, 0xa1, 0x90, 0xff, 0xbd,
  0x7e, 0xb8, 0x2d, 0xbf, 0x99, 0xc7, 0x98, 0xbe, 0x86, 0x7e, 0x90, 0xbe,
  0x7d, 0x64, 0x55, 0x3e, 0x3d, 0xc7, 0x4c, 0x3e, 0x9f, 0x45, 0xa4, 0x3e,
  0x3d, 0x70, 0xc9, 0x3e, 0xe5, 0xdd, 0xc5, 0xbd, 0x54, 0x65, 0x88, 0x3e,
  0x31, 0x79, 0x55, 0xbf, 0xc2, 0x44, 0x01, 0x3f, 0x83, 0x38, 0x29, 0x3e,
  0x1d, 0x82, 0x77, 0xbe, 0xb2, 0x0e, 0xb3, 0xbe, 0xb9, 0x44, 0x3f, 0xbe,
  0xdf, 0xb7, 0x50, 0x3e, 0x27, 0x92, 0xfa, 0xbd, 0x2a, 0x1f, 0x10, 0xbf,
  0x8d, 0x1a, 0x93, 0x3d, 0x91, 0xc8, 0x04, 0xbe, 0x21, 0x94, 0xea, 0xbe,
  0x35, 0x6e, 0x99, 0xbe, 0xae, 0x66, 0x71, 0x3e, 0xd2, 0xe2, 0x27, 0xbe,
  0x25, 0xf3, 0x07, 0xbe, 0x9a, 0xd9, 0xff, 0xff, 0x04, 0x00, 0x00, 0x00,
  0x00, 0x20, 0x00, 0x00, 0xfa, 0x97, 0x0e, 0xbe, 0xbc, 0x69, 0x8e, 0xbd,
  0xcd, 0xdd, 0x13, 0xbe, 0x20, 0xd3, 0x4b, 0xbe, 0x30, 0xa0, 0x3b, 0xbe,
  0x39, 0xed, 0xc0, 0x3e, 0x32, 0x1d, 0x36, 0xbe, 0xc3, 0xa1, 0xa5, 0x3d,
  0x10, 0x7f, 0x1b, 0xbe, 0x93, 0x6e, 0xd4, 0x3d, 0x1f, 0xb9, 0xa8, 0xbd,
  0xd4, 0x5d, 0x5e, 0x3e, 0x4d, 0x99, 0xa1, 0x3e, 0x4c, 0x86, 0x1d, 0xbe,
  0xa5, 0x97, 0x25, 0x3e, 0xb3, 0xdd, 0xc0, 0xbd, 0xb1, 0x14, 0xda, 0x3e,
  0x6b, 0x4a, 0x08, 0x3e, 0x13, 0x84, 0x2b, 0xbe, 0x50, 0x6c, 0x18, 0xbe,
  0x2f, 0x65, 0xb3, 0x3e, 0x42, 0x97, 0x85, 0x3e, 0x31, 0x65, 0x2c, 0x3e,
  0x6e, 0x48, 0x22, 0x3c, 0xe3, 0x0b, 0x9f, 0xbd, 0xe9, 0xda, 0x18, 0x3e,
  0x4d, 0xfb, 0x1c, 0xbe, 0xbc, 0x34, 0x40, 0xbe, 0x45, 0x1c, 0x24, 0xbe,
  0x95, 0xca, 0x54, 0x3e, 0x81, 0x60, 0x0b, 0x3e, 0x9c, 0xfe, 0x8d, 0xbd,
  0x68, 0xfb, 0xf6, 0x3d, 0x9c, 0x26, 0x69, 0xbe, 0xac, 0x4f, 0x34, 0x3e,
  0xc8, 0x53, 0x9f, 0xbd, 0xb4, 0x28, 0x6d, 0xbe, 0xa8, 0x39, 0x39, 0x3e,
  0xe0, 0x19, 0xab, 0x3c, 0xcc, 0xca, 0x61, 0x3e, 0xf0, 0x21, 0x2a, 0xbe,
  0xf4, 0x50, 0x71, 0xbe, 0x64, 0xf3, 0x0b, 0x3e, 0xc0, 0xb6, 0xcd, 0xbd,
  0x2c, 0xaa, 0x39, 0xbe, 0x78, 0xdf, 0x2a, 0xbe, 0x14, 0x8f, 0x59, 0x3e,
  0x04, 0xdb, 0x02, 0xbe, 0xf8, 0xaa, 0x63, 0xbe, 0xa0, 0x4f, 0xf8, 0x3c,
  0xd8, 0xd1, 0x8f, 0x3d, 0xe0, 0x68, 0x49, 0xbd, 0x74, 0xd4, 0x4a, 0xbe,
  0xd0, 0x9a, 0x2d, 0xbd, 0x58, 0x34, 0x66, 0xbe, 0x90, 0x53, 0x41, 0xbe,
  0xac, 0x60, 0x67, 0xbe, 0xa8, 0x70, 0x14, 0x3e, 0x68, 0x40, 0x86, 0xbd,
  0x48, 0x4f, 0x5c, 0xbe, 0xb0, 0x22, 0x10, 0x3e, 0x20, 0x19, 0x53, 0xbd,
  0x90, 0x8e, 0x12, 0x3d, 0x80, 0xb9, 0x9b, 0xbd, 0x65, 0x21, 0xba, 0x3e,
  0x51, 0x7e, 0x7c, 0xbe, 0x29, 0x88, 0x9f, 0x3e, 0x17, 0xca, 0x22, 0xbd,
  0x23, 0xb4, 0x0e, 0x3e, 0x7b, 0xc6, 0x23, 0xbe, 0x37, 0xf0, 0x10, 0x3e,
  0x1f, 0x8d, 0xac, 0x3d, 0x55, 0x1d, 0x35, 0x3e, 0xaf, 0x5c, 0x83, 0x3d,
  0x37, 0x8a, 0xb6, 0xbd, 0x0d, 0x70, 0x82, 0x3d, 0x87, 0x07, 0xa8, 0x3e,
  0xef, 0xa0, 0x5c, 0x3e, 0xd8, 0xcf, 0x07, 0xbf, 0x6f, 0x2d, 0x11, 0xbe,
  0x83, 0xa4, 0xe7, 0xbc, 0x93, 0x2e, 0xc6, 0x3e, 0xf4, 0x55, 0x22, 0x3e,
  0x4d, 0x38, 0x60, 0x3e, 0x69, 0x62, 0x39, 0xbc, 0xb6, 0x86, 0xcb, 0x3e,
  0x34, 0x04, 0xac, 0x3e, 0x32, 0xc5, 0x16, 0x3d, 0xb9, 0x45, 0x3d, 0xbd,
  0xfb, 0xb7, 0xf5, 0x3d, 0x01, 0x4a, 0x60, 0x3e, 0x69, 0xb8, 0x42, 0xbe,
  0x69, 0x5a, 0x72, 0xbe, 0x89, 0x80, 0x70, 0xbd, 0x69, 0x05, 0x13, 0x3f,
  0xab, 0x66, 0x98, 0xbe, 0xfa, 0x3e, 0x92, 0x3e, 0x6f, 0x6b, 0xb4, 0xbc,
  0x2f, 0x52, 0xed, 0x3e, 0xa7, 0xef, 0xa9, 0x3e, 0x90, 0x9b, 0x18, 0x3d,
  0x3c, 0x58, 0xf4, 0xbd, 0xa5, 0xbc, 0xb3, 0x3e, 0x39, 0xdb, 0x22, 0xbe,
  0x48, 0xb9, 0x37, 0x3e, 0xb2, 0x89, 0x1f, 0xbe, 0x2a, 0x39, 0x47, 0x3e,
  0xb6, 0x6c, 0x08, 0x3e, 0x1d, 0x41, 0x73, 0xbd, 0x7f, 0x6f, 0x51, 0x3e,
  0xe3, 0x2e, 0x9f, 0xbd, 0x70, 0xf4, 0x25, 0xbe, 0x5e, 0x9f, 0xce, 0xbe,
  0xe9, 0x04, 0xf7, 0x3d, 0x3c, 0x10, 0xb7, 0xbd, 0xbf, 0x34, 0x69, 0x3e,
  0x06, 0x49, 0x35, 0x3d, 0xc1, 0x76, 0x9d, 0x3e, 0x49, 0x1b, 0x02, 0xbe,
  0xaf, 0xa4, 0x80, 0xbe, 0x39, 0x79, 0x08, 0x3d, 0x08, 0x98, 0x00, 0xbe,
  0x35, 0x20, 0xd4, 0x3e, 0xf5, 0x95, 0x98, 0xbd, 0x70, 0x1e, 0x8d, 0x3d,
  0xf3, 0xee, 0x70, 0x3e, 0xf0, 0x75, 0x83, 0xbd, 0x5e, 0x2d, 0x1f, 0xbe,
  0x7e, 0xca, 0xa2, 0x3d, 0x91, 0x84, 0x02, 0x3d, 0x52, 0x5c, 0xca, 0x3e,
  0x3e, 0x03, 0xe3, 0x3e, 0xcf, 0xd1, 0xa4, 0xbc, 0xa3, 0x5c, 0x65, 0x3d,
  0x66, 0x00, 0xc9, 0x3d, 0x6d, 0x0d, 0x72, 0xbe, 0xd9, 0x33, 0x12, 0x3e,
  0x19, 0x9f, 0xa5, 0x3e, 0x44, 0x1f, 0xc7, 0x3d, 0x89, 0xc5, 0xb4, 0x3c,
  0x0d, 0x68, 0xac, 0x3e, 0x9f, 0xc3, 0x97, 0x3d, 0xf8, 0x80, 0xd2, 0xbd,
  0xdd, 0x76, 0x05, 0xbe, 0x38, 0x5a, 0x34, 0xbe, 0x82, 0xfd, 0xb9, 0x3e,
  0x7d, 0xc8, 0x30, 0xbe, 0x19, 0x49, 0x9b, 0xbd, 0x3d, 0xec, 0xd5, 0x3d,
  0x92, 0x8f, 0x15, 0x3e, 0x77, 0xb4, 0xd7, 0xbd, 0xbf, 0xf2, 0x5e, 0x3d,
  0x5a, 0x40, 0x8e, 0x3d, 0x42, 0x90, 0x86, 0xbd, 0xf7, 0x92, 0x85, 0x3e,
  0x9a, 0x38, 0xcc, 0xbd, 0x87, 0xc3, 0xe0, 0xbd, 0xb8, 0xeb, 0xdf, 0x3d,
  0x28, 0xcc, 0xfb, 0x3d, 0xa9, 0x54, 0x35, 0xbe, 0x80, 0xf0, 0x31, 0x3e,
  0xfb, 0x8b, 0x50, 0xbe, 0x67, 0xe0, 0x3d, 0x3e, 0xe8, 0xb4, 0x16, 0x3e,
  0xff, 0x24, 0x54, 0x3e, 0xa0, 0xaa, 0x94, 0xbd, 0xc8, 0x63, 0x76, 0xbe,
  0x0c, 0x5b, 0x38, 0xbe, 0x5b, 0x7f, 0x0c, 0xbe, 0x7c, 0xbb, 0x65, 0xbe,
  0xcf, 0x21, 0x39, 0x3e, 0x15, 0x61, 0x62, 0x3e, 0x53, 0x09, 0x88, 0xbd,
  0x47, 0x5d, 0x18, 0x3e, 0xa5, 0x78, 0x68, 0x3e, 0xd4, 0x46, 0x2a, 0xbe,
  0xd4, 0x99, 0x47, 0xbe, 0x7b, 0x1c, 0x5b, 0xbe, 0x42, 0xb5, 0x7f, 0xbe,
  0xd2, 0x31, 0xa9, 0x3c, 0xe8, 0x83, 0x4c, 0xbe, 0xe2, 0xc3, 0x76, 0x3a,
  0x40, 0xf3, 0x3c, 0x3c, 0x6f, 0x85, 0x65, 0xbc, 0x68, 0x53, 0x31, 0xbe,
  0x50, 0xed, 0x5e, 0xbe, 0x01, 0x95, 0x9d, 0xbd, 0xdd, 0x93, 0x28, 0xbe,
  0x89, 0x68, 0x22, 0xbe, 0xe0, 0x5d, 0x92, 0x3d, 0xd8, 0xe7, 0xe8, 0x3d,
  0xc0, 0x7c, 0x68, 0x3c, 0x2c, 0xe2, 0x1c, 0xbe, 0x32, 0x36, 0x9a, 0xbd,
  0x50, 0xfc, 0x4e, 0xbe, 0x50, 0xb2, 0xe6, 0xbd, 0xef, 0xa0, 0x0c, 0xbe,
  0xa8, 0xb1, 0x31, 0xbe, 0x48, 0xf7, 0x5f, 0xbe, 0x6f, 0x8e, 0x31, 0x3e,
  0x30, 0xd4, 0x3f, 0xbd, 0xb0, 0x5f, 0x33, 0x3e, 0xc1, 0x00, 0x0e, 0xbe,
  0xb8, 0x12, 0x81, 0x3d, 0xb4, 0xc5, 0xd8, 0x3c, 0x9d, 0x26, 0x72, 0xbd,
  0x4d, 0x33, 0x3f, 0x3d, 0xb3, 0x77, 0x2a, 0xbd, 0xd7, 0x43, 0x45, 0xbe,
  0x17, 0xeb, 0x18, 0xbe, 0x6d, 0xff, 0xe7, 0xbc, 0x2d, 0x96, 0x47, 0xbd,
  0x80, 0x6a, 0x24, 0xbc, 0xb3, 0xb6, 0x50, 0x3e, 0x13, 0x28, 0x29, 0xbe,
  0x91, 0x49, 0x2d, 0xbd, 0x54, 0x8e, 0x74, 0xbe, 0x1f, 0x5b, 0x65, 0xbe,
  0x00, 0x76, 0x11, 0x3e, 0x64, 0x4c, 0xcf, 0x3d, 0xda, 0x29, 0xfa, 0xbd,
  0xa0, 0x05, 0x54, 0x3e, 0x10, 0xb4, 0x10, 0xbe, 0xcb, 0xd2, 0x0f, 0x3e,
  0x0a, 0xaf, 0x5f, 0x3e, 0xa0, 0xd2, 0xd5, 0x3d, 0x27, 0x6e, 0x15, 0x3d,
  0x57, 0xea, 0xea, 0x3e, 0x46, 0xe8, 0x0c, 0xbe, 0x3a, 0x40, 0x76, 0xbd,
  0x8b, 0xa1, 0xe1, 0x3e, 0x30, 0x1e, 0xd2, 0x3d, 0x7d, 0xe9, 0xca, 0x3e,
  0x20, 0x09, 0x6d, 0xbe, 0x72, 0x56, 0x5f, 0x3d, 0x39, 0x97, 0x65, 0x3d,
  0x6b, 0x3a, 0x56, 0xbd, 0xf6, 0xcb, 0x13, 0x3e, 0xae, 0x2d, 0xba, 0xbd,
  0xad, 0xa1, 0xb6, 0x3e, 0xc9, 0x09, 0x76, 0xbe, 0xdd, 0x0a, 0x17, 0xbe,
  0x1b, 0x9a, 0x2a, 0xbe, 0xb1, 0x9f, 0x47, 0x3e, 0x54, 0x94, 0x29, 0xbd,
  0xcc, 0xd1, 0xb8, 0xbd, 0x32, 0x0f, 0x32, 0x3e, 0x27, 0x0a, 0x5f, 0xbe,
  0x91, 0xbc, 0xa1, 0xbe, 0x5e, 0x0f, 0xd7, 0xbd, 0xb9, 0x4a, 0x4a, 0xbe,
  0x3d, 0x63, 0x67, 0x3e, 0xea, 0x7f, 0xa9, 0xbd, 0x6e, 0x68, 0xc5, 0x3e,
  0xd0, 0xee, 0x22, 0xbe, 0xae, 0xa4, 0xce, 0xbd, 0x17, 0x77, 0x85, 0x3b,
  0x5b, 0x26, 0x69, 0xbd, 0x6a, 0x75, 0x17, 0xbe, 0xd3, 0x47, 0x30, 0x3e,
  0x96, 0x6d, 0x3c, 0x3e, 0x8c, 0x32, 0x4d, 0x3e, 0x13, 0x43, 0xe1, 0xbd,
  0xbb, 0xcb, 0x9b, 0x3b, 0x49, 0x35, 0xcb, 0x3b, 0xc1, 0xb6, 0x18, 0x3d,
  0x42, 0x2f, 0xa0, 0x3e, 0x5b, 0x97, 0x58, 0x3e, 0xab, 0xb2, 0x49, 0xbe,
  0x0b, 0x53, 0x22, 0xbe, 0xda, 0x32, 0x38, 0x3c, 0x36, 0x77, 0x43, 0x3e,
  0x6a, 0x95, 0x35, 0xbe, 0x33, 0x2e, 0x66, 0x3e, 0x3a, 0x18, 0x1f, 0xbd,
  0xba, 0xe0, 0x6c, 0x3d, 0xb0, 0x40, 0x32, 0x3e, 0xc9, 0x5f, 0x64, 0x3e,
  0x8b, 0xf2, 0x71, 0x3e, 0x47, 0x9f, 0x71, 0xbe, 0x00, 0x30, 0xba, 0xbd,
  0xb2, 0x56, 0xb4, 0x3b, 0x53, 0xb5, 0xd5, 0xbd, 0x15, 0x7e, 0x0f, 0x3d,
  0xff, 0x89, 0x43, 0xbe, 0xb3, 0x1d, 0x8b, 0x3e, 0xe4, 0x4e, 0x1d, 0xbe,
  0x3b, 0x4b, 0x59, 0xbe, 0x70, 0x40, 0x30, 0x3e, 0xcf, 0x39, 0x9d, 0x3e,
  0x50, 0xe7, 0x9c, 0xbd, 0x2f, 0x4e, 0x84, 0x3e, 0x39, 0x2f, 0x2d, 0x3d,
  0xf3, 0x25, 0x25, 0x3e, 0x2e, 0xc3, 0xa4, 0x3e, 0x3e, 0xf0, 0x6d, 0x3d,
  0xaa, 0x80, 0x9b, 0x3e, 0xd3, 0x00, 0x43, 0xbd, 0x06, 0x28, 0x2a, 0x3e,
  0x95, 0x89, 0x2c, 0x3e, 0xf3, 0x13, 0xf4, 0x3d, 0x01, 0xf3, 0xaf, 0xbd,
  0x6d, 0xa3, 0x7c, 0x3e, 0x68, 0xec, 0xdb, 0x3d, 0x4b, 0x47, 0x10, 0x3d,
  0x6a, 0x20, 0x3d, 0xbd, 0xc5, 0x75, 0x11, 0x3e, 0x90, 0x75, 0x74, 0xbe,
  0x8d, 0x02, 0x89, 0x3b, 0x3b, 0x44, 0x19, 0x3e, 0x2b, 0xbe, 0xd6, 0xbd,
  0x20, 0xb9, 0x96, 0xbe, 0xa2, 0x69, 0x45, 0xbe, 0xb1, 0x1e, 0xcd, 0x3e,
  0xf3, 0x3e, 0x7c, 0x3d, 0xb4, 0xcc, 0x53, 0xbd, 0x5b, 0x83, 0x3f, 0x3b,
  0xfc, 0xda, 0x4d, 0x3e, 0x0e, 0x56, 0xc6, 0xbc, 0xf2, 0xb1, 0x4d, 0x3e,
  0x31, 0x4f, 0x23, 0x3e, 0x27, 0xfd, 0xc2, 0x3e, 0x46, 0x0f, 0x76, 0xbe,
  0x66, 0x6f, 0x7d, 0xbe, 0x95, 0x5f, 0xc3, 0xbd, 0x4c, 0x99, 0x59, 0xbe,
  0x25, 0xb9, 0xab, 0x3d, 0x3a, 0x5f, 0xa1, 0x3e, 0x12, 0x93, 0x06, 0xbe,
  0x89, 0x58, 0x6f, 0xbe, 0xb5, 0x87, 0x2f, 0xbc, 0x92, 0x29, 0x1e, 0xbe,
  0xf7, 0x6e, 0x61, 0xbe, 0x9b, 0x44, 0xaf, 0x3d, 0x7e, 0xac, 0x01, 0x3f,
  0xf4, 0x9f, 0x97, 0x3e, 0xd8, 0xe1, 0xb7, 0x3e, 0x5d, 0xee, 0x80, 0xbc,
  0xee, 0x27, 0xdd, 0x3e, 0xbb, 0x2e, 0xd8, 0x3e, 0xd4, 0x97, 0xbe, 0x3d,
  0x04, 0x20, 0x23, 0xbd, 0xd3, 0xac, 0x2b, 0x3e, 0xd7, 0xb8, 0x71, 0x3e,
  0x1a, 0x4c, 0x06, 0x3d, 0x88, 0xd5, 0x19, 0xbe, 0x13, 0x60, 0x40, 0xbe,
  0x8a, 0xdf, 0x2e, 0x3d, 0x59, 0x04, 0x9b, 0x3e, 0xb1, 0xcd, 0xf3, 0xbd,
  0x9e, 0x90, 0x6f, 0xbe, 0xa9, 0xeb, 0x03, 0x3f, 0x2d, 0xf0, 0x90, 0xbd,
  0x58, 0x3a, 0x6a, 0xbe, 0xa5, 0xd2, 0xcb, 0xbd, 0xd5, 0xb5, 0x4b, 0xbe,
  0xa6, 0x2e, 0xf4, 0xbd, 0xc6, 0xab, 0xd8, 0xbd, 0x85, 0x9a, 0x08, 0xbf,
  0xb4, 0xc3, 0x2e, 0x3e, 0xc8, 0x6b, 0x55, 0x3e, 0x5f, 0x0b, 0x54, 0xbd,
  0x78, 0xb0, 0x0e, 0xbe, 0xa0, 0xae, 0x4e, 0xbd, 0xb1, 0x36, 0x19, 0x3d,
  0xf0, 0xd1, 0xb4, 0x3e, 0xb4, 0x9a, 0x55, 0xba, 0x97, 0xd6, 0x14, 0x3e,
  0xcb, 0x99, 0x6d, 0x3e, 0x18, 0x44, 0x1e, 0xbe, 0x82, 0xe2, 0x84, 0x3e,
  0x59, 0x35, 0xdc, 0x3d, 0x2d, 0xb4, 0x73, 0xbd, 0x7f, 0xf1, 0x9f, 0x3e,
  0xbf, 0xc7, 0x16, 0x3d, 0x98, 0xc1, 0x24, 0xbd, 0x0a, 0x9a, 0x68, 0x3e,
  0x83, 0x1c, 0x39, 0xbe, 0x48, 0xcc, 0x0c, 0x3e, 0x63, 0x9f, 0x8f, 0xbd,
  0x5e, 0xa7, 0x89, 0xbe, 0x66, 0x43, 0xc3, 0x3d, 0xb7, 0xdb, 0xf9, 0x3e,
  0x3e, 0x03, 0x5c, 0x3e, 0x2c, 0x73, 0x61, 0xbe, 0x5f, 0x40, 0x5b, 0xbe,
  0x7e, 0xdb, 0x46, 0x3d, 0x48, 0xbc, 0xb8, 0xbd, 0x56, 0x56, 0xca, 0xbd,
  0x30, 0xaf, 0xb0, 0xbd, 0x2c, 0x40, 0xc6, 0x3d, 0x69, 0x75, 0x9c, 0x3d,
  0x1e, 0x1e, 0x71, 0x3d, 0x90, 0xac, 0x2b, 0xbe, 0xf0, 0x1f, 0xe9, 0xbd,
  0xd8, 0x1c, 0x55, 0xbe, 0xc9, 0x62, 0xda, 0xbd, 0x35, 0x03, 0x82, 0xbc,
  0xaf, 0x05, 0x81, 0x3d, 0x38, 0x0f, 0xfe, 0xbc, 0x17, 0xd3, 0x21, 0xbe,
  0x2f, 0x79, 0x63, 0xbd, 0x2d, 0x95, 0x9e, 0x3d, 0x47, 0xa5, 0x04, 0xbe,
  0x30, 0x28, 0x1d, 0xbd, 0x0e, 0x8d, 0x30, 0xbe, 0x0c, 0xcc, 0x6e, 0xbe,
  0xdd, 0xc0, 0x32, 0x3e, 0x71, 0x18, 0x69, 0xbe, 0x80, 0x33, 0x7e, 0x3e,
  0x94, 0xfb, 0x68, 0xbe, 0x36, 0x6f, 0x43, 0x3c, 0x5d, 0x98, 0x2f, 0x3e,
  0x40, 0xee, 0x0f, 0xbd, 0x10, 0xec, 0xe1, 0x3d, 0x3c, 0x61, 0x6f, 0xbe,
  0x82, 0xf3, 0xd2, 0x3c, 0x7b, 0x87, 0x3c, 0x3d, 0x0b, 0xb8, 0x61, 0x3e,
  0x18, 0xcd, 0x78, 0x3c, 0x03, 0x64, 0x3e, 0xbc, 0xcb, 0x9f, 0x38, 0x3d,
  0x50, 0xdf, 0x3e, 0xbe, 0x1f, 0x02, 0x6f, 0xbe, 0x7a, 0xc8, 0x43, 0x3d,
  0x4a, 0x26, 0xb7, 0xbd, 0xf5, 0x24, 0x22, 0x3e, 0x1e, 0x5a, 0x2b, 0xbe,
  0x81, 0xeb, 0x25, 0x3b, 0xb5, 0x8c, 0x24, 0xbd, 0x42, 0x85, 0xc8, 0x3d,
  0x4e, 0x9b, 0x0b, 0xbd, 0xd8, 0xbd, 0xe2, 0x3e, 0xad, 0x87, 0x98, 0xbe,
  0x9e, 0x13, 0xa7, 0xbe, 0x59, 0xf9, 0x90, 0x3e, 0xd3, 0xd3, 0x14, 0x3e,
  0x11, 0x37, 0x98, 0xbe, 0x3f, 0x87, 0x1c, 0x3e, 0x84, 0x5d, 0x87, 0x3e,
  0xe9, 0xe3, 0xaa, 0x3e, 0xc4, 0x73, 0x7a, 0x3d, 0xd6, 0x1c, 0x2e, 0xbe,
  0x03, 0xde, 0xcc, 0xbe, 0x37, 0x3c, 0x0d, 0x3d, 0x01, 0x05, 0xb9, 0xbc,
  0xe2, 0x04, 0x1c, 0x3f, 0x89, 0x94, 0x23, 0x3e, 0xdc, 0xcb, 0x2f, 0x3c,
  0x92, 0xca, 0x6b, 0x3e, 0xd4, 0x5c, 0x51, 0xbe, 0xd5, 0xab, 0x34, 0x3e,
  0xc2, 0x54, 0x7f, 0x3d, 0xb2, 0x43, 0x9b, 0x3d, 0x3a, 0x41, 0x7a, 0xbe,
  0xdb, 0xae, 0x1f, 0xbe, 0x2e, 0x3b, 0xd4, 0x3c, 0x22, 0xfc, 0x38, 0xbe,
  0x07, 0xa3, 0x56, 0x3e, 0x5c, 0x74, 0x5d, 0x3e, 0x46, 0x6a, 0xd9, 0xbd,
  0x3c, 0xca, 0x6e, 0xbe, 0x9c, 0x1e, 0x05, 0x3e, 0x70, 0x2d, 0x67, 0xbe,
  0xc9, 0x24, 0x51, 0x3d, 0xb8, 0xd8, 0x62, 0x3e, 0xe2, 0xfd, 0x40, 0xbe,
  0x2a, 0xa6, 0xd6, 0x3c, 0x18, 0x1d, 0xaf, 0x3d, 0xa4, 0xc3, 0x02, 0xbe,
  0x0d, 0xe3, 0x46, 0x3e, 0xd4, 0x8d, 0x2c, 0xbe, 0x66, 0x82, 0x10, 0x3d,
  0xf3, 0x1b, 0x27, 0xbe, 0x72, 0x59, 0x39, 0x3e, 0xbc, 0x04, 0x2e, 0x3a,
  0xae, 0x20, 0xf5, 0x3d, 0x42, 0x70, 0x08, 0x3c, 0x06, 0x3b, 0xae, 0xbd,
  0x2d, 0xac, 0xfe, 0x3d, 0x86, 0x36, 0x38, 0xbe, 0x4e, 0xef, 0xa5, 0x3e,
  0x72, 0x03, 0x91, 0xbe, 0x67, 0x1b, 0x32, 0x3d, 0x7b, 0x68, 0xe9, 0xbd,
  0x1a, 0x52, 0x34, 0xbd, 0x17, 0xcf, 0x77, 0x3e, 0x35, 0xcd, 0xdb, 0x3d,
  0x02, 0x57, 0x84, 0xbd, 0x0a, 0x2e, 0xa4, 0x3e, 0xec, 0x9f, 0xcf, 0xbd,
  0x30, 0x9f, 0x19, 0xbe, 0x57, 0x4d, 0x8e, 0xbe, 0x31, 0x27, 0x13, 0xbe,
  0x30, 0x67, 0x84, 0x3e, 0x47, 0x80, 0xc7, 0x3c, 0xdb, 0x14, 0x59, 0x3e,
  0xc8, 0x1d, 0xb2, 0x3d, 0x35, 0x63, 0x1b, 0xbe, 0x85, 0x90, 0x14, 0xbe,
  0xd4, 0x77, 0x7f, 0x3d, 0x8a, 0x3c, 0x28, 0x3e, 0x6e, 0x62, 0xe7, 0x3e,
  0x66, 0x11, 0x33, 0x3b, 0xc9, 0xf0, 0xa7, 0x3d, 0x3d, 0x1d, 0x5d, 0x3e,
  0x43, 0xd3, 0x83, 0xbc, 0xfe, 0xcc, 0x2f, 0xbd, 0xbc, 0xe5, 0x14, 0xbe,
  0x59, 0xcb, 0xe9, 0x3d, 0x80, 0xf6, 0x8a, 0x3e, 0xd6, 0x50, 0xe0, 0x3e,
  0xf9, 0x4e, 0xcc, 0x3c, 0xec, 0x27, 0xdd, 0x3d, 0x63, 0x55, 0x68, 0x3e,
  0xd1, 0xe5, 0x32, 0x3e, 0x84, 0xa6, 0x2a, 0xbe, 0x23, 0x61, 0x2a, 0xbd,
  0x0f, 0x10, 0x29, 0x3d, 0xd9, 0x12, 0x06, 0xbe, 0x49, 0x59, 0x76, 0xbe,
  0x36, 0x47, 0x8d, 0xbd, 0x2a, 0x69, 0xd6, 0xbd, 0xc5, 0x7d, 0x59, 0x3c,
  0x08, 0xbf, 0xda, 0xbd, 0xc0, 0x67, 0x75, 0xbd, 0x88, 0x24, 0x0b, 0x3e,
  0x91, 0xd4, 0x88, 0xbc, 0xd3, 0x88, 0xca, 0xbc, 0x9f, 0x60, 0x02, 0xbe,
  0x00, 0x30, 0x33, 0xbe, 0x91, 0x48, 0xd0, 0xbd, 0xb0, 0xa5, 0x4f, 0xbe,
  0x88, 0xf7, 0x6c, 0x3e, 0x57, 0x71, 0x82, 0x3d, 0x4f, 0xc1, 0x20, 0xbe,
  0x62, 0x50, 0x48, 0xbe, 0xb4, 0xb9, 0x23, 0x3e, 0xbd, 0xe3, 0x4b, 0x3e,
  0x40, 0x7c, 0xce, 0x3c, 0xac, 0x71, 0x3c, 0xbe, 0x42, 0x27, 0x73, 0xbe,
  0xe2, 0xc5, 0xcb, 0x3c, 0x0a, 0xcc, 0x37, 0x3d, 0x12, 0x53, 0xd1, 0x3e,
  0xff, 0xd3, 0x9a, 0xbd, 0x7c, 0x90, 0x54, 0x3e, 0xed, 0x2e, 0x80, 0x3d,
  0xfd, 0xbf, 0x0e, 0xbc, 0x1d, 0xa7, 0xba, 0x3e, 0x53, 0x97, 0xd7, 0x3d,
  0x1e, 0xe4, 0x31, 0x3d, 0x1e, 0x5d, 0x50, 0x3e, 0x06, 0x6d, 0x04, 0x3e,
  0x06, 0xe8, 0xdb, 0x3e, 0x51, 0x1c, 0xeb, 0x3c, 0x8a, 0x52, 0xf0, 0xbd,
  0x1e, 0x60, 0x4c, 0x3e, 0x37, 0x2a, 0x11, 0xbe, 0x22, 0x6a, 0x65, 0xbe,
  0x62, 0x49, 0x5c, 0x3d, 0x73, 0xb6, 0xc8, 0xbc, 0x33, 0xb3, 0xc5, 0xbd,
  0xff, 0xac, 0xdf, 0x3d, 0xdd, 0x29, 0x58, 0x3e, 0xbd, 0x92, 0x60, 0x3e,
  0x63, 0x80, 0xaa, 0xbd, 0x06, 0xd3, 0x60, 0xbe, 0xa9, 0x99, 0x9b, 0xbe,
  0x4e, 0xeb, 0x80, 0x3e, 0xb8, 0xdc, 0x1c, 0x3e, 0x37, 0x85, 0x02, 0xbe,
  0x37, 0xe2, 0xeb, 0xbd, 0x57, 0x14, 0x65, 0x3e, 0x77, 0xed, 0x27, 0x3e,
  0xab, 0x7f, 0x9a, 0x3e, 0x9f, 0xd5, 0x93, 0x3c, 0xe4, 0x44, 0xce, 0xbe,
  0x53, 0x9d, 0xb7, 0xbd, 0xbd, 0xcd, 0xcd, 0x3d, 0x0f, 0xaf, 0x6a, 0xbd,
  0x8a, 0xea, 0xa8, 0xbe, 0xf0, 0xb3, 0xd6, 0xbe, 0x57, 0x91, 0x25, 0x3e,
  0x04, 0x48, 0x95, 0xbe, 0x2f, 0x7f, 0xaa, 0xbd, 0x2f, 0xa7, 0xd9, 0xbe,
  0xc7, 0x9a, 0xcb, 0xbd, 0x7f, 0x7b, 0xde, 0x3e, 0x29, 0x8f, 0x9d, 0x3e,
  0x68, 0x9c, 0xbd, 0xbe, 0xb3, 0x51, 0x09, 0x3c, 0xef, 0xe5, 0xfa, 0x3e,
  0xd1, 0xe8, 0x2d, 0x3e, 0x6b, 0xef, 0xef, 0xbd, 0x5e, 0xbc, 0xa4, 0x3e,
  0x48, 0xb5, 0x02, 0x3e, 0x3c, 0x0b, 0x26, 0x3e, 0x5c, 0x9b, 0x21, 0x3e,
  0xe7, 0xad, 0x46, 0x3e, 0xaa, 0x7d, 0xe2, 0x3e, 0x27, 0x61, 0x92, 0xbe,
  0x0a, 0xc4, 0x8a, 0x3d, 0xb1, 0xe8, 0x86, 0x3e, 0x59, 0x60, 0x02, 0xbd,
  0xc2, 0x9a, 0xcf, 0xbd, 0x87, 0x96, 0x3f, 0x3d, 0x3e, 0xb7, 0x34, 0xbe,
  0xf9, 0xcf, 0x26, 0xbd, 0x16, 0x10, 0xa7, 0xbd, 0xb2, 0x24, 0x18, 0xbe,
  0x86, 0x8e, 0x3b, 0x3e, 0x71, 0x02, 0xdd, 0xbb, 0xd4, 0x9d, 0x38, 0x3e,
  0xef, 0xaa, 0x41, 0x3e, 0x22, 0x10, 0x48, 0x3e, 0xd3, 0x83, 0x12, 0xbe,
  0x7a, 0xc6, 0xaf, 0x3d, 0x3e, 0xff, 0x83, 0x3a, 0xc6, 0x80, 0xac, 0xbd,
  0xd0, 0x81, 0xc2, 0xbe, 0x87, 0x8e, 0x92, 0xbe, 0xb6, 0xcf, 0xf6, 0x3e,
  0x8d, 0x93, 0x8d, 0x3e, 0x8c, 0x73, 0xc6, 0xba, 0xfc, 0xb4, 0x3b, 0xbe,
  0x54, 0xa6, 0xe8, 0xbd, 0x94, 0x2b, 0x8f, 0x3e, 0xd0, 0xa1, 0xaf, 0x3c,
  0x12, 0x68, 0x7f, 0xbe, 0x88, 0x79, 0xbe, 0x3e, 0xeb, 0x7d, 0xaf, 0xbd,
  0xc4, 0x26, 0x71, 0x3e, 0x1d, 0xc4, 0x01, 0xbe, 0xa7, 0x84, 0x56, 0x3d,
  0xcb, 0x51, 0xe3, 0x3d, 0x35, 0x17, 0x2d, 0xbd, 0xf2, 0xd3, 0x13, 0xbe,
  0xab, 0xf0, 0xed, 0x3e, 0x7c, 0xa0, 0xec, 0x3c, 0x6e, 0x64, 0xd8, 0xbd,
  0xa1, 0xcb, 0xc9, 0x3e, 0xee, 0x46, 0x23, 0x3d, 0xcc, 0xb5, 0x65, 0x3d,
  0x5e, 0x63, 0xf1, 0xbc, 0xce, 0x09, 0x13, 0xbe, 0x96, 0xe8, 0xd3, 0x3c,
  0xb5, 0xeb, 0x28, 0x3c, 0x5c, 0x11, 0xb0, 0xbe, 0x1e, 0x2d, 0x56, 0xbe,
  0xab, 0x28, 0xda, 0x3c, 0xbe, 0xe8, 0xb9, 0xbe, 0x59, 0x6c, 0xaa, 0xbe,
  0x3a, 0xf5, 0x55, 0xbe, 0x32, 0xb2, 0xa5, 0x3e, 0xe0, 0x39, 0xd2, 0x3e,
  0xf7, 0x66, 0xc2, 0xbe, 0x5f, 0xf5, 0x6c, 0xba, 0x42, 0x1a, 0x3f, 0x3e,
  0x90, 0x73, 0x07, 0xbd, 0x23, 0x7e, 0x72, 0xbb, 0xb2, 0xfc, 0xd2, 0x3d,
  0x7a, 0x31, 0x82, 0x3e, 0x8c, 0x6e, 0x90, 0x3e, 0x65, 0x88, 0x89, 0xbe,
  0x61, 0xd3, 0xb8, 0x3d, 0xad, 0xb4, 0x5c, 0xbd, 0xf1, 0x3b, 0xdd, 0x39,
  0x87, 0x61, 0x7e, 0x3e, 0x73, 0x15, 0x6e, 0x3d, 0xe2, 0x2f, 0x53, 0xbd,
  0x41, 0x20, 0x84, 0x3e, 0x4c, 0x7f, 0x27, 0xbe, 0xad, 0x0f, 0xe7, 0x3e,
  0x75, 0xeb, 0x8f, 0x3e, 0x80, 0x70, 0x9e, 0x3e, 0x8e, 0xde, 0x94, 0x3d,
  0xbe, 0x3e, 0xad, 0xbd, 0x9c, 0x94, 0xb6, 0x3e, 0x68, 0xc1, 0x93, 0xbc,
  0x8e, 0x6a, 0x1f, 0xbe, 0x8a, 0xf9, 0x7c, 0xbe, 0x49, 0x16, 0xf7, 0xbd,
  0xd5, 0xc9, 0x01, 0xbe, 0xc2, 0x7d, 0xbc, 0x3c, 0x4c, 0xc6, 0x0e, 0xbe,
  0xc2, 0x37, 0x1d, 0x3e, 0x6f, 0x1e, 0xab, 0x3e, 0x71, 0x2f, 0x0c, 0xbe,
  0xdd, 0xb8, 0x02, 0x3e, 0x78, 0xfc, 0x1e, 0xbe, 0x52, 0xe0, 0x85, 0x3d,
  0x87, 0xa8, 0x56, 0xbe, 0xf0, 0xf1, 0x3b, 0xbe, 0x61, 0x93, 0xaf, 0x3d,
  0x1c, 0x07, 0x60, 0x3d, 0xcf, 0xdb, 0xaa, 0x3d, 0xb4, 0x4a, 0x18, 0x3e,
  0x00, 0xd2, 0xa4, 0x3d, 0xa7, 0xac, 0x94, 0x3c, 0xf8, 0x34, 0x0c, 0x3e,
  0xab, 0xbb, 0x75, 0xbe, 0x92, 0x1a, 0xf9, 0xbc, 0xe0, 0x1e, 0x6b, 0x3d,
  0x4f, 0xfd, 0xa1, 0x3d, 0xcf, 0x00, 0xc4, 0xbd, 0x29, 0x01, 0x22, 0x3e,
  0xe1, 0xaa, 0xde, 0x3e, 0x8b, 0x46, 0x5a, 0x3e, 0x54, 0x69, 0x47, 0x3d,
  0x5e, 0xc9, 0x63, 0x3e, 0x04, 0x2e, 0xb2, 0x3d, 0x1e, 0x18, 0x3f, 0xbd,
  0xcf, 0xf2, 0xdb, 0x3e, 0x9e, 0x01, 0xa7, 0x3e, 0xcc, 0x53, 0xa5, 0x3c,
  0x36, 0x45, 0xc2, 0x3c, 0x04, 0x25, 0x20, 0x3d, 0xd7, 0x85, 0xa5, 0xbe,
  0xe9, 0x35, 0x4d, 0x3e, 0x5a, 0xbf, 0x55, 0xbe, 0xc8, 0x8c, 0x98, 0x3e,
  0x54, 0x7e, 0xab, 0xbe, 0x84, 0xa0, 0x5d, 0xbe, 0xe1, 0xea, 0xde, 0x3d,
  0xfa, 0x77, 0x36, 0x3e, 0x98, 0x7b, 0xc0, 0xbe, 0x99, 0x9c, 0x02, 0xbd,
  0x3e, 0x2a, 0xc6, 0x3c, 0x8d, 0x71, 0xa9, 0x3e, 0x0a, 0xb0, 0x96, 0xbd,
  0x97, 0xf3, 0x5d, 0x3e, 0x6f, 0x30, 0x5f, 0x3e, 0xe7, 0x38, 0x27, 0xbe,
  0x8e, 0xad, 0x0a, 0x3d, 0xf5, 0x9d, 0x98, 0xbe, 0x48, 0x88, 0x00, 0xbe,
  0x60, 0xdd, 0x71, 0x3d, 0x98, 0x7e, 0x29, 0xbe, 0x30, 0x1e, 0x6b, 0x3d,
  0xac, 0x86, 0x78, 0xbe, 0x0c, 0x25, 0x2c, 0xbe, 0xd0, 0x4c, 0x5c, 0x3d,
  0xa0, 0x01, 0xae, 0xbc, 0xd8, 0xdf, 0x92, 0x3d, 0xe0, 0x9f, 0x75, 0xbd,
  0x68, 0xf1, 0xb0, 0xbd, 0x20, 0xce, 0xb7, 0xbd, 0x90, 0xe3, 0xfd, 0x3d,
  0x30, 0x95, 0x48, 0xbe, 0x68, 0x61, 0xbc, 0x3d, 0xa8, 0x1a, 0xd9, 0xbd,
  0x30, 0x5e, 0x56, 0x3e, 0x44, 0x3e, 0x20, 0x3e, 0xb0, 0x49, 0x69, 0x3d,
  0x38, 0x23, 0x38, 0xbe, 0x8c, 0x5f, 0x26, 0xbe, 0xf4, 0x1a, 0x57, 0xbe,
  0x20, 0xd1, 0x33, 0xbe, 0x10, 0xba, 0xc8, 0x3d, 0xe0, 0x74, 0x7e, 0xbd,
  0x64, 0xf9, 0x7a, 0xbe, 0xf8, 0x7f, 0x1c, 0xbe, 0x98, 0x36, 0xc0, 0x3d,
  0xe4, 0x7c, 0x15, 0x3e, 0x20, 0xba, 0x7a, 0xbd, 0xd0, 0xed, 0x7f, 0xbe,
  0xdc, 0x0f, 0x17, 0xbe, 0xd0, 0x06, 0x70, 0x3d, 0x69, 0x22, 0x3d, 0x3d,
  0x61, 0xf4, 0x85, 0x3c, 0x1c, 0xa0, 0x6b, 0x3e, 0xaf, 0x82, 0x42, 0xbe,
  0x96, 0x82, 0x2a, 0xbe, 0x6d, 0x3d, 0x62, 0xbd, 0xbd, 0xe6, 0x04, 0xbe,
  0x00, 0x09, 0x38, 0xbc, 0xd4, 0xa0, 0xa7, 0xbd, 0xbf, 0x34, 0x94, 0x3d,
  0x2f, 0x9b, 0xf3, 0xbd, 0x67, 0xdb, 0xd2, 0xbc, 0x7f, 0x0e, 0x94, 0x3c,
  0xc8, 0x7a, 0xa8, 0x3d, 0x22, 0x77, 0xa4, 0x3d, 0xc5, 0x2e, 0x43, 0xbe,
  0x4a, 0xe6, 0x92, 0x3d, 0x7d, 0x07, 0x7a, 0x3e, 0x80, 0xe0, 0x1a, 0xbe,
  0x5f, 0xe0, 0x61, 0xbd, 0xfe, 0x55, 0xd8, 0x3c, 0x77, 0x2e, 0x0e, 0x3e,
  0x5b, 0xa3, 0xb5, 0x3b, 0x60, 0x37, 0x72, 0xbe, 0x9d, 0xe7, 0x7f, 0xbe,
  0x8f, 0x5b, 0x5c, 0x3e, 0x44, 0xb7, 0x25, 0xbe, 0xe8, 0x66, 0xe6, 0x3d,
  0x08, 0xc8, 0xc2, 0xbd, 0x7a, 0x39, 0x7a, 0x3e, 0x8b, 0xe4, 0x7c, 0xbd,
  0x21, 0x22, 0x7e, 0x3d, 0x1e, 0x5f, 0xac, 0x3c, 0x77, 0x70, 0xdd, 0x3d,
  0x70, 0x45, 0x2a, 0x3e, 0x48, 0x5a, 0xdd, 0xbd, 0xd2, 0x49, 0x6d, 0xbe,
  0x11, 0xf2, 0x7c, 0xbb, 0xe5, 0x69, 0x21, 0xbd, 0x59, 0xe4, 0x61, 0xbe,
  0x4c, 0xb2, 0x3c, 0xbe, 0x86, 0x2d, 0x5d, 0x3e, 0xd4, 0xc7, 0x25, 0xbe,
  0x8d, 0xdd, 0x2b, 0xbd, 0xf8, 0x97, 0x28, 0x3d, 0x34, 0xd2, 0x72, 0x3e,
  0xdc, 0xad, 0x94, 0x3d, 0x46, 0x6a, 0x5b, 0xbe, 0x77, 0xf7, 0x2d, 0xbd,
  0x61, 0xd3, 0x21, 0x3d, 0x89, 0x50, 0xd4, 0xbd, 0x54, 0xe2, 0x03, 0x3e,
  0xcb, 0x52, 0x3f, 0xbe, 0xbe, 0xbb, 0x1c, 0xbe, 0xf9, 0xfd, 0x82, 0xbc,
  0x84, 0x29, 0x6d, 0xbe, 0x99, 0x96, 0x71, 0x3e, 0xcc, 0xda, 0x32, 0xbe,
  0x72, 0xc8, 0x1f, 0xbd, 0xd6, 0xd6, 0x1e, 0x3e, 0xac, 0x8e, 0x7d, 0xbe,
  0x45, 0x7c, 0xe3, 0x3d, 0x5c, 0x5a, 0x0b, 0xbd, 0xa9, 0x69, 0x07, 0xbe,
  0x6e, 0x29, 0x28, 0xbe, 0xa4, 0xf7, 0xe9, 0x3d, 0x71, 0xc5, 0x0f, 0x3e,
  0x74, 0xe3, 0x40, 0x3e, 0x6e, 0x6f, 0x4e, 0xbe, 0xf9, 0xd1, 0x68, 0xbd,
  0x52, 0x84, 0x89, 0x3c, 0x40, 0x19, 0x9a, 0x3e, 0x41, 0x4e, 0x90, 0x3c,
  0x84, 0x25, 0x66, 0xbd, 0x2c, 0x92, 0x1a, 0x3e, 0x80, 0xf2, 0x2c, 0x3f,
  0xb2, 0x25, 0x14, 0x3f, 0xd3, 0xe2, 0xfb, 0xbb, 0x8a, 0xd3, 0x37, 0xbe,
  0x40, 0xe0, 0x5d, 0x3e, 0x67, 0xb2, 0x84, 0x3e, 0xad, 0x2d, 0xa7, 0x3e,
  0x56, 0x47, 0x9f, 0x3e, 0x91, 0x32, 0x00, 0xbe, 0xdc, 0x68, 0x17, 0x3f,
  0x58, 0xf5, 0xa8, 0xbd, 0xf6, 0x31, 0x72, 0x3e, 0xc4, 0xa7, 0xa2, 0x3e,
  0x9d, 0x61, 0x26, 0x3e, 0xe9, 0x2d, 0x5b, 0x3e, 0x23, 0x52, 0xbd, 0x3e,
  0x7f, 0xc7, 0x2a, 0x3e, 0xa6, 0xc8, 0x60, 0x3e, 0x4f, 0x48, 0xaa, 0xbe,
  0xde, 0x66, 0xef, 0xbc, 0xbd, 0x80, 0xa8, 0xbd, 0xb8, 0xd1, 0x7a, 0x3e,
  0xe8, 0xe4, 0x56, 0xbe, 0xe9, 0xe9, 0x91, 0xbe, 0x7b, 0xff, 0x69, 0xbe,
  0xa4, 0xe6, 0xe5, 0x3d, 0x43, 0x3f, 0x20, 0xbe, 0x3d, 0x69, 0x66, 0x3e,
  0x3d, 0x85, 0xcd, 0xbd, 0x5b, 0xb6, 0x9e, 0xbc, 0xab, 0x5f, 0x9b, 0x3e,
  0x0d, 0x61, 0xd3, 0x3d, 0xa4, 0xd2, 0x6e, 0xbe, 0x98, 0xfc, 0x85, 0x3b,
  0x2c, 0x54, 0xa0, 0x3e, 0xc5, 0x45, 0xdf, 0xbd, 0xa5, 0xee, 0xb1, 0xbd,
  0x68, 0x3a, 0xb1, 0xbe, 0xce, 0x59, 0x84, 0x3e, 0xd7, 0xd5, 0x83, 0x3e,
  0xd6, 0x04, 0x9a, 0xbe, 0x1e, 0x84, 0x31, 0xbe, 0xbf, 0x95, 0x96, 0x3d,
  0x6f, 0xbb, 0x87, 0x3e, 0xf8, 0x05, 0x84, 0xbc, 0x1a, 0x44, 0x52, 0xbe,
  0xe4, 0x21, 0x9d, 0xbe, 0x10, 0x03, 0x88, 0x3e, 0xec, 0xd1, 0x0c, 0x3e,
  0xdd, 0x9e, 0x38, 0x3e, 0x8e, 0xf8, 0xa4, 0xbb, 0xf2, 0x7f, 0x0c, 0x3f,
  0x2b, 0xbb, 0xa2, 0x3d, 0xb2, 0x2e, 0xa3, 0x3c, 0x97, 0x23, 0x3e, 0x3e,
  0x4f, 0x95, 0xd8, 0xbd, 0xc8, 0xfa, 0x3a, 0x3e, 0x55, 0x65, 0xbd, 0x3e,
  0xf2, 0xd1, 0x8f, 0xbe, 0xbf, 0x78, 0x17, 0x3e, 0x36, 0x04, 0xda, 0x3e,
  0xaf, 0x38, 0xa4, 0x3e, 0x69, 0xb2, 0x64, 0x3e, 0xc8, 0x06, 0xd2, 0x3e,
  0x19, 0x6e, 0x66, 0x3e, 0xa9, 0xbf, 0x6e, 0x3e, 0x58, 0xea, 0x28, 0xbb,
  0xb1, 0x0a, 0x9b, 0xbe, 0x61, 0xfe, 0x7c, 0x3e, 0xe9, 0x45, 0x94, 0x3e,
  0x65, 0x1d, 0x4e, 0x3d, 0xea, 0x1d, 0x4b, 0x3e, 0x5b, 0x0e, 0xf4, 0x3c,
  0xe1, 0xa6, 0xf8, 0x3d, 0x1f, 0x4c, 0x2a, 0x3e, 0x28, 0x5e, 0x2b, 0xbe,
  0x28, 0x40, 0xa2, 0x3e, 0xd3, 0x5b, 0x4d, 0xbb, 0x87, 0x06, 0x27, 0x3d,
  0xdf, 0x3c, 0x03, 0xbe, 0xa1, 0x6f, 0x23, 0xbe, 0xfc, 0x08, 0xd7, 0x3c,
  0x34, 0x75, 0x39, 0x3e, 0x54, 0xc1, 0x24, 0x3e, 0xd5, 0x8a, 0x5b, 0x3d,
  0xb6, 0x26, 0xf2, 0x3d, 0x14, 0x7e, 0x1f, 0xbe, 0x94, 0x87, 0x61, 0xbe,
  0xea, 0x13, 0xcc, 0xbd, 0x3d, 0x2f, 0x44, 0xbd, 0x1c, 0xc5, 0x4d, 0xbe,
  0x87, 0x70, 0x6f, 0x3c, 0xa0, 0x70, 0x5c, 0x3e, 0xb7, 0xc3, 0x00, 0x3b,
  0x53, 0x32, 0xec, 0xbd, 0x4b, 0x9f, 0xc9, 0xbd, 0x16, 0x5e, 0x5b, 0x3e,
  0x6f, 0x1f, 0x2a, 0xbe, 0x20, 0xdd, 0x35, 0xbe, 0x2a, 0x0f, 0x0b, 0xbe,
  0x59, 0x15, 0xff, 0xbc, 0x93, 0x4e, 0x3c, 0x3e, 0xe6, 0x8d, 0x63, 0xbd,
  0xa2, 0xf5, 0xe6, 0x3c, 0x5d, 0xf3, 0x1a, 0x3e, 0x69, 0xd8, 0x35, 0xbe,
  0x1d, 0x13, 0x8e, 0x3b, 0x0d, 0xb6, 0x02, 0xbd, 0x84, 0x60, 0xcd, 0xbd,
  0x1e, 0xec, 0xd1, 0xbd, 0x20, 0x9f, 0x05, 0x3e, 0xf2, 0x8b, 0xfa, 0x3d,
  0xd0, 0x2a, 0xb2, 0x3d, 0x7c, 0x86, 0xde, 0x3c, 0x02, 0x60, 0x3b, 0xbe,
  0x20, 0xef, 0x98, 0x3c, 0xe7, 0x51, 0x68, 0x3e, 0xcc, 0x4a, 0xbe, 0x3e,
  0x6c, 0xe1, 0x65, 0xbe, 0xc4, 0xe9, 0x46, 0xbe, 0xb6, 0x08, 0x31, 0xbe,
  0x2a, 0x48, 0x09, 0x3e, 0x90, 0x32, 0xe0, 0x3d, 0xfc, 0x83, 0x50, 0x3e,
  0x49, 0x9f, 0x94, 0x3d, 0x2c, 0x18, 0x98, 0x3d, 0x60, 0x24, 0x81, 0x3e,
  0x4e, 0xa3, 0xb9, 0x3e, 0xd9, 0xa7, 0xf7, 0xbd, 0x00, 0x08, 0x7c, 0x3e,
  0x9e, 0x07, 0xef, 0x3e, 0xe5, 0x89, 0xd1, 0xbd, 0x66, 0xb8, 0x5e, 0x3c,
  0xff, 0x6c, 0xa4, 0xbd, 0x60, 0x27, 0xae, 0x3e, 0x00, 0x7c, 0xc3, 0xbd,
  0x5e, 0xcf, 0x80, 0x3e, 0xda, 0x08, 0x93, 0x3e, 0x10, 0x09, 0xa8, 0x3e,
  0xac, 0xff, 0xd0, 0xbd, 0x0d, 0xc1, 0x69, 0xbe, 0x18, 0xc7, 0x01, 0xbc,
  0xe5, 0xa0, 0x01, 0xbe, 0xd5, 0x44, 0xa6, 0xbd, 0x1f, 0x3e, 0x64, 0x3e,
  0xf4, 0xbe, 0x47, 0x3e, 0x4c, 0x9e, 0x16, 0x3e, 0xce, 0x19, 0xd6, 0x3e,
  0x5e, 0x20, 0x54, 0x3e, 0x1c, 0x05, 0xc9, 0x3e, 0x16, 0x5b, 0x7e, 0xbe,
  0xcc, 0x84, 0x42, 0xbe, 0xca, 0x90, 0x22, 0xbe, 0x70, 0x55, 0x20, 0x3e,
  0x81, 0x4d, 0x1a, 0x3e, 0x7a, 0x87, 0xb4, 0x3e, 0x88, 0x5d, 0xc6, 0x3e,
  0xd7, 0xfd, 0xda, 0x3e, 0xb3, 0xeb, 0xd9, 0x3e, 0xef, 0x5e, 0x57, 0x3e,
  0xbb, 0x2c, 0x32, 0x3d, 0xa4, 0x31, 0x28, 0x3e, 0xf7, 0xcb, 0x1d, 0x3f,
  0x99, 0xaa, 0xa6, 0x3d, 0x27, 0x56, 0x0b, 0x3f, 0xda, 0xbe, 0x49, 0xbe,
  0xa2, 0x54, 0x52, 0xbd, 0x65, 0x65, 0x75, 0x3d, 0xf3, 0x29, 0xd1, 0x3b,
  0x02, 0xfa, 0x6c, 0xbc, 0xf7, 0x45, 0xbd, 0x3e, 0xed, 0x5d, 0xf1, 0xbd,
  0x0b, 0x30, 0x3c, 0xbc, 0x49, 0xe8, 0xce, 0x3e, 0x3a, 0xf2, 0x99, 0x3d,
  0xc8, 0x63, 0xd5, 0x3d, 0x4d, 0xd6, 0xb2, 0xbd, 0x19, 0xa1, 0x2b, 0x3e,
  0x79, 0x73, 0x55, 0x3e, 0x62, 0xc4, 0xa2, 0x3e, 0x90, 0xc6, 0x62, 0xbe,
  0xfb, 0xac, 0x77, 0x3c, 0x84, 0x63, 0x4e, 0xbe, 0x66, 0xf5, 0xa5, 0x3d,
  0xa9, 0xba, 0x9c, 0x3c, 0x98, 0x76, 0xfe, 0x3d, 0xc9, 0x33, 0x84, 0x3d,
  0x8c, 0x00, 0x82, 0x3d, 0x05, 0xa9, 0xb1, 0x3c, 0xf0, 0x51, 0x0f, 0x3d,
  0xc8, 0x5a, 0xfb, 0xbd, 0x20, 0x9e, 0xa4, 0xbc, 0x2f, 0x13, 0x7a, 0xbd,
  0x3c, 0x17, 0x00, 0x3e, 0xcd, 0x85, 0xae, 0x3c, 0x01, 0x0d, 0x85, 0xbe,
  0xb6, 0x5a, 0x76, 0xbe, 0x17, 0xcd, 0x18, 0x3e, 0x23, 0x67, 0x60, 0x3e,
  0x47, 0x92, 0x01, 0xbe, 0x40, 0x29, 0xca, 0xbc, 0x98, 0x1b, 0x82, 0xbe,
  0xb8, 0xe8, 0xc7, 0x3d, 0xad, 0x34, 0x44, 0x3e, 0x68, 0x0e, 0x83, 0xbe,
  0x74, 0xcb, 0x5d, 0xbe, 0xb0, 0x8e, 0x32, 0xbe, 0xa8, 0xc8, 0x0d, 0x3d,
  0x44, 0x0f, 0x6a, 0xbc, 0x40, 0xf6, 0xa1, 0x3d, 0x10, 0x6c, 0x25, 0xbe,
  0xe0, 0xfb, 0xd1, 0xbd, 0x3a, 0x48, 0xff, 0xbd, 0xbd, 0x0e, 0x13, 0xbd,
  0x5c, 0x5e, 0xfa, 0x3d, 0x89, 0xc0, 0x44, 0x3d, 0x8d, 0xf6, 0xa8, 0x3d,
  0xbc, 0x09, 0x5a, 0xbe, 0xa7, 0xfa, 0xb2, 0xbd, 0x1c, 0x45, 0x3c, 0xbe,
  0xd2, 0xc2, 0x1f, 0xbe, 0x40, 0xce, 0xc7, 0x3c, 0x9b, 0xec, 0x62, 0xbe,
  0xaf, 0xf1, 0xbf, 0x3d, 0x1a, 0x92, 0x49, 0x3b, 0xc1, 0x02, 0xb3, 0x3d,
  0x72, 0xfa, 0xb4, 0xbd, 0xe0, 0xf1, 0x6c, 0xbe, 0xdb, 0x0c, 0x71, 0x3e,
  0x4a, 0x09, 0x39, 0x3e, 0x5a, 0x6e, 0x65, 0xbe, 0x27, 0x8a, 0x1f, 0xbe,
  0xa5, 0x37, 0x6f, 0x3c, 0x58, 0xc7, 0xec, 0xbc, 0xc0, 0xa5, 0xbc, 0xbd,
  0x11, 0x80, 0x9a, 0x3c, 0x52, 0xf2, 0x36, 0xbe, 0xc0, 0x95, 0xa3, 0xbc,
  0x75, 0x7f, 0x0b, 0xbe, 0x15, 0xc5, 0xf9, 0xbc, 0xf8, 0xc0, 0xe9, 0x3d,
  0xad, 0xb9, 0x99, 0xbd, 0x98, 0xe7, 0x26, 0xbe, 0x5f, 0xec, 0x15, 0xbe,
  0x5a, 0xe2, 0xbd, 0x3e, 0xb8, 0xf1, 0xec, 0xbe, 0x14, 0x49, 0x3a, 0x3e,
  0xc8, 0xf4, 0x86, 0xbe, 0x82, 0x05, 0x91, 0x3e, 0xce, 0xd7, 0x18, 0xbe,
  0x66, 0x04, 0x26, 0xbe, 0x0c, 0xac, 0x4d, 0xbe, 0xa8, 0x70, 0x3f, 0x3e,
  0x25, 0x6d, 0x63, 0x3e, 0xf2, 0xad, 0x6c, 0xbe, 0x50, 0x71, 0x99, 0x3e,
  0xab, 0xe3, 0x8e, 0x3e, 0x88, 0xa7, 0x58, 0x3e, 0xd2, 0x07, 0x78, 0xbe,
  0x29, 0x7d, 0xe2, 0xbd, 0x16, 0x52, 0x1a, 0x3f, 0x9b, 0x45, 0x44, 0x3e,
  0x96, 0x67, 0xe1, 0xbd, 0x8b, 0x1a, 0x18, 0xbe, 0x30, 0x29, 0x85, 0x3e,
  0x55, 0xa4, 0x91, 0x3e, 0xc7, 0x29, 0xf5, 0x3d, 0x0d, 0xa6, 0x25, 0x3e,
  0x8f, 0x79, 0x73, 0x3e, 0x9a, 0xd8, 0xd5, 0x3d, 0x38, 0xed, 0xe7, 0x3e,
  0x2e, 0xc4, 0xc5, 0x3d, 0x1c, 0xd4, 0x50, 0x3d, 0x6c, 0x8a, 0x3b, 0x3d,
  0xe9, 0x47, 0xaf, 0x3d, 0x28, 0x8b, 0x5a, 0x3e, 0xbd, 0x1a, 0xc5, 0x3e,
  0x01, 0xf0, 0x71, 0xbe, 0xd7, 0x74, 0x46, 0x3e, 0x14, 0x31, 0x70, 0x3e,
  0x90, 0x17, 0xc9, 0x3d, 0x0f, 0x37, 0x33, 0x3e, 0x26, 0xd9, 0x02, 0x3e,
  0x4c, 0x75, 0x15, 0xbe, 0x86, 0x4a, 0x01, 0x3f, 0x89, 0xf0, 0xee, 0xbd,
  0x7d, 0x87, 0x5a, 0x3e, 0x53, 0x9b, 0xed, 0x3e, 0xc3, 0xed, 0x17, 0xbe,
  0x15, 0xef, 0x0c, 0x3e, 0xaf, 0xd9, 0x67, 0x3e, 0xc4, 0xfe, 0x66, 0x3e,
  0x28, 0xdf, 0x39, 0x3e, 0x69, 0x0b, 0x5d, 0x3e, 0xfa, 0x8c, 0xba, 0xbe,
  0x0f, 0xa0, 0xcb, 0x3b, 0x55, 0xc5, 0x17, 0xbe, 0x70, 0x60, 0xdc, 0xbc,
  0xc2, 0x80, 0x60, 0x3e, 0x3a, 0x7d, 0x21, 0x3e, 0x2c, 0xcf, 0x69, 0xbd,
  0x5e, 0x40, 0x37, 0x3e, 0x65, 0x29, 0x21, 0x3d, 0x1d, 0x4e, 0xa3, 0xbe,
  0xdf, 0x98, 0xab, 0xbd, 0x3c, 0x14, 0xc3, 0x3e, 0x3b, 0x12, 0x80, 0x3e,
  0xa9, 0x8d, 0xc8, 0x3d, 0xa0, 0x6a, 0x6c, 0xbe, 0x68, 0xa2, 0xbd, 0xbe,
  0x15, 0xb3, 0x73, 0xbd, 0x77, 0xff, 0x9f, 0xbe, 0xce, 0x3c, 0xcf, 0xbd,
  0x6e, 0x47, 0x9a, 0xbe, 0xed, 0xd9, 0xb9, 0xbe, 0x09, 0x19, 0x6d, 0x3d,
  0x93, 0x94, 0x8a, 0xbc, 0x43, 0xea, 0xc7, 0xbe, 0xae, 0x8a, 0x91, 0x3c,
  0x17, 0x06, 0xe9, 0x3b, 0xa0, 0x25, 0x7a, 0x3d, 0x7a, 0xd5, 0x68, 0x3e,
  0xc7, 0xae, 0x34, 0x3e, 0x1f, 0x19, 0x4b, 0xbd, 0xb9, 0x5c, 0x0b, 0x3f,
  0x3f, 0x7e, 0xe9, 0xbc, 0x6c, 0xd7, 0x88, 0xbd, 0x6d, 0x35, 0x55, 0x3e,
  0xc7, 0xa7, 0x92, 0xbe, 0x4b, 0xf7, 0xae, 0x3d, 0x97, 0xf4, 0xef, 0x3e,
  0x2b, 0xbc, 0x9e, 0x3e, 0x09, 0x24, 0x51, 0x3e, 0x12, 0x5a, 0x2e, 0xbe,
  0x86, 0x10, 0xcd, 0x3d, 0x00, 0x88, 0x52, 0xbe, 0x84, 0x47, 0x0e, 0x3c,
  0x15, 0x3b, 0x3a, 0xbe, 0xab, 0x1d, 0x17, 0x3f, 0x7f, 0x04, 0x3f, 0x3e,
  0x75, 0xcb, 0x09, 0xbe, 0x89, 0x52, 0x7f, 0x3e, 0x96, 0xb0, 0xd8, 0xbd,
  0x1c, 0x29, 0xd0, 0x3e, 0xc2, 0x0c, 0x88, 0xbe, 0xbc, 0x25, 0x76, 0x3d,
  0x84, 0xa7, 0xc6, 0x3e, 0xa0, 0xca, 0x13, 0x3d, 0xa0, 0x7a, 0x85, 0xbe,
  0x79, 0xd7, 0x96, 0xbd, 0xf3, 0x58, 0x87, 0x3d, 0x26, 0x01, 0x84, 0xbe,
  0xfc, 0x18, 0xce, 0xbe, 0x7e, 0x85, 0xc1, 0xbc, 0x42, 0xf3, 0x95, 0x3e,
  0x69, 0x37, 0xeb, 0x3e, 0x0e, 0x95, 0xfd, 0xbe, 0x2a, 0x23, 0x0e, 0x3e,
  0xd3, 0x7c, 0xd7, 0xb8, 0xca, 0x46, 0x54, 0x3e, 0x5a, 0xff, 0xd8, 0xbd,
  0x95, 0xe3, 0x19, 0xbd, 0x99, 0x5c, 0xe5, 0xbb, 0x69, 0x1e, 0x8f, 0x3d,
  0xfc, 0x15, 0x81, 0xbe, 0x75, 0x5d, 0xc3, 0xbd, 0x3d, 0xf6, 0xd8, 0xbd,
  0xd9, 0x80, 0xfc, 0x3d, 0xd1, 0x8a, 0x93, 0x3e, 0xfb, 0x92, 0x9c, 0x3c,
  0xed, 0xf0, 0x7c, 0xbd, 0xb6, 0x9b, 0x8c, 0x3e, 0x74, 0xbf, 0xc2, 0x3d,
  0x59, 0x37, 0xe2, 0x3e, 0xf4, 0xa9, 0xf4, 0x3d, 0x01, 0xec, 0x6b, 0xbe,
  0x56, 0xa8, 0x55, 0xbe, 0x48, 0x2b, 0x49, 0xbd, 0xe7, 0xdf, 0x3f, 0x3e,
  0x06, 0x78, 0x94, 0x3d, 0x89, 0x31, 0xa3, 0x3e, 0x93, 0x64, 0x95, 0xbd,
  0xd2, 0xff, 0x32, 0x3d, 0x60, 0x91, 0xda, 0x3c, 0x7c, 0x7c, 0x62, 0x3d,
  0x73, 0xb1, 0x6e, 0x3c, 0x68, 0x61, 0x64, 0x3e, 0x6f, 0x86, 0x41, 0xbc,
  0xae, 0xe8, 0x9f, 0x3e, 0x56, 0xc4, 0x92, 0xbe, 0xfa, 0xf9, 0x8b, 0x3e,
  0x94, 0x1c, 0xc6, 0xbd, 0x34, 0x67, 0xef, 0xbd, 0x77, 0xca, 0x71, 0x3d,
  0x46, 0x93, 0x9e, 0x3e, 0x41, 0x9f, 0xcd, 0xbd, 0x22, 0xb8, 0x65, 0xbe,
  0xa7, 0x83, 0x28, 0x3e, 0x50, 0xa4, 0x5f, 0x3d, 0x42, 0x01, 0x6d, 0x3d,
  0x97, 0x4d, 0x99, 0x3d, 0x6d, 0x20, 0xfb, 0x3d, 0xe2, 0x48, 0x92, 0xbe,
  0x18, 0x53, 0x02, 0x3f, 0x1e, 0xe2, 0x86, 0xbe, 0x34, 0xdb, 0xb9, 0xbc,
  0x36, 0xfe, 0x9b, 0xbc, 0x1c, 0xc5, 0xab, 0x3d, 0xfb, 0x82, 0x6f, 0x3e,
  0x2f, 0xe5, 0x24, 0x3c, 0xa1, 0xe3, 0x01, 0xbe, 0x6f, 0xe2, 0xe4, 0xbd,
  0x26, 0xf7, 0x55, 0x3d, 0x72, 0x07, 0x88, 0x3d, 0x12, 0xd4, 0x18, 0xbe,
  0x3c, 0xde, 0x01, 0xbe, 0x14, 0xa5, 0x1e, 0x3f, 0x2e, 0xd5, 0xb7, 0x3e,
  0xfd, 0x01, 0xfb, 0xbe, 0x98, 0x3b, 0xfb, 0xbd, 0x86, 0x5b, 0x2d, 0x3e,
  0x5e, 0x02, 0xc1, 0x3e, 0x15, 0x3f, 0x65, 0xbd, 0x75, 0x9a, 0x98, 0x3e,
  0x77, 0xee, 0x7b, 0xbd, 0xc8, 0xea, 0x73, 0x3e, 0xbd, 0x12, 0x55, 0xbd,
  0x89, 0x16, 0xa7, 0x3e, 0xad, 0x74, 0x8d, 0x3e, 0x62, 0x09, 0x0d, 0xbe,
  0xf9, 0x95, 0x83, 0x3e, 0xd1, 0xcc, 0xb0, 0x3e, 0xef, 0xf4, 0x88, 0xbd,
  0x4f, 0xd2, 0xa8, 0xbe, 0x48, 0x72, 0xfa, 0xbd, 0xa4, 0xb3, 0x07, 0xbe,
  0xc6, 0xfd, 0x54, 0xbe, 0x42, 0x62, 0xc8, 0xbe, 0xc0, 0x2c, 0x0c, 0x3d,
  0x6e, 0xb1, 0xa9, 0xbe, 0x3a, 0xbc, 0x0b, 0x3e, 0xeb, 0x5e, 0x4d, 0xbc,
  0x93, 0xc6, 0xc1, 0xbe, 0xf7, 0xe8, 0x17, 0xbd, 0x6d, 0xc3, 0xa6, 0xbd,
  0x9b, 0x11, 0x41, 0xbc, 0x98, 0x5b, 0xa0, 0xbe, 0x0d, 0xbc, 0xa4, 0xbd,
  0x79, 0x86, 0x81, 0x3e, 0xe5, 0x1d, 0x94, 0x3e, 0x3f, 0x68, 0x5d, 0x3d,
  0x70, 0xe0, 0x42, 0xbd, 0x1a, 0xd2, 0x37, 0x3e, 0x9e, 0x31, 0xc5, 0x3d,
  0x26, 0x15, 0xcf, 0xbd, 0xd3, 0xac, 0x9d, 0x3e, 0xab, 0x60, 0x37, 0xbe,
  0xab, 0x71, 0x98, 0xbd, 0x61, 0x64, 0xfc, 0x3d, 0x63, 0xe6, 0x98, 0x3e,
  0x46, 0x2b, 0x19, 0x3d, 0x1c, 0xed, 0x69, 0xba, 0x9d, 0xbd, 0xae, 0x3e,
  0xd5, 0xe7, 0x8b, 0x3e, 0x28, 0x60, 0x14, 0xbe, 0x73, 0x10, 0x26, 0xbe,
  0x5b, 0xa5, 0x67, 0xbd, 0xcd, 0x15, 0x08, 0xbe, 0x11, 0x6c, 0x86, 0xbe,
  0xa1, 0x26, 0xec, 0x3e, 0x28, 0xfa, 0xc1, 0x3e, 0xb0, 0x13, 0x20, 0x3f,
  0xfa, 0xf6, 0x22, 0xbd, 0x76, 0x91, 0x9a, 0x3e, 0x4d, 0x86, 0x0b, 0x3f,
  0x5c, 0xec, 0x66, 0x3e, 0x58, 0x1e, 0x27, 0xbe, 0xc2, 0x74, 0x9b, 0x3e,
  0x08, 0x8c, 0x13, 0xbe, 0x93, 0x07, 0xb6, 0x3d, 0x9d, 0xb2, 0x3a, 0xbe,
  0x84, 0x0d, 0x79, 0xbd, 0xd7, 0xbb, 0xd8, 0x3d, 0xfa, 0xb9, 0x9b, 0x3d,
  0xb2, 0x0e, 0xfa, 0xbe, 0x9f, 0xc3, 0xaf, 0x3e, 0xbe, 0xa2, 0x3e, 0x3b,
  0xc2, 0x22, 0x14, 0x3e, 0x85, 0xe0, 0xd6, 0xbd, 0x9b, 0xc1, 0x7c, 0xbd,
  0x05, 0x4a, 0xd0, 0xbc, 0x64, 0x12, 0xfb, 0xbd, 0xf9, 0x1e, 0xef, 0xbd,
  0xa9, 0xa3, 0xd7, 0x3b, 0x10, 0x5d, 0x37, 0x3d, 0x2c, 0x7a, 0x96, 0x3d,
  0x18, 0x01, 0xbf, 0x3e, 0x84, 0x89, 0x2f, 0xbd, 0x7d, 0xa2, 0xfd, 0xbd,
  0x01, 0x00, 0x18, 0x3d, 0xe8, 0xd1, 0x98, 0x3d, 0x5d, 0x42, 0xef, 0xbd,
  0xef, 0x86, 0x45, 0x3e, 0x59, 0xa0, 0x6b, 0xbe, 0xf4, 0x88, 0x2a, 0xbe,
  0xa2, 0x2a, 0x27, 0xbe, 0x8d, 0xf1, 0xd9, 0x3c, 0xa2, 0xdc, 0x31, 0x3e,
  0xe1, 0x01, 0x25, 0x3e, 0x2a, 0x66, 0x06, 0x3e, 0x5d, 0x7f, 0x9d, 0x3d,
  0x23, 0x85, 0x8b, 0xbe, 0xb6, 0x1a, 0x7a, 0x3d, 0xff, 0x18, 0x9c, 0xbd,
  0x52, 0x5c, 0xc2, 0xbd, 0x82, 0x45, 0x12, 0x3e, 0x7d, 0x7f, 0x60, 0xbe,
  0xe1, 0x54, 0xd8, 0xbd, 0x56, 0x50, 0x10, 0xbe, 0xd6, 0x56, 0x23, 0xbd,
  0x9b, 0x79, 0xbd, 0xba, 0x28, 0x5e, 0x3b, 0xbd, 0x7c, 0x6a, 0x89, 0x3d,
  0x5c, 0x04, 0x52, 0xbe, 0x2a, 0x32, 0x01, 0xbd, 0x20, 0x50, 0x48, 0x3e,
  0x65, 0x13, 0xd1, 0x3d, 0x88, 0x03, 0x62, 0xbc, 0xd4, 0xc8, 0xf7, 0xba,
  0xf0, 0x7e, 0x0b, 0xbe, 0x74, 0xda, 0x46, 0xbe, 0xe3, 0x8e, 0x6b, 0x3d,
  0x66, 0x18, 0x8d, 0xbd, 0xba, 0x30, 0x7a, 0xbd, 0xb6, 0xe3, 0xab, 0x3c,
  0x49, 0x50, 0x90, 0xbe, 0xd5, 0xb8, 0x3c, 0xbd, 0xc8, 0x75, 0xad, 0xbe,
  0x23, 0x84, 0x8c, 0xbe, 0xdb, 0x2a, 0xa4, 0x3e, 0x93, 0xee, 0x15, 0xbe,
  0xf1, 0xcf, 0x34, 0xbd, 0x49, 0xb4, 0xee, 0xbd, 0x16, 0xc8, 0x07, 0xbe,
  0x2e, 0x07, 0x5c, 0x3c, 0x2e, 0x83, 0x48, 0x3d, 0x6e, 0x1a, 0x91, 0x3e,
  0xf4, 0x48, 0x5b, 0x3e, 0xcf, 0x18, 0x59, 0x3e, 0x0a, 0x37, 0x7d, 0xbe,
  0x14, 0x9f, 0x19, 0x3e, 0x66, 0x5e, 0x83, 0x3e, 0xcd, 0x97, 0x58, 0xbe,
  0xc1, 0x31, 0x3b, 0x3e, 0x34, 0x5e, 0x47, 0x3e, 0xe6, 0xa7, 0x8f, 0xbd,
  0x9b, 0xd6, 0x5a, 0xbd, 0x96, 0x06, 0xc2, 0xbd, 0x9e, 0x8f, 0xc5, 0xbe,
  0xe5, 0x0b, 0x7c, 0x3d, 0x8e, 0xd3, 0x23, 0xbe, 0x19, 0xfc, 0x48, 0xbe,
  0x45, 0x0c, 0x44, 0x3e, 0xcb, 0x81, 0x26, 0x3f, 0xa6, 0x21, 0xa7, 0xbd,
  0xb9, 0x42, 0xdb, 0xbe, 0xeb, 0x6d, 0x5d, 0x3e, 0x70, 0x96, 0xa8, 0xbe,
  0x54, 0x79, 0x4c, 0xba, 0x06, 0x71, 0xc3, 0x3d, 0x61, 0x13, 0x8e, 0xbe,
  0x1d, 0x0d, 0x05, 0x3e, 0x0d, 0xeb, 0x12, 0xbe, 0x72, 0xbd, 0xd0, 0xbe,
  0x87, 0xc9, 0xaa, 0xbe, 0x07, 0x99, 0xc1, 0x3d, 0x6c, 0x06, 0xbf, 0x3d,
  0x91, 0xfc, 0xa2, 0x3e, 0xd4, 0xe2, 0xdb, 0x3d, 0x1a, 0x13, 0x08, 0x3e,
  0xfb, 0xc5, 0x00, 0x3f, 0x70, 0x40, 0xf4, 0xbd, 0xbd, 0x4b, 0x04, 0xbe,
  0xe4, 0xd1, 0x2f, 0x3c, 0x58, 0x33, 0xfb, 0xbc, 0x0a, 0x60, 0x05, 0x3e,
  0x0a, 0x99, 0xcc, 0xbd, 0x33, 0x41, 0xbc, 0x3e, 0x9c, 0xaf, 0xc7, 0xbc,
  0xa3, 0xc5, 0x4a, 0xbd, 0xfe, 0xcf, 0x20, 0xbd, 0x36, 0x56, 0xc6, 0xbd,
  0x79, 0x6b, 0x8d, 0xbd, 0x85, 0xdc, 0x08, 0x3e, 0x7b, 0x2f, 0x81, 0x3e,
  0xf9, 0x26, 0xe9, 0x3d, 0x04, 0x74, 0x3e, 0x3e, 0xd2, 0x00, 0x7e, 0xbe,
  0xa0, 0xcc, 0x24, 0x3e, 0xcb, 0x27, 0x25, 0x3e, 0xb5, 0x1d, 0xc4, 0xbc,
  0x9e, 0xe5, 0x78, 0x3e, 0x56, 0x9c, 0xa1, 0xbc, 0x33, 0x96, 0x85, 0x3d,
  0x55, 0x38, 0xb6, 0x3e, 0x18, 0x9f, 0xaa, 0xbc, 0x2f, 0x1f, 0x96, 0x3e,
  0xa6, 0x0e, 0x59, 0x3c, 0x6c, 0x85, 0x31, 0x38, 0xf7, 0xa4, 0x77, 0xbd,
  0xd2, 0x3f, 0x16, 0xbd, 0x5a, 0x2f, 0x07, 0xbe, 0xf8, 0x2b, 0x06, 0x3e,
  0xb7, 0x16, 0x3b, 0x3d, 0x32, 0x6d, 0x0a, 0xbe, 0x02, 0x3c, 0x10, 0xbe,
  0xfc, 0x99, 0x18, 0x3e, 0x29, 0x71, 0xa4, 0x3e, 0x20, 0xd2, 0xb1, 0x3e,
  0x1b, 0xa5, 0x76, 0x3e, 0x67, 0x77, 0x8e, 0x3d, 0x7f, 0x6c, 0xc3, 0xba,
  0x13, 0x93, 0xba, 0x3b, 0x0b, 0xd6, 0xc6, 0xbd, 0x2c, 0x94, 0x7a, 0x3d,
  0x16, 0x4f, 0x3b, 0x3e, 0x2f, 0xff, 0x0b, 0x3f, 0x32, 0xbe, 0x28, 0x3b,
  0x58, 0xbf, 0x41, 0xbe, 0x29, 0x0d, 0x0b, 0xbe, 0x50, 0x9d, 0xd0, 0x3d,
  0x58, 0x6e, 0x4d, 0xbe, 0xb7, 0xec, 0x29, 0xbe, 0x1f, 0x40, 0x75, 0x3d,
  0xa0, 0xea, 0x2d, 0xbd, 0x0f, 0x39, 0x68, 0x3d, 0xd3, 0xef, 0x38, 0x3c,
  0x6c, 0xcd, 0xce, 0x3d, 0x18, 0x86, 0x68, 0xbe, 0xc7, 0x41, 0x7d, 0xbe,
  0xa2, 0xbd, 0xef, 0x3b, 0xac, 0x03, 0x9c, 0xbd, 0x12, 0x14, 0x40, 0xbe,
  0x03, 0x65, 0x40, 0xbe, 0x88, 0x3b, 0xe5, 0xbd, 0x74, 0xd8, 0x5e, 0xbe,
  0xbe, 0x1a, 0x49, 0xbd, 0xc4, 0x2a, 0x04, 0xbe, 0xb9, 0x01, 0x78, 0x3d,
  0x46, 0x10, 0x45, 0x3e, 0x42, 0xf0, 0x71, 0xbe, 0x5a, 0x59, 0x52, 0xbe,
  0xd5, 0x25, 0xb9, 0xbd, 0x18, 0x81, 0x58, 0xbd, 0xc6, 0x91, 0xeb, 0xbd,
  0x70, 0x84, 0x7c, 0x3d, 0x98, 0xe2, 0xb9, 0xbd, 0x94, 0x30, 0xf4, 0x3d,
  0x57, 0x75, 0x10, 0x3e, 0x2e, 0x7d, 0xfe, 0x3d, 0xb8, 0x67, 0x38, 0x3d,
  0xa1, 0xae, 0x0e, 0x3e, 0xfa, 0x0d, 0xa2, 0xbe, 0xab, 0x75, 0x7c, 0xbe,
  0xc8, 0x45, 0x51, 0xbe, 0x18, 0x61, 0x19, 0x3d, 0x90, 0xab, 0xa1, 0xbe,
  0xb6, 0x7d, 0x86, 0x3d, 0x72, 0x1a, 0x2c, 0x3e, 0x9d, 0xa1, 0x1c, 0x3d,
  0x0b, 0xb3, 0x2c, 0xbd, 0xf9, 0x49, 0x82, 0x3e, 0x40, 0xde, 0x49, 0x3e,
  0x34, 0x5a, 0x8c, 0xbd, 0xf7, 0xdc, 0x0d, 0x3f, 0xba, 0x1a, 0x9c, 0xbd,
  0xb9, 0xe1, 0x11, 0x3f, 0x3a, 0xa8, 0x06, 0xbe, 0xa7, 0x64, 0xc6, 0xbd,
  0x43, 0x5f, 0x49, 0x3e, 0x68, 0xb1, 0x14, 0xbe, 0x74, 0xd4, 0x3e, 0xbe,
  0x72, 0x91, 0xda, 0x3e, 0x3e, 0x1e, 0xa3, 0x3e, 0xdb, 0x09, 0x39, 0x3e,
  0x81, 0x22, 0xa5, 0x3c, 0xa4, 0xac, 0x3b, 0x3e, 0xfe, 0xa7, 0xaa, 0x3d,
  0xf1, 0xcc, 0x22, 0x3e, 0x8e, 0xee, 0xc7, 0xbd, 0xa5, 0x6d, 0x23, 0x3f,
  0x93, 0x79, 0x42, 0x3e, 0xd9, 0xea, 0x7f, 0xbd, 0xa8, 0xef, 0x1c, 0x3d,
  0xf1, 0xa1, 0x3f, 0x3e, 0xc8, 0x39, 0x62, 0xbe, 0xa8, 0xba, 0x7c, 0x3e,
  0x08, 0x46, 0x3b, 0x3e, 0x08, 0xf4, 0x2e, 0xbe, 0x0a, 0xf0, 0x3d, 0x3e,
  0x2d, 0x3e, 0xac, 0xbc, 0x34, 0xae, 0x58, 0xbe, 0x9e, 0x1d, 0x70, 0xbe,
  0xaa, 0x95, 0xd2, 0x3d, 0x7e, 0x8e, 0x02, 0x3f, 0x5a, 0xe6, 0xdd, 0x3e,
  0x97, 0x2d, 0x46, 0xbe, 0x23, 0xac, 0x5b, 0x3e, 0x83, 0xc6, 0x06, 0x3d,
  0xe9, 0x47, 0xa5, 0x3e, 0xe3, 0x0a, 0xe7, 0x3e, 0x63, 0x2d, 0xee, 0xbb,
  0x52, 0xf6, 0x34, 0xbe, 0xa8, 0xcc, 0xfa, 0x3e, 0x8e, 0x21, 0x97, 0xbe,
  0x4f, 0xea, 0x71, 0x3e, 0x83, 0x58, 0xbd, 0xbb, 0xd2, 0x1c, 0x0e, 0x3d,
  0x1d, 0x5c, 0x19, 0xbe, 0xc0, 0xee, 0x09, 0x3e, 0xf7, 0x87, 0x93, 0x3d,
  0x31, 0x0b, 0x89, 0x3d, 0xc5, 0x64, 0x85, 0xbe, 0x1b, 0x22, 0x6b, 0x3d,
  0xc0, 0x79, 0x79, 0xbe, 0x78, 0x6c, 0xed, 0x3c, 0xf0, 0x69, 0xbf, 0x3d,
  0x39, 0x96, 0xbe, 0xbd, 0x18, 0xd6, 0xe0, 0xbd, 0xed, 0xe5, 0x06, 0xbe,
  0x7b, 0xc6, 0x9c, 0xbe, 0x0c, 0xa0, 0x9c, 0x3e, 0xd6, 0xe2, 0xc3, 0xbd,
  0x75, 0x4d, 0xae, 0xbd, 0x48, 0x66, 0x89, 0xbe, 0x79, 0x55, 0x71, 0xbe,
  0x5d, 0xc8, 0x06, 0x3e, 0x9c, 0x28, 0x80, 0xbe, 0x9f, 0x2e, 0xd8, 0x3d,
  0xc8, 0xbd, 0xb6, 0x3e, 0xfe, 0x1c, 0xd7, 0xbd, 0x85, 0x93, 0x98, 0xbe,
  0xff, 0xa9, 0x85, 0xbe, 0xe3, 0x85, 0x2e, 0xbe, 0x62, 0x31, 0x67, 0xbd,
  0xa5, 0x8f, 0xa5, 0xbe, 0x34, 0x7d, 0x87, 0x3e, 0x3a, 0x69, 0x0a, 0x3e,
  0x6f, 0x61, 0xd1, 0x3d, 0x6a, 0xa4, 0x23, 0xbe, 0x51, 0xc6, 0x8a, 0xbd,
  0x43, 0x4e, 0xb4, 0xbe, 0x9f, 0x41, 0x20, 0xbe, 0x6b, 0xb4, 0x27, 0x3e,
  0xbd, 0x8c, 0xd6, 0x3e, 0xb4, 0x81, 0x32, 0x3e, 0xc4, 0xaa, 0x41, 0xbe,
  0x58, 0xf6, 0x61, 0x3e, 0x10, 0xf4, 0x9e, 0x3d, 0xf8, 0x43, 0x33, 0x3e,
  0xab, 0x20, 0x34, 0xbd, 0x63, 0x51, 0xb6, 0xbc, 0x9d, 0x8f, 0x3c, 0x3c,
  0xc8, 0x13, 0x48, 0xbe, 0xb5, 0x0c, 0x62, 0x3e, 0xae, 0x68, 0xd4, 0x3d,
  0x02, 0x5c, 0x52, 0xbe, 0xed, 0xb0, 0xa1, 0xbc, 0x25, 0x8e, 0x62, 0xbe,
  0xe6, 0x92, 0x18, 0xbe, 0xcc, 0xf6, 0x70, 0xbe, 0xd4, 0x9e, 0x45, 0xbe,
  0x04, 0x8a, 0x7d, 0xbd, 0xf9, 0x28, 0x2d, 0xbd, 0x5b, 0xae, 0x4d, 0x3e,
  0x94, 0x44, 0x00, 0xbd, 0xf1, 0x33, 0x0b, 0x3e, 0xfe, 0xb6, 0x2e, 0xbc,
  0x52, 0xda, 0xf4, 0xbd, 0x4c, 0x23, 0x61, 0xbe, 0xf0, 0x7d, 0x69, 0xbd,
  0x91, 0xce, 0x73, 0xbe, 0x8d, 0x19, 0xd1, 0x3d, 0xc8, 0x03, 0xfb, 0xbd,
  0x30, 0xdc, 0x70, 0xbd, 0xd8, 0x58, 0x40, 0xbe, 0xa5, 0x2e, 0x1c, 0xbe,
  0xc0, 0xe2, 0x32, 0xbe, 0xa1, 0x45, 0xb2, 0xbe, 0x3e, 0x32, 0x27, 0x3e,
  0x29, 0xad, 0x39, 0x3e, 0xb8, 0x84, 0xe6, 0x3e, 0x97, 0x78, 0x7b, 0x3d,
  0x76, 0xbb, 0x83, 0x3d, 0x9c, 0xd4, 0x12, 0x3e, 0x24, 0xa9, 0x0a, 0x3e,
  0x0d, 0x54, 0x8a, 0xbe, 0x71, 0x98, 0x26, 0xbd, 0x27, 0xee, 0xec, 0x3d,
  0x4a, 0x7c, 0x07, 0xbd, 0x78, 0x05, 0x6c, 0xbe, 0xd1, 0x7a, 0x2f, 0x3e,
  0x92, 0xcf, 0xa8, 0xbd, 0xf4, 0x78, 0x73, 0x3e, 0xe0, 0x74, 0x61, 0xbe,
  0x44, 0x7c, 0xb7, 0x3d, 0x61, 0x8c, 0x65, 0xbd, 0x89, 0x56, 0xd0, 0xbd,
  0x00, 0x75, 0x59, 0x3e, 0x48, 0xf4, 0x7e, 0xbc, 0x92, 0xbd, 0xdc, 0xbd,
  0x4c, 0x35, 0x11, 0xbe, 0x22, 0x5e, 0x62, 0xbe, 0xd7, 0xf6, 0xd6, 0xbd,
  0x20, 0x71, 0x21, 0x3e, 0x0f, 0xc9, 0x60, 0x3e, 0x68, 0x5b, 0xc9, 0x3d,
  0xb7, 0x52, 0xa4, 0xbd, 0x8f, 0xc0, 0x66, 0xbe, 0x54, 0x4d, 0x96, 0xbe,
  0xd5, 0xd6, 0x42, 0x3d, 0x75, 0x76, 0x37, 0xbd, 0x4e, 0xa8, 0x2e, 0xbe,
  0x12, 0xed, 0xfe, 0xbd, 0x40, 0x5e, 0x07, 0x3e, 0x46, 0x35, 0xb1, 0xbc,
  0x0c, 0xd0, 0xdf, 0x3d, 0x07, 0x78, 0x97, 0x3e, 0xd7, 0x4c, 0x87, 0xbe,
  0xc9, 0x50, 0xbd, 0xbd, 0xc9, 0x87, 0x58, 0xbe, 0x87, 0xf8, 0x99, 0xbe,
  0x74, 0xe7, 0x8d, 0x3e, 0x56, 0x70, 0x47, 0x3e, 0x96, 0x2c, 0x76, 0xbd,
  0xf9, 0x02, 0x41, 0x3e, 0x8f, 0xa9, 0x37, 0x3d, 0x7a, 0xb1, 0x57, 0x3e,
  0x43, 0x61, 0xfa, 0x3e, 0x94, 0xd9, 0xf4, 0x3e, 0xa1, 0x74, 0xb5, 0xbc,
  0x4e, 0x42, 0x32, 0xbc, 0xcc, 0xf6, 0xac, 0xbe, 0x5b, 0x9d, 0x02, 0x3f,
  0xfe, 0xb6, 0xad, 0xbd, 0x20, 0x54, 0x2c, 0xbe, 0x18, 0x2e, 0xbc, 0xbe,
  0x39, 0x62, 0x06, 0x3e, 0xcd, 0x1d, 0xc3, 0x3e, 0xe6, 0x0e, 0x89, 0xbe,
  0x5a, 0x6d, 0xe5, 0xbe, 0x3e, 0x62, 0x01, 0x3f, 0x46, 0xef, 0x12, 0x3e,
  0x83, 0x05, 0x8c, 0x3e, 0xa1, 0xd3, 0x23, 0x3e, 0x73, 0x8d, 0xa7, 0x3e,
  0xf1, 0xca, 0x37, 0xbe, 0x87, 0x9d, 0x86, 0x3e, 0x1c, 0xfe, 0x03, 0x3f,
  0x89, 0xbe, 0x6f, 0x3e, 0x3b, 0xe4, 0x22, 0x3e, 0x04, 0xad, 0xcf, 0x3d,
  0xe6, 0xda, 0xbf, 0x3e, 0x86, 0xda, 0x8a, 0x3e, 0xbd, 0xe6, 0x11, 0x3e,
  0x25, 0x17, 0x0e, 0xbe, 0xf8, 0x2e, 0x4f, 0x3e, 0x5c, 0x95, 0x93, 0xbd,
  0x94, 0xe7, 0x2e, 0x3d, 0xd3, 0x29, 0x8a, 0x3e, 0xcd, 0x00, 0x80, 0x3e,
  0x40, 0x59, 0xe7, 0x39, 0xea, 0x93, 0x32, 0x3d, 0x57, 0x44, 0x20, 0x3e,
  0x6c, 0xa4, 0x1c, 0x3c, 0xb3, 0x4f, 0xb5, 0xbe, 0xfe, 0xd7, 0xa1, 0xbd,
  0x79, 0x28, 0xba, 0x3e, 0xd3, 0x7c, 0xd5, 0x3d, 0x92, 0x66, 0xeb, 0xbd,
  0xa5, 0xfd, 0x8a, 0x3e, 0x81, 0x72, 0xb0, 0x3e, 0xfe, 0x75, 0x36, 0x3e,
  0x76, 0x5e, 0x5a, 0xbd, 0xf4, 0xc1, 0x88, 0xbe, 0x27, 0x47, 0x17, 0x3e,
  0x0d, 0x43, 0x67, 0xbd, 0x19, 0xed, 0xac, 0x3e, 0xb1, 0x1b, 0x66, 0xbe,
  0xcd, 0x8e, 0x89, 0xbd, 0xed, 0x72, 0x9a, 0x3e, 0x63, 0x95, 0xad, 0x3e,
  0xc9, 0xf2, 0x05, 0xbe, 0x5b, 0x21, 0x84, 0x3d, 0x9a, 0x1f, 0xe4, 0x3d,
  0x27, 0x8c, 0x23, 0xbc, 0x1b, 0x53, 0x6e, 0xbe, 0xdd, 0x94, 0x6e, 0xbd,
  0xb1, 0x42, 0x24, 0xbd, 0xd8, 0x6e, 0x8c, 0x3e, 0x6e, 0xb9, 0x41, 0xbe,
  0xba, 0xaf, 0x5d, 0x3e, 0x08, 0xc2, 0xbc, 0xbd, 0x7d, 0xfe, 0x3e, 0x3e,
  0xa0, 0xd7, 0xa6, 0xbe, 0x97, 0x0f, 0x4f, 0xbe, 0x13, 0x25, 0x44, 0xbc,
  0x8e, 0xa3, 0x26, 0x3d, 0xa2, 0x26, 0xe6, 0x3d, 0x42, 0x9e, 0x51, 0xbc,
  0x98, 0x25, 0x66, 0xbe, 0x56, 0xbf, 0x29, 0x3e, 0xb3, 0x34, 0x71, 0x3e,
  0x2c, 0x8a, 0x4a, 0xbe, 0x06, 0x61, 0xed, 0xbc, 0x26, 0xe2, 0xc3, 0xbd,
  0xbc, 0x11, 0xff, 0xbb, 0xc0, 0xce, 0x23, 0xbe, 0x78, 0x3e, 0xf2, 0x3d,
  0x48, 0x77, 0x1c, 0xbe, 0x16, 0x16, 0x8c, 0xbd, 0x2f, 0xb1, 0x86, 0x3c,
  0x34, 0x97, 0x6e, 0xbd, 0x94, 0xe4, 0x44, 0xbe, 0x17, 0x3b, 0xf8, 0x3d,
  0x8d, 0xd8, 0x15, 0x3e, 0x49, 0x6c, 0x5a, 0x3e, 0x46, 0x85, 0x2a, 0x3e,
  0xa9, 0x29, 0x85, 0xbe, 0xaa, 0xa9, 0xde, 0x3c, 0x98, 0x22, 0x64, 0x3e,
  0x89, 0x7f, 0x0c, 0x3e, 0x95, 0x0c, 0x5a, 0x3e, 0xa9, 0xb8, 0x0a, 0x3e,
  0x5f, 0x75, 0x30, 0x3e, 0x41, 0xe9, 0x1c, 0x3b, 0x3e, 0x59, 0x46, 0x3d,
  0x6a, 0x0e, 0x19, 0xbd, 0x16, 0x20, 0xb9, 0x3c, 0x3a, 0xd0, 0x77, 0x3e,
  0xfc, 0xc4, 0x69, 0xbe, 0x08, 0xb3, 0x0d, 0xbe, 0x7d, 0xda, 0x49, 0xbe,
  0x96, 0x9a, 0x2a, 0xbe, 0xe2, 0x2a, 0x2d, 0xbe, 0xe8, 0x40, 0x1e, 0xbe,
  0x49, 0x6d, 0x6e, 0xbe, 0xb6, 0x79, 0x7b, 0x3e, 0x3f, 0x91, 0x26, 0xbe,
  0x59, 0xa0, 0x13, 0xbe, 0x17, 0xf4, 0x44, 0xbe, 0xc5, 0xa0, 0x8f, 0xbe,
  0x04, 0x0e, 0xd6, 0x3e, 0x9e, 0x26, 0x16, 0x3e, 0x08, 0x87, 0xa6, 0x3d,
  0xce, 0x34, 0xbb, 0x3c, 0xad, 0x52, 0x70, 0xbe, 0x8d, 0x16, 0x6f, 0xbe,
  0x15, 0xd8, 0xbe, 0xbe, 0x51, 0x21, 0xad, 0xbe, 0xb4, 0x26, 0x30, 0x3e,
  0x60, 0x42, 0x35, 0x3e, 0xd4, 0x12, 0xb0, 0xbe, 0x9b, 0xc1, 0xca, 0x3c,
  0xff, 0x9b, 0xae, 0x3e, 0x80, 0xb2, 0xa4, 0x3d, 0xaa, 0xc6, 0x99, 0x3e,
  0x37, 0xe1, 0x3a, 0x3d, 0xb9, 0xb7, 0x2c, 0x3e, 0x69, 0xbd, 0x3d, 0x3e,
  0x3c, 0xa1, 0x42, 0xbe, 0x78, 0xd7, 0xc1, 0x3e, 0x42, 0xc9, 0xb1, 0x3e,
  0x77, 0x4c, 0x00, 0x3e, 0x2d, 0x6b, 0x78, 0xbe, 0x7d, 0xb8, 0x0e, 0x3e,
  0xdd, 0xc7, 0x70, 0x3e, 0xfb, 0xb3, 0x90, 0xbe, 0x7e, 0x9c, 0xbf, 0xbe,
  0x75, 0x8d, 0x1a, 0xbe, 0x21, 0x99, 0xb5, 0xbd, 0xff, 0x76, 0xe2, 0x3d,
  0x67, 0xf5, 0x2f, 0x3e, 0xa9, 0x3a, 0xad, 0xbd, 0x5a, 0x58, 0xab, 0xbd,
  0x7f, 0xab, 0x24, 0xbe, 0xc6, 0xb4, 0xc5, 0xbd, 0x85, 0xcc, 0xa5, 0x3d,
  0x60, 0xad, 0x03, 0x3e, 0xd0, 0xe7, 0x92, 0xbd, 0xd3, 0xdf, 0x45, 0x3e,
  0xf6, 0xca, 0x87, 0xbe, 0xe5, 0x61, 0x2b, 0x3e, 0x05, 0xc9, 0x92, 0xbc,
  0x24, 0x49, 0x94, 0x3d, 0xb3, 0x16, 0x0c, 0xbc, 0x89, 0xd2, 0x96, 0xbe,
  0xde, 0xc5, 0x56, 0xbc, 0x08, 0xb2, 0x47, 0x3b, 0xe0, 0xc2, 0x3c, 0x3e,
  0x64, 0xd3, 0x2c, 0x3e, 0xce, 0x11, 0x8d, 0xbe, 0x8d, 0xfa, 0x2e, 0x3e,
  0xe3, 0x6b, 0x24, 0xbe, 0x0b, 0xe6, 0x86, 0xbe, 0xbc, 0xf5, 0x12, 0x3e,
  0x80, 0xb4, 0x1b, 0x3e, 0x92, 0x2c, 0x79, 0x3b, 0x55, 0x20, 0x3b, 0xbe,
  0x75, 0xee, 0x36, 0xbd, 0x62, 0xec, 0xfe, 0x3c, 0x43, 0xfa, 0x9d, 0xbd,
  0x00, 0x78, 0xaf, 0xbb, 0xb8, 0x26, 0xdd, 0xbd, 0x00, 0x00, 0xcc, 0xbc,
  0x50, 0x03, 0x4a, 0x3e, 0x29, 0x69, 0xec, 0xbd, 0xf3, 0x8a, 0x1a, 0xbd,
  0xe3, 0x36, 0xeb, 0xbd, 0xb8, 0xe0, 0x9c, 0xbd, 0xb4, 0x7e, 0x29, 0xbe,
  0x6e, 0x0d, 0x86, 0xbc, 0x50, 0x0e, 0x69, 0x3d, 0x68, 0x30, 0x6c, 0xbe,
  0x68, 0x99, 0x3d, 0x3e, 0x4b, 0xaa, 0x56, 0xbe, 0xb0, 0x94, 0x0f, 0x3d,
  0x98, 0xa4, 0xf6, 0x3d, 0x37, 0x27, 0xd2, 0x3d, 0x6b, 0x86, 0x5a, 0x3e,
  0xbc, 0xa9, 0x39, 0xbe, 0x02, 0x5c, 0x4e, 0x3e, 0x87, 0x3c, 0xf9, 0xbc,
  0x40, 0x8a, 0x21, 0xbc, 0x68, 0xf1, 0x82, 0x3d, 0x7f, 0xd0, 0x29, 0xbe,
  0x43, 0x83, 0x36, 0xbd, 0x0f, 0x61, 0x6a, 0x3c, 0x7b, 0xc3, 0x81, 0xbd,
  0x4b, 0x98, 0x28, 0xbe, 0x81, 0x50, 0x87, 0xbe, 0x18, 0xf9, 0xc2, 0xbd,
  0x6a, 0xaa, 0x82, 0xbd, 0x0d, 0xec, 0xb7, 0x3c, 0x9d, 0x54, 0x13, 0x3e,
  0x8c, 0x54, 0x8d, 0x3d, 0xdb, 0xcb, 0x77, 0x3e, 0x98, 0xab, 0x16, 0x3d,
  0xe3, 0xda, 0x93, 0x3e, 0xee, 0xe6, 0x02, 0xbe, 0xec, 0x8c, 0x37, 0x3e,
  0x3e, 0x29, 0x80, 0xbe, 0x84, 0xaa, 0x09, 0xbd, 0x97, 0xd7, 0xce, 0xbd,
  0x80, 0x77, 0xc3, 0x3d, 0x19, 0xf7, 0x8c, 0x3d, 0x85, 0x23, 0xc2, 0xbd,
  0x33, 0xf8, 0x3c, 0x3d, 0xa2, 0x90, 0xcf, 0xbd, 0xc1, 0xb4, 0x91, 0x3c,
  0x60, 0x6b, 0xb2, 0xbe, 0xc4, 0x64, 0xbe, 0x3e, 0xa6, 0xf1, 0x64, 0xbd,
  0xbb, 0x4c, 0xbd, 0xbd, 0x6d, 0x92, 0x9d, 0x3d, 0xc0, 0x6b, 0x76, 0x3e,
  0xcc, 0x1d, 0xb1, 0xbe, 0xa7, 0x5e, 0xa7, 0xbd, 0x3d, 0x43, 0x48, 0xbc,
  0x54, 0xad, 0x8f, 0xbc, 0xef, 0x24, 0xbb, 0x3e, 0xa1, 0xa7, 0x11, 0xbd,
  0x29, 0xc4, 0xfe, 0x3d, 0x50, 0x64, 0xfc, 0xbc, 0xb9, 0x2e, 0x79, 0x3d,
  0xf3, 0xad, 0xd5, 0xbe, 0xf5, 0xa9, 0x3c, 0x3d, 0xc4, 0xca, 0x21, 0xbe,
  0x46, 0x1f, 0x97, 0xbd, 0x56, 0xbb, 0x38, 0xbe, 0x57, 0xe0, 0xb7, 0x3d,
  0x83, 0x72, 0x86, 0x3e, 0xf5, 0x47, 0x39, 0x3e, 0x7f, 0x5c, 0xad, 0xbd,
  0xe3, 0x7e, 0x7f, 0x3e, 0x84, 0xf1, 0x15, 0x3e, 0x78, 0x0d, 0xca, 0x3e,
  0xa4, 0xae, 0xbc, 0x3e, 0xe7, 0x05, 0x8e, 0x3e, 0x66, 0x01, 0xc5, 0x3d,
  0xce, 0x25, 0x0d, 0xbd, 0xab, 0x21, 0x5b, 0xbe, 0x83, 0x82, 0x0c, 0x3f,
  0xbb, 0x3e, 0x49, 0xbe, 0x7c, 0x53, 0xd7, 0x3d, 0x17, 0x93, 0x8e, 0xbd,
  0x11, 0xda, 0x98, 0x3e, 0x3d, 0x72, 0x3c, 0x3d, 0x16, 0x89, 0x70, 0x3e,
  0xa1, 0x16, 0x1f, 0xbc, 0x9c, 0x31, 0x0d, 0xbe, 0x4b, 0x5e, 0x47, 0x3e,
  0x16, 0x67, 0xda, 0xbb, 0x46, 0x8e, 0xfd, 0x3d, 0xff, 0x8d, 0x9a, 0xbe,
  0x4f, 0xc1, 0x8b, 0x3e, 0xc1, 0xb0, 0x60, 0x3e, 0x55, 0xc7, 0xb0, 0x3d,
  0x2f, 0x68, 0x11, 0x3d, 0x5e, 0x39, 0xdd, 0x3e, 0x3b, 0x01, 0x10, 0x3e,
  0xa2, 0x2c, 0x88, 0x3e, 0x72, 0x74, 0x1e, 0x3e, 0x97, 0xf7, 0x53, 0xbd,
  0x4d, 0xa6, 0x0d, 0x3f, 0xe0, 0xd9, 0x8e, 0x3e, 0x51, 0xa9, 0x0f, 0x3d,
  0x9c, 0x6a, 0x5b, 0xbe, 0x49, 0x08, 0x9e, 0x3e, 0xa8, 0xc2, 0x6c, 0x3e,
  0xf5, 0x6e, 0xaa, 0x3c, 0xb7, 0x0d, 0xf5, 0xbd, 0x3f, 0x37, 0xc5, 0x3c,
  0x2b, 0x14, 0x99, 0x3e, 0xfd, 0x86, 0xbd, 0xbe, 0x21, 0x62, 0x58, 0x3e,
  0x9b, 0xaa, 0x45, 0xbe, 0x5a, 0x07, 0x16, 0xbd, 0xb6, 0x34, 0x5d, 0xbd,
  0xdb, 0xa0, 0x51, 0xbd, 0x2e, 0x46, 0xa4, 0x3e, 0xfb, 0x4a, 0xff, 0xbd,
  0x05, 0xcf, 0x80, 0xbe, 0x93, 0x3a, 0xf8, 0x3d, 0x49, 0x25, 0x86, 0x3e,
  0xbc, 0x52, 0xd9, 0xbc, 0xdd, 0x6c, 0x9c, 0x3e, 0x51, 0xe2, 0xce, 0xbd,
  0x19, 0x83, 0xba, 0x3e, 0x7b, 0xd6, 0xcd, 0x3d, 0x7c, 0xe4, 0x80, 0xbe,
  0x0c, 0x26, 0xcb, 0x3e, 0xcd, 0x95, 0x0f, 0x3c, 0x2a, 0xc2, 0xa1, 0x3d,
  0x81, 0xb7, 0xd9, 0x3c, 0x10, 0xd1, 0x02, 0x3e, 0x59, 0xb7, 0x0c, 0x3d,
  0xea, 0xf3, 0xaf, 0x3e, 0x71, 0x0b, 0x09, 0xbe, 0x10, 0xf1, 0x83, 0xbe,
  0xe6, 0x82, 0xf9, 0xbd, 0xde, 0x95, 0x3f, 0xbe, 0x3f, 0x8c, 0x9b, 0xbe,
  0x28, 0x67, 0x60, 0x3e, 0xce, 0xe5, 0x0a, 0x3f, 0xf4, 0xe3, 0x1b, 0xbe,
  0x58, 0x1f, 0xaf, 0x3d, 0xff, 0x66, 0x18, 0xbe, 0xf5, 0x46, 0xa9, 0xbd,
  0x54, 0xe1, 0xaf, 0x3d, 0xa7, 0x27, 0x88, 0xbe, 0x02, 0xb5, 0x26, 0x3d,
  0x1f, 0x36, 0x86, 0xbd, 0x77, 0x49, 0x47, 0xbd, 0x68, 0x81, 0xdb, 0xbd,
  0xd6, 0xb5, 0x92, 0xbc, 0x9d, 0xbe, 0xbb, 0xbe, 0x4e, 0x80, 0x6e, 0x3e,
  0x83, 0xac, 0xed, 0x3c, 0x5f, 0x0a, 0x6b, 0x3d, 0x13, 0x87, 0xec, 0x3d,
  0x41, 0xad, 0xcb, 0x3e, 0xa3, 0x95, 0x28, 0x3e, 0xd6, 0x73, 0x0b, 0x3d,
  0x18, 0xc6, 0x71, 0xbe, 0x9c, 0x48, 0xc0, 0x3e, 0x4b, 0x6b, 0x11, 0xbe,
  0x9b, 0xc6, 0xcc, 0x3e, 0x1a, 0xc2, 0xcc, 0x3e, 0x9a, 0xc8, 0xa7, 0x3d,
  0x15, 0x01, 0xcc, 0x3e, 0x0b, 0xaf, 0xf9, 0x3e, 0x3c, 0xba, 0x01, 0x3f,
  0xb1, 0x5c, 0xa0, 0x3e, 0x50, 0x9f, 0x17, 0x3e, 0x4c, 0x45, 0x12, 0xbe,
  0x3b, 0xe9, 0xb2, 0x3e, 0x5d, 0x01, 0x80, 0x3d, 0xad, 0xc2, 0x75, 0xbe,
  0x4d, 0x6e, 0x25, 0xbe, 0xb3, 0xd9, 0x1a, 0x3e, 0x5c, 0x36, 0x84, 0xbe,
  0x1f, 0x78, 0x35, 0xbd, 0x57, 0x5e, 0x5f, 0x3d, 0xda, 0x13, 0xf0, 0xbd,
  0xf5, 0x4b, 0x91, 0xbe, 0xe0, 0xc5, 0x4c, 0xbe, 0x15, 0x19, 0x8d, 0x3d,
  0x5d, 0xc7, 0x44, 0x3e, 0x07, 0xaa, 0xd9, 0x3d, 0x01, 0x5d, 0x6a, 0x3e,
  0xb9, 0xca, 0x90, 0x3e, 0x30, 0xc2, 0xaa, 0x3e, 0x61, 0xc0, 0x78, 0x3e,
  0xa6, 0xf9, 0xff, 0xff, 0x04, 0x00, 0x00, 0x00, 0x00, 0x04, 0x00, 0x00,
  0x5b, 0x60, 0xef, 0xbe, 0x71, 0xa6, 0xd7, 0xbe, 0x2d, 0xce, 0x93, 0x3e,
  0x19, 0x36, 0xa7, 0x3d, 0x7b, 0xad, 0x7d, 0xbe, 0xd9, 0xb5, 0x4a, 0xbe,
  0xfc, 0x82, 0x6b, 0xbe, 0xe8, 0xc5, 0x97, 0x3e, 0xde, 0x43, 0x86, 0x3d,
  0x9c, 0xe2, 0xc0, 0x3e, 0xfa, 0x20, 0x2f, 0x3f, 0x01, 0x03, 0xba, 0xbe,
  0x49, 0x2f, 0x34, 0xbf, 0xb9, 0x47, 0xa2, 0xbe, 0x1b, 0x67, 0xe8, 0xbe,
  0x8a, 0xbe, 0x7a, 0x3e, 0xd7, 0x4a, 0x06, 0xbf, 0x23, 0x9d, 0xa9, 0xbe,
  0x88, 0x6a, 0xd1, 0x3d, 0x01, 0x50, 0x40, 0x3e, 0x61, 0x63, 0xc3, 0xbe,
  0xb9, 0x3e, 0xf5, 0x3e, 0x89, 0x5f, 0x15, 0xbe, 0xaa, 0xa4, 0x01, 0xbe,
  0x8f, 0x3c, 0x07, 0xbf, 0xdf, 0x5a, 0xd1, 0xbd, 0xd0, 0x9b, 0x56, 0x3e,
  0x3b, 0xfe, 0x91, 0x3e, 0x08, 0x04, 0x4f, 0xbf, 0x4d, 0x92, 0xb4, 0x3d,
  0x25, 0x28, 0x15, 0xbe, 0xdc, 0x91, 0x0b, 0x3e, 0x0a, 0x8d, 0xbe, 0xbe,
  0xc3, 0xca, 0x10, 0xbc, 0xe4, 0x90, 0x9a, 0xbe, 0x97, 0x27, 0xc0, 0x3e,
  0xa8, 0x18, 0xb7, 0x3d, 0xc1, 0xb5, 0x36, 0x3f, 0x51, 0x6d, 0x92, 0xbe,
  0x92, 0x72, 0x33, 0xbe, 0x82, 0x95, 0x0f, 0xbe, 0x7e, 0xc3, 0x20, 0xbe,
  0x5f, 0x80, 0xcb, 0xbe, 0xd9, 0xe0, 0xab, 0x3d, 0xe3, 0xba, 0x80, 0x3e,
  0xd8, 0x14, 0xa1, 0xbe, 0xbf, 0x52, 0xd5, 0x3e, 0x5d, 0xf3, 0xa0, 0x3e,
  0xea, 0xd4, 0x02, 0x3e, 0x5d, 0xe6, 0x8e, 0xbe, 0x84, 0x38, 0x3e, 0x3f,
  0x61, 0x76, 0xec, 0x3e, 0x27, 0xc2, 0x34, 0xbf, 0x26, 0x3d, 0x37, 0xbf,
  0x5b, 0x91, 0xc4, 0xbe, 0x83, 0x93, 0x31, 0x3d, 0x10, 0x33, 0xd4, 0x3c,
  0xb3, 0x5e, 0x8e, 0x3e, 0x15, 0x70, 0xca, 0x3d, 0x07, 0x64, 0xaa, 0xbe,
  0xe9, 0x21, 0xdd, 0xbe, 0x8b, 0x42, 0x65, 0xbf, 0x65, 0x16, 0xa8, 0xbe,
  0xc1, 0x24, 0x97, 0xbe, 0xb5, 0x61, 0xee, 0xbe, 0x41, 0x8b, 0xed, 0xbe,
  0x61, 0x3e, 0x80, 0xbe, 0x2c, 0x96, 0x94, 0x3e, 0x01, 0xf0, 0xeb, 0x3e,
  0xe4, 0x66, 0xa5, 0xbd, 0xca, 0x85, 0xc4, 0x3e, 0x2e, 0x5d, 0xc8, 0xbd,
  0x61, 0x68, 0x6e, 0xbe, 0x23, 0x65, 0x47, 0x3e, 0x16, 0x67, 0x12, 0xbf,
  0x71, 0xb8, 0xa4, 0xbe, 0x77, 0x7a, 0x8b, 0x3e, 0x39, 0x4b, 0x84, 0x3e,
  0x66, 0x42, 0xd8, 0x3e, 0xea, 0x46, 0x43, 0x3e, 0x9e, 0x19, 0x44, 0xbe,
  0x4c, 0x13, 0xbe, 0x3e, 0x07, 0xfa, 0x10, 0x3e, 0x0f, 0x15, 0xf6, 0xbd,
  0x08, 0x77, 0x2e, 0x3f, 0x99, 0xac, 0x37, 0xbe, 0x1f, 0x1e, 0x3e, 0x3e,
  0x48, 0x48, 0x62, 0x3e, 0x5c, 0x8f, 0xba, 0xbe, 0x90, 0x63, 0xc0, 0xbe,
  0x14, 0xc3, 0x7c, 0x3e, 0x5d, 0x72, 0x27, 0x3d, 0xf6, 0x33, 0x0b, 0x3f,
  0x12, 0x94, 0x3f, 0xbe, 0x7e, 0x88, 0xaf, 0x3e, 0xa5, 0xd7, 0x92, 0xba,
  0x7e, 0x25, 0xc9, 0xbe, 0x57, 0x79, 0x81, 0xbd, 0x2c, 0x3a, 0x0f, 0xbf,
  0x94, 0x07, 0xae, 0x3d, 0x04, 0xbf, 0x30, 0x3f, 0x5b, 0xf1, 0x56, 0x3f,
  0xe2, 0xa5, 0xbb, 0xbe, 0x3c, 0xd2, 0x63, 0xbe, 0x91, 0x04, 0x3d, 0x3e,
  0xfa, 0xa3, 0x75, 0xbe, 0x88, 0xe6, 0x0b, 0xbf, 0x40, 0x30, 0x58, 0x3e,
  0x89, 0x76, 0x53, 0x3f, 0xf3, 0x9c, 0x79, 0x3e, 0x2b, 0xe2, 0x26, 0xbd,
  0xf3, 0xbf, 0xf1, 0xbe, 0xe6, 0x03, 0x14, 0x3f, 0x99, 0x06, 0x35, 0xbe,
  0xad, 0xf9, 0x24, 0x3f, 0xcc, 0xbd, 0xc1, 0xbe, 0x32, 0x23, 0xf6, 0x3c,
  0xc4, 0x9a, 0x17, 0xbe, 0xe2, 0xcd, 0xc0, 0xbe, 0xb3, 0xf1, 0x34, 0xbe,
  0x5a, 0x22, 0xfa, 0x3e, 0xcf, 0xd5, 0x04, 0x3e, 0x08, 0x47, 0xbb, 0x3e,
  0x68, 0x3e, 0x9e, 0x3e, 0xc9, 0xbb, 0x70, 0xbf, 0xa6, 0x67, 0xb9, 0xbe,
  0xe4, 0x65, 0xe4, 0xbc, 0x11, 0x78, 0xaa, 0xbd, 0xe3, 0x3f, 0x6c, 0x3e,
  0x5a, 0x2e, 0xbf, 0x3e, 0x15, 0x2a, 0xff, 0xbe, 0x22, 0x3e, 0x6f, 0xbe,
  0xba, 0x21, 0x64, 0x3f, 0x20, 0x3d, 0x3b, 0x3d, 0x02, 0x69, 0x84, 0x3d,
  0xcf, 0x5f, 0xe6, 0xbd, 0x29, 0x33, 0x3c, 0xbf, 0x53, 0x43, 0x84, 0x3e,
  0xf9, 0x55, 0x53, 0xbd, 0xdf, 0xdc, 0xcc, 0x3e, 0x6e, 0xe2, 0x4e, 0xbe,
  0xb6, 0xd9, 0x12, 0x3f, 0x22, 0x6b, 0x05, 0xbe, 0x9c, 0x7c, 0xaf, 0x3e,
  0x65, 0x8e, 0x2b, 0x3f, 0x64, 0xa9, 0x07, 0xbd, 0xc0, 0x6f, 0x08, 0xbc,
  0x87, 0xd5, 0x23, 0xbe, 0x0e, 0x84, 0xba, 0x3e, 0xef, 0xbf, 0x8f, 0xbe,
  0x6d, 0xe8, 0x0a, 0xbf, 0xb3, 0x97, 0x44, 0xbe, 0x96, 0x86, 0xe4, 0x3e,
  0xf8, 0xc6, 0x84, 0x3e, 0x36, 0x35, 0xb6, 0xbe, 0x3a, 0x47, 0x0a, 0x3e,
  0xf6, 0x19, 0xe9, 0x3e, 0xa4, 0xc5, 0x9c, 0xbd, 0x4a, 0xeb, 0x20, 0xbe,
  0x12, 0x86, 0x97, 0xbe, 0xc8, 0xe3, 0x7e, 0xbe, 0x0b, 0xe2, 0x56, 0x3d,
  0xea, 0x86, 0x6f, 0xbe, 0xf6, 0xc4, 0x00, 0x3e, 0xf1, 0x53, 0xcb, 0x3c,
  0x2e, 0xed, 0xb5, 0xbe, 0xed, 0xf7, 0x98, 0x3e, 0x59, 0xe0, 0xec, 0x3e,
  0x4d, 0x92, 0x2d, 0xbc, 0x2e, 0xe4, 0x5c, 0xbc, 0x6e, 0x34, 0x23, 0xbe,
  0xf2, 0x53, 0xfa, 0x3e, 0x8c, 0xa6, 0x4f, 0x3f, 0xae, 0xc9, 0x37, 0x3f,
  0xec, 0xb4, 0xaa, 0x3d, 0xff, 0x9c, 0x06, 0xbf, 0x56, 0x09, 0x28, 0x3e,
  0x69, 0x99, 0x76, 0x3e, 0x0b, 0x3e, 0xdf, 0xbe, 0xbf, 0x16, 0x6c, 0x3e,
  0x3f, 0x58, 0x90, 0xbe, 0x47, 0x24, 0x0e, 0xbf, 0xb5, 0x77, 0xa1, 0x3e,
  0xae, 0x66, 0x91, 0x3e, 0xd1, 0x6d, 0x02, 0x3f, 0xbf, 0xae, 0x89, 0xbe,
  0xaa, 0x35, 0x12, 0xbf, 0x43, 0x11, 0x02, 0x3e, 0x77, 0x03, 0x4f, 0x3e,
  0xdb, 0x04, 0x2b, 0x3f, 0x91, 0x74, 0x9f, 0xbe, 0x64, 0xe4, 0xbd, 0xbe,
  0x01, 0x57, 0x66, 0xbe, 0xd9, 0x8f, 0x77, 0x3e, 0x19, 0xbd, 0x0b, 0xbf,
  0x44, 0x76, 0xc8, 0xbb, 0xdc, 0x58, 0x89, 0x3e, 0xff, 0x43, 0x3e, 0x3f,
  0x57, 0x6d, 0xd7, 0xbd, 0xd3, 0x1e, 0x5b, 0xbe, 0x44, 0x1b, 0xf4, 0x3d,
  0xa6, 0x41, 0x1a, 0x3d, 0x1a, 0xcf, 0xa1, 0xbe, 0xaf, 0x7b, 0x57, 0xbe,
  0x9a, 0x35, 0xc6, 0x3e, 0xf5, 0xec, 0x64, 0xbe, 0x9d, 0x57, 0xbd, 0x3d,
  0x67, 0x43, 0xba, 0x3e, 0xcf, 0xeb, 0x84, 0xbe, 0x89, 0xe8, 0xa2, 0xbd,
  0xcb, 0x5b, 0xf4, 0xbd, 0x3a, 0xbd, 0xfe, 0x3e, 0x38, 0xb1, 0xa1, 0x3e,
  0x48, 0xba, 0xea, 0x3d, 0xb7, 0xc9, 0x9f, 0x3d, 0x4d, 0xf0, 0x62, 0x3e,
  0xfb, 0xe9, 0x4d, 0x3e, 0xfa, 0x29, 0x4b, 0x3e, 0x98, 0xfe, 0xb2, 0x3e,
  0x7d, 0x2c, 0xdc, 0x3d, 0x77, 0x96, 0x8d, 0xbd, 0x9c, 0xe9, 0x7f, 0x3e,
  0x8e, 0x40, 0x03, 0xbf, 0xdc, 0x51, 0x9c, 0xbe, 0xb1, 0x91, 0x87, 0x3e,
  0x4f, 0x3e, 0xae, 0x3c, 0x96, 0x23, 0x1c, 0x3f, 0xf2, 0x97, 0x11, 0x3e,
  0x8c, 0xd7, 0x68, 0xbf, 0x10, 0x8f, 0x4a, 0x3d, 0x08, 0x1e, 0xdf, 0xbe,
  0x65, 0xa2, 0xef, 0xbd, 0x45, 0x62, 0x5f, 0xbe, 0xa6, 0x65, 0x0e, 0xbe,
  0x43, 0x4b, 0xc4, 0x3e, 0x2b, 0x05, 0x82, 0xbd, 0xf0, 0xc6, 0x28, 0x3f,
  0xc6, 0x6f, 0x9e, 0x3e, 0x47, 0xe1, 0x25, 0x3e, 0xcc, 0xe8, 0x5f, 0x3e,
  0x68, 0x2c, 0x86, 0x3e, 0x1c, 0x24, 0x79, 0x3e, 0x00, 0x66, 0x62, 0xbf,
  0xdd, 0x7b, 0xd8, 0xbc, 0xe0, 0x10, 0xe5, 0xbe, 0x09, 0x41, 0xbf, 0x3e,
  0x57, 0xc9, 0xb2, 0x3e, 0x3b, 0xa4, 0xc0, 0x3e, 0x2d, 0xa3, 0x43, 0x3f,
  0x91, 0xcc, 0xcd, 0x3e, 0x80, 0x6a, 0xd2, 0x3d, 0x32, 0x11, 0xd7, 0xbe,
  0x93, 0x93, 0x48, 0x3e, 0x59, 0x61, 0x3f, 0xbf, 0x66, 0xf3, 0x76, 0xbe,
  0xa1, 0x0b, 0x28, 0xbe, 0xb2, 0xfd, 0xff, 0xff, 0x04, 0x00, 0x00, 0x00,
  0x80, 0x00, 0x00, 0x00, 0xbc, 0x9b, 0x31, 0x3d, 0xc5, 0x7a, 0x32, 0x3d,
  0xf8, 0x88, 0x41, 0xbc, 0xf4, 0x39, 0xd9, 0x3d, 0x16, 0x10, 0x63, 0xbd,
  0x42, 0xb7, 0x74, 0x3e, 0x8d, 0x22, 0xc2, 0x3d, 0x18, 0x09, 0xbe, 0x3a,
  0x5a, 0x14, 0x9c, 0x3d, 0xd5, 0xf0, 0x31, 0x3e, 0xaa, 0xb8, 0x58, 0x3e,
  0x0f, 0x87, 0x29, 0x3e, 0x9e, 0x8f, 0x1f, 0x3e, 0x1e, 0x6b, 0x89, 0x3d,
  0x15, 0xb3, 0x6c, 0x3d, 0x47, 0x11, 0x67, 0x3d, 0xd0, 0x99, 0x50, 0x3d,
  0xef, 0xa5, 0xf3, 0xbc, 0x9d, 0xb6, 0x85, 0x3d, 0xc6, 0x91, 0x6d, 0xbc,
  0x76, 0xee, 0x9d, 0x3d, 0x8c, 0x7f, 0x50, 0x3e, 0x71, 0x2d, 0xf9, 0x3d,
  0x10, 0x15, 0x03, 0xbd, 0xc9, 0x87, 0x64, 0x3d, 0x22, 0x3d, 0x39, 0x3e,
  0x1c, 0xf3, 0x88, 0x3d, 0x30, 0xf6, 0x16, 0xbc, 0xb4, 0x66, 0x1a, 0x3d,
  0x7a, 0x8a, 0x0c, 0x3e, 0x86, 0x12, 0xbc, 0x3e, 0xf2, 0xbb, 0xfb, 0x3c,
  0x3e, 0xfe, 0xff, 0xff, 0x04, 0x00, 0x00, 0x00, 0x00, 0x01, 0x00, 0x00,
  0xef, 0x75, 0x12, 0x3e, 0x00, 0x00, 0x00, 0x00, 0xba, 0x4e, 0x9e, 0x3d,
  0x37, 0xa0, 0x84, 0x3d, 0x12, 0xd3, 0xb2, 0x3d, 0x01, 0x97, 0xb5, 0xbc,
  0x28, 0xc0, 0x1e, 0xbd, 0x61, 0xc3, 0x8f, 0x3d, 0xb5, 0x1d, 0x54, 0x3d,
  0xc9, 0xa7, 0x84, 0x3d, 0x47, 0x46, 0xdc, 0x3d, 0x04, 0x00, 0x98, 0x3c,
  0xc2, 0xb5, 0xc7, 0xbb, 0x96, 0xe0, 0x12, 0x3e, 0x9d, 0x94, 0xc3, 0xbc,
  0x1e, 0xa8, 0xf4, 0x3d, 0x51, 0xa2, 0x0c, 0xbd, 0xfe, 0xfa, 0x3b, 0x3d,
  0xd2, 0x3a, 0x8b, 0x3d, 0x0d, 0xbe, 0x94, 0x3d, 0x0d, 0x37, 0xf8, 0x3b,
  0xb8, 0xa9, 0xc3, 0x3c, 0xec, 0xab, 0x13, 0xbd, 0x85, 0xa6, 0x38, 0xad,
  0xf9, 0x2f, 0x39, 0xbc, 0x87, 0x48, 0xda, 0xbc, 0x8f, 0x9d, 0x02, 0x3e,
  0x5c, 0xb1, 0x61, 0x3d, 0x93, 0x9d, 0xf6, 0x3d, 0x30, 0x1b, 0xf0, 0xbc,
  0xce, 0xba, 0xc1, 0x3d, 0x43, 0x17, 0xfc, 0x3d, 0xb9, 0x05, 0xf1, 0xbc,
  0x27, 0x61, 0xb7, 0xbc, 0x9f, 0x3b, 0x84, 0x3d, 0x45, 0x44, 0x97, 0x3d,
  0x4e, 0xc0, 0x44, 0x3d, 0x46, 0x06, 0x34, 0x3d, 0x09, 0xbd, 0xce, 0x3d,
  0xb1, 0x80, 0x82, 0x3d, 0x44, 0x94, 0xae, 0xba, 0x78, 0x7e, 0xad, 0x3d,
  0xab, 0x31, 0x67, 0xbd, 0xf2, 0xe9, 0xa3, 0x3d, 0x2f, 0x71, 0x32, 0x3d,
  0x09, 0x97, 0x26, 0x3e, 0x2d, 0x18, 0x99, 0xbd, 0x02, 0x89, 0xf3, 0x3d,
  0xa5, 0x7b, 0xf9, 0x3d, 0x02, 0x20, 0x5d, 0x3d, 0x42, 0x9e, 0xe9, 0x3a,
  0xee, 0x9f, 0x1a, 0x3d, 0x0e, 0xc4, 0xe0, 0x3d, 0xcc, 0x0d, 0xd4, 0x3d,
  0x2f, 0xbb, 0x14, 0x3d, 0xa1, 0xc4, 0x10, 0xbb, 0x38, 0xb5, 0x2b, 0x3d,
  0xb6, 0x39, 0x92, 0xbd, 0xb5, 0x79, 0x51, 0xbd, 0xd4, 0x4e, 0x1a, 0x3d,
  0xcf, 0xf4, 0xce, 0x3d, 0x78, 0xb3, 0xa6, 0x3d, 0x1e, 0x8d, 0xc9, 0x3c,
  0x84, 0x5b, 0xb4, 0x3d, 0x4a, 0xff, 0xff, 0xff, 0x04, 0x00, 0x00, 0x00,
  0x14, 0x00, 0x00, 0x00, 0xe7, 0x24, 0xb3, 0xbd, 0x57, 0x32, 0xb5, 0xbd,
  0x1a, 0xe5, 0xb0, 0xbd, 0x35, 0xb3, 0xee, 0xbd, 0xd0, 0x3f, 0xc4, 0xbd,
  0x40, 0xfa, 0xff, 0xff, 0x44, 0xfa, 0xff, 0xff, 0x0f, 0x00, 0x00, 0x00,
  0x4d, 0x4c, 0x49, 0x52, 0x20, 0x43, 0x6f, 0x6e, 0x76, 0x65, 0x72, 0x74,
  0x65, 0x64, 0x2e, 0x00, 0x01, 0x00, 0x00, 0x00, 0x14, 0x00, 0x00, 0x00,
  0x00, 0x00, 0x0e, 0x00, 0x18, 0x00, 0x14, 0x00, 0x10, 0x00, 0x0c, 0x00,
  0x08, 0x00, 0x04, 0x00, 0x0e, 0x00, 0x00, 0x00, 0x14, 0x00, 0x00, 0x00,
  0x1c, 0x00, 0x00, 0x00, 0x24, 0x01, 0x00, 0x00, 0x28, 0x01, 0x00, 0x00,
  0x2c, 0x01, 0x00, 0x00, 0x04, 0x00, 0x00, 0x00, 0x6d, 0x61, 0x69, 0x6e,
  0x00, 0x00, 0x00, 0x00, 0x04, 0x00, 0x00, 0x00, 0xcc, 0x00, 0x00, 0x00,
  0x84, 0x00, 0x00, 0x00, 0x50, 0x00, 0x00, 0x00, 0x14, 0x00, 0x00, 0x00,
  0x00, 0x00, 0x0e, 0x00, 0x1a, 0x00, 0x14, 0x00, 0x10, 0x00, 0x0c, 0x00,
  0x0b, 0x00, 0x04, 0x00, 0x0e, 0x00, 0x00, 0x00, 0x1c, 0x00, 0x00, 0x00,
  0x00, 0x00, 0x00, 0x09, 0x1c, 0x00, 0x00, 0x00, 0x20, 0x00, 0x00, 0x00,
  0x01, 0x00, 0x00, 0x00, 0x00, 0x00, 0x06, 0x00, 0x08, 0x00, 0x04, 0x00,
  0x06, 0x00, 0x00, 0x00, 0x00, 0x00, 0x80, 0x3f, 0x01, 0x00, 0x00, 0x00,
  0x0a, 0x00, 0x00, 0x00, 0x01, 0x00, 0x00, 0x00, 0x09, 0x00, 0x00, 0x00,
  0x9a, 0xff, 0xff, 0xff, 0x10, 0x00, 0x00, 0x00, 0x00, 0x00, 0x00, 0x08,
  0x0c, 0x00, 0x00, 0x00, 0x10, 0x00, 0x00, 0x00, 0x08, 0xfb, 0xff, 0xff,
  0x01, 0x00, 0x00, 0x00, 0x09, 0x00, 0x00, 0x00, 0x03, 0x00, 0x00, 0x00,
  0x08, 0x00, 0x00, 0x00, 0x06, 0x00, 0x00, 0x00, 0x01, 0x00, 0x00, 0x00,
  0xca, 0xff, 0xff, 0xff, 0x10, 0x00, 0x00, 0x00, 0x00, 0x00, 0x00, 0x08,
  0x10, 0x00, 0x00, 0x00, 0x14, 0x00, 0x00, 0x00, 0xba, 0xff, 0xff, 0xff,
  0x00, 0x00, 0x00, 0x01, 0x01, 0x00, 0x00, 0x00, 0x08, 0x00, 0x00, 0x00,
  0x03, 0x00, 0x00, 0x00, 0x07, 0x00, 0x00, 0x00, 0x05, 0x00, 0x00, 0x00,
  0x02, 0x00, 0x00, 0x00, 0x00, 0x00, 0x0e, 0x00, 0x16, 0x00, 0x00, 0x00,
  0x10, 0x00, 0x0c, 0x00, 0x0b, 0x00, 0x04, 0x00, 0x0e, 0x00, 0x00, 0x00,
  0x18, 0x00, 0x00, 0x00, 0x00, 0x00, 0x00, 0x08, 0x18, 0x00, 0x00, 0x00,
  0x1c, 0x00, 0x00, 0x00, 0x00, 0x00, 0x06, 0x00, 0x08, 0x00, 0x07, 0x00,
  0x06, 0x00, 0x00, 0x00, 0x00, 0x00, 0x00, 0x01, 0x01, 0x00, 0x00, 0x00,
  0x07, 0x00, 0x00, 0x00, 0x03, 0x00, 0x00, 0x00, 0x00, 0x00, 0x00, 0x00,
  0x04, 0x00, 0x00, 0x00, 0x03, 0x00, 0x00, 0x00, 0x01, 0x00, 0x00, 0x00,
  0x0a, 0x00, 0x00, 0x00, 0x01, 0x00, 0x00, 0x00, 0x00, 0x00, 0x00, 0x00,
  0x0b, 0x00, 0x00, 0x00, 0x20, 0x04, 0x00, 0x00, 0xb0, 0x03, 0x00, 0x00,
  0x40, 0x03, 0x00, 0x00, 0xe8, 0x02, 0x00, 0x00, 0x9c, 0x02, 0x00, 0x00,
  0x50, 0x02, 0x00, 0x00, 0x04, 0x02, 0x00, 0x00, 0x70, 0x01, 0x00, 0x00,
  0xdc, 0x00, 0x00, 0x00, 0x60, 0x00, 0x00, 0x00, 0x04, 0x00, 0x00, 0x00,
  0x22, 0xfc, 0xff, 0xff, 0x00, 0x00, 0x00, 0x01, 0x14, 0x00, 0x00, 0x00,
  0x1c, 0x00, 0x00, 0x00, 0x1c, 0x00, 0x00, 0x00, 0x0b, 0x00, 0x00, 0x00,
  0x34, 0x00, 0x00, 0x00, 0x02, 0x00, 0x00, 0x00, 0xff, 0xff, 0xff, 0xff,
  0x05, 0x00, 0x00, 0x00, 0x0c, 0xfc, 0xff, 0xff, 0x19, 0x00, 0x00, 0x00,
  0x53, 0x74, 0x61, 0x74, 0x65, 0x66, 0x75, 0x6c, 0x50, 0x61, 0x72, 0x74,
  0x69, 0x74, 0x69, 0x6f, 0x6e, 0x65, 0x64, 0x43, 0x61, 0x6c, 0x6c, 0x3a,
  0x30, 0x00, 0x00, 0x00, 0x02, 0x00, 0x00, 0x00, 0x01, 0x00, 0x00, 0x00,
  0x05, 0x00, 0x00, 0x00, 0x7a, 0xfc, 0xff, 0xff, 0x00, 0x00, 0x00, 0x01,
  0x14, 0x00, 0x00, 0x00, 0x1c, 0x00, 0x00, 0x00, 0x1c, 0x00, 0x00, 0x00,
  0x0a, 0x00, 0x00, 0x00, 0x54, 0x00, 0x00, 0x00, 0x02, 0x00, 0x00, 0x00,
  0xff, 0xff, 0xff, 0xff, 0x05, 0x00, 0x00, 0x00, 0x64, 0xfc, 0xff, 0xff,
  0x38, 0x00, 0x00, 0x00, 0x73, 0x65, 0x71, 0x75, 0x65, 0x6e, 0x74, 0x69,
  0x61, 0x6c, 0x5f, 0x31, 0x2f, 0x64, 0x65, 0x6e, 0x73, 0x65, 0x5f, 0x35,
  0x2f, 0x4d, 0x61, 0x74, 0x4d, 0x75, 0x6c, 0x3b, 0x73, 0x65, 0x71, 0x75,
  0x65, 0x6e, 0x74, 0x69, 0x61, 0x6c, 0x5f, 0x31, 0x2f, 0x64, 0x65, 0x6e,
  0x73, 0x65, 0x5f, 0x35, 0x2f, 0x42, 0x69, 0x61, 0x73, 0x41, 0x64, 0x64,
  0x00, 0x00, 0x00, 0x00, 0x02, 0x00, 0x00, 0x00, 0x01, 0x00, 0x00, 0x00,
  0x05, 0x00, 0x00, 0x00, 0xf2, 0xfc, 0xff, 0xff, 0x00, 0x00, 0x00, 0x01,
  0x14, 0x00, 0x00, 0x00, 0x1c, 0x00, 0x00, 0x00, 0x1c, 0x00, 0x00, 0x00,
  0x09, 0x00, 0x00, 0x00, 0x6c, 0x00, 0x00, 0x00, 0x02, 0x00, 0x00, 0x00,
  0xff, 0xff, 0xff, 0xff, 0x40, 0x00, 0x00, 0x00, 0xdc, 0xfc, 0xff, 0xff,
  0x52, 0x00, 0x00, 0x00, 0x73, 0x65, 0x71, 0x75, 0x65, 0x6e, 0x74, 0x69,
  0x61, 0x6c, 0x5f, 0x31, 0x2f, 0x64, 0x65, 0x6e, 0x73, 0x65, 0x5f, 0x34,
  0x2f, 0x4d, 0x61, 0x74, 0x4d, 0x75, 0x6c, 0x3b, 0x73, 0x65, 0x71, 0x75,
  0x65, 0x6e, 0x74, 0x69, 0x61, 0x6c, 0x5f, 0x31, 0x2f, 0x64, 0x65, 0x6e,
  0x73, 0x65, 0x5f, 0x34, 0x2f, 0x52, 0x65, 0x6c, 0x75, 0x3b, 0x73, 0x65,
  0x71, 0x75, 0x65, 0x6e, 0x74, 0x69, 0x61, 0x6c, 0x5f, 0x31, 0x2f, 0x64,
  0x65, 0x6e, 0x73, 0x65, 0x5f, 0x34, 0x2f, 0x42, 0x69, 0x61, 0x73, 0x41,
  0x64, 0x64, 0x00, 0x00, 0x02, 0x00, 0x00, 0x00, 0x01, 0x00, 0x00, 0x00,
  0x40, 0x00, 0x00, 0x00, 0x82, 0xfd, 0xff, 0xff, 0x00, 0x00, 0x00, 0x01,
  0x14, 0x00, 0x00, 0x00, 0x1c, 0x00, 0x00, 0x00, 0x1c, 0x00, 0x00, 0x00,
  0x08, 0x00, 0x00, 0x00, 0x6c, 0x00, 0x00, 0x00, 0x02, 0x00, 0x00, 0x00,
  0xff, 0xff, 0xff, 0xff, 0x20, 0x00, 0x00, 0x00, 0x6c, 0xfd, 0xff, 0xff,
  0x52, 0x00, 0x00, 0x00, 0x73, 0x65, 0x71, 0x75, 0x65, 0x6e, 0x74, 0x69,
  0x61, 0x6c, 0x5f, 0x31, 0x2f, 0x64, 0x65, 0x6e, 0x73, 0x65, 0x5f, 0x33,
  0x2f, 0x4d, 0x61, 0x74, 0x4d, 0x75, 0x6c, 0x3b, 0x73, 0x65, 0x71, 0x75,
  0x65, 0x6e, 0x74, 0x69, 0x61, 0x6c, 0x5f, 0x31, 0x2f, 0x64, 0x65, 0x6e,
  0x73, 0x65, 0x5f, 0x33, 0x2f, 0x52, 0x65, 0x6c, 0x75, 0x3b, 0x73, 0x65,
  0x71, 0x75, 0x65, 0x6e, 0x74, 0x69, 0x61, 0x6c, 0x5f, 0x31, 0x2f, 0x64,
  0x65, 0x6e, 0x73, 0x65, 0x5f, 0x33, 0x2f, 0x42, 0x69, 0x61, 0x73, 0x41,
  0x64, 0x64, 0x00, 0x00, 0x02, 0x00, 0x00, 0x00, 0x01, 0x00, 0x00, 0x00,
  0x20, 0x00, 0x00, 0x00, 0x7e, 0xfe, 0xff, 0xff, 0x00, 0x00, 0x00, 0x01,
  0x10, 0x00, 0x00, 0x00, 0x10, 0x00, 0x00, 0x00, 0x07, 0x00, 0x00, 0x00,
  0x28, 0x00, 0x00, 0x00, 0xec, 0xfd, 0xff, 0xff, 0x1b, 0x00, 0x00, 0x00,
  0x73, 0x65, 0x71, 0x75, 0x65, 0x6e, 0x74, 0x69, 0x61, 0x6c, 0x5f, 0x31,
  0x2f, 0x64, 0x65, 0x6e, 0x73, 0x65, 0x5f, 0x35, 0x2f, 0x4d, 0x61, 0x74,
  0x4d, 0x75, 0x6c, 0x00, 0x02, 0x00, 0x00, 0x00, 0x05, 0x00, 0x00, 0x00,
  0x40, 0x00, 0x00, 0x00, 0xc6, 0xfe, 0xff, 0xff, 0x00, 0x00, 0x00, 0x01,
  0x10, 0x00, 0x00, 0x00, 0x10, 0x00, 0x00, 0x00, 0x06, 0x00, 0x00, 0x00,
  0x28, 0x00, 0x00, 0x00, 0x34, 0xfe, 0xff, 0xff, 0x1b, 0x00, 0x00, 0x00,
  0x73, 0x65, 0x71, 0x75, 0x65, 0x6e, 0x74, 0x69, 0x61, 0x6c, 0x5f, 0x31,
  0x2f, 0x64, 0x65, 0x6e, 0x73, 0x65, 0x5f, 0x34, 0x2f, 0x4d, 0x61, 0x74,
  0x4d, 0x75, 0x6c, 0x00, 0x02, 0x00, 0x00, 0x00, 0x40, 0x00, 0x00, 0x00,
  0x20, 0x00, 0x00, 0x00, 0x0e, 0xff, 0xff, 0xff, 0x00, 0x00, 0x00, 0x01,
  0x10, 0x00, 0x00, 0x00, 0x10, 0x00, 0x00, 0x00, 0x05, 0x00, 0x00, 0x00,
  0x28, 0x00, 0x00, 0x00, 0x7c, 0xfe, 0xff, 0xff, 0x1b, 0x00, 0x00, 0x00,
  0x73, 0x65, 0x71, 0x75, 0x65, 0x6e, 0x74, 0x69, 0x61, 0x6c, 0x5f, 0x31,
  0x2f, 0x64, 0x65, 0x6e, 0x73, 0x65, 0x5f, 0x33, 0x2f, 0x4d, 0x61, 0x74,
  0x4d, 0x75, 0x6c, 0x00, 0x02, 0x00, 0x00, 0x00, 0x20, 0x00, 0x00, 0x00,
  0x08, 0x00, 0x00, 0x00, 0x56, 0xff, 0xff, 0xff, 0x00, 0x00, 0x00, 0x01,
  0x10, 0x00, 0x00, 0x00, 0x10, 0x00, 0x00, 0x00, 0x04, 0x00, 0x00, 0x00,
  0x38, 0x00, 0x00, 0x00, 0xc4, 0xfe, 0xff, 0xff, 0x2b, 0x00, 0x00, 0x00,
  0x73, 0x65, 0x71, 0x75, 0x65, 0x6e, 0x74, 0x69, 0x61, 0x6c, 0x5f, 0x31,
  0x2f, 0x64, 0x65, 0x6e, 0x73, 0x65, 0x5f, 0x33, 0x2f, 0x42, 0x69, 0x61,
  0x73, 0x41, 0x64, 0x64, 0x2f, 0x52, 0x65, 0x61, 0x64, 0x56, 0x61, 0x72,
  0x69, 0x61, 0x62, 0x6c, 0x65, 0x4f, 0x70, 0x00, 0x01, 0x00, 0x00, 0x00,
  0x20, 0x00, 0x00, 0x00, 0xaa, 0xff, 0xff, 0xff, 0x00, 0x00, 0x00, 0x01,
  0x10, 0x00, 0x00, 0x00, 0x10, 0x00, 0x00, 0x00, 0x03, 0x00, 0x00, 0x00,
  0x38, 0x00, 0x00, 0x00, 0x18, 0xff, 0xff, 0xff, 0x2b, 0x00, 0x00, 0x00,
  0x73, 0x65, 0x71, 0x75, 0x65, 0x6e, 0x74, 0x69, 0x61, 0x6c, 0x5f, 0x31,
  0x2f, 0x64, 0x65, 0x6e, 0x73, 0x65, 0x5f, 0x34, 0x2f, 0x42, 0x69, 0x61,
  0x73, 0x41, 0x64, 0x64, 0x2f, 0x52, 0x65, 0x61, 0x64, 0x56, 0x61, 0x72,
  0x69, 0x61, 0x62, 0x6c, 0x65, 0x4f, 0x70, 0x00, 0x01, 0x00, 0x00, 0x00,
  0x40, 0x00, 0x00, 0x00, 0x00, 0x00, 0x16, 0x00, 0x18, 0x00, 0x14, 0x00,
  0x00, 0x00, 0x10, 0x00, 0x0c, 0x00, 0x08, 0x00, 0x00, 0x00, 0x00, 0x00,
  0x00, 0x00, 0x07, 0x00, 0x16, 0x00, 0x00, 0x00, 0x00, 0x00, 0x00, 0x01,
  0x10, 0x00, 0x00, 0x00, 0x10, 0x00, 0x00, 0x00, 0x02, 0x00, 0x00, 0x00,
  0x38, 0x00, 0x00, 0x00, 0x84, 0xff, 0xff, 0xff, 0x2b, 0x00, 0x00, 0x00,
  0x73, 0x65, 0x71, 0x75, 0x65, 0x6e, 0x74, 0x69, 0x61, 0x6c, 0x5f, 0x31,
  0x2f, 0x64, 0x65, 0x6e, 0x73, 0x65, 0x5f, 0x35, 0x2f, 0x42, 0x69, 0x61,
  0x73, 0x41, 0x64, 0x64, 0x2f, 0x52, 0x65, 0x61, 0x64, 0x56, 0x61, 0x72,
  0x69, 0x61, 0x62, 0x6c, 0x65, 0x4f, 0x70, 0x00, 0x01, 0x00, 0x00, 0x00,
  0x05, 0x00, 0x00, 0x00, 0x00, 0x00, 0x16, 0x00, 0x1c, 0x00, 0x18, 0x00,
  0x00, 0x00, 0x14, 0x00, 0x10, 0x00, 0x0c, 0x00, 0x00, 0x00, 0x00, 0x00,
  0x08, 0x00, 0x07, 0x00, 0x16, 0x00, 0x00, 0x00, 0x00, 0x00, 0x00, 0x01,
  0x14, 0x00, 0x00, 0x00, 0x20, 0x00, 0x00, 0x00, 0x20, 0x00, 0x00, 0x00,
  0x01, 0x00, 0x00, 0x00, 0x3c, 0x00, 0x00, 0x00, 0x02, 0x00, 0x00, 0x00,
  0xff, 0xff, 0xff, 0xff, 0x08, 0x00, 0x00, 0x00, 0x04, 0x00, 0x04, 0x00,
  0x04, 0x00, 0x00, 0x00, 0x1f, 0x00, 0x00, 0x00, 0x73, 0x65, 0x72, 0x76,
  0x69, 0x6e, 0x67, 0x5f, 0x64, 0x65, 0x66, 0x61, 0x75, 0x6c, 0x74, 0x5f,
  0x64, 0x65, 0x6e, 0x73, 0x65, 0x5f, 0x33, 0x5f, 0x69, 0x6e, 0x70, 0x75,
  0x74, 0x3a, 0x30, 0x00, 0x02, 0x00, 0x00, 0x00, 0x01, 0x00, 0x00, 0x00,
  0x08, 0x00, 0x00, 0x00, 0x02, 0x00, 0x00, 0x00, 0x20, 0x00, 0x00, 0x00,
  0x04, 0x00, 0x00, 0x00, 0xf4, 0xff, 0xff, 0xff, 0x19, 0x00, 0x00, 0x00,
  0x00, 0x00, 0x00, 0x19, 0x0c, 0x00, 0x0c, 0x00, 0x0b, 0x00, 0x00, 0x00,
  0x00, 0x00, 0x04, 0x00, 0x0c, 0x00, 0x00, 0x00, 0x09, 0x00, 0x00, 0x00,
  0x00, 0x00, 0x00, 0x09
};
