const unsigned char model[] = {
  0x1c, 0x00, 0x00, 0x00, 0x54, 0x46, 0x4c, 0x33, 0x14, 0x00, 0x20, 0x00,
  0x1c, 0x00, 0x18, 0x00, 0x14, 0x00, 0x10, 0x00, 0x0c, 0x00, 0x00, 0x00,
  0x08, 0x00, 0x04, 0x00, 0x14, 0x00, 0x00, 0x00, 0x1c, 0x00, 0x00, 0x00,
  0x90, 0x00, 0x00, 0x00, 0xe8, 0x00, 0x00, 0x00, 0x94, 0x2d, 0x00, 0x00,
  0xa4, 0x2d, 0x00, 0x00, 0x60, 0x33, 0x00, 0x00, 0x03, 0x00, 0x00, 0x00,
  0x01, 0x00, 0x00, 0x00, 0x10, 0x00, 0x00, 0x00, 0x00, 0x00, 0x0a, 0x00,
  0x10, 0x00, 0x0c, 0x00, 0x08, 0x00, 0x04, 0x00, 0x0a, 0x00, 0x00, 0x00,
  0x0c, 0x00, 0x00, 0x00, 0x1c, 0x00, 0x00, 0x00, 0x38, 0x00, 0x00, 0x00,
  0x0f, 0x00, 0x00, 0x00, 0x73, 0x65, 0x72, 0x76, 0x69, 0x6e, 0x67, 0x5f,
  0x64, 0x65, 0x66, 0x61, 0x75, 0x6c, 0x74, 0x00, 0x01, 0x00, 0x00, 0x00,
  0x04, 0x00, 0x00, 0x00, 0x98, 0xff, 0xff, 0xff, 0x0a, 0x00, 0x00, 0x00,
  0x04, 0x00, 0x00, 0x00, 0x07, 0x00, 0x00, 0x00, 0x64, 0x65, 0x6e, 0x73,
  0x65, 0x5f, 0x32, 0x00, 0x01, 0x00, 0x00, 0x00, 0x04, 0x00, 0x00, 0x00,
  0x4e, 0xd2, 0xff, 0xff, 0x04, 0x00, 0x00, 0x00, 0x0b, 0x00, 0x00, 0x00,
  0x64, 0x65, 0x6e, 0x73, 0x65, 0x5f, 0x69, 0x6e, 0x70, 0x75, 0x74, 0x00,
  0x02, 0x00, 0x00, 0x00, 0x34, 0x00, 0x00, 0x00, 0x04, 0x00, 0x00, 0x00,
  0xdc, 0xff, 0xff, 0xff, 0x0d, 0x00, 0x00, 0x00, 0x04, 0x00, 0x00, 0x00,
  0x13, 0x00, 0x00, 0x00, 0x43, 0x4f, 0x4e, 0x56, 0x45, 0x52, 0x53, 0x49,
  0x4f, 0x4e, 0x5f, 0x4d, 0x45, 0x54, 0x41, 0x44, 0x41, 0x54, 0x41, 0x00,
  0x08, 0x00, 0x0c, 0x00, 0x08, 0x00, 0x04, 0x00, 0x08, 0x00, 0x00, 0x00,
  0x0c, 0x00, 0x00, 0x00, 0x04, 0x00, 0x00, 0x00, 0x13, 0x00, 0x00, 0x00,
  0x6d, 0x69, 0x6e, 0x5f, 0x72, 0x75, 0x6e, 0x74, 0x69, 0x6d, 0x65, 0x5f,
  0x76, 0x65, 0x72, 0x73, 0x69, 0x6f, 0x6e, 0x00, 0x0e, 0x00, 0x00, 0x00,
  0xa8, 0x2c, 0x00, 0x00, 0xa0, 0x2c, 0x00, 0x00, 0x90, 0x2b, 0x00, 0x00,
  0x68, 0x2b, 0x00, 0x00, 0xd8, 0x2a, 0x00, 0x00, 0xc8, 0x26, 0x00, 0x00,
  0xb8, 0x06, 0x00, 0x00, 0xa8, 0x00, 0x00, 0x00, 0xa0, 0x00, 0x00, 0x00,
  0x98, 0x00, 0x00, 0x00, 0x90, 0x00, 0x00, 0x00, 0x88, 0x00, 0x00, 0x00,
  0x68, 0x00, 0x00, 0x00, 0x04, 0x00, 0x00, 0x00, 0xfe, 0xd2, 0xff, 0xff,
  0x04, 0x00, 0x00, 0x00, 0x54, 0x00, 0x00, 0x00, 0x0c, 0x00, 0x00, 0x00,
  0x08, 0x00, 0x0e, 0x00, 0x08, 0x00, 0x04, 0x00, 0x08, 0x00, 0x00, 0x00,
  0x10, 0x00, 0x00, 0x00, 0x24, 0x00, 0x00, 0x00, 0x00, 0x00, 0x06, 0x00,
  0x08, 0x00, 0x04, 0x00, 0x06, 0x00, 0x00, 0x00, 0x04, 0x00, 0x00, 0x00,
  0x00, 0x00, 0x00, 0x00, 0x00, 0x00, 0x0a, 0x00, 0x10, 0x00, 0x0c, 0x00,
  0x08, 0x00, 0x04, 0x00, 0x0a, 0x00, 0x00, 0x00, 0x02, 0x00, 0x00, 0x00,
  0x02, 0x00, 0x00, 0x00, 0x04, 0x00, 0x00, 0x00, 0x06, 0x00, 0x00, 0x00,
  0x32, 0x2e, 0x31, 0x35, 0x2e, 0x30, 0x00, 0x00, 0x5e, 0xd3, 0xff, 0xff,
  0x04, 0x00, 0x00, 0x00, 0x10, 0x00, 0x00, 0x00, 0x31, 0x2e, 0x35, 0x2e,
  0x30, 0x00, 0x00, 0x00, 0x00, 0x00, 0x00, 0x00, 0x00, 0x00, 0x00, 0x00,
  0x6c, 0xce, 0xff, 0xff, 0x70, 0xce, 0xff, 0xff, 0x74, 0xce, 0xff, 0xff,
  0x78, 0xce, 0xff, 0xff, 0x8a, 0xd3, 0xff, 0xff, 0x04, 0x00, 0x00, 0x00,
  0x00, 0x06, 0x00, 0x00, 0x40, 0xc1, 0x6e, 0x3d, 0xb0, 0xf7, 0x1a, 0xbf,
  0x84, 0x5f, 0x60, 0x3e, 0x66, 0xcb, 0x81, 0xbf, 0x7a, 0x0e, 0x0c, 0x3e,
  0x95, 0xed, 0x14, 0x3e, 0x78, 0x6d, 0x04, 0xbf, 0xcb, 0x28, 0x29, 0x3d,
  0x56, 0xaf, 0x3a, 0xbe, 0x67, 0x9a, 0x04, 0xbe, 0x34, 0x21, 0x2a, 0x3e,
  0xf5, 0xe6, 0x7d, 0xbe, 0xb6, 0x0b, 0x95, 0xbf, 0x6b, 0x67, 0x51, 0xbf,
  0x4e, 0x0b, 0x98, 0xbe, 0x6d, 0x41, 0xe3, 0xbd, 0x7d, 0x4c, 0x92, 0xbe,
  0x55, 0x33, 0x41, 0x3e, 0x26, 0xdd, 0x44, 0xbe, 0x3d, 0x36, 0xc3, 0xbe,
  0x42, 0xce, 0xcd, 0xbc, 0x90, 0x57, 0xd0, 0x3d, 0x4a, 0xbb, 0xbf, 0x3d,
  0xc8, 0x05, 0xe6, 0xbd, 0xec, 0x8e, 0xa7, 0xbb, 0xce, 0xb8, 0xe5, 0xbe,
  0xd6, 0xf7, 0x66, 0xbf, 0x5f, 0x36, 0xa7, 0xbd, 0xc9, 0xbf, 0xad, 0xbe,
  0xfe, 0x04, 0x6c, 0x3c, 0x42, 0xb4, 0xff, 0x3d, 0x34, 0x83, 0x77, 0xbe,
  0xc3, 0xf7, 0x96, 0x3e, 0xfc, 0xd6, 0x0c, 0xbe, 0x92, 0x89, 0xdf, 0xbe,
  0x58, 0xaa, 0xd5, 0xbe, 0xd2, 0x19, 0x32, 0xbe, 0xd0, 0x1b, 0x8b, 0xbd,
  0xf1, 0x2c, 0x9f, 0x3d, 0xda, 0xb1, 0x65, 0xbf, 0xf1, 0x77, 0x5f, 0xbe,
  0x10, 0xb2, 0xdc, 0x3c, 0xda, 0x4f, 0x02, 0xbe, 0xb1, 0x07, 0xcf, 0xbd,
  0xbb, 0x67, 0xe5, 0xbe, 0xc3, 0x8b, 0x7f, 0xbe, 0xa5, 0x64, 0x1f, 0x3d,
  0xcf, 0xf5, 0x9c, 0x3d, 0xa8, 0x5a, 0x16, 0x3d, 0xfb, 0x2c, 0x9e, 0xbe,
  0xf0, 0xe4, 0x78, 0x3d, 0x3d, 0xcd, 0x93, 0x3d, 0x05, 0xa8, 0xe2, 0xbe,
  0xa3, 0x1e, 0xe5, 0xbd, 0x3c, 0x0e, 0x5f, 0x3d, 0x4b, 0xe5, 0x7d, 0xbf,
  0xa2, 0x3b, 0x1e, 0x3e, 0x7d, 0x2d, 0x90, 0xbf, 0xbc, 0xba, 0x80, 0xbf,
  0x56, 0x75, 0xd1, 0xbc, 0x15, 0xe7, 0x33, 0xbf, 0xa8, 0xbe, 0x2f, 0x3d,
  0x97, 0x6a, 0x7a, 0xbe, 0xcc, 0xb8, 0x05, 0xbe, 0x25, 0x66, 0x4a, 0xbf,
  0x45, 0x69, 0x50, 0xbd, 0xdd, 0xd0, 0x8f, 0xbe, 0xd9, 0x5f, 0xf1, 0xbe,
  0xc1, 0x0f, 0x23, 0xbe, 0x1e, 0x69, 0xc7, 0x3d, 0xff, 0x8f, 0x84, 0x3e,
  0xe1, 0x53, 0xb2, 0x3d, 0xe5, 0x67, 0x6b, 0xbf, 0x21, 0x24, 0xf3, 0xbd,
  0x36, 0x40, 0x05, 0xbe, 0xd2, 0xd9, 0x4f, 0xbe, 0xb6, 0xd0, 0xbf, 0x3d,
  0x36, 0x24, 0x25, 0xbf, 0x22, 0xd1, 0xcb, 0x3e, 0x78, 0xfa, 0xb5, 0xbe,
  0x2c, 0xf6, 0xa3, 0xbc, 0x13, 0xea, 0x9f, 0xbe, 0xd5, 0xd9, 0x51, 0xbf,
  0x7d, 0x29, 0xae, 0xbd, 0x39, 0xe9, 0x30, 0x3d, 0x7d, 0xf4, 0xcb, 0xbe,
  0xf2, 0x05, 0xb3, 0xbd, 0xbf, 0x9e, 0x66, 0xbe, 0xba, 0x9e, 0x6a, 0x3e,
  0x93, 0xac, 0xa4, 0x3c, 0xb0, 0xe9, 0xa3, 0xbe, 0x6d, 0x0e, 0x01, 0xbe,
  0xc1, 0x6c, 0x39, 0xbf, 0x6b, 0x4e, 0x39, 0xbf, 0xb1, 0xd2, 0x83, 0x3e,
  0xeb, 0xa0, 0xc8, 0x3d, 0x08, 0x1e, 0xb5, 0x3d, 0xc8, 0x20, 0x86, 0xbd,
  0xda, 0xaa, 0x42, 0x3d, 0xa1, 0x1a, 0x52, 0x3e, 0x82, 0x7e, 0x0f, 0xbf,
  0x88, 0x70, 0x69, 0xbf, 0x12, 0xd9, 0x92, 0xbe, 0xbf, 0x6e, 0x51, 0xbf,
  0xed, 0xc0, 0x55, 0xbe, 0xe6, 0x80, 0x0c, 0xbf, 0x55, 0xf7, 0xc8, 0xbe,
  0xf5, 0xa2, 0x84, 0xbc, 0xb8, 0x2a, 0x4e, 0x3e, 0xa5, 0x2f, 0x01, 0xbf,
  0x13, 0xb8, 0xf3, 0xbd, 0x88, 0xc2, 0x67, 0x3e, 0x35, 0x7b, 0x78, 0x3e,
  0x5c, 0xe8, 0x25, 0xbf, 0x3f, 0xe1, 0x73, 0xbe, 0x7c, 0x2d, 0x75, 0xbe,
  0x35, 0x44, 0x55, 0xbe, 0x39, 0xbf, 0x13, 0x3e, 0x5e, 0x86, 0xb0, 0x3d,
  0x74, 0xe3, 0xe4, 0xbe, 0x6c, 0x67, 0xc3, 0xbd, 0xe5, 0xe4, 0xa5, 0x3e,
  0xf7, 0xfb, 0x29, 0xbd, 0xfc, 0xd6, 0x29, 0xbf, 0x89, 0xbe, 0xc5, 0xbd,
  0xf3, 0xb3, 0x84, 0xbf, 0x4c, 0x0b, 0x39, 0x3e, 0xa2, 0x8a, 0x18, 0xbd,
  0x09, 0x9a, 0x81, 0xbf, 0xe5, 0x6f, 0xaf, 0x3e, 0x20, 0x08, 0x90, 0x3e,
  0x1e, 0x16, 0xc4, 0xbe, 0x73, 0x60, 0xc3, 0xbe, 0x5c, 0xd8, 0x18, 0xbe,
  0xef, 0x33, 0x83, 0x3e, 0x97, 0xc5, 0x30, 0x3d, 0x0a, 0xe0, 0x6c, 0xbf,
  0x42, 0x9d, 0x46, 0xbd, 0xc2, 0x74, 0x90, 0x3e, 0x13, 0xe3, 0xfe, 0x3d,
  0x4b, 0x0c, 0xf4, 0x3e, 0xf0, 0x5d, 0xa0, 0x3d, 0xe4, 0x72, 0xe2, 0x3d,
  0x5e, 0xb3, 0x8f, 0xbe, 0x49, 0x3e, 0xf9, 0x3d, 0x49, 0xcf, 0x7b, 0xbf,
  0xd9, 0x45, 0xad, 0x3e, 0x34, 0x61, 0x2b, 0xbe, 0xa1, 0x33, 0xbc, 0xbe,
  0x4c, 0xf6, 0x69, 0xbe, 0xe6, 0xa0, 0x8c, 0xbf, 0xef, 0xee, 0x70, 0xbe,
  0xbd, 0x90, 0xce, 0xbd, 0xe6, 0x68, 0x26, 0xbe, 0x23, 0x27, 0xfd, 0x3e,
  0xe7, 0x3e, 0x1b, 0xbe, 0x4d, 0xc5, 0xab, 0xbc, 0x1b, 0x53, 0x87, 0xbf,
  0xb3, 0x80, 0x24, 0x3e, 0x48, 0x6d, 0xf1, 0xbe, 0xcb, 0x99, 0x58, 0xbf,
  0xbf, 0x49, 0x20, 0x3e, 0x19, 0xb3, 0x07, 0xbf, 0x60, 0x49, 0xb0, 0xbe,
  0x97, 0x9e, 0xc8, 0xbd, 0x2c, 0x87, 0x14, 0xbd, 0x50, 0xf0, 0x90, 0x3d,
  0x9e, 0xf3, 0x37, 0x3e, 0x7c, 0x9b, 0x5c, 0x3e, 0x65, 0x0c, 0x30, 0x3c,
  0x70, 0xa6, 0xa8, 0xbd, 0x64, 0xfd, 0xbf, 0xbd, 0x9f, 0x38, 0x81, 0x3e,
  0x0d, 0xc6, 0x9b, 0xbf, 0xfa, 0xc9, 0x12, 0xbe, 0xf3, 0x43, 0x00, 0x3e,
  0x44, 0x39, 0x73, 0x3e, 0x36, 0xd1, 0x83, 0x3e, 0xc7, 0x93, 0x07, 0xbe,
  0x7e, 0xf9, 0xe8, 0xbc, 0x3a, 0x61, 0x8f, 0xbe, 0xe4, 0x97, 0x99, 0xbe,
  0x26, 0x53, 0xf4, 0xbe, 0x41, 0x73, 0xe1, 0x3e, 0x47, 0x51, 0x24, 0xbd,
  0x72, 0x2e, 0xeb, 0x3e, 0x88, 0xa0, 0xf2, 0x3e, 0xea, 0xc1, 0x24, 0xbe,
  0xd9, 0x4c, 0xe0, 0x3e, 0x3a, 0x9e, 0x73, 0xbf, 0x62, 0x73, 0x02, 0xbf,
  0xbc, 0xff, 0x8d, 0xbe, 0x59, 0x65, 0x43, 0xbf, 0x9f, 0xaa, 0xf5, 0x3d,
  0x80, 0x8b, 0xdb, 0xbd, 0x85, 0xed, 0xd3, 0x3e, 0xe6, 0xe0, 0x09, 0xbb,
  0x4a, 0x04, 0x44, 0xbf, 0x5c, 0x90, 0x13, 0xbf, 0x4c, 0x2f, 0x81, 0xbe,
  0x84, 0x9b, 0xcf, 0x3e, 0xff, 0x10, 0xfe, 0x3d, 0x42, 0xac, 0x0b, 0xbe,
  0x04, 0x64, 0xda, 0xbd, 0x65, 0x54, 0x95, 0xbd, 0x21, 0xf9, 0x40, 0x3e,
  0xf7, 0x2e, 0xa0, 0xbe, 0x21, 0xe6, 0x11, 0x3f, 0xc3, 0x4d, 0x0d, 0x3e,
  0x45, 0x7c, 0x5b, 0x3e, 0xa8, 0x64, 0xf9, 0x3e, 0xc7, 0x03, 0x3d, 0x3d,
  0x9e, 0x64, 0x46, 0xbe, 0xf9, 0x5c, 0xc9, 0x3d, 0x3a, 0x24, 0x5f, 0xbf,
  0x3d, 0x66, 0x28, 0x3e, 0xb2, 0xbb, 0x3f, 0xbf, 0xfc, 0x7c, 0xc6, 0x3e,
  0x89, 0x24, 0xc2, 0xbd, 0x11, 0x3a, 0x3f, 0xbe, 0xbe, 0x10, 0x36, 0x3f,
  0x04, 0x98, 0xc5, 0xbe, 0x28, 0x3c, 0x95, 0xbc, 0xdb, 0xed, 0x81, 0x3e,
  0xf8, 0xb1, 0x26, 0xbf, 0xcc, 0xb7, 0x92, 0x3d, 0xb5, 0x09, 0xb9, 0x3e,
  0x62, 0xa7, 0x90, 0x3e, 0x33, 0xbb, 0x5d, 0xbf, 0xc5, 0x84, 0xbd, 0x3e,
  0x96, 0xba, 0xad, 0x3d, 0xbd, 0xb4, 0xd3, 0x3e, 0x28, 0x00, 0x72, 0xbe,
  0xec, 0x02, 0x4d, 0xbe, 0xe9, 0xa4, 0xa6, 0x3e, 0xad, 0x2a, 0xaf, 0xbd,
  0x5e, 0x18, 0x3f, 0xbf, 0x55, 0x22, 0x3b, 0xbf, 0xa6, 0x49, 0x15, 0xbe,
  0x12, 0x10, 0x15, 0x3d, 0xdd, 0xe9, 0x11, 0xbf, 0xe7, 0x0d, 0x2d, 0x3f,
  0x2a, 0x53, 0x94, 0x3e, 0xdf, 0x67, 0x86, 0x3d, 0xac, 0xb4, 0xfb, 0xbe,
  0x34, 0xe7, 0x62, 0xbd, 0x95, 0x8a, 0x1e, 0xbf, 0x23, 0x32, 0x07, 0x3e,
  0x99, 0x1f, 0xc6, 0xbd, 0xe3, 0xdf, 0x36, 0x3e, 0x85, 0xe8, 0xb6, 0xbd,
  0xd5, 0xc7, 0xff, 0x3d, 0x31, 0x39, 0x9c, 0xbe, 0xd7, 0xbe, 0x88, 0x3d,
  0x77, 0xb0, 0x95, 0x3e, 0x0d, 0x28, 0x85, 0xbd, 0x51, 0x3d, 0xce, 0x3e,
  0x25, 0xa4, 0x96, 0xbf, 0xec, 0x2d, 0x6d, 0x3e, 0x77, 0x25, 0xe7, 0xbd,
  0xa7, 0xe5, 0x06, 0xbf, 0x93, 0x0e, 0xa8, 0xbe, 0x53, 0xde, 0x58, 0xbf,
  0x58, 0x63, 0x8e, 0xbf, 0xb5, 0xf4, 0x4d, 0x3e, 0x3a, 0x0f, 0x32, 0xbf,
  0xd6, 0x4f, 0xc1, 0xbd, 0xec, 0x44, 0x88, 0xbe, 0xed, 0x07, 0xd2, 0xbe,
  0x88, 0xfc, 0xfe, 0x3e, 0xb0, 0x47, 0x45, 0xbf, 0x67, 0x2a, 0x51, 0xbe,
  0xfd, 0x7f, 0x88, 0xbf, 0xcd, 0x8d, 0xb6, 0xbd, 0x39, 0x9c, 0x1b, 0xbf,
  0x1e, 0xd7, 0x8e, 0xbf, 0x3a, 0xc4, 0x24, 0xbf, 0x7f, 0x0e, 0x04, 0xbe,
  0xc2, 0xa2, 0x37, 0xbe, 0xbe, 0xd5, 0xed, 0xbd, 0x0e, 0x96, 0x7a, 0xbe,
  0x91, 0xdf, 0xee, 0xbe, 0x6a, 0x20, 0x20, 0xbf, 0x74, 0xcc, 0x8d, 0xbd,
  0x7a, 0xda, 0x05, 0xbf, 0x66, 0x6b, 0xb2, 0x3e, 0x4d, 0x95, 0x4d, 0xbe,
  0x4e, 0xe9, 0xb3, 0xbe, 0x79, 0x15, 0x9f, 0xbb, 0x2d, 0x32, 0x48, 0x3e,
  0x83, 0x5f, 0x94, 0xbf, 0x4a, 0xd5, 0xab, 0xbf, 0x81, 0x9f, 0xf2, 0x3e,
  0x95, 0x01, 0xd8, 0x3e, 0x19, 0x0a, 0xbd, 0xbd, 0x9d, 0xaa, 0xb0, 0x3e,
  0xfc, 0x22, 0x39, 0x3d, 0x08, 0x6f, 0x4e, 0x3e, 0x0c, 0xc5, 0x40, 0xbf,
  0xd2, 0xdd, 0x4b, 0xbd, 0xc2, 0x54, 0xd9, 0xbd, 0x0d, 0x2e, 0x4b, 0xbe,
  0x75, 0xc3, 0xfe, 0x3d, 0x07, 0x39, 0x87, 0x3e, 0x9d, 0x9e, 0x0e, 0xbf,
  0x5f, 0x49, 0xf7, 0xbe, 0xa2, 0x4f, 0xb3, 0xbd, 0xb2, 0x65, 0x51, 0x3d,
  0xca, 0x3e, 0x47, 0xbe, 0x01, 0x0c, 0x0c, 0x3e, 0xbc, 0xa0, 0xc2, 0x3d,
  0x23, 0x12, 0x63, 0xbc, 0x31, 0xa3, 0xc1, 0xbe, 0x43, 0x1c, 0x34, 0xbf,
  0xf2, 0x25, 0xea, 0xbe, 0xf6, 0x69, 0xef, 0xbe, 0xd9, 0x21, 0x89, 0x3e,
  0x2c, 0xd0, 0xe7, 0x3e, 0x8c, 0xfb, 0xa7, 0xbf, 0x44, 0x5c, 0x70, 0xbd,
  0xd0, 0x6d, 0xa7, 0x3e, 0x69, 0x6b, 0x84, 0x3e, 0xe8, 0xef, 0x0d, 0xbd,
  0x10, 0x83, 0x99, 0x3e, 0x30, 0xd0, 0x00, 0xbf, 0x34, 0x2d, 0x00, 0xbf,
  0xb1, 0xab, 0x86, 0x3e, 0x0e, 0x30, 0x52, 0xbe, 0x8e, 0x47, 0xce, 0x3e,
  0xa7, 0x41, 0xee, 0xbe, 0xd2, 0xed, 0x81, 0xbe, 0xb9, 0x1c, 0x3d, 0x3e,
  0x25, 0x42, 0x2e, 0xbc, 0x64, 0x25, 0x1f, 0xbf, 0xfe, 0x3e, 0x20, 0xbf,
  0xbe, 0xcd, 0x04, 0xbc, 0xfc, 0x1c, 0x46, 0x3e, 0xd1, 0xb8, 0x40, 0xbf,
  0xa8, 0x2a, 0xcd, 0xbe, 0xc2, 0x10, 0x8e, 0x3d, 0x75, 0x19, 0x9c, 0x3d,
  0x13, 0x11, 0x71, 0xbd, 0xac, 0x71, 0x3c, 0xbe, 0x92, 0xe3, 0xfe, 0xbc,
  0xa5, 0xe1, 0x41, 0xbf, 0x06, 0x48, 0xbd, 0x3e, 0x3b, 0x32, 0x7c, 0xbe,
  0xa1, 0x9b, 0xf2, 0x3d, 0xda, 0x68, 0x14, 0xbd, 0x8b, 0xe7, 0x7a, 0x3e,
  0x13, 0x8d, 0x38, 0xbe, 0xf9, 0xd1, 0xec, 0xbb, 0x6d, 0xd3, 0x44, 0xbf,
  0x5e, 0xe6, 0x03, 0xbe, 0x44, 0x8f, 0xaf, 0x3d, 0xd3, 0x90, 0x86, 0x3d,
  0x77, 0x4f, 0x50, 0xbf, 0xee, 0x58, 0xa3, 0xbe, 0xc5, 0x99, 0xc5, 0xbd,
  0x54, 0x68, 0x54, 0xbe, 0x00, 0x7d, 0xd3, 0xbd, 0x72, 0x8a, 0x1a, 0xbf,
  0x93, 0xad, 0x65, 0x3e, 0x74, 0x82, 0x54, 0xbd, 0x47, 0x28, 0x1c, 0xbf,
  0x67, 0x71, 0x19, 0xbf, 0x23, 0x97, 0x1a, 0x3e, 0x0b, 0xd6, 0x70, 0xbe,
  0xac, 0xb0, 0xc8, 0xbe, 0x6d, 0xbe, 0xe4, 0xbe, 0x0a, 0xef, 0x94, 0xbe,
  0xb2, 0xfe, 0xda, 0xbc, 0x67, 0xe8, 0xd8, 0x3e, 0x7f, 0x81, 0x30, 0xbe,
  0xc7, 0x2f, 0x33, 0xbf, 0x3e, 0xbd, 0xc4, 0xbe, 0x3d, 0xcb, 0x98, 0x3e,
  0x60, 0x74, 0xda, 0xbe, 0x0a, 0x88, 0x00, 0xbc, 0xd8, 0x9f, 0xf5, 0x3e,
  0x33, 0x61, 0x57, 0xbe, 0x2d, 0x2d, 0xfa, 0xbe, 0x8d, 0x8b, 0xd3, 0xbe,
  0x1f, 0x92, 0x68, 0xbe, 0x96, 0xd9, 0xff, 0xff, 0x04, 0x00, 0x00, 0x00,
  0x00, 0x20, 0x00, 0x00, 0xc6, 0x67, 0xa7, 0x3d, 0x56, 0x56, 0xab, 0xbe,
  0xbf, 0x7c, 0xbb, 0xbb, 0x10, 0x9e, 0x8f, 0x3e, 0xd4, 0xa8, 0xb0, 0x3e,
  0x9f, 0x4f, 0xbb, 0x3e, 0x0c, 0x51, 0xb8, 0xbd, 0xcc, 0x09, 0xd1, 0x3c,
  0xf4, 0x02, 0xd6, 0xbd, 0xf5, 0x20, 0xc8, 0x3e, 0x4e, 0xba, 0xcf, 0x3d,
  0xf4, 0xca, 0xa2, 0x3e, 0xa4, 0xd6, 0x87, 0x3d, 0xc9, 0xc2, 0xf2, 0x3e,
  0x58, 0x5a, 0x93, 0xbe, 0xef, 0x5d, 0x47, 0x3f, 0x13, 0xae, 0xae, 0xbe,
  0x40, 0x3a, 0x45, 0xbd, 0xcf, 0xab, 0x58, 0x3e, 0x3b, 0xaf, 0x97, 0x3e,
  0x39, 0xb6, 0xa0, 0xbc, 0x67, 0x6a, 0x34, 0xbe, 0x26, 0x98, 0x59, 0x3e,
  0x70, 0x6c, 0x66, 0x3f, 0x01, 0x8b, 0x15, 0x3c, 0x40, 0x2e, 0x2a, 0xbe,
  0x5f, 0x1e, 0xec, 0x3c, 0xe0, 0xda, 0xe4, 0x3e, 0x28, 0x26, 0xd4, 0xbe,
  0x18, 0x30, 0x4c, 0x3e, 0x18, 0xdf, 0x2d, 0x3e, 0xe8, 0xe3, 0x54, 0x3e,
  0x38, 0xa0, 0xa6, 0x3e, 0xe9, 0xae, 0xdb, 0x3e, 0xf4, 0xc3, 0xb1, 0xbe,
  0xc7, 0x9a, 0xee, 0x3c, 0x18, 0x89, 0x76, 0x3d, 0x2e, 0x47, 0x0e, 0x3e,
  0x6f, 0x4b, 0x22, 0x3e, 0xfa, 0x74, 0x3e, 0x3d, 0x60, 0x2d, 0xcd, 0x3d,
  0xa0, 0x64, 0x1c, 0x3e, 0xc5, 0xc3, 0xe4, 0x3e, 0xde, 0xe8, 0x81, 0xbe,
  0xb6, 0x54, 0x85, 0x3e, 0xa8, 0x85, 0xab, 0xbd, 0xd8, 0xdd, 0x03, 0x3f,
  0xe2, 0x47, 0x3a, 0xbe, 0x21, 0xb4, 0xa7, 0x3e, 0xe8, 0x5f, 0x3e, 0x3f,
  0x6b, 0x0f, 0xa1, 0x3e, 0x54, 0xf1, 0x16, 0xbe, 0x09, 0x67, 0x08, 0xbe,
  0x79, 0x7a, 0xeb, 0xbd, 0xa7, 0x5b, 0xd0, 0xbc, 0xdb, 0x1c, 0x3e, 0xbf,
  0x8e, 0x04, 0x0a, 0xbe, 0xbd, 0x83, 0x33, 0x3e, 0x86, 0xc2, 0x8a, 0xbd,
  0xc2, 0xbd, 0x2c, 0xbe, 0x14, 0x19, 0x77, 0x3e, 0xa9, 0xa2, 0x2a, 0x3e,
  0x72, 0x80, 0x23, 0x3d, 0x6b, 0x51, 0x4c, 0x3e, 0x80, 0xb9, 0xd3, 0xbd,
  0x1c, 0xce, 0x7d, 0x3e, 0x30, 0x44, 0x48, 0x3d, 0xa0, 0xaa, 0x85, 0xbd,
  0xc8, 0xf5, 0x96, 0xbd, 0x08, 0x1d, 0x65, 0xbe, 0x00, 0x74, 0x49, 0x3a,
  0xa0, 0x4b, 0x46, 0xbd, 0xec, 0xf5, 0x7f, 0xbe, 0x7c, 0x29, 0x50, 0x3e,
  0x00, 0x35, 0x61, 0xbe, 0xe4, 0xbc, 0x5b, 0xbe, 0x00, 0x3e, 0xcd, 0xbb,
  0x8c, 0x51, 0x66, 0x3e, 0xf0, 0xd3, 0x1c, 0x3d, 0x50, 0xe7, 0xaa, 0xbd,
  0xe0, 0x78, 0xd4, 0xbd, 0x70, 0xcd, 0xc4, 0x3d, 0x68, 0x24, 0x98, 0xbd,
  0xe0, 0x1c, 0xf3, 0xbd, 0x40, 0x3c, 0xf9, 0x3d, 0xb4, 0xab, 0x2b, 0x3e,
  0x80, 0xd1, 0xad, 0x3b, 0xc0, 0x31, 0x12, 0x3e, 0x68, 0xbd, 0x55, 0xbe,
  0xa0, 0xdb, 0x0b, 0xbe, 0xdc, 0x4c, 0x44, 0xbe, 0x9c, 0xd3, 0x28, 0xbe,
  0x00, 0x44, 0x45, 0x3a, 0xc0, 0xc7, 0x6b, 0x3c, 0x4c, 0x7f, 0x30, 0xbe,
  0xdc, 0x9d, 0x73, 0xbe, 0xf1, 0x7a, 0xc7, 0x3e, 0x96, 0x9d, 0x31, 0xbe,
  0x5e, 0x42, 0x29, 0x3e, 0x16, 0x33, 0x76, 0xbc, 0x4a, 0x11, 0xe1, 0xbd,
  0x44, 0xb6, 0x89, 0x3e, 0x0c, 0x82, 0x6a, 0xbe, 0x66, 0x5f, 0x3a, 0x3e,
  0x00, 0xe4, 0xae, 0xbe, 0xc5, 0x91, 0x2d, 0x3d, 0x94, 0xb3, 0x2c, 0x3f,
  0xa7, 0x86, 0xc5, 0x3e, 0x2a, 0xac, 0xd2, 0x3e, 0x10, 0xe0, 0x51, 0xbe,
  0xc1, 0x31, 0x00, 0x3e, 0x61, 0x31, 0x0d, 0x3f, 0xbe, 0x96, 0x3b, 0xbe,
  0x3e, 0x67, 0x44, 0x3e, 0xda, 0x74, 0x8f, 0x3e, 0x65, 0x67, 0xb5, 0x3e,
  0xae, 0x7a, 0x8b, 0x3e, 0x7c, 0x77, 0x02, 0x3e, 0xce, 0x3a, 0x1b, 0x3d,
  0xe3, 0xf0, 0x73, 0x3e, 0x29, 0x0d, 0x77, 0x3e, 0x79, 0x80, 0x62, 0xbd,
  0x6a, 0xf2, 0x98, 0x3e, 0xe8, 0xdb, 0xdd, 0x3d, 0x22, 0x25, 0xc6, 0xbe,
  0xda, 0x8d, 0xa6, 0x3c, 0x2d, 0x44, 0xd5, 0x3e, 0x05, 0x13, 0x89, 0x3e,
  0xdc, 0x60, 0x1b, 0x3e, 0x22, 0x3f, 0x22, 0xbd, 0x49, 0xfc, 0x37, 0xbe,
  0xbd, 0x86, 0x35, 0xbe, 0x91, 0x41, 0xe3, 0x3d, 0xd5, 0x9a, 0xbc, 0xbd,
  0x28, 0x7a, 0x4b, 0xbe, 0x8d, 0x41, 0x0e, 0x3d, 0x43, 0x69, 0x3e, 0x3e,
  0x20, 0x0d, 0x45, 0xbe, 0xfd, 0x41, 0x8e, 0xbd, 0xb7, 0xef, 0x7f, 0xbd,
  0x76, 0x28, 0x13, 0x3d, 0x05, 0x89, 0x14, 0x3c, 0xd1, 0x8f, 0x10, 0xbf,
  0x69, 0x33, 0xa7, 0x3d, 0xd8, 0x67, 0xda, 0xbd, 0x95, 0xcb, 0x23, 0xbe,
  0x6e, 0xdb, 0xc5, 0x3d, 0x8a, 0x4f, 0x1e, 0x3d, 0xde, 0x99, 0x58, 0xbe,
  0x0c, 0x5c, 0x88, 0xbd, 0xf6, 0x8a, 0x3f, 0xba, 0xad, 0xa6, 0x94, 0x3d,
  0x4f, 0x8b, 0xc8, 0xbd, 0xf6, 0x12, 0x66, 0x3e, 0x52, 0x69, 0xf6, 0x3d,
  0x4a, 0xdf, 0x5e, 0xbe, 0xda, 0xa0, 0x2b, 0x3e, 0x6f, 0x10, 0x28, 0x3e,
  0xec, 0x2e, 0xbb, 0xbd, 0xe3, 0xcd, 0x60, 0xbe, 0x06, 0x61, 0x4d, 0xbe,
  0xde, 0x33, 0x58, 0x3d, 0xce, 0x60, 0x39, 0xbe, 0xf9, 0xbf, 0xa3, 0xbd,
  0x9f, 0x2f, 0x8c, 0x3e, 0x36, 0x3b, 0x3c, 0xbc, 0xf8, 0x18, 0x8d, 0xbd,
  0xa8, 0x65, 0x55, 0x3e, 0x5a, 0xaf, 0x97, 0x3e, 0x08, 0x72, 0x35, 0x3e,
  0x49, 0xd2, 0xc7, 0xbd, 0x19, 0xf1, 0x6e, 0xbe, 0x30, 0xf6, 0xfb, 0xbd,
  0x26, 0xba, 0x5d, 0x3e, 0xad, 0x3a, 0xc5, 0x3d, 0x21, 0xef, 0x39, 0x3d,
  0x0b, 0x7b, 0x35, 0xbe, 0x76, 0xec, 0xa8, 0xbe, 0x28, 0x0e, 0x71, 0xbd,
  0x27, 0x11, 0xff, 0xbd, 0x24, 0x6f, 0x5a, 0x3e, 0x47, 0x25, 0x41, 0xbe,
  0x50, 0xbc, 0x03, 0xbd, 0xd2, 0x25, 0x8c, 0xbe, 0x72, 0x26, 0x02, 0x3e,
  0xde, 0x05, 0x15, 0xbe, 0x60, 0x10, 0xab, 0xbe, 0x0a, 0x48, 0x00, 0x3e,
  0x34, 0x60, 0x97, 0x3d, 0xc4, 0x2c, 0x25, 0xbe, 0x2f, 0x22, 0x32, 0xbe,
  0x6c, 0x91, 0x04, 0xbf, 0xd7, 0x7c, 0x3c, 0x3e, 0xa5, 0x93, 0xd4, 0x3e,
  0xa3, 0x3c, 0x38, 0x3d, 0x92, 0xc1, 0x20, 0x3e, 0xa2, 0x16, 0xe6, 0x3d,
  0xe6, 0xc5, 0xcc, 0x3e, 0x8f, 0x7f, 0x76, 0x3e, 0x93, 0x1e, 0x38, 0x3e,
  0x41, 0x76, 0xf8, 0xbc, 0x14, 0x21, 0x32, 0x3e, 0x9e, 0x1a, 0x8e, 0x3e,
  0x0b, 0xd0, 0xdc, 0x3d, 0x22, 0x63, 0x82, 0x3d, 0x14, 0xfd, 0xc3, 0xbd,
  0xc0, 0xda, 0xfe, 0x3e, 0x7e, 0x11, 0x29, 0xbf, 0x30, 0x06, 0x91, 0x3e,
  0x35, 0x8f, 0x19, 0x3f, 0x47, 0x54, 0x40, 0xbe, 0xa1, 0xca, 0x83, 0xbd,
  0x6c, 0x3c, 0x76, 0x3e, 0x02, 0x7b, 0x68, 0x3d, 0xc6, 0xc5, 0xb3, 0x3e,
  0x33, 0xe1, 0x41, 0xbf, 0x55, 0xf6, 0x6d, 0x3e, 0xa6, 0xb4, 0x7f, 0x3c,
  0xdb, 0x92, 0xeb, 0xbb, 0x1b, 0xc6, 0xfd, 0xbb, 0x21, 0x68, 0xa6, 0x3c,
  0xf6, 0x47, 0x86, 0xbe, 0x73, 0x27, 0x56, 0x3e, 0xae, 0x9f, 0x97, 0xbe,
  0xdc, 0xe4, 0x46, 0x3e, 0x4b, 0x5c, 0xf7, 0x3e, 0x53, 0xe7, 0xe6, 0xbd,
  0x39, 0x9b, 0xd4, 0x3d, 0xba, 0x5b, 0x81, 0x3e, 0x73, 0x7a, 0x03, 0x3c,
  0xcc, 0x8a, 0x8a, 0x3d, 0xd8, 0x27, 0x73, 0x3e, 0x59, 0x45, 0xe0, 0x3e,
  0x85, 0xda, 0x59, 0xbe, 0x86, 0x2a, 0xaa, 0xbe, 0x8a, 0x61, 0x76, 0xbe,
  0x6e, 0xce, 0xe6, 0xbd, 0x09, 0xd8, 0x04, 0xbe, 0x53, 0x75, 0x89, 0xbd,
  0x38, 0xbf, 0xbc, 0xbe, 0x94, 0xfe, 0x21, 0x3e, 0x33, 0x0a, 0xa1, 0x3e,
  0x38, 0x6a, 0xf8, 0x3d, 0x30, 0x8e, 0xc6, 0x3d, 0x53, 0x2b, 0xad, 0xbc,
  0xce, 0x0d, 0x7c, 0xbe, 0xdf, 0x64, 0x24, 0xbd, 0x56, 0x3d, 0xbd, 0xbe,
  0xe9, 0x91, 0x41, 0xbe, 0xd0, 0xa5, 0x90, 0x3d, 0xe6, 0x78, 0x29, 0x3d,
  0xfb, 0x09, 0x34, 0xbe, 0x0b, 0x32, 0x43, 0x3e, 0xdf, 0xb9, 0x78, 0x3d,
  0xb6, 0x63, 0x18, 0x3e, 0x66, 0x45, 0xb8, 0xbe, 0x79, 0x00, 0x18, 0x3e,
  0x00, 0xbc, 0x02, 0xbf, 0x4d, 0xb0, 0x0f, 0x3e, 0x27, 0x25, 0x89, 0x3e,
  0x45, 0x2b, 0xda, 0x3d, 0xe3, 0x9c, 0x86, 0x3e, 0x45, 0x29, 0x90, 0xbd,
  0xff, 0x35, 0x01, 0xbd, 0x0e, 0xbb, 0x23, 0xbe, 0x63, 0x62, 0xc3, 0xbd,
  0x94, 0x01, 0x02, 0x3f, 0xe5, 0xe5, 0xbf, 0x3d, 0xd9, 0x17, 0x88, 0x3e,
  0xc6, 0xc3, 0x87, 0x3e, 0x36, 0x09, 0x54, 0xbe, 0x9c, 0xaf, 0x5b, 0x3f,
  0x5d, 0x53, 0x71, 0xbc, 0x97, 0x2e, 0x1d, 0xbe, 0x88, 0x7d, 0x00, 0x3e,
  0x04, 0xc7, 0x8a, 0x3d, 0x12, 0x29, 0x9b, 0x3e, 0xf2, 0x58, 0xb2, 0x3e,
  0x97, 0x64, 0x9c, 0x3e, 0x81, 0xf5, 0x5a, 0x3f, 0x3e, 0xd2, 0xb0, 0xbd,
  0xba, 0x05, 0x63, 0x3e, 0x9d, 0x8e, 0xed, 0x3e, 0x2c, 0x6f, 0x0e, 0xbe,
  0x06, 0x7a, 0x26, 0xbe, 0x3a, 0xea, 0xab, 0x3e, 0xe5, 0x1b, 0xe0, 0x3e,
  0xff, 0x45, 0xfc, 0x3e, 0x91, 0xcc, 0x48, 0xbd, 0x9d, 0xc8, 0x56, 0x3e,
  0x79, 0x6a, 0xef, 0xbd, 0x95, 0x98, 0x0d, 0x3e, 0x23, 0x76, 0xb5, 0x3d,
  0x2f, 0x47, 0x02, 0xbe, 0x1e, 0x37, 0x03, 0xbe, 0xb3, 0x3a, 0x84, 0xbd,
  0x14, 0x56, 0x88, 0x3e, 0xb7, 0xaa, 0x9c, 0xbe, 0x13, 0x04, 0x47, 0x3e,
  0x66, 0x69, 0x0a, 0xbe, 0x6c, 0x1f, 0x84, 0x3e, 0xe9, 0xdf, 0x00, 0xbe,
  0x72, 0x5e, 0x01, 0xbe, 0x8d, 0x5b, 0x60, 0x3d, 0x23, 0x7e, 0x31, 0x3e,
  0x6d, 0x0a, 0x14, 0x3d, 0x2c, 0x0c, 0x00, 0x3e, 0x55, 0xf3, 0xc5, 0xbe,
  0x8a, 0xdb, 0x29, 0xbe, 0x54, 0x82, 0x09, 0x3e, 0x16, 0x67, 0xab, 0x3d,
  0xc1, 0xe1, 0x93, 0xbd, 0x2f, 0x59, 0x76, 0xbd, 0xff, 0xaf, 0x95, 0x3e,
  0xef, 0x4a, 0xb9, 0x3d, 0x43, 0x30, 0x12, 0xbe, 0x3a, 0xf3, 0xa3, 0x3e,
  0x9f, 0xf4, 0x92, 0x3e, 0xbd, 0x85, 0x20, 0x3e, 0x45, 0xb9, 0x31, 0xbd,
  0x50, 0x12, 0x9f, 0xbd, 0x74, 0x03, 0x24, 0xbe, 0x14, 0x3b, 0x7e, 0xbe,
  0xa0, 0x54, 0xcb, 0xbd, 0x74, 0x4c, 0x0e, 0xbe, 0x74, 0x17, 0x1e, 0xbe,
  0xf0, 0xff, 0xac, 0x3d, 0xd4, 0x7d, 0x2e, 0x3e, 0xf0, 0xde, 0x2d, 0x3d,
  0xf0, 0xad, 0x6e, 0x3e, 0x64, 0xa7, 0x60, 0xbe, 0x6c, 0x20, 0x28, 0xbe,
  0x20, 0xed, 0xa5, 0xbc, 0xe0, 0x1f, 0x4b, 0xbd, 0x90, 0x87, 0x75, 0xbe,
  0x90, 0x50, 0xf3, 0xbd, 0xb0, 0x4f, 0x6d, 0xbd, 0x58, 0x98, 0x60, 0xbe,
  0x00, 0x48, 0x3a, 0xbc, 0x6c, 0x29, 0x23, 0xbe, 0x70, 0x80, 0x09, 0x3e,
  0xf0, 0x58, 0xf8, 0xbd, 0x40, 0x14, 0xd4, 0xbc, 0xf4, 0x47, 0x23, 0xbe,
  0x70, 0xa3, 0xe2, 0x3d, 0xcc, 0x6b, 0x12, 0xbe, 0xb0, 0x24, 0xf2, 0xbd,
  0x20, 0x19, 0x92, 0x3d, 0xc0, 0xb8, 0x4d, 0xbe, 0xb0, 0x5a, 0x63, 0xbd,
  0x2c, 0x51, 0x31, 0xbe, 0x08, 0x1a, 0xa3, 0xbd, 0xdd, 0xaf, 0x31, 0xbe,
  0xc1, 0x6c, 0x3d, 0x3e, 0xbf, 0x9e, 0x5c, 0xbe, 0x06, 0xc5, 0x7e, 0xbc,
  0x4b, 0x75, 0x1b, 0xbe, 0x04, 0xc3, 0x6d, 0xbe, 0xfe, 0xac, 0xb9, 0x3d,
  0x21, 0xf4, 0x61, 0x3b, 0x8f, 0x85, 0xec, 0xbc, 0x48, 0x2f, 0x0b, 0xbe,
  0x56, 0x3a, 0x53, 0xbe, 0x80, 0xfe, 0x43, 0x3e, 0x47, 0xa7, 0x3e, 0xbe,
  0xc4, 0x9c, 0xca, 0xbd, 0xf1, 0x26, 0x5a, 0xbe, 0xf8, 0xd3, 0x27, 0xbe,
  0x93, 0x58, 0x5d, 0x3e, 0x79, 0x57, 0xbe, 0xbc, 0x80, 0xe5, 0x68, 0x3d,
  0x34, 0x32, 0x3f, 0xbe, 0x70, 0x98, 0x59, 0xbe, 0xe8, 0x71, 0x4f, 0xbe,
  0x00, 0xc8, 0x1f, 0x3b, 0x58, 0x79, 0x85, 0x3d, 0xc0, 0xb9, 0x28, 0xbd,
  0xca, 0xfe, 0xd1, 0xbd, 0xec, 0x49, 0xf0, 0x3d, 0xc0, 0x1d, 0xd0, 0x3d,
  0xbf, 0x2f, 0x3a, 0x3c, 0x2f, 0xd3, 0x39, 0x3e, 0xd8, 0x55, 0x75, 0xbe,
  0x3c, 0x3b, 0xf6, 0xbd, 0x64, 0xe3, 0x7d, 0xbe, 0x02, 0x26, 0x77, 0x3e,
  0xef, 0xb8, 0x5d, 0x3e, 0xb1, 0x35, 0x97, 0x3d, 0xf5, 0xe0, 0x8a, 0x3c,
  0xf7, 0x55, 0x5c, 0x3e, 0x4f, 0xf9, 0x58, 0x3d, 0x10, 0x33, 0xb1, 0x3e,
  0xf7, 0x95, 0x06, 0x3e, 0x0e, 0x6f, 0x4f, 0x3e, 0x88, 0x3a, 0xfb, 0x3d,
  0xe8, 0x32, 0x97, 0xbe, 0x3f, 0x78, 0xd0, 0xbc, 0x9b, 0x89, 0x96, 0x3d,
  0xe9, 0x58, 0x54, 0x3f, 0x9c, 0x1f, 0xa5, 0xbe, 0xaf, 0x0a, 0xeb, 0xbd,
  0xbf, 0x96, 0x10, 0x3f, 0x92, 0x74, 0x1d, 0x3e, 0x5b, 0x99, 0xc2, 0xbe,
  0xfb, 0xf1, 0xe1, 0xbd, 0x2a, 0x03, 0x32, 0xbe, 0xf4, 0xe6, 0xb9, 0xbd,
  0x13, 0x72, 0xf8, 0xbe, 0xa6, 0x26, 0x7d, 0xbe, 0xe1, 0x12, 0x90, 0xbe,
  0x26, 0x88, 0x10, 0x3d, 0xe9, 0x74, 0x7b, 0xbe, 0x82, 0x65, 0x1f, 0x3e,
  0x8a, 0xc2, 0x60, 0xbe, 0xee, 0xc2, 0xa0, 0xbd, 0xf7, 0x7f, 0xae, 0x3e,
  0x08, 0xe1, 0x99, 0x3d, 0xee, 0xc3, 0x7e, 0xbe, 0xcd, 0x34, 0x93, 0x3e,
  0x1d, 0xe3, 0x5c, 0xbe, 0x6e, 0x10, 0x0c, 0x3e, 0xb4, 0x29, 0xbb, 0xbe,
  0x80, 0xc2, 0xff, 0xbd, 0x4c, 0x49, 0x48, 0xbe, 0x2e, 0x0a, 0x1d, 0x3d,
  0x2e, 0x4d, 0xe4, 0x3d, 0x9a, 0x6e, 0x01, 0x3f, 0x7e, 0x49, 0x85, 0x3e,
  0xa3, 0x4f, 0xa4, 0x3c, 0x22, 0x6f, 0x21, 0xbd, 0x0f, 0x28, 0x0b, 0x3f,
  0xdc, 0xa8, 0x8a, 0x3e, 0x35, 0x0e, 0xef, 0xbd, 0x06, 0x52, 0x27, 0x3d,
  0x21, 0x00, 0x85, 0xbd, 0x23, 0xdb, 0xf9, 0xbd, 0x28, 0x44, 0x59, 0xbe,
  0x16, 0x5f, 0xeb, 0xbc, 0x9b, 0xf2, 0x61, 0x3d, 0xb8, 0x68, 0xb1, 0x3e,
  0x84, 0x55, 0x5c, 0xbe, 0x66, 0x4f, 0x51, 0xbd, 0xe0, 0xa0, 0x54, 0x3d,
  0x55, 0x50, 0x9f, 0xbd, 0x36, 0xb7, 0xce, 0xbe, 0xb7, 0xd3, 0x3a, 0x3e,
  0x13, 0xd5, 0x9c, 0x3c, 0xfb, 0x56, 0x20, 0x3f, 0x02, 0x7f, 0x64, 0xbe,
  0x5c, 0x02, 0x99, 0x3e, 0x7b, 0x77, 0xd3, 0xbd, 0x13, 0x30, 0x9c, 0xbd,
  0xe8, 0x1d, 0x05, 0x3e, 0x7a, 0x46, 0x9c, 0xbd, 0xbb, 0x0d, 0xbf, 0xbc,
  0xc8, 0x9f, 0xd3, 0x3c, 0x56, 0x37, 0x02, 0x3e, 0x29, 0x2c, 0x4a, 0xbe,
  0x35, 0xe2, 0x09, 0x3e, 0xe3, 0xd5, 0xe9, 0x3d, 0xc5, 0xf4, 0x56, 0xbd,
  0x3f, 0x78, 0x0d, 0x3e, 0xfe, 0x9a, 0xdf, 0x3e, 0xa8, 0x53, 0x05, 0xbf,
  0x0a, 0x6d, 0x4b, 0x3e, 0x52, 0xb1, 0xe3, 0x3d, 0x4d, 0xad, 0x76, 0xbd,
  0x28, 0x4e, 0xb4, 0xbe, 0x5e, 0x53, 0xf0, 0x3c, 0x6c, 0xc3, 0x22, 0xbe,
  0x48, 0x22, 0x25, 0xbe, 0x0b, 0x7e, 0xff, 0xbe, 0x8d, 0x71, 0x1c, 0xbd,
  0x09, 0x55, 0x64, 0x3e, 0x91, 0x74, 0x8a, 0xbc, 0xae, 0xa3, 0x4f, 0xbe,
  0x47, 0x0f, 0xb7, 0x3e, 0x3d, 0x61, 0x82, 0xbe, 0x11, 0x88, 0x6a, 0xbe,
  0x2c, 0x97, 0x31, 0xbe, 0x57, 0x24, 0x4c, 0xbe, 0x99, 0xdc, 0x2c, 0x3e,
  0xa3, 0x77, 0xcb, 0x3d, 0x87, 0xd2, 0x73, 0x3d, 0xff, 0xf2, 0xa2, 0xbe,
  0x9c, 0xa6, 0x34, 0xbe, 0x05, 0xee, 0xe3, 0xbd, 0x37, 0x7b, 0x66, 0x3e,
  0xf0, 0x9e, 0x17, 0x3e, 0x39, 0x7f, 0xa0, 0x3d, 0x95, 0x8a, 0x7c, 0x3d,
  0xef, 0x93, 0xcf, 0xbe, 0xa8, 0xee, 0x18, 0x3e, 0x71, 0xd7, 0xf6, 0xbe,
  0xb0, 0x34, 0x36, 0x3e, 0x0f, 0x79, 0xce, 0xbd, 0xf8, 0xd7, 0xf2, 0x3e,
  0x52, 0xde, 0xb6, 0xbc, 0x4d, 0x39, 0x7b, 0xbd, 0xa5, 0x68, 0xf3, 0x3d,
  0x28, 0xfc, 0x2c, 0xbe, 0x2c, 0x29, 0x79, 0xbb, 0xc0, 0xeb, 0x02, 0xbd,
  0x54, 0xff, 0x1f, 0x3e, 0xc8, 0x98, 0x0f, 0x3e, 0xec, 0xdc, 0x9c, 0x3d,
  0xe4, 0x6d, 0x29, 0xbd, 0xb9, 0x37, 0x55, 0xbe, 0xdb, 0xea, 0x2d, 0x3e,
  0x93, 0x86, 0xcb, 0x3e, 0x4d, 0x49, 0x67, 0xbd, 0x30, 0xac, 0x67, 0x3e,
  0x8b, 0x01, 0xd3, 0x3e, 0x13, 0x4d, 0x4a, 0x3f, 0x98, 0x94, 0x18, 0x3e,
  0xd6, 0x4b, 0xa9, 0x3e, 0x48, 0xe8, 0x7e, 0x3d, 0x20, 0x13, 0xc9, 0x3e,
  0x03, 0x3d, 0xaa, 0x3b, 0xe0, 0x43, 0x18, 0xbe, 0x54, 0x00, 0x3f, 0x3e,
  0xb8, 0x5e, 0x57, 0x3e, 0x2b, 0x63, 0x80, 0x3e, 0xa1, 0xda, 0xb3, 0xbe,
  0x5a, 0xd3, 0xba, 0x3e, 0x9d, 0xdf, 0x5d, 0xbe, 0xa3, 0xd6, 0x03, 0x3e,
  0x5e, 0x00, 0xb1, 0xbe, 0x9e, 0x16, 0x09, 0x3f, 0x38, 0x39, 0x41, 0x3e,
  0x9a, 0x0a, 0xd4, 0x3d, 0xe3, 0xbf, 0x23, 0x3e, 0x16, 0xab, 0x1e, 0xbd,
  0xce, 0x30, 0xe2, 0x3d, 0x65, 0x1c, 0x0c, 0x3e, 0xab, 0x04, 0xc8, 0xbe,
  0xae, 0x64, 0x3c, 0x3e, 0x92, 0xfb, 0x07, 0x3f, 0x7b, 0xde, 0xab, 0x3e,
  0xb1, 0x98, 0x84, 0xbe, 0x72, 0x5e, 0x3b, 0x3f, 0x2d, 0x58, 0x44, 0x3e,
  0xfc, 0x90, 0xaa, 0x3e, 0xfd, 0x14, 0x15, 0x3c, 0xd9, 0x26, 0xe5, 0xbd,
  0x43, 0xa4, 0x16, 0x3d, 0x7e, 0xcc, 0x57, 0x3e, 0xe5, 0x12, 0x94, 0xbe,
  0x5b, 0x49, 0xc1, 0x3d, 0x2b, 0xb8, 0xa7, 0x3c, 0x00, 0xf2, 0x7c, 0x3d,
  0xfb, 0x18, 0xe7, 0x3c, 0x24, 0x02, 0x53, 0x3c, 0xb7, 0xd1, 0x09, 0xbe,
  0x6e, 0xcc, 0xcd, 0x3d, 0x20, 0xa4, 0x77, 0x3e, 0x0d, 0x10, 0xeb, 0xbd,
  0x6b, 0xf5, 0x9d, 0xbd, 0xa4, 0xa5, 0x24, 0xbf, 0x02, 0x3d, 0x0a, 0x3f,
  0xc7, 0x1d, 0x43, 0x3e, 0xae, 0x00, 0x26, 0xbf, 0x9b, 0x4b, 0x91, 0x3d,
  0x3c, 0x5e, 0xc5, 0x3e, 0x81, 0x8f, 0x80, 0xbd, 0x29, 0x35, 0xe7, 0x3d,
  0xfd, 0x12, 0x45, 0xbe, 0x79, 0x53, 0xb3, 0x3e, 0xee, 0x3b, 0x01, 0x3d,
  0x28, 0x25, 0xd4, 0x3e, 0x63, 0x43, 0xd1, 0xbd, 0xcb, 0x36, 0xc0, 0xbd,
  0x51, 0x61, 0x88, 0xbe, 0xb2, 0x3d, 0x1d, 0x3e, 0x5f, 0x57, 0x9e, 0x3e,
  0x26, 0x7f, 0x5f, 0x3d, 0x7a, 0xd1, 0x1c, 0xbd, 0xe3, 0x54, 0x84, 0x3c,
  0x2c, 0xfe, 0xdd, 0xbc, 0x53, 0x92, 0x39, 0xbe, 0x72, 0xda, 0xe9, 0x3c,
  0xeb, 0x06, 0x37, 0xbe, 0x9b, 0x15, 0x01, 0xbe, 0xc4, 0xcb, 0x8f, 0x3d,
  0x3f, 0x11, 0xf9, 0xbd, 0xa5, 0x94, 0xa1, 0xbe, 0x1a, 0x7a, 0x0d, 0x3f,
  0xff, 0xe7, 0x52, 0x3d, 0xb6, 0x66, 0xbd, 0x3e, 0x24, 0x37, 0xc1, 0xbe,
  0xad, 0xd8, 0x20, 0x3f, 0x6f, 0xe5, 0x33, 0xbc, 0x11, 0xd5, 0x15, 0x3e,
  0x34, 0x69, 0xc9, 0x3e, 0x6e, 0xf9, 0x63, 0x3e, 0x0f, 0x04, 0x9a, 0xbe,
  0x2c, 0x27, 0x4a, 0xbe, 0x25, 0x92, 0xda, 0x3d, 0xae, 0x70, 0x47, 0x3c,
  0x85, 0x0b, 0x28, 0xbe, 0x3f, 0x87, 0x7b, 0xbe, 0x30, 0x2f, 0x84, 0x3e,
  0xcc, 0x39, 0x33, 0x3e, 0x2f, 0x48, 0xc7, 0xbe, 0xa5, 0x50, 0xd1, 0x3d,
  0x54, 0xea, 0xd9, 0xbc, 0xd3, 0x7c, 0x80, 0x3e, 0xd3, 0x74, 0x00, 0x3f,
  0xc2, 0xdc, 0x6b, 0x3e, 0x1c, 0xbf, 0xe9, 0x3e, 0x2e, 0x8b, 0x1f, 0xbd,
  0x39, 0x42, 0x1a, 0x3d, 0xe4, 0x8d, 0x7e, 0xbe, 0xcc, 0x66, 0xa0, 0xbc,
  0x77, 0x10, 0x99, 0x3e, 0x24, 0x31, 0x71, 0xbe, 0x00, 0x8b, 0xdd, 0x3e,
  0xee, 0x70, 0xf2, 0xbd, 0xff, 0x2e, 0x5e, 0x3e, 0x32, 0xea, 0xce, 0xbb,
  0xc7, 0xb3, 0x02, 0xbe, 0xa5, 0x71, 0x47, 0xbe, 0x2f, 0xde, 0xcb, 0x3d,
  0x14, 0xd3, 0x24, 0xbf, 0xfc, 0xba, 0xee, 0x3e, 0x48, 0x25, 0x96, 0x3e,
  0x94, 0x51, 0xac, 0x3e, 0x02, 0xc1, 0xa0, 0x3c, 0x7b, 0x88, 0xdb, 0xbd,
  0x9d, 0x7f, 0xa1, 0x3e, 0xf0, 0x26, 0x86, 0x3e, 0x5c, 0x78, 0xe6, 0xbe,
  0x6b, 0x2a, 0xe5, 0x3c, 0x0a, 0x46, 0x63, 0x3e, 0xd3, 0x65, 0x04, 0x3e,
  0x55, 0x2c, 0xa0, 0xbe, 0xa2, 0x1c, 0x2c, 0x3f, 0x01, 0x3c, 0x56, 0x3e,
  0x5a, 0xd2, 0xa2, 0x3e, 0x2c, 0xf3, 0x84, 0xbe, 0x81, 0xa8, 0x43, 0x3e,
  0xab, 0x11, 0xef, 0x3e, 0x72, 0xa2, 0x2a, 0xbe, 0xf1, 0xff, 0x8b, 0x3d,
  0xa2, 0xd6, 0x9c, 0xbb, 0x03, 0x7c, 0x74, 0x3d, 0x03, 0x8a, 0x9d, 0xbb,
  0x79, 0x97, 0x04, 0xbe, 0x37, 0x05, 0xbd, 0x3e, 0x00, 0xa6, 0x36, 0xbe,
  0xc3, 0x36, 0xc6, 0xbe, 0x6b, 0x2e, 0x0e, 0xbe, 0x85, 0xf1, 0x04, 0x3e,
  0x13, 0xd0, 0x2e, 0x3e, 0x1e, 0xa0, 0xb7, 0xbe, 0xd1, 0xde, 0xd7, 0xbe,
  0x2c, 0x9d, 0x84, 0x3e, 0x2b, 0xeb, 0x63, 0xbd, 0x5b, 0x11, 0x3b, 0xbe,
  0x62, 0xcb, 0x0f, 0x3e, 0x57, 0xe5, 0x5f, 0x3e, 0x69, 0xbe, 0x67, 0xbc,
  0xf4, 0x30, 0xe1, 0x3d, 0x8c, 0xb6, 0x1b, 0xbf, 0x02, 0xc8, 0x57, 0x3e,
  0x69, 0xf6, 0xac, 0x3e, 0x1d, 0x55, 0xb8, 0xbc, 0x21, 0xe6, 0x57, 0x3d,
  0xcd, 0xce, 0xec, 0x3e, 0x9d, 0xb8, 0x95, 0xbd, 0x6a, 0xf8, 0xa7, 0x3d,
  0xc9, 0xe3, 0xe5, 0xbe, 0x6a, 0xcb, 0x16, 0xbe, 0x6a, 0x5a, 0x5e, 0xbe,
  0x37, 0x84, 0x2b, 0x3e, 0x05, 0x60, 0x2a, 0xbd, 0x9b, 0xab, 0xfc, 0x3b,
  0x64, 0xdb, 0x64, 0xbe, 0xea, 0xdf, 0x70, 0x3e, 0xaa, 0x4a, 0x19, 0xbe,
  0xe3, 0xf3, 0x4d, 0x3e, 0xdc, 0xc6, 0x4d, 0x3e, 0x10, 0x60, 0x8d, 0x3e,
  0x77, 0x56, 0x86, 0xbe, 0x3d, 0xf5, 0x69, 0xbe, 0x2b, 0xeb, 0xe3, 0xbc,
  0x28, 0x7c, 0x3f, 0xbe, 0x5f, 0x17, 0xe8, 0xbd, 0x53, 0x94, 0xa9, 0x3d,
  0xc0, 0x56, 0x8a, 0x3e, 0xff, 0xd0, 0x18, 0xbe, 0xb7, 0xb2, 0x91, 0xbd,
  0x50, 0x75, 0x07, 0xbe, 0x38, 0x3b, 0x0d, 0x3e, 0x00, 0xbe, 0xda, 0x3a,
  0x31, 0x05, 0x02, 0x3b, 0xa8, 0xce, 0x2b, 0x3e, 0x34, 0x0a, 0x97, 0xbc,
  0xe0, 0xb8, 0x38, 0xbe, 0x75, 0x29, 0x8a, 0xbe, 0xde, 0x8e, 0x6a, 0xbe,
  0x26, 0x0a, 0x68, 0xbe, 0x0f, 0xd4, 0x77, 0x3d, 0x1a, 0x6d, 0x00, 0xbe,
  0x18, 0x0c, 0x55, 0xbb, 0x33, 0xd0, 0xe7, 0xbd, 0xdb, 0x41, 0xba, 0xbd,
  0xeb, 0x67, 0x8b, 0xbd, 0x46, 0x21, 0xa6, 0xbc, 0x69, 0xaa, 0x97, 0x3e,
  0x4d, 0x89, 0x8c, 0x3e, 0xc4, 0xa4, 0x87, 0x3d, 0xe6, 0x73, 0x6b, 0x3e,
  0xbf, 0x58, 0x54, 0xbd, 0x02, 0xec, 0x2c, 0xbf, 0xf7, 0x08, 0x51, 0x3e,
  0x80, 0x25, 0x69, 0x3c, 0x00, 0x33, 0xa1, 0x3e, 0x3e, 0x66, 0xf7, 0xbe,
  0xa0, 0x94, 0xa3, 0x3d, 0xf3, 0xa9, 0xd3, 0xbd, 0xa1, 0xfd, 0x10, 0xbf,
  0x43, 0x92, 0x3f, 0xbb, 0xdc, 0x94, 0x55, 0x3e, 0xd9, 0x2e, 0x98, 0xbd,
  0x9b, 0x40, 0xcb, 0xbc, 0xb7, 0x9d, 0x35, 0xbe, 0x09, 0xd3, 0xc3, 0x3d,
  0x39, 0x12, 0x5d, 0x3d, 0xef, 0xc6, 0xa0, 0x3d, 0xac, 0x97, 0x1f, 0x3d,
  0xaa, 0x67, 0x73, 0x3d, 0x22, 0x48, 0x39, 0xbe, 0x0c, 0x99, 0x81, 0xbe,
  0x92, 0x78, 0xb9, 0x3d, 0x87, 0xd3, 0xc4, 0xbe, 0xc4, 0xe9, 0x0a, 0x3e,
  0x56, 0x76, 0xbd, 0x3d, 0x15, 0x8f, 0x71, 0xbe, 0x27, 0x52, 0x1a, 0x3e,
  0xf9, 0xe8, 0x47, 0x3e, 0xec, 0x5e, 0x45, 0xbe, 0xca, 0x10, 0x26, 0x3e,
  0x76, 0x81, 0xac, 0xba, 0xeb, 0x82, 0x00, 0xbe, 0x8c, 0x84, 0x44, 0x3e,
  0xb7, 0x65, 0x19, 0xbc, 0xba, 0xad, 0x16, 0xbd, 0x42, 0x73, 0x73, 0xbe,
  0xff, 0x80, 0x73, 0xbe, 0xd9, 0xae, 0x6c, 0xbe, 0xa2, 0x13, 0x2c, 0xbe,
  0xe8, 0x70, 0x84, 0xbd, 0xe4, 0x56, 0xc4, 0xbd, 0x98, 0xd3, 0x61, 0xbe,
  0x04, 0x78, 0x6a, 0xbd, 0x40, 0xfc, 0x01, 0xbc, 0x28, 0x7c, 0xac, 0x3d,
  0xbc, 0xea, 0x12, 0xbe, 0xc1, 0xee, 0x94, 0xbc, 0x04, 0x00, 0x7e, 0xbe,
  0x38, 0xbc, 0x7e, 0x3e, 0xdb, 0xb6, 0x45, 0x3e, 0xef, 0xbb, 0x64, 0xbe,
  0x49, 0x28, 0xe8, 0x3d, 0x7d, 0xf6, 0x73, 0x3d, 0xd8, 0x48, 0xa9, 0xbc,
  0xe5, 0xb1, 0x67, 0xbe, 0xf8, 0x36, 0xe7, 0x3d, 0xee, 0x92, 0xfd, 0x3e,
  0xd9, 0xa1, 0xe5, 0x3d, 0x58, 0x80, 0x4c, 0xbe, 0xb7, 0x2b, 0x82, 0x3e,
  0xe7, 0x19, 0x7c, 0xbe, 0x3f, 0x67, 0xa8, 0x3e, 0xe1, 0x72, 0x06, 0xbd,
  0xa7, 0x13, 0x91, 0x3e, 0xab, 0xf3, 0x9f, 0x3d, 0xd8, 0xed, 0x1c, 0xbe,
  0xc5, 0xfb, 0x9d, 0x3d, 0x0e, 0xe1, 0x98, 0x3d, 0x4f, 0x7e, 0xdf, 0x3d,
  0x27, 0x69, 0x3c, 0x3e, 0x95, 0x7d, 0x2e, 0xbf, 0xf5, 0xd4, 0x84, 0x3d,
  0x3f, 0x99, 0xb5, 0xbd, 0x95, 0x36, 0x0f, 0xbe, 0xaa, 0x39, 0x0b, 0xbe,
  0xc8, 0x72, 0x38, 0x3c, 0x39, 0x16, 0x4e, 0xbe, 0xaa, 0x45, 0x11, 0xbe,
  0xc6, 0x98, 0x4d, 0xbf, 0x59, 0x3b, 0x3a, 0xbe, 0x10, 0x77, 0xed, 0x3d,
  0x52, 0x56, 0x67, 0xbd, 0xf3, 0x55, 0x80, 0xbc, 0x1b, 0xae, 0x8d, 0x3e,
  0x26, 0x11, 0x84, 0xbe, 0xd0, 0x25, 0xb3, 0xbe, 0x8b, 0x03, 0xe0, 0xbe,
  0x2e, 0x1a, 0x23, 0x3e, 0xd4, 0x99, 0xae, 0xbd, 0x9b, 0x9a, 0x33, 0xbe,
  0x78, 0xc0, 0xd6, 0x3d, 0xe2, 0xb0, 0x3a, 0xbe, 0xab, 0xd0, 0xa2, 0x3e,
  0x48, 0x06, 0x2a, 0x3e, 0x04, 0x3a, 0x2e, 0x3c, 0x7f, 0x98, 0x02, 0xbd,
  0xd8, 0x91, 0x18, 0x3e, 0x29, 0xc2, 0xcb, 0x3e, 0x27, 0x29, 0x00, 0xbe,
  0x44, 0xd9, 0xba, 0x3d, 0x49, 0x0d, 0xa6, 0xbe, 0x72, 0x05, 0x09, 0xbe,
  0x47, 0x85, 0x3a, 0x3e, 0x5a, 0x2b, 0x26, 0x3d, 0xf7, 0x6a, 0x9f, 0x3e,
  0xde, 0x21, 0x9b, 0x3e, 0x72, 0x8a, 0x86, 0x3e, 0x13, 0x14, 0x86, 0xbd,
  0xcb, 0x32, 0xbb, 0x3e, 0x8b, 0x2d, 0x37, 0x3e, 0xa0, 0x12, 0xa6, 0xbd,
  0x6d, 0x45, 0x70, 0x3e, 0x95, 0x3f, 0xd8, 0x3d, 0x8e, 0x94, 0x3c, 0x3e,
  0x80, 0x4a, 0x20, 0xbe, 0x39, 0x53, 0xb5, 0x3e, 0xed, 0xd2, 0x43, 0x3e,
  0x68, 0x88, 0x71, 0x3d, 0x4e, 0xfc, 0x3f, 0x3e, 0x8b, 0x59, 0xe5, 0xbd,
  0x98, 0xa7, 0xf4, 0x3e, 0x39, 0x8a, 0xfb, 0xbc, 0x31, 0x5f, 0x54, 0xbe,
  0x11, 0xee, 0x45, 0x3d, 0x13, 0x65, 0xfd, 0x3d, 0xab, 0xc6, 0x89, 0xbe,
  0x04, 0xfc, 0xd3, 0x3d, 0xcd, 0x03, 0x1d, 0x3d, 0xab, 0x35, 0x2c, 0x3e,
  0x11, 0x4b, 0x64, 0x3e, 0xe1, 0xcf, 0xa5, 0xbe, 0xb1, 0x68, 0xb2, 0x3e,
  0x09, 0xc3, 0x9c, 0x3c, 0x29, 0xd2, 0x1f, 0x3f, 0xa4, 0xcc, 0xd0, 0x3c,
  0x5d, 0x54, 0xa8, 0x3d, 0xaa, 0x8e, 0x12, 0x3f, 0xb8, 0x98, 0x53, 0x3a,
  0x60, 0xf4, 0xa1, 0xbe, 0x76, 0x7e, 0x1d, 0xbe, 0x5b, 0xb8, 0xa8, 0xbc,
  0xd9, 0xdf, 0x82, 0xbe, 0xb3, 0xd3, 0x09, 0xbf, 0x45, 0xe7, 0x31, 0x3e,
  0x6c, 0x51, 0xd4, 0xbb, 0xd8, 0x1c, 0x81, 0xbe, 0xab, 0xfd, 0x8c, 0x3d,
  0x9e, 0x5c, 0x68, 0x3e, 0x75, 0xb0, 0x5f, 0xbe, 0xea, 0x96, 0x15, 0x3d,
  0x0e, 0x75, 0xb1, 0x3e, 0x54, 0xe0, 0x4d, 0xbe, 0xec, 0x57, 0x09, 0x3e,
  0x42, 0xde, 0x0b, 0xbe, 0xc0, 0xd1, 0x49, 0xbc, 0xa5, 0x6a, 0x91, 0xbe,
  0xf4, 0xf7, 0x35, 0xbe, 0xce, 0xee, 0x8c, 0xbe, 0x0b, 0x18, 0x1d, 0x3e,
  0xeb, 0x4f, 0xe8, 0x3d, 0x00, 0x17, 0x83, 0x3d, 0x78, 0xa1, 0xb2, 0xbd,
  0xb5, 0xa6, 0x4a, 0x3e, 0x12, 0xb6, 0xf5, 0xbc, 0x63, 0xec, 0x32, 0xbd,
  0x1c, 0x15, 0x35, 0x3e, 0xc7, 0x05, 0x5a, 0xbe, 0x45, 0x3d, 0x8f, 0xbd,
  0x0e, 0x88, 0x88, 0x3d, 0x68, 0x31, 0x83, 0x3d, 0x08, 0x7f, 0x5e, 0xbe,
  0x14, 0x64, 0x6f, 0x3e, 0x30, 0x55, 0x64, 0xbd, 0x70, 0x25, 0x8b, 0xbd,
  0x25, 0x36, 0xec, 0x3d, 0x1c, 0x9b, 0xdb, 0x3d, 0x1b, 0xc7, 0x4c, 0x3b,
  0xae, 0xc2, 0x5d, 0xbe, 0x3b, 0xa9, 0x51, 0xbe, 0x6f, 0xe6, 0x7d, 0x3a,
  0x4d, 0x78, 0xd1, 0x3d, 0xbc, 0x80, 0x49, 0xbe, 0xc5, 0xc0, 0x89, 0xbe,
  0xd7, 0xed, 0x03, 0xbd, 0x93, 0x9b, 0x84, 0x3e, 0x57, 0xfc, 0x89, 0xbd,
  0x56, 0x7d, 0x3c, 0xbd, 0xf2, 0x19, 0xe0, 0x3c, 0xbd, 0x72, 0x59, 0x3c,
  0x5e, 0x9d, 0x6c, 0xbe, 0x87, 0x21, 0x7b, 0xbb, 0x2d, 0xd4, 0xcc, 0x3c,
  0x13, 0x98, 0x5e, 0xbd, 0x11, 0x86, 0x18, 0x3f, 0x16, 0x61, 0xa5, 0xbd,
  0xb3, 0x41, 0xd8, 0x3e, 0x99, 0x2c, 0xff, 0xbe, 0x60, 0x08, 0x2f, 0x3e,
  0xc2, 0x04, 0xfa, 0x3d, 0xf1, 0xc2, 0xdc, 0x3e, 0x96, 0xa1, 0x9d, 0xbd,
  0x3f, 0x19, 0x8f, 0x3d, 0xc1, 0xec, 0x93, 0xbe, 0x9c, 0xbd, 0x77, 0x3e,
  0xa6, 0x29, 0x97, 0x3e, 0x38, 0x20, 0xe2, 0xbd, 0x4e, 0xcd, 0xa4, 0x3e,
  0x4d, 0x77, 0xdb, 0xbd, 0xae, 0xb8, 0x95, 0x3e, 0x7b, 0xb2, 0xfa, 0x3d,
  0xec, 0x33, 0x8e, 0xbe, 0xee, 0x6c, 0xcf, 0xbd, 0x86, 0xb1, 0xbe, 0x3c,
  0x04, 0xc0, 0x01, 0x3d, 0x6f, 0x77, 0xb7, 0x3e, 0xe1, 0xe0, 0x02, 0xbd,
  0x9f, 0x0a, 0x09, 0xbf, 0x36, 0x9d, 0x98, 0x3e, 0x02, 0x6c, 0x06, 0x3d,
  0xc4, 0xc9, 0x91, 0x3e, 0x05, 0x6d, 0x8b, 0x3e, 0xcf, 0xde, 0x70, 0x3e,
  0xfc, 0x0a, 0xa1, 0xbd, 0x87, 0xe9, 0x75, 0xbe, 0x2b, 0x12, 0xd0, 0xbd,
  0x99, 0xda, 0x3a, 0x3e, 0x97, 0xff, 0x67, 0x3e, 0x3e, 0xeb, 0xdc, 0xbd,
  0xd8, 0x36, 0xec, 0x3e, 0x29, 0xf2, 0x79, 0xbe, 0x61, 0xcc, 0x39, 0x3f,
  0x1f, 0xcb, 0xd8, 0xbd, 0x5f, 0x08, 0x45, 0x3c, 0x35, 0xb2, 0x8e, 0x3e,
  0x50, 0x34, 0xdd, 0x3e, 0x07, 0x0b, 0x33, 0x3e, 0xfe, 0x58, 0x9a, 0x3e,
  0xcb, 0x08, 0x15, 0xbc, 0x5b, 0x74, 0x80, 0x3f, 0x92, 0xb1, 0x41, 0x3e,
  0x08, 0xc5, 0x79, 0xbe, 0xe7, 0xe5, 0x8e, 0x3e, 0x89, 0xa1, 0xcc, 0x3e,
  0xd0, 0x2b, 0xdb, 0xbe, 0x2a, 0x52, 0x9e, 0xbb, 0xba, 0xf1, 0x20, 0xbe,
  0x18, 0xa4, 0xfd, 0x3e, 0x4c, 0xa3, 0x38, 0x3e, 0xec, 0xb1, 0x06, 0xbe,
  0xc8, 0xa7, 0x3e, 0xbe, 0x3c, 0xdf, 0x5a, 0xbe, 0xcb, 0xe2, 0xb4, 0xbd,
  0x8a, 0x99, 0xd0, 0xbd, 0x33, 0x4c, 0xc5, 0xbd, 0xae, 0xea, 0x64, 0xbe,
  0xec, 0x0f, 0x37, 0xbd, 0xd2, 0xde, 0x49, 0xbe, 0xc4, 0x05, 0xee, 0xbd,
  0x5d, 0xb3, 0x4e, 0x3d, 0x6a, 0xa9, 0xf0, 0x3d, 0x2c, 0x50, 0x88, 0xbd,
  0x2c, 0x49, 0x51, 0x3e, 0x5f, 0xe8, 0x73, 0x3e, 0x6c, 0x9a, 0x69, 0xbe,
  0x50, 0xd1, 0x1e, 0xbe, 0x2d, 0xd3, 0xc8, 0xbd, 0x6f, 0x62, 0x12, 0x3d,
  0xa9, 0x1d, 0xe6, 0xbd, 0x1a, 0x68, 0x18, 0xbe, 0x4c, 0x31, 0x38, 0x3d,
  0xa9, 0x02, 0x54, 0xbd, 0xc3, 0x3b, 0x24, 0xbd, 0x8b, 0x55, 0xc0, 0xbd,
  0xc1, 0x2a, 0x51, 0xba, 0xca, 0x7b, 0x1e, 0xbe, 0x0c, 0x32, 0x1a, 0x3e,
  0x0c, 0x12, 0x4c, 0x3e, 0x30, 0x14, 0xf4, 0x3d, 0xe6, 0xbb, 0x44, 0x3e,
  0xf2, 0x4f, 0x2f, 0xbe, 0xbf, 0xbd, 0x82, 0x3e, 0xbc, 0x2a, 0x30, 0x3e,
  0xcf, 0x80, 0xec, 0x3c, 0x83, 0xad, 0x06, 0x3d, 0xf9, 0xc2, 0x04, 0xbe,
  0x8e, 0xf6, 0xa7, 0xbc, 0x87, 0x04, 0x25, 0x3e, 0x90, 0x4a, 0x5b, 0xbe,
  0x83, 0x60, 0x5e, 0x3e, 0xa9, 0x28, 0x74, 0x3e, 0xc1, 0x0a, 0x32, 0xbe,
  0x6d, 0x68, 0x8c, 0x3e, 0x64, 0x3e, 0xef, 0xbd, 0x63, 0xd0, 0xd4, 0xbd,
  0x2c, 0xb5, 0xb3, 0xbd, 0x44, 0x78, 0xb5, 0xbd, 0x90, 0x34, 0x1f, 0xbe,
  0xd3, 0x67, 0xb1, 0x3e, 0xda, 0x42, 0xdf, 0xbd, 0x20, 0x7d, 0xa2, 0x3b,
  0x5f, 0xfb, 0x47, 0x3d, 0xd7, 0x17, 0x43, 0xbe, 0x65, 0xc5, 0x65, 0x3d,
  0xa8, 0xef, 0x86, 0xbd, 0x89, 0x2b, 0x2b, 0x3e, 0xa9, 0x53, 0x27, 0xbd,
  0xfd, 0xc7, 0x9e, 0xbe, 0xd3, 0xf8, 0x6b, 0xbe, 0xfc, 0x5b, 0x52, 0x3e,
  0x33, 0x77, 0xa7, 0x3c, 0x81, 0x5d, 0xb9, 0xbc, 0xd2, 0x08, 0xde, 0xbd,
  0x93, 0x15, 0x2a, 0xbd, 0xaa, 0xa1, 0x74, 0xbe, 0x85, 0xb9, 0x75, 0xbd,
  0xf5, 0xbc, 0x3c, 0x3e, 0xee, 0x71, 0xe6, 0xbc, 0xf0, 0x38, 0x9a, 0xbb,
  0x11, 0x10, 0x21, 0x3e, 0xdb, 0x70, 0x18, 0x3c, 0x7d, 0x74, 0x85, 0xbe,
  0x9d, 0x30, 0x32, 0xbf, 0xae, 0xea, 0xcc, 0x3e, 0x51, 0x77, 0x01, 0x3e,
  0xfc, 0xdf, 0x66, 0x3e, 0x07, 0x1b, 0x05, 0xbf, 0x02, 0xb6, 0x14, 0x3e,
  0x29, 0x36, 0x5c, 0xbe, 0xc5, 0x5c, 0x29, 0xbf, 0xbc, 0x68, 0xde, 0xbd,
  0x80, 0xf4, 0xbc, 0x3e, 0xfc, 0x78, 0xa4, 0xbc, 0x2d, 0x62, 0xe7, 0x3d,
  0x32, 0xb8, 0xfd, 0xbd, 0xf3, 0xf2, 0x2f, 0x3e, 0xc3, 0xa0, 0xd4, 0x3d,
  0x5b, 0xa1, 0x96, 0x3e, 0x44, 0xab, 0xa6, 0x3d, 0x92, 0x6c, 0xe8, 0x3e,
  0xb3, 0x5c, 0x89, 0x3e, 0xf4, 0x75, 0xdb, 0xbd, 0xd6, 0x4c, 0x05, 0x3e,
  0x5e, 0x54, 0x18, 0xbf, 0xfc, 0x68, 0xb5, 0x3d, 0xfe, 0xd5, 0x29, 0xba,
  0x7b, 0xf5, 0x4e, 0xbe, 0x24, 0x90, 0x3b, 0x3e, 0xa1, 0x8c, 0x21, 0xbe,
  0x74, 0x5f, 0x32, 0x3e, 0xed, 0x2d, 0xc4, 0xbd, 0xe6, 0x66, 0xe8, 0x3d,
  0xe4, 0x42, 0x3a, 0x3e, 0x38, 0x02, 0x7b, 0xbe, 0xb9, 0x5b, 0x8a, 0x3d,
  0x31, 0x07, 0x12, 0xbe, 0x5f, 0x50, 0x39, 0xbe, 0x5c, 0x9a, 0xa6, 0xbc,
  0x01, 0x80, 0xf5, 0xbc, 0x00, 0x11, 0x1c, 0xbd, 0xfc, 0x4d, 0x7e, 0xbe,
  0xe8, 0x0c, 0x5c, 0xbe, 0xcc, 0x34, 0x49, 0xbe, 0x0a, 0x2d, 0x18, 0x3e,
  0x5c, 0x25, 0x4d, 0xbe, 0xc1, 0x41, 0xbc, 0x3d, 0x58, 0xdc, 0x2c, 0xbe,
  0xf4, 0xb5, 0x27, 0x3e, 0x81, 0xd6, 0x5f, 0xbe, 0xd7, 0xe9, 0x3b, 0xbe,
  0xb3, 0x88, 0x08, 0x3e, 0x59, 0xf2, 0x82, 0xbe, 0x7a, 0x72, 0x4a, 0x3e,
  0x14, 0x0f, 0x34, 0x3e, 0x7b, 0xd7, 0x7e, 0xbe, 0xf8, 0xce, 0x5e, 0x3e,
  0xcc, 0x1f, 0xa4, 0x3e, 0x10, 0xf3, 0xaa, 0x3e, 0x9b, 0x3b, 0x57, 0xbe,
  0x8f, 0xe2, 0x84, 0x3e, 0x21, 0xe4, 0xe4, 0xbc, 0x88, 0x48, 0x05, 0x3e,
  0xa3, 0x27, 0x52, 0x3e, 0x47, 0x95, 0x2c, 0xbe, 0x14, 0x0a, 0x28, 0x3e,
  0xf0, 0x6a, 0x8f, 0xbd, 0x80, 0x37, 0xbf, 0x3e, 0x03, 0x80, 0x6c, 0xbe,
  0x26, 0x48, 0xa2, 0x3e, 0xd2, 0x23, 0x4d, 0xbe, 0xc0, 0x3b, 0xda, 0x3d,
  0x09, 0x85, 0x34, 0xbf, 0x65, 0xfe, 0x3b, 0x3f, 0x13, 0x9d, 0xea, 0x3d,
  0xda, 0xc0, 0xd8, 0x3e, 0x70, 0xa7, 0x74, 0xbc, 0xdf, 0xec, 0x3c, 0x3c,
  0xfe, 0x87, 0x9a, 0x3e, 0x04, 0x4a, 0x8c, 0xbd, 0x16, 0x9d, 0xaa, 0xbe,
  0x39, 0x76, 0xc3, 0x3d, 0x9b, 0xc9, 0xed, 0x3e, 0xc0, 0x5b, 0x25, 0x3e,
  0xb8, 0xab, 0xa4, 0xbe, 0xc0, 0xe6, 0xe4, 0x3e, 0x77, 0xd6, 0xf0, 0x3e,
  0xd3, 0xad, 0xa3, 0x3e, 0x46, 0x6c, 0x00, 0xbe, 0xcd, 0x73, 0x02, 0xbd,
  0xd1, 0x05, 0x62, 0x3e, 0x8e, 0xec, 0xae, 0xbe, 0x5c, 0x0a, 0x0a, 0x3e,
  0x7c, 0x22, 0x10, 0x3d, 0x0e, 0xe6, 0x83, 0x3e, 0x93, 0x18, 0xb8, 0x3d,
  0x8b, 0xd7, 0xac, 0x3d, 0x9c, 0x69, 0x57, 0x3e, 0x7d, 0x28, 0xa6, 0x3e,
  0x70, 0x6f, 0x14, 0xbd, 0x6c, 0x25, 0x61, 0xbe, 0x6c, 0xb2, 0x9b, 0xbc,
  0x6c, 0x93, 0xcd, 0xbe, 0x0d, 0x7e, 0x98, 0x3e, 0x5e, 0xfc, 0x3f, 0xbf,
  0x5d, 0xee, 0xa8, 0x3e, 0x33, 0xed, 0xd1, 0xbb, 0xa2, 0x7b, 0x2a, 0x3e,
  0xc1, 0x68, 0x41, 0x3e, 0x81, 0x85, 0x74, 0x3e, 0x80, 0x47, 0xb8, 0x3e,
  0x54, 0x3c, 0x58, 0xbd, 0xcc, 0x6a, 0x0e, 0xbf, 0xb6, 0xff, 0x85, 0xbc,
  0x77, 0x60, 0xfa, 0x3e, 0xe6, 0xee, 0x66, 0x3e, 0x37, 0x29, 0xc4, 0xbd,
  0x3e, 0x94, 0x0c, 0x3f, 0x57, 0x27, 0x3a, 0x3e, 0xb9, 0x78, 0x5c, 0x3e,
  0x18, 0x1f, 0xcc, 0x3d, 0xea, 0x9c, 0x7c, 0xbe, 0x42, 0xb9, 0x9e, 0xbe,
  0xdc, 0x52, 0xe3, 0x3e, 0xba, 0x17, 0x01, 0xbe, 0xfa, 0x4f, 0xb9, 0x3e,
  0x38, 0xf3, 0x6d, 0xbe, 0xa5, 0x80, 0xce, 0x3c, 0x77, 0x13, 0x56, 0x3e,
  0xc5, 0xc1, 0x87, 0xbd, 0xa1, 0xb6, 0x4b, 0x3e, 0x15, 0xfd, 0x23, 0xbe,
  0x77, 0x1e, 0xb7, 0x3d, 0xcc, 0x5b, 0x91, 0xbd, 0x9b, 0x9d, 0x74, 0x3e,
  0x30, 0xea, 0x7f, 0x3e, 0xbc, 0xa4, 0xf6, 0x3e, 0xb3, 0x63, 0xf6, 0xbd,
  0xdb, 0xb3, 0x06, 0x3b, 0xab, 0xb3, 0x5e, 0xbe, 0xc4, 0xcc, 0x1d, 0x3e,
  0x68, 0x48, 0x97, 0xbd, 0xf7, 0xb2, 0x75, 0xbe, 0x25, 0x18, 0x6e, 0xbe,
  0xee, 0x8f, 0x21, 0x3f, 0xfa, 0xcb, 0xd6, 0xbd, 0x1f, 0x85, 0xcb, 0xbe,
  0xc8, 0x72, 0x5d, 0x3d, 0x0b, 0x79, 0x76, 0x3e, 0xb2, 0x78, 0x86, 0xbe,
  0xdd, 0x26, 0x8e, 0xbe, 0x6d, 0x24, 0x07, 0x3d, 0xac, 0x05, 0x74, 0x3e,
  0x11, 0x6d, 0x5c, 0xbe, 0x71, 0x73, 0x9e, 0xbe, 0x8b, 0x97, 0x4b, 0x3e,
  0x25, 0xb3, 0x10, 0x3e, 0x14, 0x17, 0x78, 0x3e, 0x35, 0x79, 0xea, 0xbd,
  0xe6, 0xbd, 0x48, 0xbe, 0xc7, 0x62, 0xc5, 0x3d, 0xb8, 0xb9, 0x20, 0xbc,
  0x71, 0xb0, 0x93, 0x3d, 0x1c, 0x95, 0xa3, 0x3e, 0xde, 0x16, 0xe1, 0x3e,
  0xb9, 0x1d, 0x64, 0x3e, 0x19, 0xed, 0xef, 0x3d, 0x6c, 0x76, 0x78, 0xbe,
  0xb2, 0x72, 0x1a, 0x3f, 0xe8, 0x2e, 0xe4, 0xbe, 0x39, 0xe5, 0x10, 0xbe,
  0x4e, 0xd4, 0x48, 0xbe, 0x8b, 0xf3, 0x90, 0x3e, 0xfb, 0xe1, 0xde, 0xbc,
  0xc3, 0xaa, 0x7a, 0xbe, 0x6b, 0x80, 0x67, 0x3e, 0xdd, 0x4b, 0x36, 0x3f,
  0xfc, 0xdc, 0xca, 0xbd, 0xf8, 0x6c, 0x40, 0xbe, 0xaf, 0x04, 0x23, 0xbe,
  0x81, 0x1b, 0x69, 0xbd, 0xe1, 0xd7, 0xd9, 0xbe, 0xd3, 0x5f, 0xaf, 0xbd,
  0xe6, 0xa5, 0x3a, 0xbe, 0x5d, 0xc2, 0xaf, 0x3e, 0x2d, 0x2a, 0xe8, 0xbd,
  0xaa, 0xb9, 0xf2, 0xbd, 0x8c, 0x43, 0x2d, 0x3e, 0xb0, 0xba, 0x55, 0x3d,
  0x00, 0xa6, 0x3c, 0x3d, 0xfe, 0xf5, 0x2d, 0xbe, 0x8c, 0x54, 0x30, 0x3e,
  0xc3, 0x17, 0x41, 0xbe, 0xae, 0xc3, 0x84, 0xbe, 0x6e, 0x94, 0x29, 0xbd,
  0x7f, 0xab, 0x1d, 0x3e, 0xa8, 0xd1, 0x8e, 0x3d, 0x49, 0x1b, 0x11, 0xbe,
  0x57, 0xd7, 0x0c, 0x3e, 0x20, 0xf4, 0x2a, 0xbe, 0xbe, 0xa2, 0x28, 0xbe,
  0x76, 0xb7, 0xb4, 0x3d, 0xd7, 0xf8, 0x50, 0xbd, 0x19, 0xb5, 0x2e, 0x3e,
  0xe8, 0x7c, 0xbd, 0xbd, 0x1f, 0xa4, 0x45, 0xbe, 0xc2, 0x8c, 0x64, 0xbe,
  0x90, 0x75, 0xa4, 0xbd, 0x28, 0x31, 0xbe, 0x3d, 0x58, 0xa8, 0xa2, 0x3d,
  0x0d, 0x23, 0x11, 0x3d, 0x92, 0xdc, 0x65, 0x3e, 0x62, 0x76, 0xcd, 0x3d,
  0x72, 0x96, 0x72, 0xbe, 0x0c, 0xf3, 0x55, 0xbd, 0x79, 0xdd, 0xb1, 0x3c,
  0xbf, 0x70, 0x7d, 0xbe, 0x66, 0x51, 0xf7, 0xbd, 0x03, 0xeb, 0xce, 0xbd,
  0xdd, 0x55, 0xdf, 0x3c, 0xfa, 0x39, 0xe1, 0xbc, 0xa7, 0xe6, 0x59, 0x3e,
  0xc0, 0x65, 0xb3, 0x3c, 0xeb, 0x17, 0xaf, 0xbd, 0x2d, 0x8d, 0x6e, 0x3d,
  0x06, 0x50, 0x92, 0xbe, 0xca, 0x0a, 0x32, 0xbe, 0x10, 0x66, 0xd0, 0x3e,
  0x6e, 0x66, 0x63, 0x3e, 0x5c, 0x31, 0xbf, 0x3e, 0xff, 0x8b, 0x40, 0x3d,
  0x66, 0xb9, 0x07, 0x3f, 0xa8, 0x87, 0xa4, 0x3e, 0x35, 0x1b, 0x01, 0xbe,
  0x12, 0x31, 0x92, 0x3e, 0x13, 0x18, 0x93, 0x3d, 0x66, 0x95, 0x39, 0xbe,
  0x7b, 0xb3, 0x3f, 0xbe, 0x9f, 0x8a, 0xb8, 0x3d, 0x43, 0x52, 0x9a, 0xbe,
  0xb3, 0x73, 0x5f, 0x3e, 0x6e, 0x2e, 0x83, 0xbc, 0x06, 0xff, 0x79, 0xbd,
  0x1f, 0xb7, 0x17, 0x3e, 0x28, 0x93, 0xf6, 0xbd, 0xca, 0x53, 0xc7, 0xbe,
  0x58, 0xf9, 0xcf, 0x3e, 0x79, 0x70, 0x44, 0x3e, 0x81, 0x61, 0x3a, 0x3f,
  0xd0, 0x49, 0xf5, 0xbd, 0x34, 0xf1, 0x1c, 0x3e, 0x86, 0x08, 0xdc, 0xbd,
  0x1c, 0xd5, 0xb1, 0xbd, 0xb6, 0xb3, 0x68, 0xbe, 0x50, 0xa7, 0xf4, 0xbd,
  0x7a, 0x5a, 0x02, 0x3e, 0x79, 0x70, 0x9d, 0xbd, 0xf4, 0x4e, 0x7f, 0x3d,
  0x9d, 0xb8, 0x45, 0x3e, 0xe9, 0x7c, 0xaf, 0xbd, 0x37, 0xfa, 0x1f, 0x3e,
  0xf7, 0xbc, 0x22, 0xbe, 0xe8, 0x1c, 0x5d, 0x3a, 0x38, 0x08, 0x09, 0x3e,
  0x69, 0x45, 0x6c, 0xbe, 0x5a, 0xee, 0x75, 0xbd, 0xbd, 0xa0, 0x54, 0x3e,
  0x12, 0x27, 0xfe, 0x3d, 0x2b, 0x8b, 0x05, 0xbe, 0xa4, 0x5d, 0x68, 0xbe,
  0x57, 0xc6, 0x8b, 0xbd, 0xd4, 0x19, 0x0d, 0xbe, 0x0e, 0x83, 0xb6, 0x3d,
  0xc0, 0x39, 0x74, 0x3c, 0x4a, 0xaf, 0xdd, 0xbd, 0x0f, 0xe4, 0x04, 0xbe,
  0xe5, 0x49, 0x04, 0xbe, 0xa9, 0xef, 0x26, 0xbd, 0x84, 0x34, 0x74, 0xbe,
  0xde, 0x54, 0x46, 0xbd, 0x5c, 0xfc, 0xfb, 0x3c, 0xb5, 0x7a, 0xa0, 0xbe,
  0xa1, 0x42, 0xa5, 0xbd, 0xae, 0x82, 0x01, 0x3f, 0xb6, 0xd7, 0x41, 0xbe,
  0x47, 0xa6, 0x89, 0x3e, 0xb9, 0xcb, 0x58, 0xbe, 0x4b, 0xdd, 0x05, 0xbe,
  0x66, 0x89, 0x0d, 0xbe, 0xc9, 0xd9, 0x4d, 0x3e, 0x11, 0x0f, 0x9c, 0xbd,
  0x1e, 0xc5, 0xff, 0x3d, 0x1f, 0xf3, 0xb0, 0x3e, 0xeb, 0x31, 0x86, 0x3e,
  0x0d, 0x15, 0xc4, 0x3e, 0x86, 0x5a, 0x9b, 0x3d, 0x87, 0x0a, 0x80, 0x3f,
  0x11, 0x5d, 0x0f, 0xbe, 0xd9, 0xe4, 0x2a, 0xbe, 0x9d, 0xe8, 0x9f, 0x3d,
  0x64, 0xd5, 0x95, 0x3e, 0x76, 0x98, 0x01, 0xbe, 0x71, 0x49, 0xf8, 0x3d,
  0x14, 0x69, 0x4f, 0xbd, 0x5e, 0x2c, 0x47, 0x3f, 0x13, 0x54, 0x6d, 0x3d,
  0x21, 0x51, 0x0a, 0xbe, 0x27, 0xb6, 0x17, 0x3e, 0x92, 0x83, 0x5f, 0xbd,
  0xd8, 0xbc, 0xb7, 0xbe, 0x52, 0xe8, 0x95, 0x3d, 0x0c, 0xf3, 0x87, 0xbe,
  0x9c, 0x3f, 0x83, 0x3e, 0x2b, 0xb4, 0xf4, 0x3c, 0xfb, 0x35, 0x17, 0x3e,
  0x4b, 0x5f, 0x34, 0xbe, 0x6e, 0xa3, 0xfc, 0x3d, 0xbe, 0x30, 0x62, 0xbe,
  0x9e, 0xce, 0xb6, 0x3d, 0x22, 0x11, 0x03, 0xbe, 0xfd, 0x2f, 0xa3, 0xbe,
  0x3b, 0xc5, 0xc4, 0x3d, 0xd2, 0xd2, 0x60, 0xbe, 0xd0, 0xa8, 0x39, 0xbc,
  0xf2, 0xcb, 0x7e, 0xbd, 0xe1, 0x6d, 0x22, 0x3e, 0x16, 0x3b, 0x3e, 0x3e,
  0x71, 0x09, 0x6f, 0xbe, 0x0f, 0xf2, 0xcb, 0x3e, 0xb5, 0x08, 0xe2, 0xbd,
  0x43, 0xd5, 0x13, 0xbe, 0x4e, 0x1b, 0x21, 0x3d, 0x83, 0x7d, 0xcf, 0xbd,
  0x00, 0x7c, 0x35, 0x3d, 0x86, 0x41, 0x60, 0xbd, 0x9e, 0xe4, 0x16, 0x3e,
  0x6f, 0x13, 0x4e, 0xbe, 0x4b, 0x68, 0xc6, 0xbd, 0x3e, 0x0f, 0x21, 0x3e,
  0x15, 0xa9, 0x53, 0x3d, 0x5a, 0x9c, 0x15, 0x3e, 0xb0, 0xbd, 0x60, 0x3e,
  0x5d, 0x64, 0x37, 0x3e, 0x9f, 0xa8, 0x9f, 0xbd, 0x3d, 0x3d, 0xc4, 0xbd,
  0x24, 0x19, 0x41, 0xbe, 0xff, 0x5f, 0xd0, 0x3d, 0x08, 0xf4, 0x65, 0xbe,
  0xf4, 0x9f, 0x0a, 0xbe, 0xd2, 0x09, 0x68, 0xbe, 0x64, 0xe1, 0x7f, 0xbe,
  0x00, 0x86, 0x0e, 0xbb, 0x01, 0xb5, 0xea, 0x3d, 0xd8, 0xb4, 0xb2, 0xbd,
  0xc0, 0x68, 0x75, 0xbe, 0x7f, 0x07, 0xd6, 0x3d, 0x00, 0xb3, 0x3e, 0xbd,
  0xb4, 0x02, 0xf9, 0xbd, 0xc5, 0x7a, 0xd3, 0x3a, 0x55, 0x51, 0x4d, 0x3e,
  0x4f, 0x65, 0x63, 0xbe, 0x84, 0x86, 0x5c, 0xbe, 0xe0, 0xef, 0xc0, 0x3d,
  0x34, 0x91, 0xda, 0x3a, 0x70, 0xa2, 0x54, 0xbe, 0xe0, 0xf3, 0xcf, 0x3c,
  0x00, 0xb7, 0x09, 0x3c, 0x50, 0x7b, 0x2d, 0xbe, 0x01, 0x3e, 0x20, 0x3e,
  0x60, 0x00, 0x88, 0xbd, 0x80, 0xce, 0x51, 0xbc, 0x68, 0xd0, 0x31, 0x3e,
  0xa2, 0x32, 0x60, 0xbe, 0x51, 0x03, 0xc3, 0x3d, 0x48, 0x41, 0xc8, 0x3c,
  0xf4, 0x36, 0x47, 0x3e, 0x62, 0x43, 0x34, 0xbe, 0x5e, 0x54, 0xf8, 0xbc,
  0xcf, 0x2e, 0x8a, 0x3e, 0x57, 0xd6, 0x7d, 0x3e, 0x07, 0x91, 0x95, 0xbe,
  0x95, 0x98, 0x38, 0x3e, 0x21, 0x90, 0x06, 0x3e, 0x7b, 0xb0, 0x31, 0x3d,
  0x5a, 0xfd, 0xf4, 0xbc, 0x81, 0xe0, 0x11, 0x3e, 0x45, 0xb6, 0x08, 0x3d,
  0x14, 0xa0, 0x2f, 0xbd, 0xc9, 0x3c, 0x9e, 0x3c, 0xac, 0xa6, 0x19, 0x3e,
  0xce, 0x00, 0xf5, 0xbb, 0x05, 0xbf, 0x01, 0x3f, 0x1e, 0x90, 0x67, 0xbe,
  0x69, 0x1b, 0x34, 0xbe, 0x68, 0x5f, 0xbc, 0x3e, 0x20, 0x9a, 0x4e, 0xbc,
  0x5a, 0xb6, 0x14, 0xbe, 0xa0, 0xc7, 0xf2, 0x3d, 0x8d, 0xaa, 0x2f, 0xbe,
  0x34, 0x29, 0x9e, 0xbd, 0x26, 0x49, 0x6e, 0xbe, 0x16, 0x85, 0xad, 0xbd,
  0xec, 0x45, 0xe2, 0xbd, 0x2a, 0x09, 0xe9, 0xbe, 0x39, 0x3a, 0x88, 0x3d,
  0x8c, 0x03, 0x41, 0x3e, 0xb9, 0x9e, 0xeb, 0xbe, 0x38, 0x57, 0x86, 0xbe,
  0x9f, 0xec, 0xa9, 0x3e, 0x91, 0x2b, 0x03, 0x3e, 0xc7, 0x52, 0x02, 0xbf,
  0xe6, 0x44, 0x28, 0xbd, 0x3d, 0x38, 0xdf, 0xbd, 0x76, 0x49, 0xab, 0x3c,
  0xaa, 0x24, 0x14, 0x3c, 0x51, 0xaf, 0xaa, 0x3e, 0x7c, 0xa8, 0x76, 0x3e,
  0x48, 0x58, 0x11, 0x3d, 0x86, 0xde, 0x2e, 0xbd, 0x09, 0x03, 0x08, 0xbf,
  0xe8, 0x18, 0x01, 0x3e, 0x61, 0xfa, 0x38, 0x3e, 0x43, 0xa7, 0xdd, 0x3e,
  0x8e, 0x06, 0xc1, 0xbe, 0x80, 0xf7, 0x44, 0x3f, 0x9c, 0x5b, 0xbf, 0xb8,
  0xa0, 0x20, 0xd6, 0xbe, 0xcf, 0xe7, 0x34, 0x3d, 0xc6, 0xba, 0x0c, 0x3f,
  0x27, 0x49, 0x79, 0xbd, 0x3a, 0xd7, 0x03, 0xbe, 0x2f, 0xa1, 0x02, 0x3d,
  0x0a, 0x9e, 0x67, 0x3f, 0xa7, 0x29, 0x26, 0x3e, 0x2c, 0xb3, 0x3c, 0x3e,
  0xa1, 0x1b, 0x25, 0xbe, 0xed, 0xeb, 0x51, 0x3e, 0x9c, 0x45, 0xb9, 0xbe,
  0x4c, 0x02, 0x5c, 0xb9, 0x66, 0x75, 0x74, 0xbe, 0x8e, 0xf5, 0x73, 0xbd,
  0x50, 0x08, 0xea, 0xbd, 0x63, 0x98, 0x21, 0x3e, 0x0b, 0xa9, 0x30, 0xbe,
  0xe4, 0xd0, 0x0a, 0x3e, 0x6a, 0x52, 0x25, 0x3e, 0x03, 0x6e, 0x15, 0x3e,
  0xc8, 0x66, 0x48, 0xbe, 0xdc, 0x95, 0x18, 0xbe, 0x0e, 0x06, 0x7c, 0xbe,
  0x4e, 0xe3, 0x4a, 0xbe, 0xe5, 0x83, 0xc5, 0xbd, 0x1f, 0x3a, 0x41, 0xbd,
  0x2b, 0xcd, 0xe3, 0xbd, 0x15, 0x88, 0x66, 0x3e, 0xf8, 0x65, 0x3f, 0x3e,
  0xff, 0xb2, 0x38, 0x3e, 0xf6, 0xa0, 0x4d, 0x3d, 0xe7, 0x8f, 0xea, 0xbd,
  0x9b, 0xc2, 0x9c, 0xbd, 0x22, 0x58, 0x26, 0xbe, 0x30, 0xee, 0x03, 0x3e,
  0x45, 0x0c, 0xb0, 0xbd, 0x29, 0x1f, 0x28, 0xbe, 0x0e, 0x5e, 0x38, 0xbd,
  0x3b, 0x5a, 0xfc, 0xb9, 0x57, 0x20, 0x82, 0xbe, 0x5a, 0x17, 0x50, 0x3d,
  0x02, 0x12, 0x3c, 0x3e, 0x32, 0x6b, 0xe0, 0xbc, 0x11, 0x7b, 0x7a, 0xbe,
  0xf3, 0x07, 0x18, 0x3d, 0xe5, 0x5f, 0xe4, 0x3d, 0xf5, 0x1e, 0x83, 0xbe,
  0x42, 0x18, 0x8a, 0xbd, 0xbe, 0xcc, 0x34, 0xbe, 0x74, 0xb6, 0x63, 0x3e,
  0x0d, 0xb7, 0xec, 0x3d, 0x40, 0x55, 0x2e, 0xbc, 0x34, 0x1d, 0x68, 0xbe,
  0xf1, 0xa9, 0x10, 0xbd, 0xa8, 0xfd, 0x0f, 0x3d, 0x8f, 0xfc, 0x6f, 0x3e,
  0x54, 0xe8, 0x64, 0xbd, 0xd1, 0xcf, 0x2b, 0xbe, 0xbf, 0xb7, 0x1a, 0xbe,
  0xb8, 0xd5, 0x8e, 0xbe, 0xed, 0x1b, 0x28, 0x3e, 0x0e, 0x04, 0x4a, 0xbc,
  0x50, 0x8c, 0x41, 0x3e, 0x3c, 0xf6, 0x88, 0xbe, 0x86, 0xd6, 0x95, 0xbd,
  0xd8, 0x0e, 0x8f, 0xbc, 0x5b, 0xe5, 0x6e, 0xbe, 0x4a, 0x2c, 0xc2, 0x3d,
  0x00, 0x38, 0x5a, 0x3d, 0x2e, 0x2f, 0x0a, 0xbe, 0x74, 0xdd, 0x31, 0xbe,
  0x69, 0x6f, 0xde, 0x3d, 0x58, 0x61, 0x1d, 0xbe, 0x39, 0x3b, 0xb1, 0x3d,
  0xb7, 0xca, 0xd2, 0xbc, 0xcb, 0xdc, 0x23, 0xbc, 0x98, 0xf1, 0xe6, 0x3d,
  0x1a, 0x03, 0x26, 0x3d, 0xbf, 0xdf, 0x24, 0xbe, 0x63, 0x08, 0x42, 0x3f,
  0x81, 0x67, 0x9b, 0x3d, 0x1e, 0xd1, 0x82, 0xbe, 0x07, 0x06, 0x6c, 0x3e,
  0x22, 0xb7, 0x21, 0xbe, 0x42, 0x56, 0x02, 0x3e, 0xd0, 0xc0, 0x70, 0x3e,
  0x46, 0x0e, 0x9a, 0x3e, 0xf2, 0x2d, 0x61, 0x3d, 0x81, 0x28, 0x9e, 0xbe,
  0xbd, 0x1f, 0x86, 0xbc, 0xbb, 0x88, 0x4c, 0xbe, 0x9f, 0x0a, 0x53, 0xbe,
  0xd1, 0xd4, 0xa8, 0x3e, 0x3f, 0x49, 0xdc, 0xbe, 0xec, 0xcc, 0x2d, 0xbe,
  0xe9, 0x56, 0xc6, 0x3e, 0x7f, 0xa3, 0x9e, 0xbc, 0xd8, 0x08, 0x2e, 0xbe,
  0x38, 0x3e, 0x53, 0x3e, 0x90, 0xac, 0xb2, 0x3c, 0x2a, 0xe8, 0x07, 0x3e,
  0xbc, 0x9c, 0x33, 0xbf, 0x06, 0xf4, 0x9f, 0x3d, 0xbc, 0xc7, 0xce, 0x3d,
  0x31, 0x74, 0xf5, 0x3d, 0x54, 0x69, 0xac, 0x3d, 0xb4, 0x60, 0xb1, 0x3e,
  0x74, 0x6d, 0xad, 0xbe, 0xc6, 0x4c, 0x89, 0xbd, 0x61, 0xd3, 0xcd, 0xbd,
  0x64, 0xa4, 0x04, 0x3e, 0xd1, 0xf6, 0x8d, 0xbd, 0x0e, 0xe1, 0x3a, 0xbe,
  0xd0, 0xd4, 0x11, 0x3c, 0xd8, 0x86, 0x7d, 0x3d, 0x5c, 0x44, 0xc6, 0xbe,
  0xe6, 0x81, 0xbf, 0xbd, 0x7a, 0x8e, 0x95, 0xbe, 0xe4, 0x38, 0xf8, 0x3d,
  0x6a, 0xc7, 0x53, 0xbe, 0x18, 0x67, 0x22, 0x3f, 0xa6, 0x21, 0x7b, 0xbe,
  0xba, 0x4e, 0xab, 0x3e, 0x68, 0xc0, 0x5e, 0xbe, 0xb8, 0xe9, 0xe8, 0x3e,
  0xb7, 0xd7, 0xf8, 0x3d, 0x37, 0x8d, 0xc4, 0x3e, 0x39, 0x91, 0xa9, 0x3e,
  0x82, 0x4e, 0xc6, 0x3e, 0xd5, 0xb2, 0xb2, 0xbe, 0xb6, 0xc3, 0xd9, 0x3d,
  0x3f, 0xbd, 0xc1, 0xbd, 0x81, 0x8d, 0x17, 0xbe, 0x86, 0xe9, 0x28, 0x3e,
  0xda, 0xc2, 0x9c, 0xbe, 0x13, 0x20, 0x64, 0x3e, 0xc8, 0xda, 0x4b, 0x3d,
  0x00, 0x8d, 0x10, 0xbe, 0x97, 0xc4, 0x31, 0xbd, 0x79, 0x4a, 0x58, 0x3e,
  0xa4, 0x2b, 0x81, 0xbd, 0x2a, 0xde, 0x01, 0x3f, 0xa0, 0x01, 0x17, 0xbd,
  0x54, 0x77, 0x55, 0x3e, 0x38, 0x05, 0xaa, 0xbd, 0x14, 0x1e, 0x6b, 0xbe,
  0x0c, 0x66, 0x15, 0xbe, 0xa4, 0x29, 0x70, 0xbe, 0x48, 0x47, 0x81, 0xbd,
  0xf0, 0x2e, 0x41, 0xbd, 0xec, 0x0c, 0x5a, 0xbe, 0x4c, 0x7f, 0x1a, 0xbe,
  0x10, 0xaf, 0x4d, 0xbe, 0xa0, 0x07, 0xc0, 0xbc, 0x70, 0x43, 0x14, 0xbd,
  0xc0, 0x29, 0xee, 0x3c, 0x00, 0xe0, 0xfc, 0x39, 0xe8, 0xb6, 0x6d, 0xbe,
  0x08, 0xe0, 0x04, 0x3e, 0x00, 0x2a, 0x11, 0x3c, 0x90, 0xff, 0x75, 0xbe,
  0xa4, 0x00, 0x41, 0xbe, 0xf4, 0x68, 0x79, 0x3e, 0x50, 0xff, 0x19, 0xbe,
  0x30, 0x8c, 0xf6, 0xbd, 0x50, 0x4c, 0x4d, 0xbe, 0xd4, 0xe6, 0x49, 0x3e,
  0x98, 0x60, 0x01, 0xbe, 0x80, 0x05, 0x65, 0xbc, 0x18, 0xff, 0xc3, 0x3d,
  0xc8, 0xd9, 0x41, 0x3e, 0x00, 0x54, 0x86, 0xbb, 0x2c, 0xb2, 0x64, 0x3e,
  0x98, 0x9b, 0x2e, 0xbe, 0x5b, 0xf9, 0x80, 0x3e, 0x47, 0xf1, 0x9b, 0x3e,
  0xa3, 0x75, 0x51, 0xbe, 0xf8, 0x71, 0x23, 0x3c, 0x80, 0x4f, 0x9b, 0x3d,
  0x80, 0x90, 0xc6, 0x3c, 0xe9, 0xb9, 0x30, 0x3d, 0xb6, 0x8c, 0x13, 0x3e,
  0x1a, 0xd5, 0x1c, 0xbe, 0xaf, 0x85, 0x36, 0x3e, 0x4f, 0x48, 0x65, 0xbe,
  0x9e, 0x98, 0x80, 0x3d, 0x5d, 0xf3, 0x3b, 0x3d, 0x86, 0xf6, 0x6d, 0xbe,
  0xdc, 0x72, 0x7f, 0x3e, 0x03, 0x10, 0x9d, 0xbd, 0x9a, 0xc7, 0x21, 0x3e,
  0x00, 0x25, 0x29, 0xbe, 0xad, 0x26, 0x1e, 0xbe, 0xc4, 0x77, 0x4e, 0xbe,
  0x60, 0xe9, 0xe0, 0x3d, 0x5d, 0xff, 0x8e, 0xbd, 0xc8, 0x2f, 0x5a, 0xbe,
  0xb8, 0xf3, 0x14, 0x3d, 0xf0, 0x2f, 0x06, 0xbd, 0x78, 0x0e, 0xe6, 0x3d,
  0x8e, 0x31, 0x37, 0xbe, 0xe9, 0x52, 0x88, 0xbe, 0xe1, 0x49, 0x04, 0x3e,
  0xd7, 0x79, 0x82, 0x3e, 0x26, 0xce, 0xe1, 0x3c, 0xc4, 0x55, 0x48, 0x3d,
  0x29, 0x48, 0xc8, 0x3e, 0x67, 0x19, 0x2f, 0xbe, 0xd4, 0xc6, 0x52, 0xbe,
  0x2d, 0x80, 0xfd, 0x3d, 0x90, 0xc4, 0xf7, 0xbd, 0xce, 0x8f, 0xbd, 0x3e,
  0xce, 0x8e, 0xf5, 0x3d, 0xc1, 0x6e, 0xa5, 0x3c, 0xdf, 0x5c, 0x8e, 0xbd,
  0x53, 0x00, 0x97, 0x3c, 0x1a, 0xed, 0x25, 0x3e, 0xb2, 0x8f, 0x0b, 0xbe,
  0x2a, 0xda, 0x8a, 0xbe, 0x01, 0xce, 0xf8, 0xbd, 0xeb, 0x71, 0x19, 0xbd,
  0x24, 0xf2, 0x33, 0x3e, 0xa2, 0x25, 0x07, 0xbe, 0x20, 0x76, 0xe5, 0x3d,
  0x7c, 0xf2, 0x14, 0x3e, 0xbd, 0x9c, 0xab, 0x3c, 0xe2, 0x6f, 0x9d, 0x3e,
  0x9c, 0x7f, 0xcd, 0xbc, 0x52, 0x9a, 0x63, 0x3e, 0xbb, 0x07, 0x64, 0xbe,
  0xde, 0xda, 0xa4, 0x3e, 0xfd, 0xb5, 0x5c, 0xbd, 0x6b, 0xc4, 0xfc, 0x3d,
  0x6f, 0xb1, 0x42, 0xbe, 0x27, 0xed, 0x62, 0x3e, 0x1e, 0x2e, 0x12, 0xbe,
  0xe5, 0x38, 0x8a, 0x3e, 0x27, 0xeb, 0xac, 0xbc, 0xcd, 0x22, 0x21, 0x3e,
  0x2f, 0xf1, 0x64, 0x3e, 0xd1, 0xad, 0xa7, 0xbd, 0x98, 0x82, 0x2f, 0x3e,
  0x9d, 0xdb, 0xff, 0x3d, 0xec, 0xc7, 0x04, 0xbe, 0x7a, 0xba, 0x10, 0xbd,
  0x03, 0xe9, 0x0d, 0x3d, 0xd5, 0x2f, 0x4a, 0xbc, 0xc4, 0xba, 0x37, 0xbd,
  0xfe, 0xc5, 0xea, 0xbb, 0xec, 0xfb, 0x87, 0xbe, 0x30, 0x81, 0x22, 0xbe,
  0x58, 0xdc, 0x1a, 0xbb, 0x2c, 0x3c, 0xc9, 0x3d, 0x12, 0x80, 0x0b, 0xbd,
  0x20, 0x30, 0x76, 0xbe, 0x49, 0x07, 0xb9, 0x3d, 0x9c, 0x19, 0x67, 0xbe,
  0x8f, 0xc8, 0x52, 0x3e, 0x1b, 0xcd, 0x02, 0x3e, 0xc6, 0x3a, 0x1b, 0xbe,
  0x6d, 0xba, 0xe2, 0xbd, 0xc7, 0x1e, 0xd4, 0xbd, 0x0d, 0x10, 0x3c, 0x3e,
  0xa1, 0x37, 0xb8, 0x3d, 0x79, 0x18, 0x04, 0x3e, 0x04, 0xc6, 0x79, 0xbe,
  0x46, 0x91, 0x0f, 0xbc, 0xf9, 0xe4, 0x4a, 0xbe, 0xcb, 0x98, 0xdd, 0x3b,
  0x85, 0xa2, 0x74, 0xbe, 0x23, 0x1e, 0xb1, 0x3d, 0x8e, 0xe7, 0xb7, 0x3d,
  0x9b, 0xf9, 0x9e, 0x3e, 0xa6, 0x97, 0x3f, 0xbe, 0x3f, 0xe0, 0x0c, 0x3e,
  0xda, 0x4e, 0x8a, 0xbe, 0x95, 0x25, 0x0d, 0x3f, 0xb1, 0x36, 0x47, 0x3e,
  0x28, 0x03, 0x3a, 0x3e, 0x9a, 0x3b, 0x13, 0xbe, 0x7b, 0x57, 0x94, 0xbe,
  0x41, 0xb9, 0x24, 0x3e, 0x3f, 0x49, 0xff, 0x3b, 0x53, 0x01, 0xae, 0x3e,
  0xe3, 0x49, 0xa4, 0x3d, 0xdd, 0x39, 0x39, 0xbe, 0x96, 0x03, 0x51, 0xbe,
  0xe4, 0x1d, 0x97, 0xbe, 0xd4, 0x4c, 0x33, 0x3d, 0xde, 0xf9, 0x9e, 0x3e,
  0x25, 0xae, 0x23, 0xbe, 0x13, 0x8c, 0x31, 0x3d, 0xbb, 0x00, 0x6c, 0xbd,
  0x25, 0xa6, 0xde, 0x3e, 0x4b, 0x7a, 0x19, 0xbe, 0x2f, 0xbe, 0x4b, 0x3e,
  0x11, 0xb3, 0x57, 0xbe, 0x93, 0x98, 0x95, 0x3e, 0x4f, 0x22, 0x29, 0x3e,
  0x2d, 0x18, 0x45, 0xbe, 0x85, 0x49, 0xc2, 0x3d, 0x92, 0x2e, 0x4e, 0xbe,
  0x84, 0xf2, 0x1a, 0x3b, 0xa5, 0xca, 0x99, 0xbb, 0x5e, 0x1d, 0xd2, 0x3e,
  0x3b, 0x9a, 0x87, 0x3d, 0xe1, 0x90, 0xb7, 0x3e, 0x6e, 0x68, 0x36, 0xbe,
  0xd5, 0xdd, 0x5a, 0xbe, 0xd4, 0x2e, 0x57, 0x3d, 0xf3, 0xfd, 0x28, 0x3e,
  0x6c, 0x87, 0x04, 0x3e, 0x00, 0xdd, 0x2f, 0x3f, 0x4f, 0xfa, 0x22, 0xbe,
  0x6c, 0xe3, 0xc9, 0xbc, 0x33, 0xa5, 0x58, 0xbe, 0xf3, 0x4b, 0x5c, 0x3f,
  0xf8, 0x11, 0x31, 0xbe, 0xb5, 0x8c, 0xa8, 0x3e, 0xcb, 0x19, 0x34, 0x3f,
  0x28, 0x39, 0x12, 0x3d, 0x18, 0xd5, 0xec, 0x3b, 0x2f, 0x06, 0x18, 0xbe,
  0x65, 0xff, 0x1c, 0x3e, 0xdc, 0xff, 0x97, 0x3d, 0x8a, 0x67, 0x97, 0x3e,
  0xb6, 0xff, 0x19, 0xbe, 0xd4, 0xde, 0x60, 0xbe, 0x99, 0xa8, 0x2a, 0xbe,
  0xe3, 0x38, 0x02, 0x3e, 0xfc, 0xd2, 0x7c, 0xbd, 0xdf, 0xde, 0xcc, 0xbd,
  0x48, 0x93, 0x3d, 0xbe, 0x83, 0xe7, 0xd7, 0x3e, 0xed, 0x45, 0x33, 0x3e,
  0x6a, 0x70, 0x8b, 0xbd, 0x21, 0x90, 0x92, 0xbe, 0x43, 0x96, 0x24, 0x3d,
  0x52, 0x1f, 0x8e, 0xbe, 0xd0, 0x63, 0x67, 0x3e, 0xe2, 0x2a, 0xb8, 0xbd,
  0xf1, 0x97, 0x8a, 0xbd, 0x0f, 0x91, 0x58, 0x3d, 0xb3, 0x2a, 0x6d, 0x3e,
  0xfb, 0x4f, 0xb0, 0xbd, 0x26, 0xb7, 0x29, 0x3c, 0xd6, 0xed, 0x15, 0x3e,
  0x04, 0xab, 0x84, 0x3e, 0x32, 0xa6, 0xb0, 0x3d, 0xf8, 0xb9, 0x99, 0x3d,
  0x2f, 0x7f, 0x42, 0x3e, 0x35, 0x61, 0xc8, 0x3d, 0xeb, 0x94, 0x1f, 0xbe,
  0xf7, 0x83, 0x61, 0xbe, 0x60, 0x9e, 0x5b, 0x3d, 0xd4, 0xce, 0x8d, 0xbd,
  0x8b, 0x58, 0x23, 0x3e, 0x1c, 0xbf, 0xb4, 0xbd, 0x23, 0x9e, 0x01, 0xbe,
  0xc3, 0x49, 0x65, 0x3d, 0x46, 0xef, 0x06, 0x3e, 0x34, 0xc4, 0x2d, 0xbe,
  0x83, 0x43, 0x39, 0xbe, 0x1f, 0xf0, 0x2c, 0x3e, 0xc3, 0xda, 0x35, 0xbe,
  0xc6, 0x26, 0x6e, 0x3d, 0xa5, 0xda, 0x8a, 0xbc, 0xfa, 0x06, 0x12, 0x3e,
  0x40, 0x73, 0x4c, 0x3e, 0x5b, 0x70, 0x88, 0x3c, 0x13, 0xc9, 0x22, 0xbe,
  0x70, 0x87, 0x6e, 0xbe, 0x0f, 0xd5, 0x2e, 0x3e, 0x19, 0x25, 0xa8, 0x3e,
  0xb6, 0x7d, 0xae, 0x3e, 0xa0, 0xa2, 0x51, 0xbe, 0x19, 0xa8, 0xdc, 0x3e,
  0x17, 0x3d, 0x96, 0xbe, 0xde, 0xa9, 0x21, 0x3e, 0x72, 0x82, 0xa8, 0xbe,
  0x63, 0x2a, 0x32, 0x3f, 0x43, 0x60, 0xe8, 0xbe, 0x98, 0x83, 0x40, 0x3e,
  0x17, 0x07, 0x3e, 0x3f, 0xf1, 0xcf, 0x1f, 0xbd, 0x4a, 0x3a, 0xb3, 0xbe,
  0x9e, 0x32, 0x06, 0x3e, 0xbe, 0xf5, 0x59, 0xbe, 0xb5, 0x93, 0xac, 0x3d,
  0xf5, 0x72, 0x02, 0xbf, 0x88, 0x14, 0x98, 0xbe, 0xb2, 0x51, 0xc1, 0xbd,
  0xc6, 0xa8, 0xe9, 0x3d, 0x6e, 0x5d, 0x90, 0xbe, 0x97, 0x1f, 0x9b, 0x3d,
  0x10, 0xd8, 0x4f, 0x3e, 0x5f, 0xbc, 0xdb, 0x3c, 0x8b, 0xb2, 0xcc, 0x3e,
  0x51, 0x85, 0xe5, 0x3d, 0x7b, 0x8b, 0xaf, 0x3e, 0xad, 0x4f, 0x62, 0x3e,
  0x68, 0x1f, 0xa7, 0xbd, 0x07, 0xae, 0x26, 0x3e, 0xe6, 0x20, 0x62, 0xbd,
  0xd3, 0x80, 0x87, 0xbc, 0xa9, 0xdd, 0x87, 0x3e, 0x6d, 0x07, 0x41, 0x3c,
  0x7b, 0xa9, 0x3f, 0xbe, 0xbd, 0x37, 0x13, 0x3e, 0xb7, 0x59, 0xdb, 0xbe,
  0xc2, 0x5f, 0xca, 0x3d, 0x07, 0x73, 0x95, 0x3d, 0x25, 0xae, 0xb8, 0x3e,
  0x63, 0xb9, 0x68, 0xbe, 0x0c, 0x8c, 0x83, 0xbd, 0xbc, 0x3b, 0x19, 0x3f,
  0xbc, 0x70, 0x97, 0xbd, 0x6a, 0x4b, 0x0b, 0xbf, 0x14, 0xfa, 0x58, 0x3e,
  0x9b, 0x24, 0xbe, 0xbd, 0xb3, 0xe7, 0x57, 0xbd, 0x88, 0x09, 0x9d, 0xbe,
  0xb9, 0xd5, 0xb8, 0xbd, 0x9d, 0xa5, 0x79, 0x3d, 0x2b, 0xfb, 0xbe, 0x3c,
  0x05, 0x97, 0x8b, 0xbe, 0x2c, 0x8a, 0xa2, 0x3e, 0x85, 0x9d, 0x8c, 0xbd,
  0x98, 0x4e, 0xdd, 0xbd, 0x0a, 0xb2, 0xc2, 0xbc, 0x74, 0x4c, 0xfc, 0x3e,
  0xbf, 0xa6, 0x88, 0x3e, 0xe4, 0xf7, 0x27, 0xbe, 0x8f, 0x59, 0x1a, 0xbd,
  0x84, 0x18, 0xcd, 0x3d, 0xfe, 0x66, 0xaa, 0x3e, 0xda, 0x91, 0x96, 0xbe,
  0x05, 0x9f, 0xa6, 0x3d, 0xec, 0x05, 0xf1, 0xbd, 0xd4, 0x8b, 0x23, 0x3e,
  0x2b, 0x1b, 0x06, 0x3f, 0x62, 0xdb, 0x6b, 0x3d, 0x2d, 0xb6, 0xe3, 0xbd,
  0x56, 0xbd, 0xda, 0xbd, 0x31, 0x0c, 0x93, 0x3d, 0x37, 0x18, 0x94, 0x3e,
  0x2d, 0xa7, 0x96, 0xbd, 0x1a, 0xbb, 0x34, 0x3e, 0xb8, 0xb5, 0xe3, 0x3d,
  0x48, 0xee, 0xb8, 0x3d, 0xda, 0x44, 0xd2, 0x3c, 0x74, 0x40, 0x01, 0xbe,
  0x5b, 0x7b, 0xbe, 0x3e, 0x0c, 0x9c, 0x8a, 0x3d, 0xe8, 0xaa, 0x9e, 0x3e,
  0x51, 0x12, 0x77, 0x3e, 0xd4, 0x32, 0x61, 0x3e, 0xcf, 0x23, 0xb7, 0xbe,
  0x1f, 0x1e, 0xaa, 0x3e, 0xf5, 0x08, 0x14, 0xbd, 0xb1, 0x14, 0x08, 0x3e,
  0x63, 0x15, 0xa3, 0x3e, 0xe8, 0xff, 0x6b, 0xbe, 0x7d, 0x61, 0xb0, 0xbb,
  0x7f, 0x1e, 0x01, 0x3e, 0x36, 0x4f, 0x72, 0xbe, 0x06, 0xc2, 0x60, 0x3e,
  0xe4, 0x70, 0x41, 0x3e, 0xa8, 0x28, 0x3b, 0xbe, 0x00, 0x38, 0x34, 0x3e,
  0xee, 0x4f, 0xe3, 0xbd, 0xb4, 0x93, 0x82, 0xbd, 0x33, 0x52, 0xa1, 0xbd,
  0x2c, 0xc3, 0xd3, 0xbd, 0x1d, 0xc9, 0xd3, 0x3c, 0x99, 0x7b, 0x1a, 0x3d,
  0x8a, 0xba, 0x31, 0x3f, 0xff, 0x89, 0x3d, 0x3e, 0x91, 0xd3, 0x2b, 0x3d,
  0x9b, 0x6c, 0x35, 0x3f, 0xb9, 0xf4, 0xb8, 0xbe, 0xd8, 0x1c, 0x87, 0x3d,
  0x33, 0x45, 0xa0, 0x3d, 0x32, 0x51, 0xbb, 0xbe, 0xc3, 0xfc, 0xf3, 0x3d,
  0x1c, 0x69, 0x8b, 0x3d, 0x77, 0xec, 0xf6, 0x3d, 0x76, 0xaf, 0x8f, 0xbe,
  0x3e, 0x23, 0x3f, 0x3b, 0x59, 0x23, 0x1c, 0x3e, 0x4a, 0xca, 0x7d, 0xbc,
  0x45, 0xb5, 0xa7, 0xbe, 0x48, 0x8e, 0xd5, 0x3b, 0x0d, 0xba, 0x15, 0x3f,
  0x39, 0x07, 0xb9, 0xbe, 0x97, 0x56, 0x2b, 0xbf, 0x63, 0xa5, 0x8e, 0x3d,
  0xb6, 0x28, 0x6a, 0x3d, 0xff, 0xb9, 0x93, 0x3e, 0xa0, 0x77, 0xc5, 0xbe,
  0x64, 0x4d, 0x2e, 0x3e, 0x5d, 0x56, 0xa8, 0x3d, 0xfc, 0x74, 0xbf, 0xbe,
  0xa2, 0xb8, 0xac, 0xbc, 0xc8, 0x9b, 0xc9, 0x3d, 0x97, 0xff, 0xff, 0x3e,
  0x78, 0xc2, 0xba, 0x3e, 0xb4, 0xbc, 0x2d, 0x3e, 0x3e, 0x3f, 0x8b, 0x3c,
  0xd9, 0x75, 0x63, 0x3f, 0xec, 0x42, 0x5a, 0xbe, 0x55, 0xfe, 0xe7, 0xbe,
  0x8c, 0xf8, 0x6b, 0x3e, 0x98, 0xaf, 0xe3, 0x3e, 0x13, 0xa3, 0xbf, 0x3d,
  0xcc, 0x64, 0xa0, 0x3e, 0x98, 0x50, 0xbf, 0x3d, 0x66, 0xe7, 0x5c, 0x3f,
  0x9a, 0x51, 0xdb, 0x3d, 0x31, 0x11, 0x3b, 0xbc, 0x15, 0xe0, 0x89, 0x3d,
  0xe2, 0x6d, 0x31, 0x3c, 0xbc, 0xbd, 0xbf, 0xbe, 0x86, 0xb3, 0xaa, 0xb8,
  0xb3, 0x61, 0x5f, 0xbe, 0xfd, 0xc3, 0x18, 0x3f, 0x01, 0x8c, 0x32, 0xbe,
  0x63, 0xa9, 0x14, 0x3f, 0x6d, 0xd3, 0x87, 0xbe, 0x9d, 0x41, 0xb9, 0xbd,
  0x5a, 0x1f, 0x58, 0xbe, 0x3e, 0x69, 0x7b, 0xbd, 0x00, 0xfd, 0xd1, 0x3d,
  0xa5, 0xbd, 0x50, 0x3d, 0xf1, 0x7b, 0xf4, 0x3e, 0x40, 0x30, 0xee, 0xbc,
  0x4f, 0x3b, 0x94, 0xbe, 0x32, 0xeb, 0x13, 0xbe, 0xbe, 0x0e, 0x72, 0x3e,
  0x0c, 0x97, 0x9b, 0xbe, 0x5d, 0x9e, 0xff, 0xbd, 0x8e, 0x7c, 0x50, 0xbf,
  0x38, 0x4a, 0x18, 0x3f, 0xab, 0xb2, 0x24, 0x3e, 0x1b, 0x44, 0x96, 0x3c,
  0xb3, 0x14, 0x8c, 0xbe, 0xd9, 0x1a, 0xfa, 0xbb, 0xc3, 0xb6, 0x6a, 0xbe,
  0xf8, 0xcf, 0x65, 0x3e, 0x55, 0x68, 0x4f, 0xbf, 0x17, 0x58, 0x57, 0xbe,
  0xb4, 0xbe, 0x15, 0x3f, 0x7a, 0xc4, 0x1b, 0xbe, 0xf7, 0x5f, 0xd8, 0x3c,
  0xe4, 0x72, 0xf7, 0x3e, 0xa9, 0x94, 0x9a, 0x3e, 0xf8, 0xba, 0x32, 0xbe,
  0x51, 0xe8, 0x09, 0xbf, 0xb7, 0x0f, 0x73, 0x3e, 0xd0, 0xc2, 0x00, 0xbd,
  0xe4, 0xf6, 0x10, 0x3e, 0x31, 0xf6, 0xc5, 0xbc, 0xc4, 0x3c, 0x3c, 0xbe,
  0x95, 0x7c, 0xf2, 0xba, 0x6f, 0xce, 0xad, 0x3c, 0x68, 0x34, 0xfd, 0xbd,
  0x53, 0x8b, 0x6b, 0xbe, 0xc0, 0x94, 0x64, 0xbd, 0x47, 0x09, 0x44, 0xbe,
  0x0c, 0x6a, 0xa7, 0x3d, 0xa3, 0xc9, 0xec, 0x3c, 0x77, 0xae, 0x4d, 0x3e,
  0xd0, 0x6e, 0x67, 0x3e, 0x78, 0x33, 0x4c, 0xbe, 0xa3, 0x49, 0x5f, 0xbe,
  0x12, 0x80, 0x3a, 0xbe, 0xd4, 0xb6, 0x15, 0xbe, 0xf8, 0x71, 0x9c, 0xbd,
  0xa6, 0x68, 0xce, 0xbd, 0x60, 0x9a, 0x1b, 0xbd, 0xf0, 0x25, 0xeb, 0x3d,
  0xe0, 0x8f, 0xec, 0x3d, 0xa4, 0x49, 0x22, 0xbe, 0x82, 0x55, 0x07, 0x3e,
  0x60, 0x2c, 0x84, 0x3d, 0x65, 0x77, 0x99, 0x3d, 0x16, 0xff, 0xef, 0xbd,
  0x64, 0x0d, 0x76, 0xbe, 0x94, 0x5f, 0x3b, 0xbe, 0xc8, 0x60, 0x16, 0xbe,
  0xa2, 0xf9, 0xff, 0xff, 0x04, 0x00, 0x00, 0x00, 0x00, 0x04, 0x00, 0x00,
  0x99, 0xe6, 0x06, 0xbf, 0x88, 0xc9, 0x0b, 0x3e, 0xb0, 0x90, 0x19, 0x3e,
  0x6b, 0x61, 0x16, 0x3f, 0x98, 0x8f, 0x09, 0x3f, 0xcb, 0xd5, 0x63, 0x3e,
  0xf2, 0x37, 0x54, 0x3c, 0xec, 0x6c, 0xce, 0x3e, 0xda, 0xc2, 0x12, 0x3e,
  0xcf, 0x51, 0x80, 0x3e, 0x4a, 0x2e, 0x2d, 0x3f, 0x6b, 0xea, 0x54, 0xbe,
  0x0d, 0xc4, 0x6f, 0xbf, 0x1a, 0x79, 0x89, 0xbe, 0x73, 0xc8, 0x18, 0xbd,
  0xe2, 0x3c, 0xd2, 0xbc, 0x9f, 0xd3, 0x95, 0x3e, 0x5c, 0x5b, 0xd8, 0x3e,
  0x85, 0xed, 0x13, 0xbf, 0x7c, 0x78, 0x97, 0x3e, 0x96, 0xf8, 0x83, 0x3d,
  0xfa, 0x08, 0x8b, 0xbe, 0x85, 0x1e, 0xec, 0x3e, 0xda, 0xfa, 0x1b, 0xbe,
  0x92, 0x7a, 0xf1, 0xbe, 0x5c, 0x63, 0x9a, 0x3e, 0x0b, 0x5f, 0x6a, 0x3e,
  0x84, 0x75, 0x6b, 0xbd, 0x17, 0x00, 0x8e, 0xbd, 0xf9, 0xdd, 0xd3, 0xbd,
  0xd8, 0xff, 0x50, 0xbe, 0x49, 0x1f, 0x5c, 0x3e, 0x78, 0x47, 0xa7, 0x3e,
  0xfa, 0xba, 0x80, 0x3e, 0xe3, 0x9e, 0x3f, 0xbf, 0x1a, 0x76, 0x74, 0x3e,
  0x45, 0x08, 0x24, 0x3f, 0x9b, 0xe4, 0xb7, 0xbd, 0x8c, 0xe9, 0xc6, 0x3d,
  0x80, 0xf5, 0xb7, 0xbe, 0xa5, 0x21, 0x24, 0xbf, 0x40, 0x85, 0xdb, 0x3d,
  0x9d, 0x01, 0x52, 0xbe, 0x04, 0x7d, 0x5b, 0x3e, 0xe4, 0xf2, 0xd8, 0x3e,
  0x8d, 0x88, 0xa6, 0xbe, 0x96, 0x2c, 0x0b, 0xbe, 0xec, 0xe6, 0x22, 0x3f,
  0xb8, 0x2a, 0xfe, 0x3d, 0x2f, 0xdb, 0xdb, 0x3e, 0x9a, 0x1c, 0x72, 0x3f,
  0xe7, 0x05, 0xae, 0xbd, 0x2b, 0x6b, 0x71, 0x3c, 0x6a, 0x01, 0x80, 0x3e,
  0x3b, 0xb6, 0x9d, 0xbe, 0x2e, 0x8f, 0x5d, 0xbe, 0x60, 0x5e, 0xfb, 0x3e,
  0xe1, 0x9b, 0x91, 0x3e, 0xaf, 0xdd, 0x53, 0xbc, 0x66, 0x4b, 0xff, 0x3d,
  0xbe, 0x08, 0x88, 0xbe, 0x05, 0x5b, 0x24, 0x3d, 0x2b, 0x13, 0x3e, 0x3d,
  0x9e, 0xeb, 0x0a, 0xbe, 0xd2, 0x6e, 0x90, 0xbd, 0xff, 0x59, 0xef, 0x3e,
  0x9d, 0xb4, 0x9d, 0x3f, 0xb0, 0x0b, 0xbb, 0x3e, 0x6b, 0x59, 0xa7, 0xbf,
  0x0f, 0x26, 0x95, 0x3d, 0x8b, 0x9a, 0xd7, 0xbe, 0xc8, 0x45, 0x8c, 0xbe,
  0x76, 0xa6, 0x3e, 0x3d, 0xa0, 0x30, 0xf3, 0xbe, 0xfc, 0x0d, 0x31, 0xbd,
  0x7d, 0x31, 0x16, 0xbb, 0x88, 0x2c, 0x4a, 0xbe, 0x08, 0x58, 0xa8, 0xbd,
  0xe8, 0xc6, 0xdd, 0x3d, 0x56, 0xf1, 0xe5, 0x3e, 0x0b, 0xc7, 0xc6, 0xbe,
  0xfe, 0xd9, 0xfc, 0xbd, 0x67, 0x5c, 0xc3, 0xbe, 0x27, 0xba, 0xe9, 0x3e,
  0xdc, 0x92, 0x8a, 0xbe, 0x22, 0xc5, 0x14, 0x3f, 0xbc, 0x88, 0xce, 0x3e,
  0x09, 0xb5, 0x07, 0xbd, 0x65, 0xb5, 0x67, 0xbd, 0xf9, 0x8b, 0xf2, 0x3d,
  0xae, 0xec, 0x2a, 0xbf, 0xa1, 0x1c, 0x23, 0xbe, 0xbd, 0xff, 0x98, 0x3f,
  0xe8, 0xb3, 0x1a, 0x3d, 0xa2, 0x25, 0x51, 0xbe, 0x57, 0x05, 0xe3, 0xbe,
  0x59, 0xd6, 0xa5, 0x3e, 0xb9, 0xca, 0x0e, 0xbf, 0xaa, 0xbb, 0xb6, 0xbe,
  0x70, 0xfa, 0xf8, 0x3e, 0x26, 0x5f, 0x33, 0x3e, 0x7d, 0x3b, 0x07, 0xbd,
  0x32, 0x68, 0xf8, 0x3c, 0xa7, 0x8b, 0x95, 0xbe, 0x7d, 0x63, 0x05, 0xbe,
  0xaa, 0xf7, 0x0e, 0x3f, 0x3f, 0x21, 0x1a, 0xbf, 0x11, 0xcd, 0x69, 0x3d,
  0x31, 0xd3, 0x51, 0x3f, 0xc1, 0xda, 0x49, 0xbc, 0x70, 0xa8, 0x01, 0xbf,
  0x10, 0xfc, 0x29, 0xbe, 0xd3, 0x56, 0xb5, 0x3e, 0xfa, 0xe8, 0xa4, 0x3e,
  0x4f, 0xf0, 0x4b, 0xbf, 0xf8, 0x53, 0x81, 0xbc, 0xbb, 0xa3, 0x3e, 0xbf,
  0x75, 0xb7, 0xfb, 0xbc, 0xf9, 0x48, 0x98, 0x3e, 0x4e, 0x2f, 0x05, 0x3e,
  0xe3, 0x5b, 0x52, 0x3d, 0x7a, 0x00, 0xd5, 0x3c, 0x7a, 0x76, 0x81, 0xbf,
  0xcb, 0x9b, 0x99, 0x3e, 0xc3, 0x19, 0x34, 0x3f, 0x0c, 0x1d, 0xf1, 0x3e,
  0x77, 0xa5, 0x8c, 0xbe, 0x26, 0x23, 0x23, 0x3e, 0x33, 0xae, 0xa7, 0xbd,
  0xde, 0x9f, 0xc0, 0x3e, 0xd2, 0x92, 0x6c, 0x3f, 0x6e, 0xab, 0xdc, 0x3e,
  0x7e, 0x5a, 0x6c, 0xbe, 0x9f, 0x42, 0xa4, 0xbe, 0xf1, 0xc8, 0x8e, 0x3e,
  0x7a, 0x32, 0xbe, 0x3d, 0x9d, 0x5c, 0xd1, 0xbe, 0xe2, 0xd9, 0xc0, 0x3e,
  0x11, 0x2a, 0xb4, 0xbe, 0x08, 0x32, 0xdc, 0x3e, 0xdd, 0x7b, 0x48, 0xbf,
  0x86, 0x3e, 0x73, 0xbe, 0xe0, 0xe7, 0xa9, 0xbb, 0xff, 0xe0, 0x0e, 0x3e,
  0x16, 0x17, 0x22, 0x3e, 0x7a, 0x4a, 0x51, 0xbe, 0xdb, 0x2b, 0x1e, 0xbf,
  0x03, 0x03, 0xce, 0x3e, 0xd8, 0xbc, 0x73, 0xbd, 0xed, 0xc0, 0x8e, 0x3e,
  0xfb, 0x85, 0xbc, 0x3e, 0x2c, 0x4b, 0x0f, 0x3e, 0x07, 0xac, 0x74, 0xbe,
  0x05, 0xe9, 0x24, 0x3e, 0xae, 0xcd, 0x98, 0xbe, 0x80, 0x35, 0x89, 0xbe,
  0xc7, 0xb7, 0x09, 0x3f, 0xd6, 0x2d, 0x86, 0x3e, 0xd2, 0xd9, 0xc2, 0xbe,
  0xaf, 0x37, 0x49, 0xbe, 0xe6, 0xfb, 0xc4, 0xbe, 0xc1, 0x54, 0xe5, 0x3c,
  0x61, 0x2c, 0x0d, 0xbe, 0x00, 0xdd, 0x6d, 0xbe, 0x82, 0x24, 0x36, 0x3e,
  0xe0, 0x13, 0x7e, 0xbe, 0x1c, 0x6d, 0x09, 0xbd, 0xd7, 0xe1, 0xdb, 0x3d,
  0x86, 0xdf, 0x01, 0x3f, 0x1d, 0xdf, 0x04, 0xbc, 0xb8, 0x70, 0x06, 0xbf,
  0xb6, 0x7d, 0x44, 0xbe, 0xb3, 0x04, 0x0b, 0x3e, 0x7c, 0x4a, 0xc9, 0xbd,
  0xea, 0x3a, 0x0f, 0x3f, 0xd4, 0xcc, 0x90, 0x3d, 0x69, 0xab, 0x77, 0xbe,
  0xe0, 0xc9, 0x7a, 0xbe, 0x91, 0x26, 0xc0, 0x3d, 0xf5, 0x1a, 0x9a, 0xbe,
  0x95, 0x80, 0xee, 0x3c, 0x8b, 0xd7, 0xac, 0xbe, 0xd1, 0x02, 0xb8, 0x3d,
  0x9a, 0x83, 0xc4, 0x3e, 0x1e, 0x87, 0x93, 0x3e, 0x4e, 0xe5, 0x5f, 0x3e,
  0x05, 0x50, 0x51, 0xbf, 0x4e, 0x76, 0x02, 0xbe, 0x0e, 0x7f, 0x89, 0x3f,
  0x66, 0xe2, 0xb4, 0x3e, 0x33, 0x23, 0x9e, 0x3d, 0x6a, 0x47, 0x80, 0xbc,
  0xaa, 0xf3, 0xf8, 0x3d, 0x7d, 0xe6, 0xc2, 0xbe, 0x9f, 0xa5, 0x5d, 0xbd,
  0x7a, 0x2c, 0xef, 0xbd, 0x6e, 0xf3, 0xca, 0x3e, 0x69, 0x49, 0xce, 0xbe,
  0xab, 0xc7, 0x66, 0xbd, 0xc7, 0x73, 0xf9, 0x3e, 0xa3, 0x80, 0x3a, 0x3e,
  0xc8, 0xc2, 0xfc, 0xbd, 0x78, 0x68, 0x98, 0x3f, 0x3d, 0x15, 0x19, 0x3f,
  0xb7, 0xa6, 0xae, 0xbe, 0x85, 0xf1, 0xfb, 0x3e, 0x36, 0x65, 0x4a, 0xbe,
  0x68, 0x44, 0xe1, 0x3c, 0xa2, 0x40, 0xda, 0x3e, 0xa5, 0x1f, 0x48, 0xbe,
  0x49, 0x8e, 0x22, 0xbe, 0xe8, 0xb2, 0x74, 0x3d, 0x9f, 0x30, 0xef, 0xbe,
  0x87, 0x84, 0xc1, 0xbe, 0x32, 0xa6, 0x81, 0x3e, 0x10, 0xcc, 0x71, 0x3e,
  0xc2, 0x4f, 0x9c, 0x3e, 0xf4, 0x97, 0xdc, 0x3e, 0x09, 0x10, 0xb2, 0xbe,
  0x3e, 0xc5, 0x3d, 0xbe, 0x85, 0x7c, 0x2f, 0x3f, 0x4f, 0xe0, 0xda, 0x3e,
  0xa0, 0xe7, 0xdf, 0xbe, 0x88, 0xfe, 0x0a, 0x3e, 0xdc, 0xcf, 0xbb, 0x3c,
  0x45, 0xf0, 0xb0, 0x3e, 0x84, 0xab, 0x3f, 0x3f, 0xad, 0x16, 0x42, 0x3e,
  0xd0, 0xcb, 0x48, 0xbf, 0x60, 0x12, 0x10, 0xbe, 0xd4, 0xa4, 0x4c, 0xbd,
  0x62, 0x5f, 0xf5, 0x3d, 0xfe, 0x00, 0x9f, 0x3e, 0xc6, 0x6e, 0x09, 0xbe,
  0xe2, 0x3b, 0xd2, 0x3e, 0x43, 0x7f, 0x64, 0x3b, 0x09, 0x52, 0xe1, 0xbe,
  0x7b, 0x70, 0x08, 0xbf, 0xf8, 0xca, 0x89, 0x3e, 0x84, 0xf9, 0xec, 0x3d,
  0x38, 0x7e, 0x2e, 0x3e, 0x7d, 0x1c, 0xd5, 0xbe, 0x77, 0x60, 0x78, 0xbe,
  0xb9, 0xee, 0x9f, 0x3d, 0x3b, 0x22, 0x03, 0xbe, 0x57, 0x3b, 0xe6, 0x3e,
  0x03, 0xb0, 0xf8, 0x3d, 0xa9, 0x8c, 0x15, 0x3e, 0xd0, 0xc8, 0xe8, 0x3e,
  0xb5, 0x26, 0x5f, 0xbe, 0xd4, 0x7a, 0x55, 0xbf, 0x2c, 0x27, 0x95, 0x3e,
  0xa0, 0x61, 0xc7, 0x3e, 0xe2, 0x0f, 0x9a, 0xbc, 0x58, 0x7f, 0xed, 0x3e,
  0xac, 0xf8, 0x18, 0xbe, 0xae, 0xfd, 0xff, 0xff, 0x04, 0x00, 0x00, 0x00,
  0x80, 0x00, 0x00, 0x00, 0x85, 0x6c, 0x8f, 0x3e, 0x98, 0x25, 0xa1, 0x3c,
  0x61, 0x71, 0x3e, 0x3c, 0xee, 0x6d, 0x42, 0x3e, 0x0d, 0xa7, 0xf5, 0xbc,
  0xaa, 0x08, 0x95, 0x3e, 0xd9, 0xf0, 0xb5, 0x3d, 0x9d, 0x6f, 0xa7, 0x3d,
  0xe7, 0x09, 0xd1, 0x3d, 0xa8, 0xd2, 0x42, 0x3d, 0x8f, 0x0f, 0xb6, 0x3e,
  0xa2, 0x7a, 0x28, 0x3d, 0xff, 0xf1, 0x33, 0x3e, 0x70, 0x69, 0x1e, 0x3d,
  0xe6, 0xe9, 0x01, 0xbd, 0x8d, 0x31, 0x7f, 0x3d, 0xbe, 0x0b, 0x2e, 0x3d,
  0xe3, 0xb9, 0xcc, 0xbc, 0xbe, 0xb2, 0x70, 0x3e, 0x29, 0x0c, 0x35, 0x3d,
  0xdd, 0x27, 0x05, 0x3e, 0xda, 0x22, 0x56, 0x3e, 0xc7, 0xba, 0x0c, 0x3e,
  0x70, 0x9c, 0xfb, 0x3c, 0x92, 0x5e, 0xe6, 0x3d, 0xa2, 0x56, 0x2b, 0x3e,
  0x7d, 0xaf, 0x9f, 0x3e, 0x8e, 0xf4, 0x8c, 0x3b, 0xb8, 0x7b, 0xd0, 0xbc,
  0xde, 0x36, 0x32, 0x3e, 0x56, 0xb6, 0x94, 0x3e, 0x17, 0x9f, 0x1a, 0x3e,
  0x3a, 0xfe, 0xff, 0xff, 0x04, 0x00, 0x00, 0x00, 0x18, 0x00, 0x00, 0x00,
  0x01, 0xc8, 0xd3, 0xbd, 0xf1, 0xb6, 0xf6, 0xbd, 0x7f, 0x1e, 0x7e, 0xbe,
  0x1b, 0xcd, 0x86, 0xbe, 0x2b, 0xf2, 0x16, 0xbe, 0xe1, 0x09, 0xb7, 0xbe,
  0x5e, 0xfe, 0xff, 0xff, 0x04, 0x00, 0x00, 0x00, 0x00, 0x01, 0x00, 0x00,
  0x5c, 0xd6, 0x43, 0x3d, 0x18, 0xdf, 0x01, 0x3e, 0x00, 0x00, 0x00, 0x00,
  0xd9, 0xea, 0x38, 0x3e, 0x21, 0x42, 0x83, 0xbd, 0x9b, 0xda, 0x65, 0x3c,
  0x03, 0x23, 0xf5, 0x3c, 0x21, 0xd1, 0xaa, 0x3d, 0x20, 0x9e, 0xd6, 0x3d,
  0x96, 0xaf, 0x28, 0xbc, 0x00, 0x00, 0x00, 0x00, 0x56, 0x1e, 0xf3, 0x3b,
  0x33, 0xa2, 0xe4, 0x3d, 0x7f, 0xca, 0xe8, 0x3c, 0x9b, 0xe2, 0xf8, 0x3c,
  0x82, 0xa0, 0xd9, 0x3c, 0x60, 0x93, 0x42, 0x3e, 0x31, 0x00, 0x85, 0x3d,
  0x27, 0xc8, 0xfc, 0x3d, 0x30, 0xab, 0x3c, 0x3e, 0xa7, 0x92, 0x8b, 0x3d,
  0x6d, 0xff, 0xd4, 0x3c, 0x76, 0x39, 0x4c, 0x3d, 0xfe, 0xeb, 0x42, 0x3c,
  0x0e, 0xc3, 0xde, 0x3b, 0x31, 0x68, 0x56, 0x3e, 0xc0, 0x65, 0x23, 0x3d,
  0xc4, 0x92, 0x7f, 0xbd, 0x76, 0x2f, 0x32, 0x3e, 0x72, 0xd2, 0x88, 0x3d,
  0x89, 0x25, 0x2c, 0x3c, 0x54, 0x42, 0x5f, 0x3d, 0x5c, 0x7c, 0xdf, 0x3b,
  0xcd, 0x0c, 0x41, 0xbd, 0x52, 0x6a, 0x45, 0x3e, 0xe6, 0x88, 0x53, 0x3e,
  0x00, 0xcf, 0x4b, 0x3d, 0xa0, 0x77, 0xc5, 0x3d, 0xba, 0xd2, 0xfa, 0xbc,
  0xc9, 0x46, 0x9a, 0x3d, 0xef, 0x4c, 0x28, 0xbd, 0xb0, 0x50, 0x1f, 0x3d,
  0xce, 0xdd, 0x70, 0x3c, 0x6a, 0x09, 0xae, 0xbc, 0x71, 0x9d, 0xb3, 0x3c,
  0xd9, 0x10, 0x9e, 0x3d, 0x48, 0x13, 0x21, 0xbd, 0x19, 0x01, 0x94, 0xbd,
  0xd9, 0xd9, 0xb1, 0x3d, 0x5f, 0x7b, 0x51, 0x3d, 0x00, 0x00, 0x00, 0x00,
  0xe3, 0x78, 0x11, 0x3d, 0x08, 0x7e, 0x00, 0x3b, 0x30, 0xf8, 0x98, 0xbd,
  0x4e, 0xe4, 0x08, 0x3e, 0x4f, 0x02, 0x04, 0x3e, 0x19, 0x6c, 0x3f, 0xbc,
  0xc2, 0xce, 0xf7, 0x3d, 0xc9, 0xe3, 0x0e, 0xbb, 0x0e, 0x4e, 0xfd, 0x3d,
  0xf9, 0x0e, 0x9c, 0x3c, 0xb1, 0xcd, 0xe4, 0x3c, 0xd8, 0x33, 0x08, 0x3e,
  0x18, 0x7f, 0xcc, 0xba, 0x5c, 0xfa, 0xff, 0xff, 0x60, 0xfa, 0xff, 0xff,
  0x0f, 0x00, 0x00, 0x00, 0x4d, 0x4c, 0x49, 0x52, 0x20, 0x43, 0x6f, 0x6e,
  0x76, 0x65, 0x72, 0x74, 0x65, 0x64, 0x2e, 0x00, 0x01, 0x00, 0x00, 0x00,
  0x14, 0x00, 0x00, 0x00, 0x00, 0x00, 0x0e, 0x00, 0x18, 0x00, 0x14, 0x00,
  0x10, 0x00, 0x0c, 0x00, 0x08, 0x00, 0x04, 0x00, 0x0e, 0x00, 0x00, 0x00,
  0x14, 0x00, 0x00, 0x00, 0x1c, 0x00, 0x00, 0x00, 0x24, 0x01, 0x00, 0x00,
  0x28, 0x01, 0x00, 0x00, 0x2c, 0x01, 0x00, 0x00, 0x04, 0x00, 0x00, 0x00,
  0x6d, 0x61, 0x69, 0x6e, 0x00, 0x00, 0x00, 0x00, 0x04, 0x00, 0x00, 0x00,
  0xcc, 0x00, 0x00, 0x00, 0x84, 0x00, 0x00, 0x00, 0x50, 0x00, 0x00, 0x00,
  0x14, 0x00, 0x00, 0x00, 0x00, 0x00, 0x0e, 0x00, 0x1a, 0x00, 0x14, 0x00,
  0x10, 0x00, 0x0c, 0x00, 0x0b, 0x00, 0x04, 0x00, 0x0e, 0x00, 0x00, 0x00,
  0x1c, 0x00, 0x00, 0x00, 0x00, 0x00, 0x00, 0x09, 0x1c, 0x00, 0x00, 0x00,
  0x20, 0x00, 0x00, 0x00, 0x01, 0x00, 0x00, 0x00, 0x00, 0x00, 0x06, 0x00,
  0x08, 0x00, 0x04, 0x00, 0x06, 0x00, 0x00, 0x00, 0x00, 0x00, 0x80, 0x3f,
  0x01, 0x00, 0x00, 0x00, 0x0a, 0x00, 0x00, 0x00, 0x01, 0x00, 0x00, 0x00,
  0x09, 0x00, 0x00, 0x00, 0x9a, 0xff, 0xff, 0xff, 0x10, 0x00, 0x00, 0x00,
  0x00, 0x00, 0x00, 0x08, 0x0c, 0x00, 0x00, 0x00, 0x10, 0x00, 0x00, 0x00,
  0x24, 0xfb, 0xff, 0xff, 0x01, 0x00, 0x00, 0x00, 0x09, 0x00, 0x00, 0x00,
  0x03, 0x00, 0x00, 0x00, 0x08, 0x00, 0x00, 0x00, 0x06, 0x00, 0x00, 0x00,
  0x02, 0x00, 0x00, 0x00, 0xca, 0xff, 0xff, 0xff, 0x10, 0x00, 0x00, 0x00,
  0x00, 0x00, 0x00, 0x08, 0x10, 0x00, 0x00, 0x00, 0x14, 0x00, 0x00, 0x00,
  0xba, 0xff, 0xff, 0xff, 0x00, 0x00, 0x00, 0x01, 0x01, 0x00, 0x00, 0x00,
  0x08, 0x00, 0x00, 0x00, 0x03, 0x00, 0x00, 0x00, 0x07, 0x00, 0x00, 0x00,
  0x05, 0x00, 0x00, 0x00, 0x01, 0x00, 0x00, 0x00, 0x00, 0x00, 0x0e, 0x00,
  0x16, 0x00, 0x00, 0x00, 0x10, 0x00, 0x0c, 0x00, 0x0b, 0x00, 0x04, 0x00,
  0x0e, 0x00, 0x00, 0x00, 0x18, 0x00, 0x00, 0x00, 0x00, 0x00, 0x00, 0x08,
  0x18, 0x00, 0x00, 0x00, 0x1c, 0x00, 0x00, 0x00, 0x00, 0x00, 0x06, 0x00,
  0x08, 0x00, 0x07, 0x00, 0x06, 0x00, 0x00, 0x00, 0x00, 0x00, 0x00, 0x01,
  0x01, 0x00, 0x00, 0x00, 0x07, 0x00, 0x00, 0x00, 0x03, 0x00, 0x00, 0x00,
  0x00, 0x00, 0x00, 0x00, 0x04, 0x00, 0x00, 0x00, 0x03, 0x00, 0x00, 0x00,
  0x01, 0x00, 0x00, 0x00, 0x0a, 0x00, 0x00, 0x00, 0x01, 0x00, 0x00, 0x00,
  0x00, 0x00, 0x00, 0x00, 0x0b, 0x00, 0x00, 0x00, 0x04, 0x04, 0x00, 0x00,
  0x94, 0x03, 0x00, 0x00, 0x24, 0x03, 0x00, 0x00, 0xd0, 0x02, 0x00, 0x00,
  0x88, 0x02, 0x00, 0x00, 0x3c, 0x02, 0x00, 0x00, 0xf0, 0x01, 0x00, 0x00,
  0x68, 0x01, 0x00, 0x00, 0xd8, 0x00, 0x00, 0x00, 0x60, 0x00, 0x00, 0x00,
  0x04, 0x00, 0x00, 0x00, 0x3e, 0xfc, 0xff, 0xff, 0x00, 0x00, 0x00, 0x01,
  0x14, 0x00, 0x00, 0x00, 0x1c, 0x00, 0x00, 0x00, 0x1c, 0x00, 0x00, 0x00,
  0x0b, 0x00, 0x00, 0x00, 0x34, 0x00, 0x00, 0x00, 0x02, 0x00, 0x00, 0x00,
  0xff, 0xff, 0xff, 0xff, 0x06, 0x00, 0x00, 0x00, 0x28, 0xfc, 0xff, 0xff,
  0x19, 0x00, 0x00, 0x00, 0x53, 0x74, 0x61, 0x74, 0x65, 0x66, 0x75, 0x6c,
  0x50, 0x61, 0x72, 0x74, 0x69, 0x74, 0x69, 0x6f, 0x6e, 0x65, 0x64, 0x43,
  0x61, 0x6c, 0x6c, 0x3a, 0x30, 0x00, 0x00, 0x00, 0x02, 0x00, 0x00, 0x00,
  0x01, 0x00, 0x00, 0x00, 0x06, 0x00, 0x00, 0x00, 0x96, 0xfc, 0xff, 0xff,
  0x00, 0x00, 0x00, 0x01, 0x14, 0x00, 0x00, 0x00, 0x1c, 0x00, 0x00, 0x00,
  0x1c, 0x00, 0x00, 0x00, 0x0a, 0x00, 0x00, 0x00, 0x50, 0x00, 0x00, 0x00,
  0x02, 0x00, 0x00, 0x00, 0xff, 0xff, 0xff, 0xff, 0x06, 0x00, 0x00, 0x00,
  0x80, 0xfc, 0xff, 0xff, 0x34, 0x00, 0x00, 0x00, 0x73, 0x65, 0x71, 0x75,
  0x65, 0x6e, 0x74, 0x69, 0x61, 0x6c, 0x2f, 0x64, 0x65, 0x6e, 0x73, 0x65,
  0x5f, 0x32, 0x2f, 0x4d, 0x61, 0x74, 0x4d, 0x75, 0x6c, 0x3b, 0x73, 0x65,
  0x71, 0x75, 0x65, 0x6e, 0x74, 0x69, 0x61, 0x6c, 0x2f, 0x64, 0x65, 0x6e,
  0x73, 0x65, 0x5f, 0x32, 0x2f, 0x42, 0x69, 0x61, 0x73, 0x41, 0x64, 0x64,
  0x00, 0x00, 0x00, 0x00, 0x02, 0x00, 0x00, 0x00, 0x01, 0x00, 0x00, 0x00,
  0x06, 0x00, 0x00, 0x00, 0x0a, 0xfd, 0xff, 0xff, 0x00, 0x00, 0x00, 0x01,
  0x14, 0x00, 0x00, 0x00, 0x1c, 0x00, 0x00, 0x00, 0x1c, 0x00, 0x00, 0x00,
  0x09, 0x00, 0x00, 0x00, 0x68, 0x00, 0x00, 0x00, 0x02, 0x00, 0x00, 0x00,
  0xff, 0xff, 0xff, 0xff, 0x40, 0x00, 0x00, 0x00, 0xf4, 0xfc, 0xff, 0xff,
  0x4c, 0x00, 0x00, 0x00, 0x73, 0x65, 0x71, 0x75, 0x65, 0x6e, 0x74, 0x69,
  0x61, 0x6c, 0x2f, 0x64, 0x65, 0x6e, 0x73, 0x65, 0x5f, 0x31, 0x2f, 0x4d,
  0x61, 0x74, 0x4d, 0x75, 0x6c, 0x3b, 0x73, 0x65, 0x71, 0x75, 0x65, 0x6e,
  0x74, 0x69, 0x61, 0x6c, 0x2f, 0x64, 0x65, 0x6e, 0x73, 0x65, 0x5f, 0x31,
  0x2f, 0x52, 0x65, 0x6c, 0x75, 0x3b, 0x73, 0x65, 0x71, 0x75, 0x65, 0x6e,
  0x74, 0x69, 0x61, 0x6c, 0x2f, 0x64, 0x65, 0x6e, 0x73, 0x65, 0x5f, 0x31,
  0x2f, 0x42, 0x69, 0x61, 0x73, 0x41, 0x64, 0x64, 0x00, 0x00, 0x00, 0x00,
  0x02, 0x00, 0x00, 0x00, 0x01, 0x00, 0x00, 0x00, 0x40, 0x00, 0x00, 0x00,
  0x96, 0xfd, 0xff, 0xff, 0x00, 0x00, 0x00, 0x01, 0x14, 0x00, 0x00, 0x00,
  0x1c, 0x00, 0x00, 0x00, 0x1c, 0x00, 0x00, 0x00, 0x08, 0x00, 0x00, 0x00,
  0x60, 0x00, 0x00, 0x00, 0x02, 0x00, 0x00, 0x00, 0xff, 0xff, 0xff, 0xff,
  0x20, 0x00, 0x00, 0x00, 0x80, 0xfd, 0xff, 0xff, 0x46, 0x00, 0x00, 0x00,
  0x73, 0x65, 0x71, 0x75, 0x65, 0x6e, 0x74, 0x69, 0x61, 0x6c, 0x2f, 0x64,
  0x65, 0x6e, 0x73, 0x65, 0x2f, 0x4d, 0x61, 0x74, 0x4d, 0x75, 0x6c, 0x3b,
  0x73, 0x65, 0x71, 0x75, 0x65, 0x6e, 0x74, 0x69, 0x61, 0x6c, 0x2f, 0x64,
  0x65, 0x6e, 0x73, 0x65, 0x2f, 0x52, 0x65, 0x6c, 0x75, 0x3b, 0x73, 0x65,
  0x71, 0x75, 0x65, 0x6e, 0x74, 0x69, 0x61, 0x6c, 0x2f, 0x64, 0x65, 0x6e,
  0x73, 0x65, 0x2f, 0x42, 0x69, 0x61, 0x73, 0x41, 0x64, 0x64, 0x00, 0x00,
  0x02, 0x00, 0x00, 0x00, 0x01, 0x00, 0x00, 0x00, 0x20, 0x00, 0x00, 0x00,
  0x86, 0xfe, 0xff, 0xff, 0x00, 0x00, 0x00, 0x01, 0x10, 0x00, 0x00, 0x00,
  0x10, 0x00, 0x00, 0x00, 0x07, 0x00, 0x00, 0x00, 0x28, 0x00, 0x00, 0x00,
  0xf4, 0xfd, 0xff, 0xff, 0x19, 0x00, 0x00, 0x00, 0x73, 0x65, 0x71, 0x75,
  0x65, 0x6e, 0x74, 0x69, 0x61, 0x6c, 0x2f, 0x64, 0x65, 0x6e, 0x73, 0x65,
  0x5f, 0x32, 0x2f, 0x4d, 0x61, 0x74, 0x4d, 0x75, 0x6c, 0x00, 0x00, 0x00,
  0x02, 0x00, 0x00, 0x00, 0x06, 0x00, 0x00, 0x00, 0x40, 0x00, 0x00, 0x00,
  0xce, 0xfe, 0xff, 0xff, 0x00, 0x00, 0x00, 0x01, 0x10, 0x00, 0x00, 0x00,
  0x10, 0x00, 0x00, 0x00, 0x06, 0x00, 0x00, 0x00, 0x28, 0x00, 0x00, 0x00,
  0x3c, 0xfe, 0xff, 0xff, 0x19, 0x00, 0x00, 0x00, 0x73, 0x65, 0x71, 0x75,
  0x65, 0x6e, 0x74, 0x69, 0x61, 0x6c, 0x2f, 0x64, 0x65, 0x6e, 0x73, 0x65,
  0x5f, 0x31, 0x2f, 0x4d, 0x61, 0x74, 0x4d, 0x75, 0x6c, 0x00, 0x00, 0x00,
  0x02, 0x00, 0x00, 0x00, 0x40, 0x00, 0x00, 0x00, 0x20, 0x00, 0x00, 0x00,
  0x16, 0xff, 0xff, 0xff, 0x00, 0x00, 0x00, 0x01, 0x10, 0x00, 0x00, 0x00,
  0x10, 0x00, 0x00, 0x00, 0x05, 0x00, 0x00, 0x00, 0x24, 0x00, 0x00, 0x00,
  0x84, 0xfe, 0xff, 0xff, 0x17, 0x00, 0x00, 0x00, 0x73, 0x65, 0x71, 0x75,
  0x65, 0x6e, 0x74, 0x69, 0x61, 0x6c, 0x2f, 0x64, 0x65, 0x6e, 0x73, 0x65,
  0x2f, 0x4d, 0x61, 0x74, 0x4d, 0x75, 0x6c, 0x00, 0x02, 0x00, 0x00, 0x00,
  0x20, 0x00, 0x00, 0x00, 0x08, 0x00, 0x00, 0x00, 0x5a, 0xff, 0xff, 0xff,
  0x00, 0x00, 0x00, 0x01, 0x10, 0x00, 0x00, 0x00, 0x10, 0x00, 0x00, 0x00,
  0x04, 0x00, 0x00, 0x00, 0x34, 0x00, 0x00, 0x00, 0xc8, 0xfe, 0xff, 0xff,
  0x27, 0x00, 0x00, 0x00, 0x73, 0x65, 0x71, 0x75, 0x65, 0x6e, 0x74, 0x69,
  0x61, 0x6c, 0x2f, 0x64, 0x65, 0x6e, 0x73, 0x65, 0x2f, 0x42, 0x69, 0x61,
  0x73, 0x41, 0x64, 0x64, 0x2f, 0x52, 0x65, 0x61, 0x64, 0x56, 0x61, 0x72,
  0x69, 0x61, 0x62, 0x6c, 0x65, 0x4f, 0x70, 0x00, 0x01, 0x00, 0x00, 0x00,
  0x20, 0x00, 0x00, 0x00, 0xaa, 0xff, 0xff, 0xff, 0x00, 0x00, 0x00, 0x01,
  0x10, 0x00, 0x00, 0x00, 0x10, 0x00, 0x00, 0x00, 0x03, 0x00, 0x00, 0x00,
  0x38, 0x00, 0x00, 0x00, 0x18, 0xff, 0xff, 0xff, 0x29, 0x00, 0x00, 0x00,
  0x73, 0x65, 0x71, 0x75, 0x65, 0x6e, 0x74, 0x69, 0x61, 0x6c, 0x2f, 0x64,
  0x65, 0x6e, 0x73, 0x65, 0x5f, 0x32, 0x2f, 0x42, 0x69, 0x61, 0x73, 0x41,
  0x64, 0x64, 0x2f, 0x52, 0x65, 0x61, 0x64, 0x56, 0x61, 0x72, 0x69, 0x61,
  0x62, 0x6c, 0x65, 0x4f, 0x70, 0x00, 0x00, 0x00, 0x01, 0x00, 0x00, 0x00,
  0x06, 0x00, 0x00, 0x00, 0x00, 0x00, 0x16, 0x00, 0x18, 0x00, 0x14, 0x00,
  0x00, 0x00, 0x10, 0x00, 0x0c, 0x00, 0x08, 0x00, 0x00, 0x00, 0x00, 0x00,
  0x00, 0x00, 0x07, 0x00, 0x16, 0x00, 0x00, 0x00, 0x00, 0x00, 0x00, 0x01,
  0x10, 0x00, 0x00, 0x00, 0x10, 0x00, 0x00, 0x00, 0x02, 0x00, 0x00, 0x00,
  0x38, 0x00, 0x00, 0x00, 0x84, 0xff, 0xff, 0xff, 0x29, 0x00, 0x00, 0x00,
  0x73, 0x65, 0x71, 0x75, 0x65, 0x6e, 0x74, 0x69, 0x61, 0x6c, 0x2f, 0x64,
  0x65, 0x6e, 0x73, 0x65, 0x5f, 0x31, 0x2f, 0x42, 0x69, 0x61, 0x73, 0x41,
  0x64, 0x64, 0x2f, 0x52, 0x65, 0x61, 0x64, 0x56, 0x61, 0x72, 0x69, 0x61,
  0x62, 0x6c, 0x65, 0x4f, 0x70, 0x00, 0x00, 0x00, 0x01, 0x00, 0x00, 0x00,
  0x40, 0x00, 0x00, 0x00, 0x00, 0x00, 0x16, 0x00, 0x1c, 0x00, 0x18, 0x00,
  0x00, 0x00, 0x14, 0x00, 0x10, 0x00, 0x0c, 0x00, 0x00, 0x00, 0x00, 0x00,
  0x08, 0x00, 0x07, 0x00, 0x16, 0x00, 0x00, 0x00, 0x00, 0x00, 0x00, 0x01,
  0x14, 0x00, 0x00, 0x00, 0x20, 0x00, 0x00, 0x00, 0x20, 0x00, 0x00, 0x00,
  0x01, 0x00, 0x00, 0x00, 0x3c, 0x00, 0x00, 0x00, 0x02, 0x00, 0x00, 0x00,
  0xff, 0xff, 0xff, 0xff, 0x08, 0x00, 0x00, 0x00, 0x04, 0x00, 0x04, 0x00,
  0x04, 0x00, 0x00, 0x00, 0x1d, 0x00, 0x00, 0x00, 0x73, 0x65, 0x72, 0x76,
  0x69, 0x6e, 0x67, 0x5f, 0x64, 0x65, 0x66, 0x61, 0x75, 0x6c, 0x74, 0x5f,
  0x64, 0x65, 0x6e, 0x73, 0x65, 0x5f, 0x69, 0x6e, 0x70, 0x75, 0x74, 0x3a,
  0x30, 0x00, 0x00, 0x00, 0x02, 0x00, 0x00, 0x00, 0x01, 0x00, 0x00, 0x00,
  0x08, 0x00, 0x00, 0x00, 0x02, 0x00, 0x00, 0x00, 0x20, 0x00, 0x00, 0x00,
  0x04, 0x00, 0x00, 0x00, 0xf4, 0xff, 0xff, 0xff, 0x19, 0x00, 0x00, 0x00,
  0x00, 0x00, 0x00, 0x19, 0x0c, 0x00, 0x0c, 0x00, 0x0b, 0x00, 0x00, 0x00,
  0x00, 0x00, 0x04, 0x00, 0x0c, 0x00, 0x00, 0x00, 0x09, 0x00, 0x00, 0x00,
  0x00, 0x00, 0x00, 0x09
};
