const unsigned char model[] = {
  0x1c, 0x00, 0x00, 0x00, 0x54, 0x46, 0x4c, 0x33, 0x14, 0x00, 0x20, 0x00,
  0x1c, 0x00, 0x18, 0x00, 0x14, 0x00, 0x10, 0x00, 0x0c, 0x00, 0x00, 0x00,
  0x08, 0x00, 0x04, 0x00, 0x14, 0x00, 0x00, 0x00, 0x1c, 0x00, 0x00, 0x00,
  0x90, 0x00, 0x00, 0x00, 0xe8, 0x00, 0x00, 0x00, 0x94, 0x2d, 0x00, 0x00,
  0xa4, 0x2d, 0x00, 0x00, 0x60, 0x33, 0x00, 0x00, 0x03, 0x00, 0x00, 0x00,
  0x01, 0x00, 0x00, 0x00, 0x10, 0x00, 0x00, 0x00, 0x00, 0x00, 0x0a, 0x00,
  0x10, 0x00, 0x0c, 0x00, 0x08, 0x00, 0x04, 0x00, 0x0a, 0x00, 0x00, 0x00,
  0x0c, 0x00, 0x00, 0x00, 0x1c, 0x00, 0x00, 0x00, 0x38, 0x00, 0x00, 0x00,
  0x0f, 0x00, 0x00, 0x00, 0x73, 0x65, 0x72, 0x76, 0x69, 0x6e, 0x67, 0x5f,
  0x64, 0x65, 0x66, 0x61, 0x75, 0x6c, 0x74, 0x00, 0x01, 0x00, 0x00, 0x00,
  0x04, 0x00, 0x00, 0x00, 0x98, 0xff, 0xff, 0xff, 0x0a, 0x00, 0x00, 0x00,
  0x04, 0x00, 0x00, 0x00, 0x07, 0x00, 0x00, 0x00, 0x64, 0x65, 0x6e, 0x73,
  0x65, 0x5f, 0x32, 0x00, 0x01, 0x00, 0x00, 0x00, 0x04, 0x00, 0x00, 0x00,
  0x4e, 0xd2, 0xff, 0xff, 0x04, 0x00, 0x00, 0x00, 0x0b, 0x00, 0x00, 0x00,
  0x64, 0x65, 0x6e, 0x73, 0x65, 0x5f, 0x69, 0x6e, 0x70, 0x75, 0x74, 0x00,
  0x02, 0x00, 0x00, 0x00, 0x34, 0x00, 0x00, 0x00, 0x04, 0x00, 0x00, 0x00,
  0xdc, 0xff, 0xff, 0xff, 0x0d, 0x00, 0x00, 0x00, 0x04, 0x00, 0x00, 0x00,
  0x13, 0x00, 0x00, 0x00, 0x43, 0x4f, 0x4e, 0x56, 0x45, 0x52, 0x53, 0x49,
  0x4f, 0x4e, 0x5f, 0x4d, 0x45, 0x54, 0x41, 0x44, 0x41, 0x54, 0x41, 0x00,
  0x08, 0x00, 0x0c, 0x00, 0x08, 0x00, 0x04, 0x00, 0x08, 0x00, 0x00, 0x00,
  0x0c, 0x00, 0x00, 0x00, 0x04, 0x00, 0x00, 0x00, 0x13, 0x00, 0x00, 0x00,
  0x6d, 0x69, 0x6e, 0x5f, 0x72, 0x75, 0x6e, 0x74, 0x69, 0x6d, 0x65, 0x5f,
  0x76, 0x65, 0x72, 0x73, 0x69, 0x6f, 0x6e, 0x00, 0x0e, 0x00, 0x00, 0x00,
  0xa8, 0x2c, 0x00, 0x00, 0xa0, 0x2c, 0x00, 0x00, 0x90, 0x2b, 0x00, 0x00,
  0x68, 0x2b, 0x00, 0x00, 0xd8, 0x2a, 0x00, 0x00, 0xc8, 0x26, 0x00, 0x00,
  0xb8, 0x06, 0x00, 0x00, 0xa8, 0x00, 0x00, 0x00, 0xa0, 0x00, 0x00, 0x00,
  0x98, 0x00, 0x00, 0x00, 0x90, 0x00, 0x00, 0x00, 0x88, 0x00, 0x00, 0x00,
  0x68, 0x00, 0x00, 0x00, 0x04, 0x00, 0x00, 0x00, 0xfe, 0xd2, 0xff, 0xff,
  0x04, 0x00, 0x00, 0x00, 0x54, 0x00, 0x00, 0x00, 0x0c, 0x00, 0x00, 0x00,
  0x08, 0x00, 0x0e, 0x00, 0x08, 0x00, 0x04, 0x00, 0x08, 0x00, 0x00, 0x00,
  0x10, 0x00, 0x00, 0x00, 0x24, 0x00, 0x00, 0x00, 0x00, 0x00, 0x06, 0x00,
  0x08, 0x00, 0x04, 0x00, 0x06, 0x00, 0x00, 0x00, 0x04, 0x00, 0x00, 0x00,
  0x00, 0x00, 0x00, 0x00, 0x00, 0x00, 0x0a, 0x00, 0x10, 0x00, 0x0c, 0x00,
  0x08, 0x00, 0x04, 0x00, 0x0a, 0x00, 0x00, 0x00, 0x02, 0x00, 0x00, 0x00,
  0x02, 0x00, 0x00, 0x00, 0x04, 0x00, 0x00, 0x00, 0x06, 0x00, 0x00, 0x00,
  0x32, 0x2e, 0x31, 0x35, 0x2e, 0x30, 0x00, 0x00, 0x5e, 0xd3, 0xff, 0xff,
  0x04, 0x00, 0x00, 0x00, 0x10, 0x00, 0x00, 0x00, 0x31, 0x2e, 0x35, 0x2e,
  0x30, 0x00, 0x00, 0x00, 0x00, 0x00, 0x00, 0x00, 0x00, 0x00, 0x00, 0x00,
  0x6c, 0xce, 0xff, 0xff, 0x70, 0xce, 0xff, 0xff, 0x74, 0xce, 0xff, 0xff,
  0x78, 0xce, 0xff, 0xff, 0x8a, 0xd3, 0xff, 0xff, 0x04, 0x00, 0x00, 0x00,
  0x00, 0x06, 0x00, 0x00, 0x05, 0x6a, 0x90, 0x3e, 0x83, 0x72, 0xe4, 0x3d,
  0xae, 0x83, 0xb9, 0xbe, 0x52, 0x8e, 0x0a, 0xbf, 0x94, 0x25, 0x60, 0x3e,
  0xe7, 0x08, 0x33, 0xbd, 0x5c, 0x24, 0xe6, 0xbd, 0x11, 0x27, 0x2e, 0xbf,
  0xb1, 0xed, 0xfc, 0x3e, 0xba, 0x90, 0x13, 0xbe, 0x9c, 0x6d, 0x59, 0xbe,
  0x1d, 0x29, 0xe8, 0x3e, 0x4d, 0x73, 0x62, 0x3e, 0xcc, 0x1d, 0x71, 0x3e,
  0x49, 0x0d, 0x5c, 0xbe, 0xa9, 0xcd, 0xa0, 0x3b, 0xb6, 0x05, 0xe2, 0xbd,
  0xd3, 0x89, 0xa0, 0x3e, 0xc9, 0x18, 0x85, 0x3e, 0x6e, 0x97, 0x39, 0x3e,
  0x84, 0x30, 0x93, 0xbe, 0x23, 0x8f, 0xc9, 0x3e, 0xf9, 0xa0, 0x76, 0xbe,
  0x31, 0x67, 0x4c, 0xbf, 0x62, 0xd3, 0xed, 0x3e, 0x25, 0x0d, 0xf6, 0x3d,
  0xa6, 0x0a, 0x2b, 0xbf, 0xd3, 0xeb, 0xa8, 0x3e, 0x63, 0xc3, 0xee, 0xbe,
  0xd7, 0x63, 0x5f, 0xbf, 0xfc, 0xdd, 0xf4, 0xbe, 0x03, 0xce, 0x9c, 0x3e,
  0xc3, 0xa9, 0xc0, 0x3e, 0x84, 0xad, 0x7e, 0xbf, 0xdc, 0x52, 0xb7, 0xbe,
  0xfa, 0x71, 0x96, 0xbe, 0x44, 0xe7, 0x0f, 0x3e, 0xa9, 0x72, 0x3e, 0xbf,
  0x7c, 0x3a, 0x95, 0xbe, 0xc6, 0xa3, 0x16, 0xbe, 0xbd, 0xf6, 0x39, 0xbf,
  0x9c, 0xb9, 0x61, 0x3e, 0xc1, 0x04, 0xda, 0xbd, 0x49, 0x14, 0x2c, 0x3e,
  0x8e, 0x0c, 0x0f, 0x3e, 0x1a, 0x59, 0x85, 0x3e, 0x48, 0x3f, 0x11, 0xbf,
  0xdd, 0xf4, 0x69, 0x3d, 0xfd, 0xa4, 0x29, 0xbf, 0x7d, 0xf6, 0x19, 0x3e,
  0x7e, 0x5c, 0x90, 0xbe, 0x7b, 0x06, 0x62, 0xbf, 0x77, 0x0c, 0xb0, 0x3e,
  0x54, 0x4a, 0x6b, 0x3d, 0xe8, 0x90, 0x66, 0xbf, 0x6c, 0xe9, 0x0b, 0xbf,
  0x30, 0x93, 0x5e, 0xbf, 0x27, 0xc2, 0x0f, 0xbf, 0x4b, 0x25, 0x8b, 0xbe,
  0xaf, 0x83, 0x02, 0xbd, 0x06, 0x99, 0x0c, 0x3f, 0x16, 0xbf, 0x84, 0x3e,
  0x26, 0x67, 0x69, 0xbf, 0x9f, 0xff, 0xad, 0x3e, 0x56, 0x5d, 0xef, 0x3e,
  0x22, 0x07, 0x56, 0x3e, 0x80, 0x39, 0x44, 0xbf, 0xac, 0x60, 0x51, 0xbf,
  0x40, 0xe3, 0x3e, 0x3e, 0x8d, 0x2e, 0x8b, 0x3d, 0xd7, 0x2a, 0x71, 0x3c,
  0xe4, 0x75, 0x8e, 0xbe, 0x93, 0x33, 0xbb, 0xbe, 0xb0, 0x70, 0x0e, 0xbe,
  0x8e, 0x5a, 0xc7, 0x3c, 0x40, 0xf5, 0xc6, 0xbe, 0x13, 0xa5, 0xd7, 0xbd,
  0x6b, 0x95, 0x9a, 0x3e, 0x73, 0x43, 0xde, 0x3d, 0x80, 0x86, 0x38, 0x3e,
  0x84, 0xe6, 0x02, 0xbe, 0xed, 0x63, 0x62, 0xbe, 0x5f, 0x62, 0x95, 0xbe,
  0xf9, 0x7a, 0x37, 0xbf, 0xbb, 0xf3, 0xa5, 0xbe, 0xad, 0xcb, 0x8b, 0x3d,
  0x2e, 0xb1, 0xe5, 0x3e, 0x30, 0x61, 0x2f, 0xbf, 0xc4, 0x47, 0xec, 0x3e,
  0x1e, 0x0a, 0x1f, 0x3e, 0xfa, 0x78, 0x8d, 0xbe, 0xe7, 0xb7, 0x9f, 0xbd,
  0xea, 0xb4, 0x1f, 0xbf, 0x62, 0xc0, 0x23, 0xbe, 0x04, 0x46, 0xad, 0x3e,
  0xd6, 0xb8, 0xab, 0x3e, 0x11, 0x76, 0x8d, 0x3e, 0xf5, 0xdb, 0x0b, 0x3d,
  0xf4, 0x23, 0x99, 0x3d, 0x8f, 0xe3, 0xec, 0x3d, 0xea, 0x4c, 0x79, 0xbe,
  0x00, 0x65, 0xf8, 0xbd, 0x5e, 0xeb, 0x53, 0xbf, 0x93, 0x57, 0xdc, 0x3d,
  0x59, 0x6a, 0x84, 0xbe, 0x1c, 0x75, 0x8e, 0xbd, 0xe8, 0xb9, 0x17, 0x3e,
  0xd6, 0x8e, 0x29, 0x3f, 0x20, 0x0c, 0xe5, 0x3c, 0xae, 0xdf, 0x38, 0xbf,
  0xd4, 0x9e, 0x09, 0xbf, 0x60, 0x13, 0x3c, 0xbf, 0x7e, 0xdd, 0xde, 0xbe,
  0xb0, 0x7c, 0xa5, 0xbf, 0x66, 0xd2, 0x87, 0xbe, 0x78, 0x5b, 0x06, 0xbf,
  0xf0, 0x1f, 0x6e, 0xbe, 0xf5, 0x1e, 0xa7, 0xbf, 0x44, 0xdf, 0x45, 0xbd,
  0x9d, 0x3c, 0x6c, 0xbd, 0xcd, 0x88, 0x2b, 0xbe, 0x2d, 0x14, 0x11, 0x3e,
  0x38, 0xbd, 0x49, 0xbf, 0xfb, 0x41, 0x6c, 0x3e, 0xfb, 0xc2, 0xb2, 0xbe,
  0x7f, 0xd4, 0x8a, 0xbd, 0x22, 0xe7, 0xfe, 0xbd, 0x7a, 0x8a, 0x5e, 0xbf,
  0xa5, 0x6d, 0x33, 0x3e, 0x70, 0x8d, 0x1b, 0x3d, 0xbf, 0xfb, 0xec, 0x3e,
  0x47, 0xa1, 0x1e, 0x3f, 0x4f, 0x3a, 0x3f, 0xbe, 0x52, 0xf0, 0x0a, 0x3e,
  0x73, 0x68, 0xae, 0xbe, 0x6f, 0x53, 0xa8, 0xbf, 0xf5, 0xca, 0x31, 0xbe,
  0x83, 0xab, 0x69, 0x3e, 0x3c, 0xdd, 0x47, 0xbf, 0x84, 0xd5, 0x88, 0x3d,
  0xba, 0x68, 0x9f, 0xbe, 0xa2, 0xd7, 0x85, 0xbe, 0x96, 0xf5, 0x73, 0x3e,
  0x07, 0xed, 0x05, 0xbc, 0x6d, 0x1c, 0xef, 0xbe, 0x06, 0x3a, 0xdf, 0xbe,
  0x54, 0x3f, 0x8e, 0xbf, 0xc4, 0xf8, 0xa0, 0x3e, 0x84, 0xa2, 0x30, 0x3d,
  0xc4, 0x83, 0xcd, 0x3e, 0x00, 0xf4, 0xb1, 0x3e, 0x52, 0x5a, 0x42, 0xbe,
  0x1d, 0xe3, 0xff, 0xbe, 0xf5, 0xd6, 0x8c, 0xbf, 0x63, 0x40, 0x81, 0x3e,
  0xaa, 0xba, 0x22, 0xbf, 0xb7, 0xba, 0x1a, 0x3e, 0x9d, 0x79, 0x24, 0xbe,
  0x65, 0x96, 0xab, 0x3d, 0xf4, 0x7d, 0x08, 0xbf, 0xc0, 0xf0, 0x34, 0xbf,
  0xdc, 0x7c, 0xae, 0xbd, 0xae, 0xd2, 0x05, 0x3f, 0x89, 0x3a, 0x9e, 0xbe,
  0x6a, 0xaf, 0x71, 0xbf, 0xe9, 0xcf, 0x55, 0xbf, 0x54, 0xa8, 0x72, 0xbf,
  0x4a, 0xad, 0x0c, 0x3e, 0xdf, 0x7e, 0x05, 0xbd, 0x40, 0xdc, 0xdb, 0xbe,
  0x8b, 0x1a, 0x7a, 0xbe, 0x5a, 0xb6, 0xd2, 0x3e, 0x34, 0x4c, 0x16, 0x3e,
  0x93, 0x29, 0xce, 0xbe, 0x17, 0x71, 0x90, 0xbe, 0x89, 0x0f, 0x1c, 0xbe,
  0xe3, 0xa4, 0x92, 0xbf, 0x90, 0xc7, 0xd1, 0xbe, 0xef, 0xac, 0x8d, 0x3e,
  0x33, 0xc9, 0x5f, 0xbf, 0x68, 0x5d, 0x14, 0xbe, 0x77, 0xb1, 0x3f, 0xbf,
  0x41, 0x8b, 0x37, 0xbe, 0x34, 0xbf, 0x48, 0x3e, 0x05, 0x83, 0xd5, 0xbd,
  0xc7, 0xba, 0xae, 0xbc, 0x1d, 0xd3, 0x95, 0xbd, 0x83, 0x23, 0x9f, 0x3d,
  0x93, 0x0f, 0x82, 0x3e, 0xde, 0xf9, 0x9f, 0x3d, 0x3c, 0x2a, 0x93, 0xbf,
  0x09, 0xf6, 0x63, 0xbf, 0x5d, 0x95, 0xa7, 0xbf, 0xbd, 0xa2, 0xc0, 0xbe,
  0xb3, 0x54, 0x25, 0xbf, 0x49, 0x27, 0x6c, 0x3c, 0xb5, 0x08, 0x3a, 0xbf,
  0x7d, 0x96, 0x11, 0xbf, 0x66, 0x7e, 0x4c, 0xbe, 0xbf, 0x12, 0x85, 0x3e,
  0x0a, 0x45, 0x24, 0xbd, 0x2c, 0xf6, 0x68, 0x3e, 0x0d, 0xe7, 0xb0, 0x3d,
  0x78, 0x8a, 0xce, 0xbe, 0xb7, 0x7a, 0x0f, 0xbe, 0x51, 0x59, 0xe3, 0xbe,
  0xb9, 0x12, 0x4c, 0xbf, 0xd5, 0x9a, 0x03, 0xbe, 0x17, 0xc3, 0x75, 0x3e,
  0x30, 0x10, 0xf2, 0xbc, 0xbb, 0xeb, 0xbb, 0x3e, 0x51, 0x69, 0xb6, 0xbf,
  0xc6, 0x32, 0x72, 0x3e, 0x55, 0xbe, 0xc5, 0xbf, 0x9a, 0x71, 0xe9, 0xbe,
  0xb2, 0x6d, 0x8b, 0x3e, 0xce, 0xdc, 0x1f, 0xbe, 0xa0, 0xfb, 0x25, 0x3e,
  0x99, 0x17, 0x10, 0xbf, 0x06, 0x4c, 0x43, 0xbf, 0xed, 0xb4, 0x20, 0xbf,
  0x61, 0xc8, 0x2c, 0x3e, 0xe8, 0xf6, 0x21, 0xbd, 0xf4, 0x83, 0xc0, 0xbe,
  0x74, 0x77, 0x51, 0xbf, 0xd1, 0x0e, 0x4c, 0x3e, 0xec, 0x25, 0x49, 0xbf,
  0xf4, 0x65, 0xc8, 0xbe, 0x46, 0xe0, 0xef, 0xbc, 0xdc, 0xd6, 0xdc, 0x3d,
  0xd4, 0x93, 0xb1, 0xbe, 0xd3, 0xb6, 0x26, 0xbe, 0xdf, 0x3c, 0x30, 0xbf,
  0x1c, 0xa6, 0x86, 0x3e, 0x2a, 0x43, 0x8b, 0x3d, 0x85, 0xb5, 0x2f, 0xbf,
  0x67, 0x27, 0x58, 0xbe, 0x0f, 0xfd, 0x10, 0x3d, 0xd0, 0x35, 0x5e, 0xbe,
  0x65, 0x09, 0xf1, 0xbd, 0xb9, 0xc6, 0x08, 0x3e, 0xb9, 0x12, 0x19, 0xbf,
  0xb5, 0x35, 0x84, 0x3c, 0x56, 0x57, 0x63, 0xbc, 0x85, 0xbe, 0x87, 0xbf,
  0x9c, 0x98, 0xee, 0xbe, 0x69, 0xff, 0xc2, 0xbe, 0xe1, 0xa7, 0x46, 0xbe,
  0x66, 0xda, 0x11, 0x3e, 0x5e, 0x18, 0xc5, 0xbe, 0x46, 0x35, 0x7c, 0xbe,
  0x67, 0x26, 0x8a, 0xbd, 0x79, 0x25, 0x6b, 0xbe, 0xae, 0xa0, 0xb1, 0xbf,
  0x22, 0x54, 0x95, 0x3e, 0xea, 0xe8, 0x36, 0xbe, 0x86, 0x6f, 0x50, 0xbf,
  0x9f, 0xd8, 0x14, 0xbf, 0x0b, 0xb8, 0x6b, 0x3e, 0x0c, 0x65, 0x0c, 0xbf,
  0xd9, 0xd6, 0xac, 0xbe, 0x32, 0x84, 0x1a, 0xbd, 0x28, 0x17, 0x90, 0x3d,
  0xb4, 0x95, 0x31, 0x3e, 0x5c, 0x5f, 0x83, 0xbd, 0x2b, 0x74, 0xcb, 0x3c,
  0x45, 0x1a, 0x21, 0xbf, 0x73, 0xdd, 0xa5, 0xbe, 0x8d, 0xfd, 0xa6, 0xbe,
  0x62, 0x24, 0xa9, 0x3d, 0x96, 0x7f, 0xc4, 0x3e, 0x1c, 0x15, 0x2c, 0xbe,
  0xc2, 0xc1, 0xc6, 0x3c, 0x3e, 0xa8, 0xe1, 0xbe, 0x7f, 0x53, 0x42, 0xbf,
  0x21, 0x84, 0x51, 0x3f, 0xcf, 0x14, 0x05, 0xbe, 0xe4, 0xe9, 0x8b, 0xbe,
  0x90, 0x28, 0x57, 0xbf, 0x2c, 0x90, 0xcb, 0xbe, 0xa6, 0xd7, 0x28, 0xbf,
  0x44, 0x05, 0x26, 0xbf, 0x5c, 0xb1, 0x11, 0x3e, 0x38, 0xcb, 0xb1, 0xbf,
  0xc9, 0xe8, 0x23, 0x3f, 0x8a, 0x3d, 0x11, 0xbe, 0xae, 0x06, 0x62, 0xbf,
  0x38, 0x71, 0x19, 0xbf, 0xc6, 0x5a, 0x8e, 0xbf, 0x14, 0xc8, 0x85, 0xbd,
  0xa5, 0x54, 0x45, 0xbf, 0x99, 0x9a, 0x55, 0xbf, 0x60, 0x7f, 0x1e, 0xbf,
  0xa4, 0x6a, 0x69, 0xbe, 0xd0, 0x5b, 0x0f, 0x3f, 0x42, 0xd5, 0x1f, 0xbf,
  0x06, 0xc4, 0xa2, 0xbd, 0x87, 0x5c, 0x27, 0xbe, 0xf3, 0xfe, 0x82, 0xbe,
  0x42, 0x17, 0x69, 0xbf, 0x50, 0x83, 0x96, 0x3d, 0x7d, 0xdf, 0xf4, 0xbc,
  0xdd, 0xc9, 0x04, 0x3f, 0xe4, 0xb8, 0xa1, 0x3e, 0x8b, 0x26, 0x20, 0xbf,
  0xf7, 0x97, 0x07, 0x3f, 0x5b, 0xfa, 0x43, 0xbe, 0xfb, 0x47, 0x83, 0x3e,
  0x67, 0xce, 0x9b, 0x3e, 0x75, 0x01, 0x00, 0x3f, 0x0b, 0x84, 0x8a, 0x3d,
  0x40, 0x29, 0x07, 0xbf, 0x3f, 0x5d, 0x13, 0xbf, 0x33, 0x30, 0x47, 0xbe,
  0x47, 0x7a, 0x0c, 0xbf, 0x11, 0xf3, 0x0e, 0xbd, 0xdb, 0xd2, 0x7b, 0xbe,
  0xef, 0x3d, 0x94, 0xbe, 0x93, 0x3e, 0xe4, 0xbe, 0x6f, 0xb8, 0x4c, 0x3e,
  0x09, 0xcc, 0x67, 0x3e, 0xe3, 0x80, 0x02, 0x3e, 0xd3, 0x9b, 0x0d, 0xbd,
  0xa9, 0x3f, 0xf3, 0x3e, 0x59, 0x0e, 0xfd, 0xbe, 0x34, 0x91, 0xeb, 0xbc,
  0x2f, 0x74, 0x4e, 0xbf, 0xec, 0xf9, 0x7f, 0xbe, 0x7b, 0x7e, 0x31, 0xbe,
  0xc3, 0xed, 0x5f, 0xbe, 0x82, 0xad, 0x89, 0x3e, 0x10, 0x08, 0xa8, 0x3d,
  0xee, 0x94, 0xa1, 0xbd, 0xa7, 0xfe, 0x17, 0xbf, 0x40, 0x9e, 0x6a, 0x3e,
  0xfa, 0xfd, 0xa6, 0xbd, 0x82, 0xe5, 0x47, 0xbf, 0x8b, 0xfb, 0x1e, 0x3d,
  0x26, 0x35, 0xdf, 0xbe, 0xb6, 0x08, 0xa7, 0x3e, 0xb6, 0x3b, 0x99, 0xbf,
  0x2e, 0xea, 0x90, 0xbe, 0x3e, 0x72, 0xcf, 0xbe, 0xf8, 0xb1, 0x0d, 0xbf,
  0x5b, 0x56, 0x08, 0xbf, 0x6a, 0xba, 0x4f, 0xbe, 0x23, 0xb1, 0x8c, 0x3e,
  0x60, 0x9a, 0x2d, 0x3e, 0xe6, 0x8d, 0xdc, 0x3e, 0x45, 0x08, 0x7a, 0xbf,
  0xe3, 0x07, 0xb4, 0x3e, 0xc2, 0xc8, 0xa2, 0xbe, 0x09, 0x32, 0xa5, 0x3e,
  0x83, 0x94, 0x07, 0xbf, 0xe7, 0xd2, 0xce, 0xbd, 0xae, 0x3a, 0xa0, 0xbd,
  0x6a, 0x45, 0xdd, 0xbe, 0x8c, 0x10, 0x1c, 0x3d, 0xfe, 0x35, 0x80, 0x3e,
  0xd9, 0x23, 0xdd, 0x3d, 0x9d, 0x6d, 0x80, 0x3e, 0x5b, 0x38, 0xa7, 0xbc,
  0x26, 0x55, 0x24, 0xbe, 0xd7, 0xb7, 0x04, 0xbe, 0x56, 0x1b, 0x8e, 0x3e,
  0x66, 0xef, 0xa2, 0x3e, 0x9c, 0x14, 0xc7, 0xbe, 0x01, 0x00, 0x84, 0x3e,
  0x16, 0x76, 0x0b, 0xbf, 0x37, 0x3b, 0x34, 0x3e, 0x94, 0x77, 0xed, 0x3d,
  0x76, 0x19, 0x15, 0x3f, 0x25, 0x0a, 0x20, 0x3e, 0x30, 0x16, 0x31, 0x3e,
  0x8e, 0x23, 0x3c, 0xbe, 0x00, 0xb2, 0x81, 0x3e, 0x54, 0xae, 0x4e, 0xbf,
  0xb1, 0x61, 0x82, 0xbe, 0xb8, 0x8e, 0xbb, 0x3e, 0x85, 0x40, 0x85, 0xbe,
  0x2c, 0x63, 0x7c, 0xbe, 0x41, 0x34, 0x6c, 0x3e, 0x18, 0x97, 0x37, 0x3e,
  0x0e, 0x18, 0xeb, 0xbd, 0x96, 0xd9, 0xff, 0xff, 0x04, 0x00, 0x00, 0x00,
  0x00, 0x20, 0x00, 0x00, 0x58, 0xf3, 0xc4, 0xbc, 0x8f, 0x51, 0x05, 0x3f,
  0x1b, 0x1c, 0x3a, 0x3f, 0x9c, 0x41, 0x54, 0xbe, 0x02, 0xd1, 0xcc, 0x3e,
  0xf6, 0x9c, 0xad, 0xbc, 0xc8, 0xef, 0x41, 0x3f, 0xd9, 0xc4, 0x42, 0x3e,
  0x88, 0x0f, 0x02, 0x3f, 0x34, 0x8a, 0xf7, 0x3e, 0xaa, 0xa7, 0xb1, 0x3e,
  0xca, 0x56, 0x01, 0x3f, 0x2b, 0x45, 0xb8, 0x3d, 0xa3, 0x03, 0x3f, 0xbe,
  0xed, 0x6f, 0xfe, 0xbd, 0x9b, 0x5e, 0x9a, 0x3e, 0x30, 0xda, 0x1f, 0xbf,
  0xc7, 0x6c, 0x53, 0xbe, 0x18, 0xaf, 0xf5, 0xbc, 0x10, 0xed, 0xfe, 0xbd,
  0xfb, 0x62, 0x21, 0x3f, 0x5a, 0xb1, 0x1a, 0x3f, 0x43, 0x07, 0xc2, 0x3e,
  0xee, 0xcb, 0xef, 0x3e, 0x4c, 0xeb, 0x17, 0x3d, 0x32, 0x3f, 0xf4, 0xbc,
  0xe8, 0x62, 0x8c, 0x3e, 0x7f, 0xeb, 0x9a, 0x3e, 0x99, 0x77, 0x33, 0xbe,
  0xc9, 0xf6, 0x7d, 0x3d, 0x21, 0x75, 0xc0, 0x3e, 0x21, 0x45, 0x37, 0x3f,
  0x38, 0x7b, 0xd9, 0xbd, 0x0d, 0x71, 0x43, 0xbd, 0x1d, 0x92, 0x36, 0x3e,
  0xaf, 0xa3, 0xfc, 0xbd, 0xa6, 0xca, 0xa1, 0xbd, 0x5b, 0xdf, 0x3f, 0x3e,
  0xdf, 0x21, 0x29, 0x3f, 0x29, 0xd9, 0x16, 0xbe, 0xfc, 0x9a, 0x1b, 0x3d,
  0x8b, 0xac, 0x01, 0x3f, 0x9c, 0xa3, 0x2f, 0xbe, 0xed, 0x4d, 0x0e, 0x3e,
  0xcd, 0x3d, 0x27, 0xbe, 0x7c, 0x9e, 0xb3, 0xbc, 0xfa, 0x53, 0xf0, 0x3d,
  0x60, 0xea, 0x25, 0x3e, 0x1b, 0x33, 0x62, 0xbe, 0x60, 0x49, 0x55, 0xbe,
  0x5c, 0x8f, 0xa6, 0x3d, 0xfa, 0xc1, 0xbc, 0x3d, 0xd4, 0x86, 0xca, 0x3e,
  0x54, 0x87, 0xa4, 0x3c, 0x37, 0xb3, 0x00, 0x3e, 0xe5, 0x63, 0x67, 0x3e,
  0x5b, 0x83, 0xa2, 0x3d, 0x2a, 0x21, 0xa4, 0xbd, 0x45, 0x20, 0xe5, 0xbd,
  0x18, 0x27, 0x4f, 0xbd, 0xe6, 0xa4, 0xa9, 0xbe, 0xe2, 0xfe, 0xc3, 0xbc,
  0xe7, 0x91, 0xe1, 0x3d, 0x09, 0x79, 0x95, 0xbd, 0x29, 0x5e, 0xce, 0x3e,
  0xf4, 0x38, 0x94, 0xbe, 0x95, 0x23, 0xa9, 0x3d, 0xa2, 0x35, 0xf0, 0xbd,
  0x87, 0x12, 0x74, 0xbe, 0x9b, 0xa1, 0x57, 0xbc, 0x4c, 0x6a, 0xcc, 0xbd,
  0xaf, 0x4a, 0x54, 0xbd, 0x5a, 0x10, 0x2c, 0x3e, 0xfd, 0x4d, 0x95, 0x3e,
  0x3e, 0x24, 0x38, 0x3e, 0x52, 0x13, 0x56, 0x3e, 0x9c, 0xba, 0x89, 0x3d,
  0xfc, 0x13, 0x84, 0xbe, 0x24, 0x64, 0xf6, 0xbc, 0x80, 0xad, 0x8f, 0xbe,
  0x85, 0xb6, 0x1f, 0x3f, 0x75, 0x79, 0xee, 0x3c, 0x28, 0xae, 0x60, 0x3e,
  0x03, 0x08, 0xb4, 0xbd, 0xdb, 0xe8, 0xc0, 0xbd, 0x8f, 0x4d, 0x9d, 0x3e,
  0xa5, 0xdd, 0xec, 0x3c, 0xd4, 0xf0, 0xa8, 0x3c, 0xa2, 0x59, 0x80, 0xbd,
  0xc5, 0x2a, 0x14, 0xbf, 0xa1, 0x2b, 0x65, 0x3d, 0x8c, 0x45, 0xa9, 0x3d,
  0xd3, 0x25, 0x43, 0x3e, 0xb1, 0xa4, 0xdf, 0xbe, 0x8e, 0xa6, 0xb9, 0xbd,
  0x9e, 0xc1, 0x91, 0x3e, 0x8b, 0x39, 0x92, 0x3d, 0x63, 0x43, 0x0d, 0x3e,
  0xd3, 0x91, 0x89, 0x3e, 0xe4, 0x82, 0x8e, 0x3d, 0x15, 0x54, 0xed, 0x3d,
  0x5b, 0xc4, 0x15, 0xbe, 0x42, 0xca, 0x0a, 0xbe, 0x82, 0xdc, 0x13, 0x3d,
  0xd0, 0x17, 0xb4, 0x3b, 0x18, 0xc7, 0xfe, 0xbd, 0x72, 0x94, 0x88, 0x3e,
  0x21, 0x7e, 0x71, 0x3e, 0xa0, 0x30, 0xff, 0xbd, 0x89, 0xa1, 0xa3, 0xbe,
  0xe6, 0xb0, 0x96, 0xbe, 0x2e, 0xa0, 0xc3, 0xbd, 0xf6, 0x42, 0xee, 0x3d,
  0x48, 0x8b, 0xbf, 0xbd, 0x81, 0x4b, 0x44, 0x3e, 0xb8, 0x05, 0x80, 0x3d,
  0x50, 0x57, 0x48, 0xbe, 0x1f, 0x69, 0x1e, 0x3f, 0x69, 0x8b, 0x62, 0xbe,
  0xde, 0x7c, 0x5f, 0xbe, 0xc3, 0x13, 0xa1, 0xbe, 0x6e, 0x59, 0x89, 0xbe,
  0x20, 0x07, 0x1c, 0xbe, 0xa4, 0x77, 0x9b, 0x3e, 0xcf, 0x19, 0x8d, 0x3e,
  0x57, 0x34, 0xab, 0xbe, 0x90, 0x36, 0xc4, 0x3e, 0x33, 0xf4, 0x94, 0x3e,
  0x26, 0x89, 0xa5, 0x3c, 0x00, 0x68, 0xe1, 0x3e, 0x06, 0x5c, 0x67, 0x3e,
  0x21, 0x6f, 0x93, 0x3d, 0xb9, 0x7f, 0x63, 0xbe, 0xc9, 0xb1, 0x37, 0xbe,
  0xa0, 0x3c, 0xcd, 0xbd, 0xe1, 0xd5, 0xa2, 0x3e, 0x3a, 0xb6, 0xd6, 0x3e,
  0x93, 0xaa, 0x83, 0xbe, 0xab, 0x78, 0xbd, 0x3e, 0xee, 0x05, 0x4f, 0xbe,
  0x57, 0x78, 0xdd, 0x3e, 0x73, 0xdd, 0xed, 0xbc, 0x2f, 0xaf, 0x34, 0x3c,
  0x54, 0x26, 0x0a, 0xbe, 0x7e, 0x06, 0xa6, 0xbe, 0xcd, 0x68, 0xf5, 0xbd,
  0x3e, 0x2c, 0x6a, 0xbe, 0x87, 0x9a, 0x8f, 0xbe, 0xc9, 0xac, 0x46, 0xbe,
  0x80, 0xd9, 0xc9, 0x3d, 0xd0, 0xbe, 0x3a, 0xbd, 0x75, 0xf1, 0xa5, 0x3d,
  0x81, 0x35, 0x48, 0xbe, 0x7f, 0xd6, 0xb8, 0x3d, 0x89, 0x83, 0x75, 0xbd,
  0xb4, 0x2f, 0xe5, 0xbd, 0x6d, 0xfb, 0xd8, 0x3d, 0xb9, 0x22, 0xa2, 0xbc,
  0xc2, 0x72, 0xe0, 0xbd, 0xe6, 0x12, 0xe6, 0x3e, 0x81, 0x7e, 0xe8, 0x3e,
  0xda, 0x26, 0x1e, 0xbc, 0x3c, 0x4c, 0x22, 0x3f, 0x9f, 0x73, 0xb8, 0xbc,
  0xaa, 0x59, 0x41, 0xbd, 0x65, 0xd3, 0x7c, 0x3e, 0x75, 0xf0, 0x2d, 0xbd,
  0x55, 0xbe, 0x84, 0x3c, 0x95, 0x57, 0x49, 0xbe, 0x6e, 0x50, 0xb0, 0x3e,
  0x99, 0xdb, 0xa9, 0x3e, 0x6b, 0xda, 0x2a, 0x3f, 0x86, 0xb1, 0xf8, 0x3e,
  0xc9, 0xb5, 0x09, 0x3e, 0x75, 0x13, 0x37, 0x3b, 0x0c, 0xd0, 0x38, 0x3c,
  0xda, 0x17, 0xa4, 0x3d, 0x97, 0xe7, 0xe4, 0x3d, 0x3b, 0x41, 0x9d, 0x3e,
  0x1e, 0x94, 0xf3, 0xbd, 0x7a, 0x71, 0x12, 0xbd, 0xd4, 0x11, 0x5e, 0x3f,
  0xa7, 0x34, 0xc7, 0x3e, 0x15, 0x4c, 0xe5, 0x3e, 0x55, 0xde, 0x97, 0xbd,
  0xb9, 0x13, 0x0a, 0x3e, 0xaf, 0x97, 0x47, 0x3e, 0x54, 0x4b, 0x91, 0xbe,
  0x1a, 0xd8, 0xa8, 0x3e, 0x4a, 0x66, 0x48, 0xbe, 0x0e, 0x81, 0x10, 0x3f,
  0x46, 0x24, 0x76, 0x3f, 0xb8, 0x48, 0x6e, 0x3e, 0x47, 0x09, 0x31, 0x3e,
  0xb2, 0xf4, 0x0d, 0xbe, 0xd9, 0xda, 0xea, 0x3c, 0xbf, 0x03, 0x74, 0xbe,
  0xc7, 0x7b, 0x70, 0x3e, 0x0f, 0x40, 0x9e, 0x3d, 0x9d, 0x3f, 0x44, 0x3e,
  0x96, 0x79, 0x26, 0x3e, 0x85, 0x43, 0x54, 0xbe, 0x6e, 0xcc, 0xb4, 0x3d,
  0x88, 0x4f, 0x28, 0x3e, 0x27, 0xa3, 0xd3, 0x3e, 0x9c, 0xe7, 0x61, 0x3e,
  0x63, 0x15, 0x41, 0x3e, 0x33, 0x08, 0xfe, 0xbd, 0xdd, 0xd9, 0x05, 0xbe,
  0x41, 0x56, 0xdf, 0x3e, 0xd7, 0xb6, 0x21, 0xbe, 0xe6, 0x55, 0xe0, 0xbd,
  0x69, 0x62, 0x07, 0xbf, 0x1b, 0x78, 0xab, 0xbe, 0xa4, 0xff, 0x3b, 0x3e,
  0x9c, 0x1c, 0x1f, 0xbe, 0xb7, 0x8c, 0x63, 0x3e, 0x93, 0x31, 0xfb, 0xbd,
  0x47, 0xaa, 0x11, 0xbe, 0xe4, 0x8c, 0x98, 0xbe, 0x22, 0x16, 0x95, 0x3e,
  0xca, 0xee, 0x86, 0x3e, 0x56, 0x4f, 0x22, 0x3e, 0x30, 0x33, 0xe6, 0x3e,
  0x8f, 0x06, 0xe2, 0x3d, 0x37, 0x51, 0x42, 0xbe, 0x0b, 0x62, 0x76, 0xbf,
  0x43, 0x71, 0x9a, 0x3e, 0xea, 0x31, 0xeb, 0x3d, 0x0c, 0xc8, 0xb7, 0x3e,
  0x99, 0xb3, 0xb6, 0xbe, 0x6a, 0xaa, 0xe1, 0xbd, 0xe2, 0x59, 0x12, 0xbe,
  0x46, 0x1e, 0x5b, 0x3e, 0xeb, 0x3a, 0x4d, 0xbe, 0xae, 0x59, 0xb5, 0xbd,
  0x46, 0x11, 0x17, 0xbd, 0x35, 0xb2, 0x0c, 0x3f, 0xd5, 0x4b, 0x4c, 0x3f,
  0x39, 0x95, 0x39, 0x3c, 0x8b, 0x96, 0x74, 0x3f, 0x58, 0x7d, 0xce, 0x3d,
  0xbc, 0xfb, 0x2b, 0xbd, 0xbe, 0x80, 0x38, 0x3e, 0x2c, 0x8e, 0x99, 0x3d,
  0xec, 0x8b, 0x4e, 0xbf, 0xef, 0x6f, 0x57, 0x3d, 0x2e, 0x80, 0xda, 0x3d,
  0x63, 0x2d, 0x1e, 0x3f, 0x9b, 0x08, 0x7e, 0x3e, 0xb2, 0x32, 0x79, 0xbe,
  0x65, 0x0d, 0x02, 0xbe, 0xac, 0xa7, 0x03, 0x3f, 0x2c, 0xb2, 0xc5, 0x3e,
  0x4a, 0xf0, 0x6a, 0xbe, 0xf4, 0x0a, 0xe2, 0xbe, 0x49, 0x81, 0x00, 0x3d,
  0x9b, 0xbb, 0xaf, 0x3c, 0xf7, 0x57, 0xed, 0x3d, 0x5e, 0x08, 0x0b, 0x3d,
  0x29, 0x43, 0x77, 0x3d, 0x7a, 0x42, 0xaf, 0xbe, 0x36, 0xfa, 0xa6, 0x3e,
  0x02, 0xfb, 0x3f, 0xbd, 0xcd, 0x61, 0xfc, 0x3c, 0xf8, 0xd4, 0x07, 0x3e,
  0xe0, 0x3d, 0x2c, 0x3e, 0xe1, 0xef, 0x06, 0xbe, 0x13, 0x4a, 0x82, 0x3e,
  0x2a, 0x84, 0x4a, 0xbd, 0xba, 0x8e, 0xb7, 0xbe, 0x28, 0x4a, 0x66, 0x3e,
  0x83, 0x1b, 0xba, 0xbd, 0xc5, 0x1b, 0xdf, 0xbe, 0x07, 0x8c, 0xb7, 0xbe,
  0xc0, 0x6d, 0x89, 0xbe, 0xfc, 0xac, 0x4d, 0xbe, 0xdb, 0xd7, 0xaa, 0xbe,
  0x81, 0x74, 0x71, 0xbd, 0x45, 0x4d, 0x91, 0xbd, 0xe4, 0x70, 0x1d, 0x3e,
  0x21, 0xe7, 0x83, 0xbd, 0x4c, 0x75, 0x57, 0x3e, 0xcd, 0x85, 0x8a, 0x3e,
  0xb6, 0xe3, 0x13, 0xbe, 0x3f, 0x83, 0xc1, 0x3e, 0x38, 0x89, 0x5b, 0x3e,
  0xea, 0x48, 0x33, 0x3e, 0x8f, 0xab, 0x3f, 0xbe, 0xb7, 0xa7, 0x13, 0x3e,
  0xb4, 0xe6, 0x00, 0x3d, 0x04, 0xb1, 0x31, 0xbe, 0x08, 0x3d, 0x04, 0xbe,
  0xf8, 0xa0, 0x8e, 0xbd, 0x00, 0xf8, 0x65, 0xbe, 0x7b, 0x54, 0x3f, 0xbe,
  0x30, 0x44, 0x56, 0x3e, 0x5d, 0x4f, 0x55, 0xbe, 0x7d, 0xcf, 0x94, 0x3d,
  0x4e, 0xde, 0x1a, 0xbe, 0xb3, 0x85, 0x46, 0xbd, 0xe4, 0x11, 0x10, 0xbc,
  0x40, 0x81, 0xa6, 0xbc, 0x6c, 0xdf, 0x28, 0xbe, 0x70, 0xdc, 0x81, 0xbe,
  0x0e, 0x0b, 0x1d, 0x3e, 0x69, 0xf5, 0xcb, 0xbd, 0x3d, 0x6e, 0x9a, 0x3d,
  0x43, 0x79, 0x92, 0x3d, 0xf1, 0x3e, 0xf2, 0xbb, 0x88, 0xb9, 0x2f, 0xbe,
  0xc7, 0x17, 0x94, 0xbd, 0xf0, 0x3d, 0x10, 0x3d, 0x63, 0xad, 0x20, 0xbe,
  0xb8, 0xd7, 0xe7, 0x3d, 0x68, 0xf6, 0x2a, 0x3e, 0x45, 0x99, 0xfb, 0x3b,
  0x65, 0x57, 0xd5, 0xbd, 0x40, 0xe6, 0x85, 0x3c, 0xf1, 0x0d, 0xdf, 0x3d,
  0xba, 0x34, 0x96, 0xbe, 0xf7, 0xa5, 0xd2, 0x3d, 0x07, 0x7e, 0x1f, 0x3d,
  0x26, 0x84, 0xfc, 0xbd, 0x34, 0xb5, 0x9f, 0x3e, 0x9c, 0x79, 0xb9, 0x3e,
  0x64, 0xdf, 0xa4, 0xbd, 0xae, 0xfc, 0x6b, 0x3e, 0x7e, 0x9a, 0x12, 0xbe,
  0x0e, 0x70, 0x44, 0xbd, 0xed, 0xa6, 0xb7, 0x3e, 0xc1, 0xa9, 0x77, 0xbe,
  0xb7, 0xdb, 0xe3, 0xbc, 0x4b, 0x93, 0x27, 0xbd, 0xb1, 0xfb, 0xc5, 0x3d,
  0x3b, 0x03, 0xfe, 0x3d, 0x07, 0x32, 0x02, 0xbf, 0xd1, 0xa2, 0xff, 0x3d,
  0x19, 0xf5, 0x54, 0xbe, 0x86, 0xbf, 0x8b, 0x3e, 0x2e, 0xa9, 0x31, 0x3f,
  0xfe, 0x09, 0x30, 0x3d, 0x6c, 0x47, 0x15, 0xbd, 0xfa, 0xeb, 0x17, 0x3f,
  0x01, 0x9a, 0xf3, 0x3d, 0xea, 0xdb, 0xa9, 0x3e, 0x3c, 0x04, 0x85, 0x3d,
  0x15, 0x01, 0x05, 0xbe, 0x03, 0x5d, 0x7d, 0x3d, 0x22, 0xab, 0x5e, 0x3e,
  0x7f, 0xa4, 0x3d, 0xbe, 0xd0, 0xdb, 0x6c, 0xbe, 0x61, 0x1e, 0x8c, 0xbe,
  0x6c, 0x92, 0x31, 0x3e, 0x4b, 0x6e, 0x74, 0xbe, 0x4c, 0xf1, 0xdf, 0x3d,
  0xc9, 0x15, 0x61, 0x3d, 0x4f, 0xb7, 0xbc, 0xbd, 0x9a, 0x19, 0x05, 0x3e,
  0xd1, 0x91, 0xe7, 0x3d, 0x1c, 0xef, 0x3e, 0xbe, 0x79, 0x72, 0xac, 0x3e,
  0xa0, 0x34, 0x1d, 0x3d, 0x79, 0x8f, 0xb5, 0xbe, 0x13, 0x65, 0x45, 0x3e,
  0x71, 0x20, 0xed, 0xbd, 0x9b, 0x8d, 0xb0, 0xbe, 0x50, 0x46, 0xa7, 0x3e,
  0x03, 0x99, 0x2d, 0x3c, 0x84, 0x44, 0x83, 0xbd, 0xe6, 0x4f, 0x19, 0xbf,
  0x61, 0x24, 0x0f, 0xbe, 0xb6, 0xd2, 0x0f, 0x3e, 0x2c, 0x55, 0x05, 0xbd,
  0xd3, 0x55, 0x83, 0x3e, 0x6e, 0x1a, 0x05, 0xbe, 0x0b, 0xd7, 0xab, 0x3d,
  0x08, 0x02, 0x8d, 0x3d, 0xee, 0x60, 0xcc, 0xbc, 0x10, 0x74, 0xcc, 0x3e,
  0x2c, 0xa4, 0x2c, 0xbf, 0xd2, 0x96, 0xa7, 0xbd, 0x3b, 0x7d, 0x5a, 0x3e,
  0x10, 0x78, 0x40, 0xbe, 0x03, 0x7d, 0x5b, 0x3d, 0x3e, 0x1b, 0x7d, 0x3e,
  0x6f, 0xd5, 0xa7, 0xbe, 0x55, 0x74, 0xa1, 0xbe, 0x04, 0x24, 0x28, 0x3e,
  0x93, 0xc5, 0x0c, 0xbe, 0xf5, 0xf7, 0x42, 0x3e, 0xc2, 0xfb, 0xcc, 0xbd,
  0x6e, 0x3a, 0xa9, 0x3e, 0x07, 0x00, 0x1e, 0x3e, 0x03, 0xbd, 0x59, 0xbe,
  0x49, 0xef, 0xf8, 0x3c, 0xb4, 0x98, 0x3b, 0x3e, 0xb4, 0xd2, 0x06, 0xbe,
  0x49, 0x53, 0xb5, 0xbe, 0x49, 0x6a, 0x57, 0x3e, 0xd0, 0xf3, 0xc8, 0xbe,
  0xd6, 0x0f, 0x9e, 0x3d, 0xa1, 0x47, 0x73, 0xbc, 0x89, 0x21, 0x39, 0xbe,
  0xac, 0x2e, 0xa7, 0x3d, 0x78, 0x5b, 0xf8, 0x3d, 0x18, 0xd7, 0xaf, 0xbd,
  0x1f, 0xd6, 0x39, 0xbe, 0x65, 0xf9, 0x84, 0xbe, 0xec, 0x3d, 0x6c, 0x3e,
  0x75, 0xfc, 0x68, 0x3e, 0x64, 0x6c, 0x0f, 0x3e, 0x12, 0xe6, 0x65, 0xbd,
  0xaa, 0xab, 0x53, 0x3e, 0xdc, 0x2e, 0xd5, 0xbd, 0x56, 0x28, 0x6e, 0x3c,
  0xd3, 0xcb, 0xb4, 0x3e, 0x61, 0x76, 0xf1, 0xbc, 0x89, 0x78, 0x66, 0x3e,
  0xda, 0xd8, 0xcb, 0xbd, 0x41, 0x8b, 0xe2, 0xbd, 0x4f, 0xb3, 0x4f, 0x3e,
  0xd5, 0x22, 0xa4, 0x3d, 0x8f, 0x1d, 0x66, 0xbe, 0x99, 0xb9, 0x48, 0x3e,
  0xca, 0xa2, 0xc0, 0x3d, 0x09, 0xca, 0x59, 0xbd, 0x3c, 0xe8, 0x40, 0xbe,
  0x7e, 0xf3, 0xf4, 0xbd, 0x63, 0xc7, 0x9f, 0xbe, 0x8e, 0x8d, 0xf7, 0xbc,
  0x7f, 0x6e, 0xf3, 0x3e, 0x8c, 0x2a, 0x0b, 0xbe, 0x5c, 0x3b, 0xa2, 0xbb,
  0x3d, 0x23, 0x85, 0xbd, 0x37, 0x31, 0x52, 0xbe, 0x8c, 0xa6, 0x8f, 0xbe,
  0x0d, 0x6f, 0xa8, 0xbe, 0xe8, 0x82, 0xc9, 0x3e, 0x5e, 0xd2, 0xcf, 0xbe,
  0x59, 0x60, 0x8f, 0x3d, 0x38, 0xf3, 0x86, 0xbc, 0xf7, 0xac, 0xcd, 0x3e,
  0x0f, 0x7a, 0xb3, 0x3e, 0x40, 0x2c, 0xbb, 0xbe, 0x55, 0x2c, 0x8a, 0xbe,
  0x1c, 0x4e, 0xd4, 0x3e, 0x04, 0x9d, 0x4f, 0x3e, 0x8c, 0xf0, 0x44, 0x3e,
  0xc2, 0x1f, 0xc1, 0xba, 0x3b, 0xc8, 0x02, 0x3e, 0x54, 0x98, 0x0d, 0xbe,
  0x2b, 0x8e, 0x3d, 0xbe, 0x5d, 0x96, 0x5a, 0x3e, 0x07, 0x15, 0xe4, 0xbc,
  0x3c, 0xe2, 0xa6, 0xbd, 0xc2, 0x0b, 0x9d, 0xbe, 0x64, 0xf2, 0xaa, 0x3e,
  0xba, 0xf5, 0x98, 0x3e, 0x09, 0x11, 0x36, 0x3f, 0x8c, 0x12, 0xc0, 0x3e,
  0x2e, 0x53, 0x25, 0xbe, 0x72, 0xe5, 0x37, 0x3e, 0x5c, 0x6e, 0xea, 0xbe,
  0x65, 0x7b, 0xfe, 0x3e, 0x66, 0x22, 0x11, 0x3e, 0x26, 0xc7, 0xba, 0x3d,
  0x19, 0x3f, 0x11, 0x3e, 0x59, 0x30, 0x8b, 0x3c, 0x5c, 0xa5, 0xf3, 0x3e,
  0xe3, 0xdd, 0xe2, 0x3e, 0x28, 0x9b, 0x25, 0x3e, 0x8b, 0x41, 0x36, 0xbe,
  0x90, 0xad, 0x90, 0xbd, 0xc3, 0x7c, 0xe0, 0xbd, 0x16, 0x2c, 0x0d, 0xbe,
  0xf1, 0x91, 0x05, 0x3f, 0x84, 0xd3, 0x17, 0xbe, 0x0e, 0x9d, 0xa2, 0x3e,
  0xf3, 0xb7, 0x5f, 0x3f, 0x2f, 0x51, 0x41, 0x3c, 0xb4, 0x18, 0x8f, 0x3d,
  0x30, 0x14, 0xe9, 0xbd, 0xc2, 0x05, 0x14, 0xbe, 0x99, 0xbd, 0x1d, 0xbc,
  0xd3, 0xe5, 0x27, 0x3e, 0x70, 0x17, 0x1d, 0xbe, 0x5e, 0xee, 0xe3, 0xbd,
  0xdf, 0xb3, 0x5d, 0x3e, 0x48, 0x0a, 0x00, 0xbe, 0xad, 0x84, 0x70, 0x3a,
  0x95, 0xed, 0x07, 0x3e, 0x4a, 0x14, 0x3a, 0xbe, 0x1f, 0xb7, 0xe9, 0x3d,
  0xb0, 0xaa, 0x2c, 0xbe, 0xc8, 0x1d, 0x09, 0xbe, 0x0a, 0x8e, 0x38, 0xbe,
  0xca, 0x06, 0xdd, 0x3c, 0x50, 0x76, 0xa3, 0xbd, 0xd5, 0x27, 0xa6, 0xbd,
  0xcc, 0xba, 0x65, 0xbe, 0x87, 0xbb, 0x76, 0x3e, 0xe0, 0x5c, 0x58, 0xbd,
  0xdc, 0x89, 0x1c, 0x3e, 0xe8, 0xca, 0x5e, 0xbe, 0x99, 0x73, 0x6e, 0xbe,
  0x00, 0x41, 0xf1, 0xbc, 0x54, 0xb3, 0x58, 0xbe, 0xa8, 0x5f, 0x49, 0xbd,
  0x95, 0x82, 0x6c, 0x3e, 0xc8, 0x85, 0x5b, 0xbe, 0x1e, 0x35, 0xda, 0xbd,
  0x68, 0xdf, 0x87, 0x3e, 0x98, 0xef, 0xf3, 0x3e, 0xab, 0xa0, 0xe4, 0xbe,
  0xf6, 0x1f, 0xe2, 0x3e, 0x5c, 0x43, 0x9c, 0xbc, 0x60, 0xed, 0x96, 0x3e,
  0xe1, 0x4a, 0x5a, 0xbe, 0x67, 0xfe, 0x4a, 0xbe, 0x94, 0x7b, 0x80, 0x3e,
  0xbc, 0x09, 0x7c, 0xbb, 0x8b, 0xd2, 0xd6, 0x3d, 0x0e, 0x6b, 0x16, 0xbf,
  0x46, 0xc7, 0x45, 0xbe, 0x77, 0xee, 0x11, 0x3f, 0xa3, 0xfc, 0xad, 0x3e,
  0x55, 0xdb, 0xea, 0x3e, 0xc3, 0x3a, 0xd0, 0x3d, 0x7c, 0xf6, 0x9b, 0x3e,
  0x6c, 0x82, 0x59, 0xbd, 0xe6, 0x9a, 0x44, 0x3c, 0xbb, 0xd4, 0x27, 0xbf,
  0xab, 0x60, 0x48, 0xbf, 0xca, 0x95, 0x65, 0xbe, 0x0c, 0x43, 0x5a, 0xbe,
  0xc2, 0x17, 0x71, 0x3e, 0x70, 0x21, 0x42, 0x3e, 0x21, 0xd8, 0xa1, 0x3d,
  0x64, 0xd3, 0xda, 0xbd, 0x73, 0x45, 0x7d, 0xbb, 0x72, 0x8d, 0x6a, 0x3e,
  0xb8, 0xf5, 0xbe, 0x3d, 0x3b, 0x05, 0x0c, 0xbf, 0x3b, 0xf0, 0x93, 0xbe,
  0x17, 0xb5, 0x8b, 0xbc, 0xd6, 0x24, 0xad, 0x3d, 0x5b, 0x08, 0xb0, 0x3d,
  0xb0, 0xd0, 0x63, 0x3e, 0xe7, 0x19, 0x6f, 0xbe, 0xca, 0x5e, 0x3b, 0x3e,
  0xfb, 0x54, 0xef, 0xbc, 0x32, 0xad, 0x6f, 0x3e, 0xc5, 0xc4, 0x8c, 0xbd,
  0x7b, 0x77, 0x46, 0xbe, 0xda, 0xfd, 0xa7, 0x3c, 0xb5, 0x66, 0x58, 0x3e,
  0x0e, 0x73, 0x00, 0xbe, 0x4f, 0x19, 0xdc, 0xbc, 0x60, 0x3f, 0x15, 0x3e,
  0xdf, 0x1a, 0x24, 0xbe, 0x56, 0x3c, 0x7b, 0x3d, 0x38, 0xf8, 0xd8, 0xbe,
  0x2f, 0xb3, 0x20, 0xbe, 0x5c, 0x53, 0x67, 0xbc, 0x4c, 0x45, 0x08, 0x3e,
  0x14, 0x78, 0x2b, 0x3e, 0x6c, 0xbf, 0xdc, 0xbd, 0xd8, 0x76, 0xc5, 0x3d,
  0x71, 0x5e, 0x0a, 0xbd, 0x43, 0x14, 0xc1, 0x3e, 0x58, 0xac, 0x82, 0x3e,
  0x17, 0x8f, 0xc9, 0xbe, 0x11, 0x0f, 0x21, 0xbc, 0x89, 0xe0, 0x20, 0x3e,
  0x82, 0x3f, 0xf0, 0xbd, 0xc2, 0xce, 0x97, 0xbe, 0xf4, 0xfc, 0x43, 0x3e,
  0xfa, 0x4b, 0x24, 0x3d, 0xff, 0xda, 0xac, 0x3e, 0xd5, 0x58, 0x39, 0x3e,
  0xed, 0xb8, 0x87, 0xbd, 0xe6, 0x20, 0x8f, 0xbe, 0xb5, 0xaf, 0x70, 0x3e,
  0xe2, 0x2c, 0x37, 0x3e, 0xab, 0xbd, 0x70, 0xbe, 0xd9, 0x16, 0x5c, 0x3e,
  0x26, 0xf8, 0x2c, 0xbf, 0x4c, 0x4f, 0x49, 0xbe, 0xd6, 0x13, 0x02, 0x3d,
  0x5d, 0xe1, 0x46, 0x3e, 0x78, 0x07, 0xe4, 0x3c, 0x5a, 0x16, 0xc8, 0xbe,
  0x5a, 0x87, 0xb0, 0xbc, 0x1b, 0x0b, 0x08, 0x3d, 0x8b, 0x6f, 0x35, 0x3e,
  0xfe, 0x35, 0xb6, 0xbd, 0x9f, 0xb3, 0xa1, 0xbe, 0x42, 0x87, 0xce, 0xbe,
  0xe6, 0x25, 0x86, 0xbe, 0x53, 0x67, 0x85, 0x3e, 0xee, 0xbe, 0xc7, 0x3e,
  0xf5, 0xa9, 0x79, 0xbe, 0xb2, 0xc2, 0x6d, 0x3e, 0xc3, 0x7b, 0x9d, 0xbe,
  0x5d, 0xdb, 0xd9, 0x3b, 0xd9, 0x34, 0x7b, 0xbe, 0x62, 0x0c, 0x03, 0xbf,
  0x43, 0xb4, 0xf2, 0x3e, 0xfc, 0xe7, 0x04, 0xbe, 0xcf, 0x32, 0x64, 0x3e,
  0x97, 0x5f, 0x37, 0xbe, 0x47, 0x00, 0xbc, 0x3e, 0x9e, 0x10, 0x12, 0xbe,
  0x5d, 0x88, 0x47, 0x3e, 0x0b, 0x6c, 0x53, 0xbe, 0x96, 0xc5, 0x60, 0x3d,
  0xe8, 0x1b, 0xd4, 0x3d, 0xba, 0x2a, 0x86, 0x3e, 0xf8, 0xde, 0x0f, 0x3f,
  0xdf, 0xad, 0xb8, 0x3e, 0x66, 0xa1, 0xc5, 0x3c, 0x06, 0xe4, 0x46, 0xbd,
  0x5c, 0xd5, 0xa8, 0xbe, 0x7e, 0x21, 0x98, 0x3f, 0x54, 0x83, 0x50, 0x3d,
  0x64, 0xae, 0x68, 0xbd, 0xfe, 0xe3, 0xd2, 0x3d, 0x15, 0x71, 0x59, 0x3e,
  0x50, 0x35, 0x07, 0x3e, 0x1b, 0x57, 0x98, 0x3e, 0x1a, 0xfe, 0x20, 0x3f,
  0x1a, 0xb9, 0x8e, 0xbe, 0x3b, 0x83, 0xcd, 0xbd, 0xa3, 0x6b, 0x36, 0x3e,
  0x8b, 0xcb, 0xf6, 0x3d, 0x5f, 0x37, 0x0a, 0x3f, 0xb4, 0x74, 0xd5, 0x3d,
  0xc8, 0xd8, 0x64, 0x3e, 0x25, 0x41, 0x02, 0x3f, 0x9a, 0x59, 0x80, 0x3e,
  0x7e, 0x04, 0x60, 0xbe, 0xa2, 0x6f, 0xe1, 0xbc, 0x93, 0x2e, 0xf5, 0x3e,
  0x32, 0xdf, 0xe0, 0xbd, 0xb4, 0x7e, 0xac, 0x3e, 0xb5, 0x31, 0xb0, 0x3c,
  0x11, 0x08, 0x93, 0x3e, 0x32, 0x4e, 0x0e, 0x3e, 0x75, 0x4f, 0x26, 0xbe,
  0xac, 0x67, 0xd9, 0xbd, 0xed, 0xc2, 0xe5, 0xbd, 0x97, 0xc9, 0xa8, 0xbe,
  0x67, 0x41, 0xe3, 0x3d, 0xc0, 0x29, 0x88, 0xbd, 0xbe, 0xb4, 0xd1, 0xbd,
  0xb7, 0x34, 0x47, 0x3e, 0x3b, 0xe4, 0x7c, 0x3e, 0xc4, 0x9d, 0xab, 0x3e,
  0xdd, 0x87, 0xb5, 0x3e, 0x13, 0x37, 0x2f, 0xbe, 0xc7, 0xa3, 0xf9, 0xbd,
  0xc1, 0x8d, 0x88, 0x3d, 0x4a, 0xd1, 0x1d, 0xbe, 0x45, 0x2a, 0xa8, 0x3d,
  0xb5, 0x33, 0xd4, 0x3d, 0x57, 0x16, 0x06, 0xbe, 0x9b, 0xe4, 0xcf, 0xbe,
  0xda, 0x4a, 0x9e, 0x3e, 0xed, 0x3e, 0xb6, 0xbd, 0xd0, 0xff, 0x57, 0xbe,
  0xba, 0x59, 0xee, 0xbe, 0xa5, 0x21, 0x7a, 0x3e, 0x94, 0x6f, 0x0e, 0x3e,
  0x1d, 0x8c, 0x23, 0x3f, 0x60, 0xf6, 0xc5, 0xbd, 0x6f, 0x07, 0x8c, 0xbd,
  0xf0, 0x3d, 0x15, 0x3e, 0x7c, 0xf8, 0x53, 0x3e, 0xd5, 0xcb, 0x6e, 0xbd,
  0xc7, 0x5f, 0xbf, 0x3e, 0x26, 0x0f, 0x04, 0x3e, 0xda, 0xb9, 0xc3, 0x3e,
  0x01, 0x58, 0x05, 0x3f, 0xe3, 0x9f, 0x02, 0x3f, 0xfa, 0xea, 0xb5, 0xbc,
  0x0c, 0x12, 0xf5, 0xbd, 0x9c, 0x2a, 0xbc, 0x3e, 0xdd, 0x7e, 0xc6, 0xbe,
  0xee, 0x75, 0x71, 0xbd, 0x54, 0xdc, 0x7a, 0x3e, 0x72, 0x6b, 0x83, 0xbe,
  0x26, 0x26, 0x13, 0xbd, 0x56, 0x6f, 0x32, 0x3e, 0x62, 0x6d, 0x95, 0x3e,
  0x54, 0x02, 0x00, 0xbd, 0xf5, 0xac, 0x6a, 0xbe, 0xbb, 0xaa, 0x78, 0xbe,
  0x39, 0x3b, 0xa4, 0x3e, 0x5e, 0xa1, 0xa8, 0x3e, 0x6d, 0x57, 0x0d, 0x3d,
  0x0e, 0x79, 0x7b, 0x3d, 0x62, 0x66, 0xbf, 0x3e, 0x9d, 0x6f, 0x72, 0x3f,
  0xee, 0xb1, 0xb2, 0x3d, 0x50, 0x22, 0xad, 0xbe, 0x30, 0xfc, 0xfc, 0x3e,
  0xd2, 0xec, 0x9c, 0xbc, 0xc0, 0xfe, 0x7a, 0xbe, 0x60, 0xcb, 0x5d, 0x3e,
  0x93, 0x72, 0xcd, 0x3d, 0x1a, 0x2c, 0x6a, 0x3e, 0x55, 0xc3, 0x21, 0xbd,
  0xc8, 0x81, 0xae, 0xbe, 0x11, 0xe8, 0x5d, 0xbd, 0x7e, 0x9f, 0xb3, 0x3e,
  0xb2, 0x6b, 0xab, 0xbd, 0x28, 0xe7, 0x2a, 0xbe, 0x70, 0xd0, 0x5e, 0xbe,
  0xa4, 0x8d, 0x8c, 0xbe, 0x36, 0xd1, 0x50, 0xbf, 0x61, 0xbf, 0xb4, 0x3b,
  0xa4, 0xf2, 0x17, 0x3e, 0x1e, 0xff, 0xe6, 0x3d, 0x7f, 0x74, 0x0e, 0x3e,
  0x4f, 0x12, 0x1c, 0x3f, 0xf8, 0x13, 0x23, 0xbf, 0x11, 0x65, 0x3d, 0x3d,
  0x71, 0x0f, 0xe2, 0xbd, 0x55, 0xc7, 0x5b, 0xbd, 0x61, 0x16, 0xe6, 0xbd,
  0x6b, 0x59, 0x5c, 0x3d, 0xea, 0x93, 0xc3, 0xbb, 0xdd, 0x69, 0xa8, 0xbe,
  0x0a, 0x3b, 0x97, 0xbc, 0x16, 0xaa, 0xcb, 0x3e, 0xed, 0x47, 0x4b, 0xbe,
  0xd1, 0x8c, 0xdf, 0x3b, 0xbb, 0x0a, 0x90, 0xbe, 0x47, 0x81, 0x0b, 0xbe,
  0xb8, 0x7f, 0x6f, 0x3e, 0xd5, 0x46, 0x3c, 0x3e, 0xc3, 0x25, 0xba, 0xbe,
  0xce, 0x9c, 0x1c, 0x3e, 0xfd, 0xcd, 0xd7, 0x3c, 0x7a, 0x5f, 0x2a, 0xbe,
  0x39, 0x43, 0xf1, 0x3d, 0x6e, 0x23, 0x46, 0xbe, 0xa1, 0x30, 0xcc, 0xbe,
  0x5e, 0x94, 0x22, 0x3e, 0x13, 0x04, 0x33, 0x3c, 0x6b, 0x68, 0x3e, 0xbd,
  0xe7, 0xb1, 0xa6, 0x3e, 0x8c, 0xd4, 0x13, 0x3e, 0x9b, 0x64, 0x1b, 0x3e,
  0xf7, 0x43, 0x95, 0x3e, 0x53, 0x4b, 0xe5, 0x3d, 0x01, 0x09, 0x9b, 0xbc,
  0x96, 0x01, 0x91, 0xbc, 0x3b, 0x69, 0xe2, 0x3d, 0xb4, 0xfd, 0xe6, 0x3d,
  0x98, 0x7a, 0xc5, 0xbc, 0x4e, 0x8e, 0x89, 0x3e, 0x8c, 0x91, 0x87, 0xbd,
  0xe2, 0x51, 0x58, 0x3e, 0xab, 0xa6, 0xf0, 0xbd, 0xdd, 0x8a, 0xa0, 0xbe,
  0xb8, 0xdb, 0x21, 0xbf, 0xae, 0xc9, 0x41, 0xba, 0x1d, 0xf8, 0x1e, 0x3c,
  0x3c, 0xb5, 0x46, 0x3e, 0x82, 0x17, 0x21, 0xbe, 0xb2, 0x87, 0x85, 0x3a,
  0xb2, 0x9a, 0x24, 0xbe, 0xdb, 0xfb, 0xab, 0x3d, 0x88, 0x78, 0x22, 0xbd,
  0x49, 0xcf, 0x21, 0x3e, 0x76, 0xb6, 0xa5, 0x3e, 0xe4, 0x7d, 0x93, 0xbd,
  0xcc, 0xce, 0x6e, 0xbd, 0xf9, 0x69, 0x8a, 0xbe, 0x39, 0xf0, 0x1f, 0xbd,
  0x3e, 0xd2, 0x1e, 0x3e, 0x58, 0x8f, 0xe4, 0x3e, 0x67, 0x8a, 0xd6, 0xbd,
  0xba, 0x8b, 0x93, 0x3e, 0xe0, 0xde, 0x40, 0x3d, 0xd7, 0x44, 0x37, 0xbd,
  0x73, 0x3f, 0xc2, 0xbd, 0xff, 0x1c, 0xec, 0x3d, 0x14, 0x24, 0x88, 0x3e,
  0xd3, 0x10, 0x35, 0xbe, 0xda, 0x20, 0x8f, 0xbc, 0x0c, 0xa8, 0xab, 0xbe,
  0x8f, 0x8c, 0xd2, 0x3e, 0xec, 0x83, 0x6d, 0x3e, 0x5f, 0x23, 0xab, 0xbe,
  0x33, 0xa2, 0xac, 0xbe, 0x62, 0x78, 0xb6, 0x3e, 0x00, 0x8a, 0xf7, 0x3c,
  0xf8, 0xd9, 0xba, 0xbe, 0x1f, 0x9b, 0x3f, 0x3e, 0x70, 0x6a, 0x5c, 0xbe,
  0x74, 0x79, 0xb6, 0x3e, 0xce, 0xa7, 0x0b, 0xbd, 0x23, 0x8b, 0x92, 0x3d,
  0x88, 0x8f, 0x81, 0x3e, 0x57, 0x5f, 0x5f, 0x3e, 0x30, 0xa0, 0x6b, 0x3e,
  0x04, 0x3b, 0x86, 0xbd, 0x4c, 0x52, 0xa0, 0x3d, 0x91, 0x91, 0x0a, 0xbf,
  0x35, 0x95, 0xaa, 0x3c, 0x7c, 0x7e, 0x56, 0x3e, 0x10, 0xd9, 0xd9, 0xbd,
  0x52, 0xf2, 0xae, 0x3e, 0x3a, 0x49, 0x8e, 0xbf, 0x66, 0xcf, 0x0d, 0x3e,
  0x55, 0x2d, 0xad, 0xbc, 0x2b, 0xe8, 0xf7, 0x3d, 0x8f, 0xdf, 0x8e, 0xbe,
  0x4b, 0x68, 0xc7, 0x3d, 0xdd, 0xa0, 0x87, 0x3c, 0xcd, 0x25, 0x52, 0xbd,
  0xc7, 0xf4, 0xb5, 0x3e, 0x49, 0xd2, 0xe5, 0x3e, 0xf5, 0x3e, 0x27, 0x3e,
  0xa0, 0xf6, 0xcd, 0x3d, 0x73, 0x49, 0xd5, 0xbe, 0x13, 0x29, 0x0e, 0x3f,
  0x89, 0xc3, 0x71, 0x3d, 0xce, 0x45, 0x0b, 0x3b, 0xa9, 0x8c, 0xd6, 0x3e,
  0x43, 0x9c, 0x86, 0xbe, 0xae, 0x2b, 0x37, 0x3b, 0x9e, 0x84, 0xb8, 0xbd,
  0xc1, 0xaf, 0x9c, 0x3e, 0x42, 0x03, 0x14, 0x3e, 0xee, 0xbd, 0x62, 0xbe,
  0xdf, 0xb1, 0x46, 0xbd, 0xe0, 0x02, 0x0f, 0xbe, 0x22, 0x09, 0x0b, 0x3d,
  0xdd, 0xea, 0x18, 0x3d, 0xf5, 0x0f, 0x30, 0x3f, 0x90, 0x51, 0x82, 0x3e,
  0x32, 0x96, 0x5d, 0xbe, 0x81, 0x42, 0x0a, 0x3e, 0xa4, 0x81, 0xa1, 0xbe,
  0xd2, 0xac, 0x16, 0x3f, 0x9d, 0xc8, 0x90, 0x3a, 0x50, 0x86, 0x0e, 0x3f,
  0xb5, 0x07, 0x25, 0x3d, 0x66, 0x61, 0xae, 0x3e, 0x7d, 0xba, 0x03, 0x3f,
  0x20, 0x09, 0xa9, 0x3e, 0x89, 0xa5, 0x42, 0x3e, 0x62, 0xd0, 0x00, 0xbe,
  0xb7, 0xeb, 0x9c, 0x3c, 0x2f, 0x29, 0x01, 0xbe, 0x41, 0xd3, 0xd6, 0xbd,
  0x22, 0xb2, 0x12, 0x3f, 0x77, 0xed, 0x81, 0xbe, 0x69, 0xab, 0xe4, 0x3d,
  0x7b, 0x9e, 0x21, 0x3f, 0x91, 0x79, 0x88, 0xbe, 0x6b, 0x0b, 0xba, 0x3d,
  0xa3, 0x33, 0xac, 0xbd, 0x9c, 0xe5, 0x69, 0xbe, 0x39, 0xad, 0x13, 0x3f,
  0x00, 0x73, 0x83, 0xbe, 0xf6, 0x98, 0xb4, 0x3d, 0x6e, 0x69, 0xa3, 0x3e,
  0x76, 0x22, 0x87, 0x3e, 0xdb, 0x72, 0xc0, 0x3e, 0xa3, 0xcd, 0x8d, 0x3e,
  0x90, 0x47, 0xba, 0xbd, 0x9d, 0xe9, 0xdf, 0x3e, 0x09, 0xd1, 0x6d, 0xbe,
  0xb3, 0x78, 0x85, 0xbe, 0xb7, 0x17, 0xe5, 0x3e, 0xce, 0xb0, 0x4a, 0xbd,
  0x3d, 0xf6, 0xbe, 0xbd, 0xd7, 0x0e, 0xd8, 0xbe, 0xaa, 0x6c, 0xa7, 0xbd,
  0x3f, 0x33, 0xce, 0x3e, 0xf8, 0x8c, 0x88, 0x3e, 0x68, 0xf8, 0xa4, 0x3e,
  0x71, 0x65, 0xa8, 0xbc, 0x01, 0xe2, 0x25, 0xbe, 0xb7, 0x1f, 0x8d, 0x3e,
  0xa9, 0x0b, 0xb5, 0x3e, 0xdb, 0x70, 0x52, 0x3e, 0xc0, 0x67, 0x80, 0xbd,
  0x3b, 0x4f, 0xa7, 0x3e, 0xa0, 0x06, 0xa2, 0x3e, 0xc7, 0x6f, 0xd3, 0x3e,
  0x11, 0x46, 0xe3, 0x3e, 0x8f, 0x81, 0x00, 0x3e, 0xd4, 0x48, 0xe0, 0xbd,
  0xd7, 0x07, 0xc8, 0x3d, 0x1e, 0x8d, 0x35, 0x3e, 0x91, 0xc3, 0xc7, 0xbd,
  0x85, 0xe6, 0x9d, 0xbe, 0xd1, 0x27, 0xa5, 0xbe, 0x71, 0x1d, 0x1c, 0xbe,
  0xc1, 0x04, 0xaa, 0xbd, 0x9d, 0x50, 0x5c, 0x3d, 0xe8, 0x3c, 0xc1, 0x3e,
  0x0a, 0xa9, 0xd7, 0x3d, 0x66, 0xff, 0xfb, 0xbd, 0x12, 0xaa, 0xa3, 0x3c,
  0x7e, 0x6c, 0x85, 0x3c, 0xd5, 0x9b, 0x5b, 0x3f, 0xdb, 0x1a, 0x9f, 0x3e,
  0xd3, 0x94, 0x19, 0x3e, 0x9f, 0x9e, 0x7e, 0x3b, 0xcb, 0x66, 0x33, 0xbe,
  0x09, 0x29, 0xae, 0xbd, 0x0a, 0x6b, 0xe1, 0x3d, 0x9c, 0xc4, 0x9e, 0x3c,
  0x56, 0xa4, 0xb1, 0xbd, 0x94, 0xdf, 0x47, 0xbe, 0x38, 0x68, 0x12, 0xbe,
  0x8d, 0x61, 0xa9, 0xbd, 0x25, 0x4e, 0xcf, 0x3d, 0x8b, 0xb8, 0xb2, 0xbd,
  0xf5, 0x41, 0xb6, 0xbd, 0x43, 0x5d, 0xfd, 0x3e, 0x36, 0xc3, 0x91, 0x3e,
  0xfb, 0x72, 0x3a, 0x3e, 0xef, 0xea, 0xdf, 0xbd, 0xf1, 0x8f, 0x0b, 0x3f,
  0xae, 0xce, 0x20, 0xbe, 0x7d, 0x6d, 0xf4, 0x3e, 0x58, 0xc9, 0x17, 0xbd,
  0xbc, 0xb3, 0x9f, 0x3e, 0x78, 0x46, 0x1a, 0xbe, 0x6a, 0xd7, 0x69, 0xbe,
  0x03, 0x63, 0xaa, 0x3d, 0x9d, 0x41, 0x95, 0xbd, 0x9b, 0xdd, 0x84, 0xbe,
  0xba, 0x41, 0xab, 0x3e, 0x7e, 0xcc, 0xe4, 0x3e, 0x4a, 0xaa, 0x1d, 0xbd,
  0x86, 0xc8, 0x92, 0xbd, 0x05, 0x7e, 0x01, 0x3b, 0x72, 0xd9, 0xa3, 0x3e,
  0x9e, 0x6a, 0x28, 0x3e, 0x01, 0xd1, 0x25, 0xbe, 0x08, 0x59, 0x14, 0xbe,
  0x73, 0x90, 0x66, 0xbe, 0xe5, 0x86, 0xd0, 0xbe, 0x00, 0x4e, 0x00, 0x3d,
  0xfd, 0x7b, 0xdc, 0xbd, 0xd1, 0xf4, 0xba, 0xbc, 0xb7, 0x7b, 0x91, 0xbe,
  0x80, 0x21, 0x5a, 0xbd, 0x75, 0x42, 0x21, 0x3e, 0x26, 0xb9, 0x9a, 0xbd,
  0x10, 0xfb, 0x8c, 0xbe, 0x24, 0x42, 0x3d, 0x3d, 0xbd, 0x13, 0x51, 0xbe,
  0x2c, 0x91, 0x13, 0x3f, 0x7e, 0xea, 0xc4, 0x3e, 0xe1, 0x76, 0x66, 0x3e,
  0x9e, 0xe4, 0x8d, 0x3c, 0xe6, 0x8f, 0x10, 0xbd, 0x63, 0x4f, 0x99, 0x3e,
  0xcf, 0x22, 0xd5, 0x3d, 0x5b, 0x56, 0x20, 0xbc, 0xa7, 0x7e, 0xb3, 0x3c,
  0x92, 0x25, 0xa8, 0x3e, 0x6c, 0x33, 0x45, 0xbe, 0x49, 0xbb, 0x89, 0xbe,
  0x2d, 0x2e, 0x62, 0x3e, 0x84, 0x54, 0x0d, 0xbe, 0x51, 0xd0, 0x8c, 0xbf,
  0xc9, 0xa7, 0x4e, 0xbe, 0xbb, 0xf6, 0x2b, 0xbe, 0xba, 0x32, 0x12, 0x3d,
  0xed, 0xbb, 0x2e, 0x3f, 0x6e, 0x60, 0x31, 0x3f, 0xb7, 0x70, 0x10, 0xbd,
  0x43, 0xc9, 0xb5, 0xbd, 0xeb, 0x5a, 0xf4, 0x3e, 0x3a, 0x07, 0x31, 0x3b,
  0xb8, 0x0e, 0xc2, 0x3c, 0xb1, 0x42, 0x63, 0xbe, 0x70, 0xf7, 0xe8, 0xbe,
  0x60, 0x4b, 0x71, 0xbc, 0xdd, 0xb4, 0x22, 0x3d, 0x5e, 0xb7, 0x92, 0x3e,
  0xd2, 0x55, 0x2a, 0xbb, 0x93, 0x1d, 0x18, 0x3f, 0xd7, 0xea, 0x1a, 0xbe,
  0x36, 0x7f, 0x5a, 0xbe, 0x64, 0x9e, 0xdc, 0xbc, 0x8d, 0x0d, 0x69, 0xbd,
  0x02, 0x96, 0x1d, 0xbe, 0xdb, 0x81, 0xbf, 0x3d, 0xa9, 0x2f, 0x91, 0x3d,
  0x63, 0xdf, 0x1f, 0xbe, 0x37, 0x90, 0x4f, 0x3e, 0x66, 0xa3, 0x4f, 0xbe,
  0xe3, 0x83, 0xed, 0x3d, 0x17, 0xfa, 0x1e, 0x3e, 0x6d, 0xf1, 0x81, 0xbd,
  0xf7, 0x66, 0x12, 0xbe, 0x84, 0x1c, 0x30, 0xbe, 0x2f, 0x21, 0x75, 0xbe,
  0x59, 0x40, 0x5f, 0x3d, 0xe4, 0x71, 0xa4, 0xbe, 0x46, 0x06, 0xb7, 0xbd,
  0xe0, 0x2a, 0x17, 0x3c, 0x7f, 0xb5, 0x10, 0xbe, 0x51, 0x1e, 0x4c, 0x3e,
  0x0b, 0x0e, 0xad, 0xbd, 0x73, 0x87, 0x8e, 0x3e, 0xa7, 0x61, 0x63, 0xbd,
  0x33, 0x45, 0x11, 0xbe, 0x4c, 0x47, 0x29, 0xbd, 0x83, 0x3b, 0x4b, 0x3e,
  0x47, 0xa5, 0x85, 0x3d, 0x04, 0x1c, 0x6a, 0x3d, 0xfd, 0xa3, 0x2c, 0xbe,
  0x6d, 0x08, 0x09, 0x3f, 0x68, 0xbc, 0x7f, 0xbd, 0x48, 0xe6, 0xbc, 0xbe,
  0xbb, 0xc8, 0xc9, 0x3e, 0x12, 0x74, 0x9e, 0xbe, 0xb4, 0x31, 0xc6, 0x3e,
  0x7b, 0xf7, 0x5c, 0x3e, 0x19, 0x62, 0xc9, 0x3d, 0xc3, 0x48, 0xb8, 0x3e,
  0x59, 0x7b, 0x99, 0xbc, 0x20, 0xa3, 0x54, 0xbd, 0x72, 0xa8, 0xd5, 0x3e,
  0xdd, 0x01, 0xe4, 0xbd, 0xe6, 0xf9, 0x57, 0x3c, 0x9c, 0x97, 0xe6, 0x3d,
  0x2c, 0xd3, 0x75, 0xbd, 0x97, 0x4b, 0xc8, 0x3b, 0x9c, 0xb7, 0xe1, 0xbe,
  0x4d, 0xc4, 0x3a, 0xbc, 0xb4, 0x99, 0x2b, 0x3f, 0xc6, 0xe4, 0xc4, 0x3e,
  0x71, 0x9b, 0x94, 0x3e, 0x43, 0xc3, 0x5a, 0x3e, 0xaa, 0x47, 0xb9, 0xbd,
  0x5f, 0x81, 0xa3, 0x3e, 0x5d, 0xdb, 0x8c, 0x3e, 0xf1, 0x1b, 0x02, 0x3e,
  0xcd, 0x9f, 0xa5, 0xbe, 0x92, 0x8d, 0xbf, 0x3d, 0x9d, 0x02, 0x6f, 0x3e,
  0x74, 0x8a, 0x11, 0x3f, 0x38, 0x30, 0x92, 0x3e, 0x6b, 0x10, 0x67, 0xbd,
  0x3a, 0xca, 0xb6, 0x3e, 0x13, 0x3f, 0x17, 0x3f, 0x1c, 0x4c, 0xdf, 0xbe,
  0xb2, 0x49, 0x3e, 0x3f, 0x28, 0x21, 0x43, 0x3b, 0x92, 0x91, 0x07, 0x3f,
  0x2b, 0xb6, 0x0e, 0x3e, 0x48, 0x18, 0x32, 0xbe, 0xee, 0xb7, 0xc8, 0x3e,
  0xaf, 0x82, 0xe6, 0xbb, 0xda, 0x90, 0x8f, 0xbe, 0x95, 0x66, 0x97, 0x3e,
  0xdf, 0xcc, 0x8b, 0x3e, 0xc4, 0x36, 0x5b, 0xbe, 0x89, 0xe1, 0x88, 0xbe,
  0x2c, 0x5f, 0x54, 0x3e, 0x48, 0x2c, 0xf7, 0x3e, 0xd7, 0x23, 0x05, 0x3f,
  0xad, 0x9e, 0xf1, 0x3d, 0xdb, 0x33, 0x07, 0x3e, 0x7c, 0xa4, 0x54, 0xbd,
  0xee, 0x90, 0x07, 0xbe, 0xf0, 0x51, 0x22, 0x3e, 0x44, 0xbf, 0x47, 0xbd,
  0xc5, 0x3c, 0x74, 0xbe, 0x73, 0x07, 0xbb, 0xbe, 0xe5, 0x7e, 0xac, 0x3e,
  0x32, 0x40, 0x0e, 0x3d, 0x2a, 0x1b, 0x22, 0xbd, 0x55, 0x5b, 0xa5, 0xbe,
  0xc9, 0x84, 0xb9, 0xbb, 0xa4, 0xf5, 0x51, 0x3d, 0x22, 0x32, 0x6c, 0x3f,
  0x48, 0xc3, 0xa1, 0x3d, 0x59, 0xe6, 0x76, 0xbe, 0xfe, 0xee, 0x3d, 0x3e,
  0x1d, 0x73, 0x09, 0xbc, 0x2e, 0x17, 0x9f, 0x3d, 0xb8, 0x49, 0x56, 0xbe,
  0xb8, 0xf6, 0xb9, 0xbe, 0x3a, 0xb4, 0x0f, 0x3e, 0x21, 0x80, 0x86, 0x3e,
  0x46, 0x56, 0x5b, 0x3d, 0x88, 0x7e, 0xad, 0xbe, 0xfb, 0x61, 0xeb, 0xbe,
  0xb6, 0x31, 0xd6, 0xbd, 0xf1, 0x84, 0xf9, 0xbe, 0xa5, 0x55, 0x0d, 0x3e,
  0xe0, 0x9b, 0xa6, 0x3e, 0x98, 0x47, 0x0f, 0x3b, 0x88, 0xc9, 0xbb, 0xbd,
  0x02, 0x1a, 0x3d, 0x3f, 0x90, 0x37, 0x22, 0xbf, 0x97, 0x01, 0x3a, 0xbe,
  0xbd, 0xa3, 0xbe, 0xbe, 0x59, 0xee, 0x6e, 0xbe, 0x8b, 0x23, 0xa6, 0x3d,
  0x26, 0x30, 0x05, 0x3e, 0xd6, 0xd6, 0x45, 0xbe, 0x83, 0x4b, 0xf2, 0xbe,
  0xcd, 0xb6, 0x51, 0x3e, 0x10, 0xbb, 0x53, 0x3e, 0xc9, 0xd2, 0xed, 0x3d,
  0x39, 0x55, 0xe3, 0x3d, 0x89, 0x1d, 0xe5, 0x3e, 0xe9, 0x0a, 0xcc, 0x3d,
  0x09, 0x90, 0xea, 0xbe, 0xff, 0x48, 0xb2, 0x3e, 0x9e, 0xcf, 0x2e, 0x3e,
  0xff, 0xe2, 0x98, 0xbd, 0xe5, 0x2a, 0x4d, 0xbb, 0x3b, 0xfe, 0xbf, 0x3e,
  0x94, 0xe9, 0xaf, 0xbd, 0x16, 0x38, 0x58, 0xbe, 0xe9, 0x06, 0x05, 0xbd,
  0x2e, 0x1b, 0xae, 0xbe, 0x07, 0xb5, 0xe4, 0xbc, 0x48, 0x4d, 0x8c, 0xbd,
  0x85, 0xd2, 0xcb, 0xbe, 0xe5, 0xf1, 0x50, 0xbd, 0x64, 0x35, 0x50, 0xbd,
  0xd7, 0xfc, 0x85, 0x3c, 0xc6, 0x11, 0x28, 0x3f, 0x47, 0x09, 0xff, 0xbc,
  0x52, 0x4e, 0x14, 0x3e, 0xef, 0x33, 0xb2, 0x3e, 0xc2, 0x40, 0x23, 0x3e,
  0x55, 0x40, 0xe9, 0x3d, 0xd4, 0x36, 0xe1, 0xbb, 0xdc, 0x58, 0x1f, 0xbe,
  0x53, 0x7c, 0x77, 0xbe, 0x03, 0x93, 0x67, 0x3d, 0xef, 0xcc, 0x95, 0x3e,
  0x1b, 0x18, 0x6f, 0x3e, 0x05, 0xd4, 0x13, 0xbe, 0x9b, 0x15, 0x97, 0x3e,
  0xf1, 0x58, 0x4e, 0xbd, 0x7c, 0x0b, 0xcf, 0x3e, 0x64, 0x54, 0x1c, 0xbe,
  0x47, 0x08, 0x19, 0xbe, 0x5f, 0xfa, 0x35, 0x3e, 0x45, 0xe4, 0x19, 0x3e,
  0x1a, 0x90, 0x93, 0x3e, 0x21, 0xd8, 0x22, 0x3e, 0x95, 0x06, 0xf0, 0xbc,
  0x23, 0xcf, 0xdb, 0xbe, 0xee, 0x7f, 0xa5, 0xbb, 0xfa, 0xe4, 0x8f, 0x3e,
  0x85, 0xd5, 0x22, 0x3e, 0x00, 0xf0, 0x57, 0x3e, 0x53, 0x8d, 0x1d, 0xbf,
  0x64, 0x08, 0x81, 0xbe, 0xaf, 0xa5, 0x49, 0xbe, 0xe7, 0x89, 0x7f, 0x3d,
  0x5a, 0x9d, 0xcd, 0xbd, 0x9e, 0x5f, 0xd2, 0xbd, 0x65, 0xa8, 0x23, 0xbd,
  0xcc, 0x40, 0xc3, 0xbe, 0x30, 0x4e, 0x11, 0x3e, 0x05, 0x85, 0x6e, 0x3d,
  0xb1, 0xe4, 0x90, 0x3e, 0x17, 0x52, 0xdb, 0x3e, 0xd4, 0x8e, 0x00, 0xbe,
  0x1b, 0x70, 0x0d, 0x3e, 0x72, 0xfd, 0x7b, 0xbe, 0xb3, 0x4e, 0x1c, 0xbe,
  0x37, 0x45, 0xb4, 0xbe, 0xff, 0x19, 0x36, 0xbe, 0xf4, 0x6e, 0x04, 0xbf,
  0xff, 0x65, 0x15, 0x3d, 0x7c, 0xbf, 0x04, 0x3e, 0x01, 0xd1, 0xcf, 0x3e,
  0xfb, 0x29, 0x33, 0xbe, 0xca, 0x59, 0x0b, 0xbd, 0x15, 0xca, 0x98, 0xbe,
  0xc6, 0x86, 0x8f, 0x3d, 0xf6, 0x37, 0xa0, 0xbd, 0x2b, 0x2b, 0xa2, 0xbd,
  0x05, 0xde, 0x4e, 0xbe, 0x3b, 0xd5, 0x0e, 0x3e, 0x67, 0x97, 0x15, 0x3e,
  0xcc, 0x4f, 0x00, 0x3e, 0xf4, 0x41, 0x23, 0xbe, 0x60, 0xf2, 0xb2, 0x3b,
  0x15, 0x7d, 0xd6, 0x3c, 0xd4, 0x4a, 0x6f, 0x3d, 0xe4, 0xe5, 0xda, 0x3e,
  0x51, 0x19, 0x24, 0xbd, 0x3c, 0x73, 0x0b, 0x3e, 0x3c, 0xc8, 0x7d, 0x3e,
  0x7a, 0x56, 0x01, 0x3f, 0xa7, 0xa6, 0xa4, 0x3e, 0x27, 0x6f, 0x32, 0xbe,
  0xc1, 0xc1, 0x89, 0xbe, 0x7a, 0x51, 0x14, 0xbd, 0x7b, 0x62, 0x65, 0x3e,
  0xc6, 0x15, 0x6c, 0xbd, 0x8e, 0xd4, 0x9c, 0xbe, 0xaa, 0x0a, 0x27, 0x3d,
  0xf8, 0x7c, 0xa5, 0xbe, 0x4a, 0x42, 0x0f, 0xbf, 0xb5, 0x79, 0x21, 0xbe,
  0x86, 0xd4, 0x87, 0xbd, 0xf3, 0x23, 0x96, 0xbd, 0x32, 0xa2, 0xca, 0xbc,
  0x05, 0xab, 0x97, 0xbe, 0x0d, 0xcc, 0xb1, 0xbd, 0xb0, 0x58, 0x26, 0xbd,
  0x3a, 0x55, 0x33, 0xbe, 0xb2, 0x80, 0x60, 0x3e, 0x26, 0xdc, 0x55, 0x3e,
  0xa8, 0x63, 0x29, 0xbe, 0xe4, 0x7a, 0x60, 0x3e, 0x3c, 0x5a, 0x9c, 0xbd,
  0xdd, 0x87, 0x9a, 0x3f, 0x63, 0xe3, 0x8f, 0x3e, 0x90, 0xd8, 0x20, 0xbc,
  0x9c, 0x34, 0x13, 0xbd, 0x33, 0x44, 0xd2, 0x3d, 0x92, 0x9e, 0x37, 0xbd,
  0x51, 0x85, 0x8b, 0x3e, 0x99, 0xe3, 0xfd, 0x3e, 0xa3, 0x30, 0x1b, 0x3d,
  0x7e, 0x2b, 0x3a, 0x3e, 0x31, 0x4d, 0xc1, 0xbd, 0x4a, 0x20, 0x10, 0x3b,
  0x2c, 0xcc, 0x1c, 0x3f, 0xeb, 0x04, 0x89, 0xbd, 0x44, 0x1b, 0x3b, 0xbe,
  0xec, 0x5c, 0x1a, 0x3e, 0x10, 0xdd, 0x0b, 0x3e, 0xb7, 0x87, 0x39, 0x3e,
  0x2c, 0x31, 0x4c, 0x3f, 0x8f, 0xd5, 0xb5, 0xbc, 0x72, 0x83, 0x2b, 0x3e,
  0xa2, 0xd8, 0xf2, 0x3e, 0xa0, 0x72, 0x85, 0xbe, 0x2f, 0x30, 0xcc, 0x3e,
  0x83, 0x7b, 0x22, 0xbe, 0x23, 0x56, 0x16, 0xbe, 0x28, 0xba, 0xbd, 0x3d,
  0xde, 0x06, 0xf4, 0x3e, 0xe0, 0xac, 0x72, 0xbe, 0x63, 0x58, 0xdb, 0xbc,
  0x89, 0x55, 0x5a, 0xbe, 0x04, 0x0f, 0xce, 0x3c, 0x3b, 0x4a, 0x66, 0xbf,
  0x84, 0xc2, 0x93, 0xbd, 0x0d, 0x94, 0xa5, 0x3e, 0x90, 0xd5, 0x8d, 0x3b,
  0xff, 0x26, 0x26, 0x3f, 0x1f, 0xa3, 0x54, 0x3f, 0x7c, 0x4b, 0x8c, 0xbe,
  0x4c, 0xb2, 0x21, 0xbd, 0x01, 0xf3, 0x5c, 0xbd, 0xbe, 0xb1, 0xae, 0x3d,
  0x7f, 0x26, 0x39, 0xbe, 0x31, 0xeb, 0x91, 0x3a, 0x4e, 0x52, 0xb1, 0xbe,
  0xe3, 0xee, 0x21, 0xbc, 0x3d, 0x7c, 0xcb, 0x3e, 0x5d, 0xb5, 0xbe, 0x3e,
  0x62, 0x15, 0xd0, 0x3e, 0x71, 0xa2, 0x21, 0x3e, 0x34, 0xc8, 0xfd, 0x3b,
  0x22, 0xab, 0x68, 0xbe, 0x08, 0xc6, 0x2c, 0xbd, 0x9f, 0x16, 0x47, 0x3e,
  0x0c, 0x1b, 0x9f, 0xbe, 0x48, 0x32, 0x39, 0xbe, 0x4c, 0x78, 0xbe, 0xbe,
  0xd8, 0x7d, 0x68, 0x3e, 0x6b, 0x5f, 0x54, 0x3e, 0x18, 0xeb, 0x79, 0x3f,
  0xc2, 0xab, 0x79, 0x3e, 0xcb, 0xe7, 0xee, 0xbd, 0x1f, 0x67, 0x47, 0xbd,
  0xf9, 0xbc, 0xe7, 0xbe, 0x4c, 0xb8, 0xa4, 0x3e, 0x7d, 0x6b, 0x4c, 0x3e,
  0x81, 0x05, 0xfa, 0x3e, 0x5c, 0x9e, 0x68, 0x3e, 0x77, 0xc9, 0x9d, 0x3e,
  0x6c, 0x2c, 0x33, 0x3f, 0xd7, 0x04, 0x95, 0x3e, 0x43, 0x9c, 0x99, 0x3e,
  0xe2, 0xfe, 0xe5, 0x3d, 0x0c, 0x16, 0x8f, 0xbe, 0x5b, 0x09, 0x8c, 0xbe,
  0x43, 0xd1, 0xab, 0xbe, 0xe8, 0x78, 0xd2, 0x3e, 0x38, 0x17, 0xf9, 0x3d,
  0x77, 0xfc, 0xa2, 0x3e, 0x6f, 0x39, 0x41, 0x3f, 0xc3, 0xe0, 0x42, 0x3e,
  0x73, 0xf1, 0xf7, 0xbc, 0x88, 0x16, 0x10, 0x3e, 0x70, 0xc8, 0x0b, 0x3d,
  0x02, 0x5f, 0x50, 0x3e, 0xd4, 0xf8, 0x79, 0xbe, 0x8c, 0x8e, 0x4a, 0x3d,
  0xf4, 0xf7, 0x0a, 0xbe, 0x3f, 0x1d, 0x40, 0xbe, 0xe2, 0x3f, 0x05, 0xbe,
  0xdd, 0x9d, 0x15, 0xbe, 0xac, 0x37, 0xb2, 0xbd, 0x8c, 0x93, 0x0b, 0xbe,
  0xad, 0xa1, 0x62, 0xba, 0x26, 0xd6, 0x06, 0xbe, 0x12, 0xb4, 0xad, 0xbc,
  0xf6, 0x77, 0x75, 0xbe, 0xbf, 0xb2, 0x4a, 0x3e, 0x66, 0x68, 0xc4, 0xbd,
  0x2b, 0x71, 0x3a, 0xbe, 0x84, 0x5c, 0x1c, 0xbd, 0x70, 0xe4, 0x8c, 0x3c,
  0xf9, 0x0a, 0x2b, 0xba, 0x9d, 0x85, 0x20, 0xbd, 0x7a, 0x95, 0xf5, 0xbd,
  0xc5, 0xbe, 0xe6, 0xbd, 0x21, 0xa5, 0xfc, 0x3d, 0x6c, 0x6c, 0x54, 0x3e,
  0x87, 0xf0, 0xea, 0xbd, 0xaf, 0x88, 0x76, 0xbe, 0x1e, 0x15, 0xb0, 0x3e,
  0xd7, 0x07, 0x10, 0x3e, 0x7b, 0x8b, 0x72, 0xbe, 0x90, 0xf3, 0xe7, 0xbd,
  0x28, 0x0f, 0x0a, 0xbe, 0x63, 0x8b, 0x05, 0x3d, 0x20, 0xd5, 0xfa, 0xbd,
  0xab, 0x75, 0x25, 0xbe, 0x78, 0xfc, 0x2a, 0x3e, 0x03, 0x04, 0x54, 0x3e,
  0x60, 0x98, 0x48, 0xbe, 0xe8, 0x9c, 0x1c, 0xbe, 0x07, 0xeb, 0x0e, 0xbd,
  0x3d, 0x00, 0x35, 0xbe, 0x80, 0xff, 0xfa, 0xbd, 0x5f, 0x5b, 0x1c, 0x3e,
  0x72, 0xba, 0x76, 0xbe, 0x20, 0x21, 0x8d, 0xbc, 0x58, 0xad, 0x5c, 0x3e,
  0xff, 0xb1, 0x5c, 0x3d, 0xc0, 0x65, 0x39, 0x3e, 0x14, 0xaf, 0xdf, 0x3c,
  0x88, 0x01, 0xb1, 0xbd, 0x91, 0x30, 0xc8, 0xbd, 0x68, 0x5a, 0x75, 0xbe,
  0xd0, 0xf2, 0xc8, 0xbd, 0xd0, 0x63, 0x75, 0xbe, 0x23, 0xa4, 0x7b, 0xbe,
  0xbc, 0x05, 0x01, 0xbe, 0x3c, 0x8a, 0x22, 0x3e, 0xd5, 0x12, 0x0c, 0xbd,
  0xbc, 0xc7, 0x00, 0xbd, 0xb4, 0xce, 0x10, 0xbe, 0xbc, 0x37, 0x0b, 0xbe,
  0x0a, 0xad, 0x33, 0xbc, 0xf8, 0x2d, 0x88, 0x3e, 0xc2, 0x13, 0x6c, 0x3f,
  0x99, 0x6c, 0x65, 0xbd, 0xea, 0x19, 0x93, 0xbe, 0xb3, 0x13, 0x83, 0x3e,
  0x67, 0xbd, 0x65, 0xbd, 0x53, 0x02, 0xe5, 0x3d, 0xb7, 0x7b, 0x86, 0x3e,
  0x54, 0x24, 0xbf, 0xbe, 0xbb, 0x0e, 0x62, 0x3e, 0x37, 0xdf, 0x1d, 0x3d,
  0xd0, 0xb4, 0x2a, 0x3e, 0x21, 0x0e, 0xa2, 0x3c, 0x24, 0xd2, 0x60, 0xbe,
  0x4e, 0x78, 0x27, 0xbe, 0xdd, 0x98, 0x6f, 0xbf, 0x6c, 0xf3, 0x04, 0x3c,
  0xfd, 0xb2, 0x34, 0xbd, 0x35, 0x48, 0x64, 0xbe, 0x7d, 0x88, 0x8d, 0xbe,
  0x50, 0x36, 0xec, 0x3e, 0x50, 0xaf, 0xaf, 0xbe, 0x11, 0xb7, 0x82, 0x3e,
  0x59, 0x92, 0x01, 0xbe, 0x61, 0xfa, 0xa3, 0xbe, 0xdb, 0x8f, 0x62, 0x3d,
  0x4a, 0xdf, 0x6b, 0xbe, 0xf5, 0xb9, 0x1f, 0xbe, 0xe7, 0xbc, 0xd3, 0x3c,
  0x73, 0x39, 0x53, 0x3e, 0xbc, 0xf4, 0x0c, 0x3f, 0xa4, 0x1c, 0x46, 0xbe,
  0x1c, 0x7b, 0x0f, 0xbe, 0x1c, 0x9b, 0x50, 0x3e, 0xbc, 0x9a, 0x1a, 0xbe,
  0x40, 0xe1, 0x33, 0xbd, 0x70, 0xd7, 0xc7, 0xbd, 0x00, 0x70, 0x94, 0x3c,
  0x48, 0xed, 0x45, 0x3e, 0x10, 0x51, 0x7a, 0x3d, 0xe0, 0xb5, 0xeb, 0xbc,
  0x84, 0x1c, 0x69, 0xbe, 0xa0, 0x28, 0x8a, 0xbc, 0x98, 0x68, 0x88, 0xbd,
  0xd8, 0xea, 0x68, 0xbe, 0xe0, 0xbc, 0x43, 0xbe, 0xb8, 0x1f, 0x78, 0x3e,
  0x1c, 0x20, 0x18, 0x3e, 0x18, 0x30, 0x37, 0xbe, 0x80, 0x11, 0x33, 0xbe,
  0x28, 0xd7, 0x01, 0x3e, 0x60, 0xc3, 0x4b, 0xbe, 0x8c, 0x54, 0x3d, 0x3e,
  0x40, 0xde, 0x7b, 0xbe, 0x00, 0xb8, 0x98, 0x3c, 0xe8, 0x9d, 0x02, 0x3e,
  0x1c, 0x09, 0x37, 0xbe, 0xa8, 0x5f, 0x91, 0x3d, 0x00, 0x05, 0x4f, 0xbb,
  0x90, 0x19, 0xd5, 0xbd, 0xe8, 0xd2, 0x24, 0xbe, 0x28, 0x89, 0xfe, 0xbd,
  0x00, 0x1b, 0x2e, 0x3b, 0x4e, 0x03, 0xab, 0x3b, 0xca, 0xb8, 0xbd, 0xbe,
  0xb6, 0x55, 0x00, 0xbf, 0x3c, 0x8d, 0x13, 0x3e, 0x8f, 0x54, 0x4a, 0x3e,
  0x05, 0x25, 0x4f, 0x3e, 0x0e, 0x4c, 0x71, 0x3e, 0xd7, 0x19, 0x0c, 0xbe,
  0xbb, 0xa3, 0x2d, 0xbe, 0xd3, 0xeb, 0x21, 0x3e, 0x20, 0x97, 0x60, 0xbe,
  0xed, 0x1c, 0x6a, 0x3e, 0x9a, 0xfa, 0x36, 0x3c, 0x08, 0x5e, 0x29, 0x3d,
  0xc1, 0x57, 0xed, 0x3d, 0xdf, 0x8d, 0xdd, 0x3d, 0x08, 0x9f, 0x9a, 0x3f,
  0x19, 0xf0, 0x59, 0xbe, 0x18, 0x7e, 0xdc, 0x3d, 0xbd, 0x41, 0xb6, 0x3d,
  0xe2, 0x56, 0xcf, 0x3e, 0xd6, 0x8e, 0x20, 0x3d, 0x0b, 0x4a, 0x94, 0x3e,
  0x8b, 0xfd, 0x22, 0x3f, 0xc8, 0x4c, 0x51, 0x3d, 0xfb, 0xe5, 0x97, 0x3e,
  0x12, 0x95, 0xb9, 0x3c, 0xff, 0xe1, 0x4b, 0x3e, 0xce, 0x7e, 0x64, 0x3e,
  0xe8, 0x1a, 0xbe, 0x3e, 0x22, 0xd3, 0x1f, 0x3e, 0x34, 0x90, 0x3d, 0xbe,
  0x37, 0xf3, 0x85, 0x3e, 0x2e, 0x09, 0xa0, 0xbd, 0x92, 0xc4, 0x17, 0xbf,
  0xdf, 0xc1, 0xd8, 0x3d, 0x34, 0x60, 0xa5, 0xbd, 0x31, 0xb1, 0x0a, 0xbd,
  0xd8, 0x12, 0xe7, 0xbd, 0x41, 0xcf, 0xd1, 0xbe, 0xdc, 0x1f, 0xe2, 0x3a,
  0x06, 0xe0, 0x1a, 0xbe, 0x05, 0x57, 0x23, 0xbe, 0x94, 0x22, 0xcb, 0x3e,
  0xae, 0x26, 0xf0, 0x3e, 0x79, 0x39, 0x9a, 0x3d, 0x88, 0x49, 0xd2, 0x3d,
  0xf2, 0xcb, 0xb0, 0xbe, 0x99, 0x8c, 0x82, 0x3f, 0x24, 0x87, 0x80, 0x3e,
  0x52, 0x59, 0x98, 0x3e, 0xda, 0xe1, 0x92, 0x3d, 0x15, 0x57, 0x3a, 0xbe,
  0x35, 0x59, 0xb4, 0xbe, 0xa7, 0xba, 0xcd, 0x3e, 0x08, 0x41, 0xb3, 0x3b,
  0x2a, 0xb8, 0xe5, 0xbc, 0x60, 0x21, 0x85, 0xbe, 0x5c, 0x25, 0xf9, 0x3d,
  0xea, 0x7c, 0x37, 0xbe, 0xd8, 0x90, 0xd7, 0x3e, 0xc6, 0x05, 0x5e, 0xbe,
  0xe8, 0xbb, 0x2c, 0x3e, 0x51, 0x52, 0x91, 0x3d, 0x49, 0x15, 0x55, 0x3e,
  0x21, 0xba, 0x31, 0xbe, 0x6b, 0x11, 0x5a, 0xbe, 0x6d, 0xfa, 0x3b, 0xbe,
  0x17, 0xbb, 0x8c, 0x3e, 0xe5, 0x9a, 0x42, 0xbe, 0xfb, 0xe2, 0x6c, 0xbe,
  0x2e, 0x70, 0x4b, 0xbe, 0x29, 0xbb, 0xb2, 0xbe, 0x53, 0xf2, 0xd1, 0x3d,
  0x74, 0xfa, 0x6e, 0x3e, 0xc1, 0xa5, 0x8a, 0x3e, 0x9c, 0x6a, 0xc1, 0xbc,
  0x15, 0xcd, 0x71, 0x3e, 0x50, 0xb3, 0xbc, 0xbd, 0xed, 0x9b, 0x87, 0xbd,
  0x15, 0x02, 0xc0, 0x3f, 0x19, 0x27, 0xaa, 0x3e, 0x67, 0xde, 0x53, 0x3e,
  0xb5, 0x81, 0xc4, 0x3e, 0xaa, 0xe8, 0x4e, 0x3b, 0xcf, 0x18, 0x86, 0xbe,
  0x12, 0xae, 0xcc, 0x3e, 0x9d, 0xf2, 0x1d, 0x3e, 0x51, 0x12, 0x22, 0x3e,
  0xe2, 0xd1, 0xca, 0x3c, 0x52, 0xe9, 0x4c, 0xbe, 0xe9, 0x4c, 0xa3, 0x3b,
  0x88, 0x3d, 0x25, 0x3f, 0xc9, 0xd6, 0x9c, 0x3e, 0x63, 0xb2, 0xe0, 0xbd,
  0x24, 0xd9, 0xe3, 0x3d, 0x74, 0xf6, 0xef, 0xbd, 0x6d, 0x54, 0x28, 0xbe,
  0xae, 0x64, 0x25, 0xbe, 0x71, 0x87, 0xa9, 0x3e, 0x43, 0xdd, 0x82, 0xbe,
  0x25, 0xb4, 0x66, 0x3d, 0x98, 0xf4, 0x47, 0x3d, 0x1d, 0xbe, 0x04, 0xbe,
  0x63, 0x0b, 0x18, 0xbe, 0x44, 0xc9, 0x0c, 0xbd, 0x4d, 0x2c, 0xa4, 0x3d,
  0x29, 0xc0, 0xf9, 0xbe, 0x97, 0x8a, 0xb4, 0xbd, 0xf9, 0x25, 0x85, 0x3e,
  0xf5, 0x54, 0xf9, 0x3d, 0x08, 0x2c, 0x47, 0xbd, 0x85, 0x2c, 0xa9, 0xbe,
  0x4e, 0x33, 0x3a, 0xbb, 0xa1, 0xa8, 0x09, 0xbd, 0x63, 0x92, 0xd5, 0x3d,
  0x8b, 0x86, 0x3c, 0x3d, 0x19, 0x52, 0x18, 0x3d, 0x82, 0x93, 0x77, 0xbe,
  0xa3, 0xae, 0x2d, 0xbe, 0xaa, 0x64, 0xa3, 0x3e, 0x16, 0xd0, 0x91, 0x3e,
  0x08, 0x33, 0x01, 0x3e, 0x06, 0x73, 0x15, 0x3c, 0xd4, 0xe7, 0xc8, 0xbd,
  0x41, 0x53, 0x5b, 0x3e, 0x66, 0x93, 0xa6, 0xbe, 0xff, 0x5c, 0x43, 0xbf,
  0x3e, 0x75, 0x5c, 0x3e, 0x31, 0xc3, 0x89, 0xbe, 0x73, 0x2f, 0x07, 0xbf,
  0x9c, 0xe5, 0x6c, 0xbe, 0xb6, 0x79, 0xf0, 0x3e, 0xfc, 0x20, 0x57, 0xbe,
  0xb0, 0x4f, 0x3d, 0x3c, 0x5c, 0xb3, 0x14, 0x3d, 0x94, 0x83, 0x21, 0xbe,
  0xad, 0x04, 0x43, 0x3e, 0xba, 0xa7, 0x9e, 0xbc, 0x4b, 0x97, 0xb4, 0x3e,
  0x10, 0x08, 0x35, 0x3e, 0x4d, 0x04, 0x57, 0xbd, 0x1d, 0xed, 0x90, 0xbc,
  0x3c, 0x1c, 0xaa, 0xbd, 0x78, 0xc5, 0xa2, 0x3f, 0xb6, 0x17, 0x7f, 0x3e,
  0x93, 0x4a, 0x35, 0x3d, 0x8a, 0x09, 0x03, 0x3e, 0xcf, 0xeb, 0x49, 0x3e,
  0x6e, 0x12, 0xa3, 0xbe, 0xe9, 0x02, 0x2d, 0x3e, 0x3c, 0x4d, 0xd6, 0x3e,
  0xb8, 0xa4, 0xa9, 0x3d, 0x0a, 0xaf, 0xf6, 0x3b, 0x24, 0xf9, 0x8d, 0x3e,
  0x74, 0x40, 0xd5, 0x3e, 0x68, 0x63, 0x3e, 0x3e, 0xb5, 0x9e, 0x06, 0xbe,
  0x4a, 0x04, 0xb1, 0xbd, 0x03, 0xaa, 0x2f, 0x3e, 0x34, 0xa0, 0x61, 0x3e,
  0x5a, 0x38, 0xa6, 0x3d, 0x14, 0x7d, 0xd7, 0x3d, 0xa2, 0xf3, 0x5a, 0x3e,
  0xad, 0xc7, 0x7e, 0x3d, 0xcd, 0x0a, 0x4c, 0x3e, 0x87, 0x74, 0x0f, 0x3c,
  0xc7, 0x67, 0x0f, 0xbe, 0x22, 0xe4, 0x27, 0x3e, 0x1d, 0x2d, 0xe6, 0x3d,
  0x94, 0x76, 0xfb, 0x3b, 0x47, 0x9b, 0x11, 0xbe, 0x1f, 0xa0, 0xe3, 0xbd,
  0x9d, 0x24, 0x06, 0x3d, 0x90, 0x13, 0xb8, 0xbd, 0x51, 0xc0, 0xe3, 0xbc,
  0x3c, 0xcc, 0x00, 0x3e, 0x82, 0xf8, 0x66, 0xbe, 0x50, 0x5a, 0x8d, 0xbe,
  0xd7, 0x16, 0xe0, 0xbd, 0xa3, 0x23, 0x9a, 0x3d, 0x93, 0x82, 0x1d, 0xbe,
  0xf9, 0x9e, 0xf5, 0x3c, 0x1e, 0xee, 0xe9, 0xbd, 0x0c, 0x6e, 0x4c, 0xbe,
  0x10, 0x31, 0x51, 0xbe, 0xb0, 0x0f, 0xb4, 0xbc, 0xb5, 0x0f, 0xb0, 0x3d,
  0x24, 0xb6, 0x09, 0xbe, 0x28, 0x79, 0xed, 0x3c, 0x7d, 0xbc, 0x8f, 0xbd,
  0xbf, 0x56, 0xbc, 0xbd, 0x11, 0xee, 0x82, 0x3e, 0x15, 0x63, 0x88, 0xbe,
  0x3e, 0x75, 0x62, 0xbf, 0x81, 0x32, 0xcf, 0xbd, 0xb7, 0x5c, 0xe9, 0xbc,
  0xca, 0xec, 0x50, 0xbe, 0xdf, 0xcf, 0x4f, 0xbe, 0xde, 0x2d, 0xd0, 0xbd,
  0xf3, 0x69, 0xf9, 0xbd, 0x44, 0x22, 0x2e, 0xbe, 0x4d, 0x56, 0x83, 0xbd,
  0x79, 0x3d, 0xe2, 0x3e, 0xed, 0x2c, 0x06, 0xbd, 0xec, 0x4a, 0x76, 0x3e,
  0xdc, 0x02, 0xb6, 0x3e, 0x1e, 0x1d, 0xab, 0xbe, 0x4a, 0x7f, 0x9c, 0x3f,
  0x5b, 0xb7, 0xa6, 0x3d, 0xa2, 0x95, 0xc1, 0xbd, 0xd6, 0x4a, 0x13, 0x3e,
  0xec, 0xcc, 0xe2, 0x3e, 0x5b, 0x9a, 0x2c, 0xbe, 0x35, 0x6d, 0x8e, 0x3d,
  0x5e, 0x46, 0x19, 0x3f, 0x51, 0xd3, 0x65, 0x3e, 0x2b, 0xc0, 0x66, 0x3e,
  0x1b, 0xfb, 0xda, 0xbd, 0x9f, 0x78, 0xab, 0x3c, 0xc5, 0x93, 0x0a, 0x3f,
  0xcf, 0x8d, 0xe4, 0x3e, 0xea, 0x63, 0xbb, 0xbc, 0xee, 0xef, 0x05, 0xbe,
  0x59, 0x4e, 0x96, 0x3e, 0xc5, 0xa9, 0xc7, 0x3e, 0xbf, 0x03, 0x36, 0xbc,
  0x52, 0xd3, 0xbd, 0xbd, 0xcf, 0x5d, 0xc5, 0x3e, 0xd2, 0x4f, 0x8b, 0xbe,
  0xe4, 0x92, 0x15, 0xbe, 0xbd, 0xb0, 0xff, 0xbd, 0x66, 0x73, 0x48, 0x3e,
  0xa8, 0x59, 0xb8, 0xbc, 0xa8, 0x72, 0x7a, 0x3e, 0x4e, 0xeb, 0x2c, 0x3e,
  0xe5, 0x7e, 0xfb, 0x3e, 0xb4, 0xb9, 0xe2, 0x3d, 0xd6, 0x79, 0xa5, 0x3d,
  0xe3, 0xbb, 0x0e, 0xbe, 0xdf, 0x88, 0xfc, 0x3e, 0xe0, 0x8a, 0xe7, 0xbd,
  0x25, 0x35, 0x82, 0x3e, 0x04, 0x21, 0x98, 0xbe, 0x10, 0x9e, 0xde, 0x3e,
  0x7c, 0x6b, 0x20, 0x3d, 0x5a, 0xbb, 0x13, 0xbe, 0xa6, 0x7e, 0xc6, 0x3e,
  0xf3, 0x84, 0x81, 0xbe, 0x88, 0x24, 0x59, 0x3e, 0xd3, 0xc4, 0x7d, 0x3e,
  0xec, 0x59, 0x21, 0xbd, 0x2f, 0x97, 0xe1, 0x3e, 0x15, 0xbe, 0xa8, 0x3c,
  0x20, 0xcf, 0x12, 0xbe, 0xdb, 0x3d, 0x2e, 0x3f, 0xea, 0x52, 0xe9, 0x3e,
  0xb4, 0xd0, 0x11, 0xbe, 0x5f, 0x5a, 0x19, 0xbf, 0x5e, 0xf8, 0x0f, 0xbe,
  0xa6, 0xe6, 0x9b, 0x3e, 0xb1, 0xd5, 0xac, 0xbe, 0xc9, 0x11, 0x1a, 0xbe,
  0x6c, 0x73, 0xb9, 0x3c, 0x19, 0xc2, 0x46, 0xbe, 0x04, 0x22, 0x97, 0x3d,
  0x59, 0x5b, 0x38, 0xbe, 0x19, 0x21, 0xda, 0x3e, 0x2b, 0x29, 0x11, 0x3e,
  0x5a, 0x96, 0x14, 0x3d, 0x01, 0xf4, 0x4f, 0x3e, 0xbb, 0x12, 0xda, 0x3d,
  0xcb, 0x63, 0x91, 0x3f, 0xa3, 0x13, 0x7b, 0x3e, 0x5f, 0xbe, 0x77, 0x3e,
  0x80, 0xf7, 0x93, 0x3d, 0xb0, 0x0d, 0x3b, 0xbe, 0xec, 0xe2, 0xd7, 0xbe,
  0xf2, 0xe7, 0xaf, 0x3e, 0x53, 0x6f, 0xe2, 0x3e, 0xa0, 0xac, 0x39, 0xbe,
  0xfc, 0x88, 0x82, 0x3c, 0xd0, 0x4d, 0x8f, 0xbc, 0x67, 0xfa, 0x85, 0x3e,
  0xfc, 0x6d, 0x62, 0x3e, 0x8c, 0xd3, 0xcd, 0xbd, 0xbd, 0x1a, 0xbb, 0xbd,
  0x8d, 0xb3, 0xdb, 0x3d, 0xe0, 0xff, 0x01, 0x3f, 0xb9, 0x40, 0x30, 0xbd,
  0x7d, 0x1e, 0xf7, 0x3c, 0x1f, 0x36, 0x44, 0x3e, 0xe0, 0x10, 0x5f, 0xbe,
  0x49, 0xd0, 0xe1, 0x3e, 0x9c, 0x59, 0xa9, 0x3c, 0x88, 0x6b, 0x61, 0x3e,
  0xfa, 0x10, 0xc3, 0xbd, 0xa7, 0x03, 0x51, 0x3e, 0x3c, 0xe0, 0x4b, 0x3e,
  0xee, 0xbb, 0x1b, 0x3f, 0xc1, 0x1c, 0xbb, 0x3e, 0x25, 0x65, 0xd5, 0x3d,
  0x6d, 0x7a, 0x8c, 0x3e, 0xb0, 0x90, 0xe5, 0xbe, 0x81, 0xfe, 0xbb, 0x3e,
  0x05, 0xbe, 0x14, 0x3c, 0x18, 0x20, 0x0e, 0x3f, 0xc5, 0x51, 0x29, 0x3e,
  0xfa, 0x2a, 0xee, 0x3d, 0xa7, 0x93, 0xdb, 0x3e, 0x23, 0xf6, 0xb6, 0x3e,
  0x39, 0xd6, 0xb2, 0x3e, 0x7d, 0x86, 0x40, 0x3e, 0x3a, 0x37, 0x06, 0xbe,
  0xea, 0xb3, 0x88, 0xbd, 0x4c, 0xd5, 0x96, 0xbe, 0x8f, 0x4c, 0xd8, 0x3e,
  0x16, 0x6f, 0xcf, 0x3d, 0x62, 0xf6, 0x33, 0x3e, 0x64, 0xac, 0x0f, 0x3f,
  0xb9, 0xf8, 0x5d, 0x3d, 0xe3, 0xfb, 0xc3, 0xbd, 0x39, 0xa1, 0xb0, 0x3e,
  0x80, 0x30, 0x05, 0xb6, 0x14, 0x20, 0xcc, 0xbd, 0x13, 0xde, 0x9c, 0x3d,
  0x84, 0x03, 0x8a, 0xbd, 0x2b, 0x0e, 0xc0, 0x3e, 0xe0, 0x92, 0x04, 0xbe,
  0xf4, 0xca, 0x57, 0x3e, 0xf2, 0x59, 0x91, 0xbc, 0x60, 0x17, 0x1f, 0x3e,
  0x7e, 0x66, 0xbb, 0x3c, 0xee, 0x1b, 0x8d, 0xbe, 0xf4, 0x3c, 0xa2, 0x3e,
  0x58, 0x04, 0x6c, 0x3c, 0x37, 0x13, 0xf0, 0xbe, 0x24, 0x6a, 0x6e, 0xbe,
  0xb4, 0xd3, 0x3e, 0xbe, 0x3b, 0xcd, 0xa7, 0x3e, 0x79, 0x3f, 0x29, 0x3f,
  0xb2, 0xb1, 0xd6, 0x3d, 0x88, 0x66, 0x22, 0x3e, 0xf7, 0xa1, 0x0a, 0x3f,
  0x86, 0x00, 0xe7, 0x3e, 0x49, 0x66, 0x37, 0x3e, 0x2b, 0xcd, 0xb9, 0xbe,
  0xc4, 0xef, 0xa0, 0xbe, 0x87, 0xa2, 0x8e, 0xbe, 0xc0, 0x76, 0xf1, 0xbc,
  0x0e, 0xb6, 0x95, 0x3d, 0x2a, 0x62, 0x2c, 0x3c, 0x94, 0x95, 0x6a, 0xbd,
  0xe3, 0xc1, 0x3f, 0x3e, 0x16, 0x46, 0xfc, 0x3e, 0x52, 0xed, 0xb4, 0x3e,
  0xc3, 0xf3, 0x2c, 0xbd, 0xa1, 0x56, 0xbb, 0x3e, 0x81, 0x90, 0x3e, 0x3e,
  0x4d, 0x4b, 0xf3, 0x3e, 0x64, 0x25, 0x09, 0xbe, 0x4f, 0x25, 0x87, 0xbe,
  0xc5, 0xa1, 0xca, 0x3d, 0xad, 0xab, 0x93, 0xbd, 0xad, 0xaa, 0xcb, 0xbe,
  0xb6, 0xf8, 0xba, 0x3e, 0xe7, 0x83, 0x0d, 0xbd, 0x75, 0xe0, 0x90, 0x3d,
  0xf1, 0x52, 0xef, 0xbe, 0xcc, 0x2b, 0xf4, 0xbd, 0xb1, 0x66, 0x00, 0x3d,
  0x3e, 0x81, 0x27, 0x3d, 0xc8, 0x9d, 0x9e, 0xbd, 0x9d, 0x5a, 0xa4, 0x3e,
  0x5b, 0x51, 0x76, 0xbe, 0x9c, 0x48, 0xcb, 0xbe, 0x74, 0xea, 0xbb, 0x3e,
  0x29, 0x6b, 0x88, 0x3d, 0xae, 0x7b, 0xd3, 0xbd, 0x74, 0xe7, 0x82, 0xbe,
  0xb9, 0x66, 0x24, 0xbe, 0xe7, 0x87, 0x05, 0x3e, 0xcc, 0xd4, 0x87, 0x3d,
  0xed, 0x40, 0xa4, 0xbe, 0x03, 0x1d, 0xdb, 0x3d, 0x55, 0xb8, 0x83, 0x3d,
  0x1f, 0x19, 0xf3, 0x3e, 0x4e, 0x74, 0x12, 0x3e, 0x6d, 0xfd, 0x4a, 0xbe,
  0xbf, 0x14, 0x80, 0x3e, 0x14, 0x0e, 0xdf, 0x3d, 0xae, 0xfd, 0xc1, 0x3e,
  0xca, 0xfa, 0xa3, 0xbb, 0x1d, 0x98, 0x8f, 0x3e, 0xd4, 0x44, 0xd6, 0x3d,
  0xfc, 0xaa, 0xdd, 0x3e, 0x4c, 0x82, 0x49, 0x3e, 0xf1, 0x25, 0x94, 0x3d,
  0x0d, 0x5b, 0x5f, 0xbc, 0x4b, 0xcc, 0x75, 0xbe, 0x52, 0x41, 0xdb, 0xbe,
  0x22, 0x72, 0x28, 0x3e, 0xf3, 0x8c, 0xfb, 0x3e, 0x50, 0x0a, 0xd4, 0x3d,
  0xaa, 0x33, 0x6a, 0xbc, 0xb8, 0x46, 0xe8, 0x3e, 0xc2, 0xca, 0x56, 0x3e,
  0x31, 0xc9, 0x90, 0x3e, 0x75, 0xc7, 0xe0, 0x3e, 0xac, 0x19, 0x3d, 0xbe,
  0x68, 0x95, 0x87, 0xbd, 0x13, 0xdc, 0x39, 0xbe, 0xe4, 0x70, 0x0d, 0x3e,
  0xff, 0xa0, 0x0c, 0xbe, 0x64, 0xe6, 0xcb, 0x3e, 0x40, 0xac, 0x3b, 0x3f,
  0xfa, 0x55, 0x1a, 0x3e, 0x3c, 0x95, 0x1f, 0x3d, 0x49, 0x81, 0xcc, 0xbe,
  0x0c, 0xfb, 0x30, 0xbe, 0x09, 0xc9, 0xb9, 0x3e, 0x90, 0x9f, 0x84, 0x3c,
  0xfc, 0x47, 0x06, 0xbe, 0x6f, 0xc5, 0x1c, 0xbe, 0x1d, 0x9b, 0x96, 0xbd,
  0x23, 0x38, 0x54, 0x3e, 0x15, 0xfb, 0x79, 0x3e, 0x07, 0xe5, 0x05, 0x3e,
  0xb2, 0x76, 0x89, 0x3d, 0xf4, 0x55, 0xad, 0xbe, 0xaa, 0x86, 0x86, 0x3e,
  0xb3, 0xb1, 0xfc, 0xbd, 0xfd, 0x8c, 0xbf, 0x3e, 0xc0, 0xb8, 0xc1, 0xbe,
  0xff, 0x06, 0xe1, 0xbe, 0x43, 0xc2, 0x0a, 0xbc, 0xf9, 0x97, 0x04, 0x3f,
  0xd9, 0x99, 0x03, 0x3e, 0x52, 0x4b, 0x32, 0x3e, 0x5a, 0xfd, 0xa3, 0x3e,
  0xc0, 0xcf, 0xd0, 0x3d, 0x72, 0xe3, 0x08, 0x3e, 0x08, 0x6d, 0x6f, 0xbe,
  0x59, 0xb4, 0xef, 0x3d, 0xae, 0x7f, 0xdb, 0x3d, 0xad, 0x10, 0xc5, 0x3d,
  0x1b, 0xb7, 0x4b, 0xbe, 0x4a, 0x75, 0x89, 0x3e, 0x60, 0x9c, 0x15, 0xbe,
  0x77, 0xb8, 0xb4, 0xbd, 0x5b, 0x0b, 0x6a, 0xbe, 0x52, 0x6d, 0x9d, 0xbd,
  0x34, 0xe7, 0xe8, 0xbd, 0x40, 0x0c, 0x0e, 0x3d, 0x80, 0xa6, 0x28, 0xbd,
  0x4a, 0x63, 0x72, 0xbd, 0x9c, 0x21, 0x37, 0x3e, 0xfb, 0x60, 0x79, 0x3d,
  0xf4, 0x08, 0xca, 0xbd, 0x0e, 0xec, 0xff, 0xbd, 0xd1, 0xd4, 0x5f, 0xbe,
  0x23, 0x6a, 0x2d, 0x3d, 0xb4, 0xca, 0xab, 0x3d, 0x88, 0x12, 0x54, 0x3e,
  0x11, 0xc3, 0xf8, 0x3d, 0x32, 0xd5, 0x32, 0x3e, 0x14, 0xb5, 0x2e, 0xbd,
  0x4f, 0xb3, 0x86, 0xbd, 0xdc, 0x48, 0x82, 0xbd, 0x33, 0xd8, 0x70, 0x3e,
  0xd0, 0x82, 0x8f, 0xbd, 0x1a, 0xa7, 0x46, 0x3e, 0x28, 0x62, 0x35, 0xbe,
  0x08, 0x81, 0x43, 0xbd, 0x28, 0xab, 0xc1, 0xbd, 0x48, 0x2b, 0x9b, 0xbd,
  0x82, 0x4e, 0xb1, 0xbd, 0x9e, 0x8a, 0x4e, 0x3e, 0x28, 0x68, 0x85, 0xbd,
  0xe2, 0x9d, 0x45, 0xbe, 0xb4, 0x05, 0x1c, 0xbe, 0x83, 0x34, 0x0a, 0x3e,
  0xe4, 0x21, 0x79, 0xbd, 0xdd, 0x5a, 0x3e, 0xbe, 0x19, 0x37, 0x2d, 0x3e,
  0x24, 0xe6, 0x74, 0xbe, 0x20, 0xc2, 0x0e, 0x3e, 0xf0, 0xef, 0x50, 0x3d,
  0xee, 0xc9, 0x83, 0x3e, 0x06, 0x67, 0xe4, 0x3d, 0xab, 0x37, 0x7e, 0xbe,
  0x80, 0xca, 0x74, 0xbe, 0x11, 0xa2, 0x80, 0x3e, 0xb9, 0x7a, 0x10, 0x3c,
  0x03, 0x99, 0x4d, 0xbd, 0x40, 0xcf, 0xe4, 0x3c, 0x27, 0x8f, 0x5d, 0xbe,
  0xe6, 0xf6, 0xb7, 0xbe, 0x3f, 0xe0, 0xb3, 0xbe, 0x3e, 0xb9, 0x25, 0xbd,
  0xcf, 0x1a, 0x60, 0xbe, 0x2a, 0x68, 0x81, 0xbe, 0xcd, 0xf2, 0x93, 0xbd,
  0x2a, 0xfe, 0xb4, 0x3e, 0xa1, 0x4e, 0x5f, 0xbe, 0x2f, 0x29, 0x41, 0xbd,
  0x6e, 0xcb, 0x40, 0xbe, 0x21, 0xeb, 0x51, 0xbd, 0x8b, 0x47, 0x07, 0xbe,
  0x07, 0xe0, 0x93, 0x3e, 0x7b, 0xc2, 0x1c, 0xbe, 0xc7, 0x7b, 0xea, 0x3d,
  0x39, 0x83, 0x92, 0x3e, 0xe9, 0x8d, 0x24, 0x3d, 0xb5, 0x7e, 0x3a, 0x3f,
  0x0c, 0x06, 0x28, 0x3d, 0x45, 0xce, 0x41, 0x3e, 0x57, 0x72, 0x68, 0x3d,
  0x11, 0x2b, 0xa5, 0x3d, 0x00, 0x6e, 0x9c, 0x3d, 0xa7, 0xdf, 0x8b, 0xbd,
  0xa5, 0x24, 0xc3, 0x3e, 0x8f, 0x3c, 0x83, 0x3d, 0xca, 0x06, 0x29, 0x3f,
  0x05, 0xb8, 0xc4, 0x3e, 0x91, 0x01, 0x02, 0xbd, 0xb1, 0x30, 0x95, 0xbe,
  0x1c, 0xb2, 0x74, 0xbd, 0x78, 0xe8, 0x8a, 0x3e, 0xe6, 0x8c, 0x81, 0xbe,
  0x85, 0x28, 0xb9, 0xbd, 0xfa, 0x13, 0x92, 0xbe, 0x86, 0x53, 0x38, 0x3d,
  0x05, 0x08, 0x80, 0x3f, 0xba, 0xc2, 0x9e, 0x3e, 0xa3, 0x64, 0xee, 0x3e,
  0x8c, 0xc8, 0x90, 0xbd, 0x0e, 0x3a, 0x80, 0xbd, 0x9c, 0x7d, 0x34, 0xbe,
  0x16, 0x98, 0x8e, 0x3e, 0x30, 0xc8, 0x37, 0x3e, 0x8f, 0x8f, 0x3e, 0x3e,
  0xb4, 0x13, 0xd3, 0x3e, 0x9c, 0x8b, 0x6d, 0x3f, 0x67, 0x07, 0x5e, 0xbe,
  0x68, 0x92, 0x7e, 0xbe, 0x44, 0xdc, 0xcc, 0xbe, 0x26, 0xf1, 0x9f, 0xbd,
  0x65, 0xd3, 0xa4, 0xbd, 0xc8, 0x09, 0xca, 0x3e, 0x02, 0xce, 0x37, 0xbc,
  0xc8, 0x91, 0xe8, 0x3d, 0xdb, 0x0c, 0x9f, 0xbc, 0x3e, 0x43, 0x18, 0xbe,
  0x88, 0xb5, 0x50, 0xbe, 0x4d, 0xce, 0x98, 0xbe, 0xdc, 0x92, 0xca, 0xbe,
  0x4b, 0x8c, 0x69, 0x3e, 0x16, 0xd4, 0x4e, 0x3e, 0xff, 0xab, 0x83, 0xbe,
  0x2a, 0x9d, 0x95, 0xbe, 0xbd, 0xf2, 0x42, 0xbe, 0x70, 0xcb, 0xea, 0x3d,
  0x83, 0x04, 0x86, 0x3e, 0xe9, 0x57, 0x04, 0x3f, 0xfa, 0xee, 0x04, 0xbe,
  0xb7, 0x3c, 0x94, 0x3d, 0x86, 0x85, 0x16, 0x3f, 0x9c, 0x15, 0xa4, 0x3e,
  0xf0, 0x33, 0x75, 0x3e, 0x76, 0xe7, 0xda, 0x3d, 0x5a, 0x5e, 0xd0, 0x3d,
  0xca, 0x08, 0x12, 0xbe, 0xd7, 0xca, 0x9b, 0x3e, 0x7c, 0x07, 0x90, 0xbe,
  0xb6, 0x6e, 0xf2, 0xbe, 0xde, 0x78, 0xa3, 0x3e, 0x7e, 0x3d, 0x65, 0xbe,
  0x65, 0xcc, 0x70, 0xbe, 0x8f, 0x1b, 0xa2, 0xbd, 0x01, 0x15, 0x86, 0x3c,
  0xfb, 0xd5, 0x98, 0xbe, 0x20, 0xa1, 0x12, 0x3e, 0xc0, 0x4d, 0xd2, 0xbd,
  0x18, 0x80, 0x32, 0x3e, 0xe7, 0x32, 0x99, 0x3c, 0x92, 0xad, 0x4f, 0x3c,
  0x92, 0xf8, 0xa1, 0xbd, 0xe7, 0xa7, 0xdf, 0x3e, 0x23, 0xad, 0x66, 0x3e,
  0x19, 0x5a, 0x1c, 0xbc, 0xfb, 0xdc, 0x97, 0x3e, 0x56, 0xe0, 0x3a, 0x3f,
  0xca, 0xd4, 0x09, 0x3f, 0x53, 0xc5, 0x98, 0x3d, 0x84, 0xb7, 0x30, 0x3e,
  0x37, 0xbe, 0x41, 0xbe, 0x1c, 0x5f, 0xd9, 0xbe, 0xcf, 0xf1, 0x69, 0x3e,
  0x30, 0x1b, 0xc6, 0x3d, 0x68, 0x94, 0x3a, 0x3e, 0x45, 0xc8, 0x3a, 0x3e,
  0x08, 0xf3, 0x94, 0x3e, 0x66, 0xad, 0xfa, 0x3e, 0x4e, 0x51, 0x67, 0x3e,
  0xa5, 0x1e, 0xec, 0x3e, 0xea, 0xb7, 0x91, 0xbe, 0x82, 0x88, 0x66, 0x3e,
  0xa2, 0xf9, 0xff, 0xff, 0x04, 0x00, 0x00, 0x00, 0x00, 0x04, 0x00, 0x00,
  0xbd, 0x92, 0x11, 0x3e, 0xa6, 0x2a, 0x7f, 0x3e, 0xf0, 0xcb, 0x2e, 0xbf,
  0x60, 0x8f, 0x5d, 0xbe, 0xf2, 0x6e, 0xe2, 0x3d, 0xe8, 0xd1, 0x93, 0xbe,
  0xa1, 0xd7, 0x72, 0x3d, 0x93, 0x89, 0x6f, 0xbe, 0x6a, 0x29, 0xe7, 0x3e,
  0xfb, 0xd4, 0x54, 0xbf, 0x1d, 0x51, 0x41, 0xbe, 0xd0, 0xff, 0x2a, 0xbf,
  0x58, 0xa5, 0x7e, 0x3d, 0x83, 0xd7, 0x72, 0x3e, 0xfa, 0xa7, 0xa2, 0x3c,
  0x6d, 0xd3, 0x9b, 0x3e, 0x81, 0x8c, 0xa0, 0xbe, 0x96, 0x01, 0x9a, 0xbd,
  0x2e, 0xd6, 0x98, 0xbe, 0x80, 0xc5, 0xb5, 0x3e, 0xf9, 0x19, 0x55, 0xbf,
  0x6c, 0x45, 0x13, 0xbf, 0xfc, 0x39, 0x23, 0xbc, 0x15, 0xf5, 0x71, 0xbe,
  0x02, 0xa9, 0x8d, 0x3e, 0xef, 0x7a, 0xbd, 0x3e, 0x38, 0x7e, 0x81, 0x3e,
  0xd1, 0xe3, 0x0d, 0x3f, 0x3f, 0x3e, 0x89, 0x3e, 0x16, 0x45, 0xc2, 0xbe,
  0x76, 0x28, 0x02, 0xbf, 0x8e, 0xcb, 0xf9, 0x3b, 0x64, 0xe6, 0x1b, 0x3e,
  0xae, 0xcf, 0xac, 0xbe, 0x38, 0xd5, 0x2b, 0xbd, 0x25, 0xf4, 0x3c, 0xbf,
  0x30, 0x8a, 0x23, 0xbf, 0x2a, 0xab, 0x50, 0xbe, 0x90, 0x06, 0xb1, 0xbd,
  0xd5, 0x27, 0x1b, 0x3f, 0x90, 0x23, 0xd3, 0xbe, 0xb5, 0xfa, 0x1c, 0x3f,
  0x46, 0x05, 0x4c, 0x3e, 0x44, 0xac, 0x1e, 0x3f, 0x70, 0x9d, 0x61, 0xbe,
  0x75, 0x28, 0x09, 0x3e, 0x8d, 0xa0, 0xd8, 0xbe, 0x8a, 0xe1, 0xda, 0xbe,
  0xc6, 0xf3, 0x16, 0xbf, 0x8e, 0xf4, 0x8f, 0x3d, 0xa5, 0xff, 0x1c, 0xbe,
  0x02, 0x58, 0x94, 0x3e, 0x60, 0x5d, 0xb4, 0x3e, 0xe7, 0x7c, 0x24, 0xbf,
  0x87, 0x74, 0x39, 0xbd, 0x0b, 0xc9, 0xd4, 0x3e, 0x22, 0xd5, 0xc7, 0x3e,
  0x52, 0x0e, 0x0b, 0x3f, 0x06, 0x01, 0x0c, 0x3f, 0x3f, 0xc5, 0x08, 0x3f,
  0x43, 0x92, 0xfc, 0xbe, 0x46, 0xcb, 0xc5, 0x3e, 0x9e, 0x87, 0x18, 0xbe,
  0x75, 0x57, 0x88, 0x3d, 0x15, 0xb1, 0xc5, 0x3c, 0x27, 0x2a, 0x2d, 0xbf,
  0x58, 0x46, 0x45, 0x3d, 0x8f, 0xca, 0xba, 0xbe, 0x27, 0x80, 0x99, 0xbd,
  0x83, 0x4b, 0xfd, 0x3e, 0xf9, 0xed, 0xae, 0xbe, 0x8c, 0x10, 0xb2, 0x3e,
  0x9f, 0xd9, 0x34, 0xbf, 0xab, 0x71, 0x07, 0xbe, 0x31, 0x16, 0x27, 0xbf,
  0xf0, 0xbd, 0x72, 0x3d, 0x65, 0x87, 0xe0, 0x3e, 0x2a, 0x11, 0xc7, 0xbd,
  0x98, 0x63, 0x29, 0xbe, 0xf8, 0xa6, 0x42, 0x3e, 0x69, 0xe8, 0x99, 0x3e,
  0xca, 0x49, 0xd7, 0x3b, 0x70, 0x5e, 0x45, 0x3e, 0x02, 0x44, 0xe8, 0x3e,
  0x83, 0x0f, 0x36, 0xbf, 0x1e, 0x56, 0x1e, 0xbc, 0x97, 0x42, 0x36, 0x3e,
  0xf9, 0x44, 0x7e, 0x3e, 0x7e, 0xe9, 0xf0, 0x3d, 0x9a, 0x3c, 0x7c, 0x3e,
  0xfb, 0xeb, 0x04, 0xbf, 0x51, 0x67, 0xa2, 0xbe, 0x09, 0x73, 0xb6, 0xbe,
  0xf0, 0xcc, 0x8a, 0xbd, 0x18, 0x82, 0xfb, 0x3e, 0x4a, 0xba, 0xef, 0xbe,
  0xb3, 0x05, 0x9c, 0xbd, 0x4e, 0xe7, 0x41, 0xbf, 0xed, 0x07, 0xc6, 0x3e,
  0x10, 0xbc, 0xf7, 0xbe, 0x0e, 0x3f, 0x96, 0xbe, 0xb0, 0xdf, 0x3a, 0x3d,
  0x3d, 0x75, 0x8c, 0xbe, 0x09, 0xc9, 0x40, 0xba, 0xf0, 0xe1, 0x01, 0x3f,
  0x88, 0xf9, 0x33, 0xbe, 0xef, 0xb9, 0x42, 0xbe, 0x15, 0x41, 0x70, 0x3e,
  0x04, 0xd3, 0xaa, 0x3e, 0x97, 0x41, 0xc1, 0xbd, 0xb3, 0xd1, 0x0f, 0xbf,
  0xfd, 0x91, 0x11, 0x3e, 0xbc, 0x39, 0xc8, 0xbc, 0x25, 0x3f, 0xe2, 0x3e,
  0xa5, 0xe8, 0x8d, 0x3e, 0xa2, 0x95, 0x5b, 0xbe, 0xcf, 0x73, 0x46, 0x3f,
  0xea, 0x06, 0x07, 0x3e, 0x87, 0x15, 0x2b, 0xbe, 0x1e, 0x02, 0xa2, 0xbe,
  0xee, 0x4a, 0x24, 0xbf, 0xa1, 0x79, 0x6a, 0x3e, 0x07, 0x63, 0x8a, 0xbe,
  0xa9, 0x7a, 0xff, 0x3e, 0x9f, 0xb9, 0x96, 0xbd, 0xfd, 0x1d, 0x78, 0xbf,
  0x52, 0x0b, 0xe1, 0x3e, 0xce, 0xf2, 0xed, 0x3e, 0x1b, 0x6a, 0xbf, 0x3e,
  0x77, 0xab, 0xd2, 0xbd, 0xf0, 0xb1, 0x50, 0xbf, 0x80, 0x81, 0xc2, 0xbb,
  0x20, 0x5d, 0xdf, 0x3e, 0x8e, 0x73, 0xd3, 0x3e, 0x5a, 0xf8, 0xc6, 0x3d,
  0x44, 0x8a, 0xac, 0x3d, 0x4b, 0xf8, 0x21, 0x3f, 0x10, 0xe0, 0xe3, 0xbd,
  0x93, 0x82, 0x1d, 0xbe, 0xde, 0x20, 0x73, 0xbe, 0xec, 0xf2, 0xaf, 0x3d,
  0x00, 0x74, 0xc9, 0xbd, 0x08, 0x49, 0x08, 0x3d, 0xec, 0x9d, 0xbc, 0xbe,
  0xac, 0x09, 0x6c, 0x3d, 0xb5, 0xf0, 0xde, 0x3e, 0x15, 0x70, 0x47, 0xbf,
  0x23, 0xd2, 0x7c, 0xbd, 0xe7, 0xc2, 0x9d, 0xbe, 0x39, 0x58, 0x0a, 0xbd,
  0x7a, 0xf2, 0x89, 0xbe, 0x7d, 0xaf, 0x01, 0xbe, 0x57, 0x7c, 0x0c, 0xbe,
  0x8c, 0xa0, 0xf6, 0x3e, 0xfc, 0xa4, 0x69, 0xbd, 0xd9, 0xdb, 0xc7, 0x3e,
  0x9d, 0x3c, 0x05, 0x3f, 0xec, 0x00, 0xf5, 0x3e, 0x08, 0xa6, 0xeb, 0xbb,
  0xac, 0x99, 0x3a, 0x3c, 0xb7, 0xe7, 0xda, 0xbe, 0x16, 0xfd, 0x82, 0xbe,
  0xce, 0xcd, 0x2f, 0x3f, 0x76, 0x94, 0xae, 0x3e, 0x82, 0xdf, 0xc3, 0x3e,
  0xa2, 0x9b, 0x17, 0x3f, 0x61, 0x91, 0xa0, 0x3e, 0xbd, 0x75, 0xa7, 0x3d,
  0xd3, 0x21, 0x58, 0x3e, 0x29, 0x18, 0x93, 0x3e, 0x80, 0x9f, 0x9a, 0xbb,
  0xe2, 0xda, 0x80, 0x3e, 0xb7, 0xcf, 0x61, 0xbf, 0xf8, 0xbe, 0x53, 0xbe,
  0x9b, 0xac, 0x8e, 0x3e, 0xf2, 0x90, 0x07, 0x3e, 0x6f, 0xf2, 0x0d, 0xbf,
  0x60, 0x7b, 0x63, 0x3e, 0x02, 0x3e, 0xc3, 0xbe, 0x01, 0xa6, 0xc8, 0xbe,
  0xe4, 0x55, 0x01, 0x3f, 0xe7, 0x6b, 0x1a, 0xbd, 0xab, 0x7e, 0xd1, 0x3e,
  0x53, 0x16, 0xfc, 0xbd, 0x52, 0xeb, 0xf3, 0xbe, 0x44, 0x79, 0x78, 0xbe,
  0x7a, 0x1d, 0x9f, 0x3d, 0x4e, 0x23, 0xea, 0x3d, 0xde, 0xaf, 0x97, 0xbe,
  0xd9, 0x0e, 0x15, 0x3f, 0x86, 0x4e, 0xbc, 0xbe, 0xd4, 0x05, 0xbf, 0x3e,
  0x34, 0x49, 0xae, 0xbe, 0x63, 0xf5, 0x05, 0x3f, 0x38, 0xad, 0x17, 0x3f,
  0x45, 0x79, 0x3b, 0x3d, 0x81, 0x34, 0xf0, 0x3e, 0xcd, 0xbd, 0x7e, 0xbd,
  0x97, 0x42, 0x81, 0xbe, 0x39, 0x33, 0x3a, 0xbe, 0xee, 0x3c, 0xd2, 0x3e,
  0xb7, 0x13, 0x12, 0xbe, 0x49, 0xbf, 0xf1, 0x3e, 0xb8, 0xaf, 0xd5, 0x3e,
  0x54, 0x3f, 0xe2, 0x3e, 0x32, 0x6f, 0xdf, 0x3e, 0xc6, 0xb3, 0x2a, 0xbe,
  0xf5, 0xca, 0x38, 0x3e, 0x01, 0xe3, 0xef, 0xbe, 0xa9, 0x90, 0xdc, 0x3d,
  0xba, 0xca, 0x7b, 0xbd, 0x55, 0xda, 0x43, 0x3d, 0xf3, 0xda, 0xad, 0x3e,
  0xd7, 0x89, 0x62, 0xbf, 0x5e, 0xbf, 0x0a, 0x3f, 0xff, 0x56, 0xa9, 0x3e,
  0x80, 0x71, 0xdc, 0xbe, 0x81, 0x7f, 0x99, 0x3e, 0x08, 0xcd, 0x88, 0xbe,
  0x76, 0x17, 0xa1, 0x3e, 0x6a, 0x10, 0x37, 0xbe, 0xa6, 0x04, 0xf2, 0xbe,
  0xd6, 0xac, 0x2a, 0x3f, 0xac, 0xce, 0x26, 0x3f, 0xbc, 0x8f, 0x55, 0x3e,
  0xeb, 0x89, 0x0a, 0x3d, 0x11, 0xe3, 0x37, 0xbf, 0x39, 0xdc, 0x57, 0xbe,
  0xbf, 0xd2, 0xaf, 0x3c, 0x9b, 0xbb, 0xc1, 0x3e, 0xb4, 0x00, 0x56, 0x3e,
  0x3b, 0x71, 0xdd, 0xbd, 0x80, 0x4c, 0x68, 0x3d, 0x04, 0xab, 0x52, 0xbe,
  0x13, 0x0b, 0xae, 0x3e, 0xb5, 0xa0, 0xeb, 0xbd, 0xeb, 0x4b, 0x88, 0x3e,
  0x36, 0xb7, 0x7d, 0x3e, 0xae, 0x46, 0x61, 0xbe, 0x31, 0x8e, 0xe0, 0xbd,
  0xbb, 0x11, 0x1c, 0xbf, 0x59, 0x54, 0x9c, 0x3e, 0x4b, 0x0f, 0xf2, 0xbe,
  0x15, 0x16, 0xf3, 0xba, 0x3e, 0xe3, 0x56, 0xbe, 0xd1, 0x9e, 0x8a, 0xbe,
  0x0d, 0xff, 0xe0, 0xbc, 0x53, 0x89, 0x15, 0x3e, 0x4f, 0x4b, 0x96, 0x3e,
  0x91, 0x9a, 0x34, 0xbf, 0xda, 0x2f, 0xa1, 0xbe, 0x00, 0x98, 0x13, 0x3d,
  0xb8, 0xb5, 0x42, 0xbf, 0x71, 0xc4, 0x6f, 0x3e, 0x36, 0xb7, 0x91, 0x3d,
  0x72, 0xec, 0x6d, 0x3e, 0xae, 0xfd, 0xff, 0xff, 0x04, 0x00, 0x00, 0x00,
  0x80, 0x00, 0x00, 0x00, 0x9f, 0x20, 0x56, 0x3e, 0x7c, 0x46, 0x22, 0x3e,
  0x41, 0x27, 0x56, 0xbd, 0xaa, 0x09, 0x62, 0xbc, 0x5e, 0x23, 0x8a, 0x3e,
  0xcd, 0xbf, 0x79, 0x3e, 0x38, 0xa2, 0x21, 0x3d, 0x5d, 0xd4, 0xd4, 0x3d,
  0xe0, 0xa0, 0xdc, 0xbb, 0x99, 0x42, 0x27, 0x3e, 0xae, 0xcd, 0x10, 0x3e,
  0x53, 0x4c, 0x9c, 0x3e, 0xa9, 0xd1, 0xe6, 0x3d, 0x99, 0x1e, 0xcc, 0xbc,
  0x54, 0x8b, 0x74, 0x3d, 0x90, 0x1b, 0x64, 0x3e, 0x88, 0x87, 0x73, 0x3e,
  0x4f, 0x80, 0xf8, 0x3d, 0xaa, 0x59, 0x6c, 0x3e, 0x1b, 0x0c, 0x77, 0x3d,
  0x5f, 0xd7, 0x3a, 0x3e, 0x5d, 0xa0, 0x52, 0x3d, 0x1c, 0x19, 0x41, 0x3e,
  0xd0, 0x70, 0x28, 0x3e, 0xc4, 0x96, 0xae, 0x3d, 0x96, 0x48, 0xc1, 0x3b,
  0xee, 0x6b, 0x9a, 0x3e, 0x85, 0x18, 0x91, 0x3e, 0xc9, 0xf8, 0x14, 0x3e,
  0x0c, 0x89, 0x63, 0xbd, 0x80, 0x4c, 0xad, 0x3c, 0xc4, 0xbf, 0xfc, 0x3d,
  0x3a, 0xfe, 0xff, 0xff, 0x04, 0x00, 0x00, 0x00, 0x18, 0x00, 0x00, 0x00,
  0x93, 0x9f, 0x92, 0xbd, 0x33, 0x40, 0x6a, 0xbe, 0x73, 0x38, 0x9f, 0xbe,
  0xcc, 0x00, 0x1a, 0xbe, 0x95, 0x73, 0x55, 0xbe, 0xeb, 0x7c, 0xef, 0xbd,
  0x5e, 0xfe, 0xff, 0xff, 0x04, 0x00, 0x00, 0x00, 0x00, 0x01, 0x00, 0x00,
  0x31, 0x93, 0x36, 0x3e, 0xd6, 0x79, 0xc3, 0x3d, 0xc7, 0xe8, 0xd0, 0xbc,
  0xc3, 0x2c, 0x95, 0x3d, 0x90, 0xfd, 0x8b, 0x3d, 0xa6, 0xd9, 0x35, 0x3e,
  0xca, 0x9b, 0xc1, 0x3d, 0xac, 0x0e, 0x78, 0x3e, 0xac, 0xb6, 0x60, 0xbb,
  0x50, 0x02, 0x43, 0xbc, 0xd0, 0x54, 0x1e, 0x3e, 0xfd, 0x3b, 0x2b, 0xbd,
  0x93, 0xf6, 0xe5, 0xbd, 0x1e, 0x64, 0x62, 0x3d, 0x92, 0xc5, 0x7c, 0x3e,
  0x46, 0x87, 0xb4, 0xbb, 0xe4, 0xf9, 0x71, 0xbd, 0x18, 0x0c, 0xee, 0x3c,
  0x2b, 0x36, 0x1d, 0xbd, 0x3d, 0x7c, 0xd4, 0x3d, 0x4f, 0x9c, 0x44, 0x3c,
  0x2b, 0x49, 0x46, 0x3d, 0x3b, 0xd4, 0x1a, 0xbd, 0x4a, 0xf8, 0xa8, 0xbc,
  0xee, 0xbc, 0xbc, 0x3d, 0x37, 0x0e, 0x10, 0x3d, 0xcf, 0x63, 0x76, 0x3e,
  0x8a, 0x4a, 0xc6, 0x3d, 0x11, 0xc4, 0x6c, 0x3d, 0xef, 0xe0, 0xd5, 0x3d,
  0xa3, 0xc8, 0x08, 0x3e, 0xc2, 0x47, 0x1c, 0xbd, 0xcd, 0xd6, 0xc7, 0x3d,
  0xf5, 0x1c, 0x6c, 0x3e, 0xd3, 0x3d, 0xb3, 0x3c, 0x7d, 0xce, 0x09, 0x3e,
  0xc4, 0x63, 0x04, 0xbe, 0x16, 0x1d, 0xa7, 0x3d, 0x8a, 0x6d, 0x04, 0x3e,
  0xb2, 0x73, 0xbf, 0x3d, 0x71, 0x92, 0x76, 0x3e, 0x77, 0xfc, 0x85, 0x3c,
  0x30, 0x58, 0x66, 0xbc, 0xdd, 0xac, 0x05, 0xbd, 0x00, 0x00, 0x00, 0x00,
  0x90, 0xc6, 0xf0, 0x3d, 0x0b, 0x42, 0x2e, 0x3e, 0x93, 0x73, 0x1c, 0x3e,
  0x7e, 0xa6, 0x13, 0xbd, 0xfe, 0x25, 0xc5, 0x3c, 0xea, 0x9b, 0x63, 0xbc,
  0x26, 0x81, 0xfe, 0x3d, 0xa3, 0x6c, 0xde, 0x3d, 0x8e, 0x5f, 0xcf, 0x3d,
  0xe9, 0x75, 0xb0, 0x3e, 0x9d, 0xbf, 0x27, 0x3e, 0x0c, 0x21, 0x58, 0x3d,
  0xc2, 0x34, 0x95, 0x3e, 0x96, 0x9e, 0xc7, 0x3c, 0x26, 0x8c, 0x87, 0xbc,
  0x6a, 0x28, 0xd8, 0x3a, 0xe9, 0x60, 0xba, 0x3d, 0xcc, 0xb4, 0xef, 0x3d,
  0x61, 0x08, 0x63, 0x3d, 0x5c, 0xfa, 0xff, 0xff, 0x60, 0xfa, 0xff, 0xff,
  0x0f, 0x00, 0x00, 0x00, 0x4d, 0x4c, 0x49, 0x52, 0x20, 0x43, 0x6f, 0x6e,
  0x76, 0x65, 0x72, 0x74, 0x65, 0x64, 0x2e, 0x00, 0x01, 0x00, 0x00, 0x00,
  0x14, 0x00, 0x00, 0x00, 0x00, 0x00, 0x0e, 0x00, 0x18, 0x00, 0x14, 0x00,
  0x10, 0x00, 0x0c, 0x00, 0x08, 0x00, 0x04, 0x00, 0x0e, 0x00, 0x00, 0x00,
  0x14, 0x00, 0x00, 0x00, 0x1c, 0x00, 0x00, 0x00, 0x24, 0x01, 0x00, 0x00,
  0x28, 0x01, 0x00, 0x00, 0x2c, 0x01, 0x00, 0x00, 0x04, 0x00, 0x00, 0x00,
  0x6d, 0x61, 0x69, 0x6e, 0x00, 0x00, 0x00, 0x00, 0x04, 0x00, 0x00, 0x00,
  0xcc, 0x00, 0x00, 0x00, 0x84, 0x00, 0x00, 0x00, 0x50, 0x00, 0x00, 0x00,
  0x14, 0x00, 0x00, 0x00, 0x00, 0x00, 0x0e, 0x00, 0x1a, 0x00, 0x14, 0x00,
  0x10, 0x00, 0x0c, 0x00, 0x0b, 0x00, 0x04, 0x00, 0x0e, 0x00, 0x00, 0x00,
  0x1c, 0x00, 0x00, 0x00, 0x00, 0x00, 0x00, 0x09, 0x1c, 0x00, 0x00, 0x00,
  0x20, 0x00, 0x00, 0x00, 0x01, 0x00, 0x00, 0x00, 0x00, 0x00, 0x06, 0x00,
  0x08, 0x00, 0x04, 0x00, 0x06, 0x00, 0x00, 0x00, 0x00, 0x00, 0x80, 0x3f,
  0x01, 0x00, 0x00, 0x00, 0x0a, 0x00, 0x00, 0x00, 0x01, 0x00, 0x00, 0x00,
  0x09, 0x00, 0x00, 0x00, 0x9a, 0xff, 0xff, 0xff, 0x10, 0x00, 0x00, 0x00,
  0x00, 0x00, 0x00, 0x08, 0x0c, 0x00, 0x00, 0x00, 0x10, 0x00, 0x00, 0x00,
  0x24, 0xfb, 0xff, 0xff, 0x01, 0x00, 0x00, 0x00, 0x09, 0x00, 0x00, 0x00,
  0x03, 0x00, 0x00, 0x00, 0x08, 0x00, 0x00, 0x00, 0x06, 0x00, 0x00, 0x00,
  0x02, 0x00, 0x00, 0x00, 0xca, 0xff, 0xff, 0xff, 0x10, 0x00, 0x00, 0x00,
  0x00, 0x00, 0x00, 0x08, 0x10, 0x00, 0x00, 0x00, 0x14, 0x00, 0x00, 0x00,
  0xba, 0xff, 0xff, 0xff, 0x00, 0x00, 0x00, 0x01, 0x01, 0x00, 0x00, 0x00,
  0x08, 0x00, 0x00, 0x00, 0x03, 0x00, 0x00, 0x00, 0x07, 0x00, 0x00, 0x00,
  0x05, 0x00, 0x00, 0x00, 0x01, 0x00, 0x00, 0x00, 0x00, 0x00, 0x0e, 0x00,
  0x16, 0x00, 0x00, 0x00, 0x10, 0x00, 0x0c, 0x00, 0x0b, 0x00, 0x04, 0x00,
  0x0e, 0x00, 0x00, 0x00, 0x18, 0x00, 0x00, 0x00, 0x00, 0x00, 0x00, 0x08,
  0x18, 0x00, 0x00, 0x00, 0x1c, 0x00, 0x00, 0x00, 0x00, 0x00, 0x06, 0x00,
  0x08, 0x00, 0x07, 0x00, 0x06, 0x00, 0x00, 0x00, 0x00, 0x00, 0x00, 0x01,
  0x01, 0x00, 0x00, 0x00, 0x07, 0x00, 0x00, 0x00, 0x03, 0x00, 0x00, 0x00,
  0x00, 0x00, 0x00, 0x00, 0x04, 0x00, 0x00, 0x00, 0x03, 0x00, 0x00, 0x00,
  0x01, 0x00, 0x00, 0x00, 0x0a, 0x00, 0x00, 0x00, 0x01, 0x00, 0x00, 0x00,
  0x00, 0x00, 0x00, 0x00, 0x0b, 0x00, 0x00, 0x00, 0x04, 0x04, 0x00, 0x00,
  0x94, 0x03, 0x00, 0x00, 0x24, 0x03, 0x00, 0x00, 0xd0, 0x02, 0x00, 0x00,
  0x88, 0x02, 0x00, 0x00, 0x3c, 0x02, 0x00, 0x00, 0xf0, 0x01, 0x00, 0x00,
  0x68, 0x01, 0x00, 0x00, 0xd8, 0x00, 0x00, 0x00, 0x60, 0x00, 0x00, 0x00,
  0x04, 0x00, 0x00, 0x00, 0x3e, 0xfc, 0xff, 0xff, 0x00, 0x00, 0x00, 0x01,
  0x14, 0x00, 0x00, 0x00, 0x1c, 0x00, 0x00, 0x00, 0x1c, 0x00, 0x00, 0x00,
  0x0b, 0x00, 0x00, 0x00, 0x34, 0x00, 0x00, 0x00, 0x02, 0x00, 0x00, 0x00,
  0xff, 0xff, 0xff, 0xff, 0x06, 0x00, 0x00, 0x00, 0x28, 0xfc, 0xff, 0xff,
  0x19, 0x00, 0x00, 0x00, 0x53, 0x74, 0x61, 0x74, 0x65, 0x66, 0x75, 0x6c,
  0x50, 0x61, 0x72, 0x74, 0x69, 0x74, 0x69, 0x6f, 0x6e, 0x65, 0x64, 0x43,
  0x61, 0x6c, 0x6c, 0x3a, 0x30, 0x00, 0x00, 0x00, 0x02, 0x00, 0x00, 0x00,
  0x01, 0x00, 0x00, 0x00, 0x06, 0x00, 0x00, 0x00, 0x96, 0xfc, 0xff, 0xff,
  0x00, 0x00, 0x00, 0x01, 0x14, 0x00, 0x00, 0x00, 0x1c, 0x00, 0x00, 0x00,
  0x1c, 0x00, 0x00, 0x00, 0x0a, 0x00, 0x00, 0x00, 0x50, 0x00, 0x00, 0x00,
  0x02, 0x00, 0x00, 0x00, 0xff, 0xff, 0xff, 0xff, 0x06, 0x00, 0x00, 0x00,
  0x80, 0xfc, 0xff, 0xff, 0x34, 0x00, 0x00, 0x00, 0x73, 0x65, 0x71, 0x75,
  0x65, 0x6e, 0x74, 0x69, 0x61, 0x6c, 0x2f, 0x64, 0x65, 0x6e, 0x73, 0x65,
  0x5f, 0x32, 0x2f, 0x4d, 0x61, 0x74, 0x4d, 0x75, 0x6c, 0x3b, 0x73, 0x65,
  0x71, 0x75, 0x65, 0x6e, 0x74, 0x69, 0x61, 0x6c, 0x2f, 0x64, 0x65, 0x6e,
  0x73, 0x65, 0x5f, 0x32, 0x2f, 0x42, 0x69, 0x61, 0x73, 0x41, 0x64, 0x64,
  0x00, 0x00, 0x00, 0x00, 0x02, 0x00, 0x00, 0x00, 0x01, 0x00, 0x00, 0x00,
  0x06, 0x00, 0x00, 0x00, 0x0a, 0xfd, 0xff, 0xff, 0x00, 0x00, 0x00, 0x01,
  0x14, 0x00, 0x00, 0x00, 0x1c, 0x00, 0x00, 0x00, 0x1c, 0x00, 0x00, 0x00,
  0x09, 0x00, 0x00, 0x00, 0x68, 0x00, 0x00, 0x00, 0x02, 0x00, 0x00, 0x00,
  0xff, 0xff, 0xff, 0xff, 0x40, 0x00, 0x00, 0x00, 0xf4, 0xfc, 0xff, 0xff,
  0x4c, 0x00, 0x00, 0x00, 0x73, 0x65, 0x71, 0x75, 0x65, 0x6e, 0x74, 0x69,
  0x61, 0x6c, 0x2f, 0x64, 0x65, 0x6e, 0x73, 0x65, 0x5f, 0x31, 0x2f, 0x4d,
  0x61, 0x74, 0x4d, 0x75, 0x6c, 0x3b, 0x73, 0x65, 0x71, 0x75, 0x65, 0x6e,
  0x74, 0x69, 0x61, 0x6c, 0x2f, 0x64, 0x65, 0x6e, 0x73, 0x65, 0x5f, 0x31,
  0x2f, 0x52, 0x65, 0x6c, 0x75, 0x3b, 0x73, 0x65, 0x71, 0x75, 0x65, 0x6e,
  0x74, 0x69, 0x61, 0x6c, 0x2f, 0x64, 0x65, 0x6e, 0x73, 0x65, 0x5f, 0x31,
  0x2f, 0x42, 0x69, 0x61, 0x73, 0x41, 0x64, 0x64, 0x00, 0x00, 0x00, 0x00,
  0x02, 0x00, 0x00, 0x00, 0x01, 0x00, 0x00, 0x00, 0x40, 0x00, 0x00, 0x00,
  0x96, 0xfd, 0xff, 0xff, 0x00, 0x00, 0x00, 0x01, 0x14, 0x00, 0x00, 0x00,
  0x1c, 0x00, 0x00, 0x00, 0x1c, 0x00, 0x00, 0x00, 0x08, 0x00, 0x00, 0x00,
  0x60, 0x00, 0x00, 0x00, 0x02, 0x00, 0x00, 0x00, 0xff, 0xff, 0xff, 0xff,
  0x20, 0x00, 0x00, 0x00, 0x80, 0xfd, 0xff, 0xff, 0x46, 0x00, 0x00, 0x00,
  0x73, 0x65, 0x71, 0x75, 0x65, 0x6e, 0x74, 0x69, 0x61, 0x6c, 0x2f, 0x64,
  0x65, 0x6e, 0x73, 0x65, 0x2f, 0x4d, 0x61, 0x74, 0x4d, 0x75, 0x6c, 0x3b,
  0x73, 0x65, 0x71, 0x75, 0x65, 0x6e, 0x74, 0x69, 0x61, 0x6c, 0x2f, 0x64,
  0x65, 0x6e, 0x73, 0x65, 0x2f, 0x52, 0x65, 0x6c, 0x75, 0x3b, 0x73, 0x65,
  0x71, 0x75, 0x65, 0x6e, 0x74, 0x69, 0x61, 0x6c, 0x2f, 0x64, 0x65, 0x6e,
  0x73, 0x65, 0x2f, 0x42, 0x69, 0x61, 0x73, 0x41, 0x64, 0x64, 0x00, 0x00,
  0x02, 0x00, 0x00, 0x00, 0x01, 0x00, 0x00, 0x00, 0x20, 0x00, 0x00, 0x00,
  0x86, 0xfe, 0xff, 0xff, 0x00, 0x00, 0x00, 0x01, 0x10, 0x00, 0x00, 0x00,
  0x10, 0x00, 0x00, 0x00, 0x07, 0x00, 0x00, 0x00, 0x28, 0x00, 0x00, 0x00,
  0xf4, 0xfd, 0xff, 0xff, 0x19, 0x00, 0x00, 0x00, 0x73, 0x65, 0x71, 0x75,
  0x65, 0x6e, 0x74, 0x69, 0x61, 0x6c, 0x2f, 0x64, 0x65, 0x6e, 0x73, 0x65,
  0x5f, 0x32, 0x2f, 0x4d, 0x61, 0x74, 0x4d, 0x75, 0x6c, 0x00, 0x00, 0x00,
  0x02, 0x00, 0x00, 0x00, 0x06, 0x00, 0x00, 0x00, 0x40, 0x00, 0x00, 0x00,
  0xce, 0xfe, 0xff, 0xff, 0x00, 0x00, 0x00, 0x01, 0x10, 0x00, 0x00, 0x00,
  0x10, 0x00, 0x00, 0x00, 0x06, 0x00, 0x00, 0x00, 0x28, 0x00, 0x00, 0x00,
  0x3c, 0xfe, 0xff, 0xff, 0x19, 0x00, 0x00, 0x00, 0x73, 0x65, 0x71, 0x75,
  0x65, 0x6e, 0x74, 0x69, 0x61, 0x6c, 0x2f, 0x64, 0x65, 0x6e, 0x73, 0x65,
  0x5f, 0x31, 0x2f, 0x4d, 0x61, 0x74, 0x4d, 0x75, 0x6c, 0x00, 0x00, 0x00,
  0x02, 0x00, 0x00, 0x00, 0x40, 0x00, 0x00, 0x00, 0x20, 0x00, 0x00, 0x00,
  0x16, 0xff, 0xff, 0xff, 0x00, 0x00, 0x00, 0x01, 0x10, 0x00, 0x00, 0x00,
  0x10, 0x00, 0x00, 0x00, 0x05, 0x00, 0x00, 0x00, 0x24, 0x00, 0x00, 0x00,
  0x84, 0xfe, 0xff, 0xff, 0x17, 0x00, 0x00, 0x00, 0x73, 0x65, 0x71, 0x75,
  0x65, 0x6e, 0x74, 0x69, 0x61, 0x6c, 0x2f, 0x64, 0x65, 0x6e, 0x73, 0x65,
  0x2f, 0x4d, 0x61, 0x74, 0x4d, 0x75, 0x6c, 0x00, 0x02, 0x00, 0x00, 0x00,
  0x20, 0x00, 0x00, 0x00, 0x08, 0x00, 0x00, 0x00, 0x5a, 0xff, 0xff, 0xff,
  0x00, 0x00, 0x00, 0x01, 0x10, 0x00, 0x00, 0x00, 0x10, 0x00, 0x00, 0x00,
  0x04, 0x00, 0x00, 0x00, 0x34, 0x00, 0x00, 0x00, 0xc8, 0xfe, 0xff, 0xff,
  0x27, 0x00, 0x00, 0x00, 0x73, 0x65, 0x71, 0x75, 0x65, 0x6e, 0x74, 0x69,
  0x61, 0x6c, 0x2f, 0x64, 0x65, 0x6e, 0x73, 0x65, 0x2f, 0x42, 0x69, 0x61,
  0x73, 0x41, 0x64, 0x64, 0x2f, 0x52, 0x65, 0x61, 0x64, 0x56, 0x61, 0x72,
  0x69, 0x61, 0x62, 0x6c, 0x65, 0x4f, 0x70, 0x00, 0x01, 0x00, 0x00, 0x00,
  0x20, 0x00, 0x00, 0x00, 0xaa, 0xff, 0xff, 0xff, 0x00, 0x00, 0x00, 0x01,
  0x10, 0x00, 0x00, 0x00, 0x10, 0x00, 0x00, 0x00, 0x03, 0x00, 0x00, 0x00,
  0x38, 0x00, 0x00, 0x00, 0x18, 0xff, 0xff, 0xff, 0x29, 0x00, 0x00, 0x00,
  0x73, 0x65, 0x71, 0x75, 0x65, 0x6e, 0x74, 0x69, 0x61, 0x6c, 0x2f, 0x64,
  0x65, 0x6e, 0x73, 0x65, 0x5f, 0x32, 0x2f, 0x42, 0x69, 0x61, 0x73, 0x41,
  0x64, 0x64, 0x2f, 0x52, 0x65, 0x61, 0x64, 0x56, 0x61, 0x72, 0x69, 0x61,
  0x62, 0x6c, 0x65, 0x4f, 0x70, 0x00, 0x00, 0x00, 0x01, 0x00, 0x00, 0x00,
  0x06, 0x00, 0x00, 0x00, 0x00, 0x00, 0x16, 0x00, 0x18, 0x00, 0x14, 0x00,
  0x00, 0x00, 0x10, 0x00, 0x0c, 0x00, 0x08, 0x00, 0x00, 0x00, 0x00, 0x00,
  0x00, 0x00, 0x07, 0x00, 0x16, 0x00, 0x00, 0x00, 0x00, 0x00, 0x00, 0x01,
  0x10, 0x00, 0x00, 0x00, 0x10, 0x00, 0x00, 0x00, 0x02, 0x00, 0x00, 0x00,
  0x38, 0x00, 0x00, 0x00, 0x84, 0xff, 0xff, 0xff, 0x29, 0x00, 0x00, 0x00,
  0x73, 0x65, 0x71, 0x75, 0x65, 0x6e, 0x74, 0x69, 0x61, 0x6c, 0x2f, 0x64,
  0x65, 0x6e, 0x73, 0x65, 0x5f, 0x31, 0x2f, 0x42, 0x69, 0x61, 0x73, 0x41,
  0x64, 0x64, 0x2f, 0x52, 0x65, 0x61, 0x64, 0x56, 0x61, 0x72, 0x69, 0x61,
  0x62, 0x6c, 0x65, 0x4f, 0x70, 0x00, 0x00, 0x00, 0x01, 0x00, 0x00, 0x00,
  0x40, 0x00, 0x00, 0x00, 0x00, 0x00, 0x16, 0x00, 0x1c, 0x00, 0x18, 0x00,
  0x00, 0x00, 0x14, 0x00, 0x10, 0x00, 0x0c, 0x00, 0x00, 0x00, 0x00, 0x00,
  0x08, 0x00, 0x07, 0x00, 0x16, 0x00, 0x00, 0x00, 0x00, 0x00, 0x00, 0x01,
  0x14, 0x00, 0x00, 0x00, 0x20, 0x00, 0x00, 0x00, 0x20, 0x00, 0x00, 0x00,
  0x01, 0x00, 0x00, 0x00, 0x3c, 0x00, 0x00, 0x00, 0x02, 0x00, 0x00, 0x00,
  0xff, 0xff, 0xff, 0xff, 0x08, 0x00, 0x00, 0x00, 0x04, 0x00, 0x04, 0x00,
  0x04, 0x00, 0x00, 0x00, 0x1d, 0x00, 0x00, 0x00, 0x73, 0x65, 0x72, 0x76,
  0x69, 0x6e, 0x67, 0x5f, 0x64, 0x65, 0x66, 0x61, 0x75, 0x6c, 0x74, 0x5f,
  0x64, 0x65, 0x6e, 0x73, 0x65, 0x5f, 0x69, 0x6e, 0x70, 0x75, 0x74, 0x3a,
  0x30, 0x00, 0x00, 0x00, 0x02, 0x00, 0x00, 0x00, 0x01, 0x00, 0x00, 0x00,
  0x08, 0x00, 0x00, 0x00, 0x02, 0x00, 0x00, 0x00, 0x20, 0x00, 0x00, 0x00,
  0x04, 0x00, 0x00, 0x00, 0xf4, 0xff, 0xff, 0xff, 0x19, 0x00, 0x00, 0x00,
  0x00, 0x00, 0x00, 0x19, 0x0c, 0x00, 0x0c, 0x00, 0x0b, 0x00, 0x00, 0x00,
  0x00, 0x00, 0x04, 0x00, 0x0c, 0x00, 0x00, 0x00, 0x09, 0x00, 0x00, 0x00,
  0x00, 0x00, 0x00, 0x09
};
