const unsigned char model[] = {
  0x1c, 0x00, 0x00, 0x00, 0x54, 0x46, 0x4c, 0x33, 0x14, 0x00, 0x20, 0x00,
  0x1c, 0x00, 0x18, 0x00, 0x14, 0x00, 0x10, 0x00, 0x0c, 0x00, 0x00, 0x00,
  0x08, 0x00, 0x04, 0x00, 0x14, 0x00, 0x00, 0x00, 0x1c, 0x00, 0x00, 0x00,
  0x94, 0x00, 0x00, 0x00, 0xec, 0x00, 0x00, 0x00, 0x94, 0x2c, 0x00, 0x00,
  0xa4, 0x2c, 0x00, 0x00, 0x7c, 0x32, 0x00, 0x00, 0x03, 0x00, 0x00, 0x00,
  0x01, 0x00, 0x00, 0x00, 0x10, 0x00, 0x00, 0x00, 0x00, 0x00, 0x0a, 0x00,
  0x10, 0x00, 0x0c, 0x00, 0x08, 0x00, 0x04, 0x00, 0x0a, 0x00, 0x00, 0x00,
  0x0c, 0x00, 0x00, 0x00, 0x1c, 0x00, 0x00, 0x00, 0x38, 0x00, 0x00, 0x00,
  0x0f, 0x00, 0x00, 0x00, 0x73, 0x65, 0x72, 0x76, 0x69, 0x6e, 0x67, 0x5f,
  0x64, 0x65, 0x66, 0x61, 0x75, 0x6c, 0x74, 0x00, 0x01, 0x00, 0x00, 0x00,
  0x04, 0x00, 0x00, 0x00, 0x94, 0xff, 0xff, 0xff, 0x0a, 0x00, 0x00, 0x00,
  0x04, 0x00, 0x00, 0x00, 0x07, 0x00, 0x00, 0x00, 0x64, 0x65, 0x6e, 0x73,
  0x65, 0x5f, 0x38, 0x00, 0x01, 0x00, 0x00, 0x00, 0x04, 0x00, 0x00, 0x00,
  0x4e, 0xd3, 0xff, 0xff, 0x04, 0x00, 0x00, 0x00, 0x0d, 0x00, 0x00, 0x00,
  0x64, 0x65, 0x6e, 0x73, 0x65, 0x5f, 0x36, 0x5f, 0x69, 0x6e, 0x70, 0x75,
  0x74, 0x00, 0x00, 0x00, 0x02, 0x00, 0x00, 0x00, 0x34, 0x00, 0x00, 0x00,
  0x04, 0x00, 0x00, 0x00, 0xdc, 0xff, 0xff, 0xff, 0x0d, 0x00, 0x00, 0x00,
  0x04, 0x00, 0x00, 0x00, 0x13, 0x00, 0x00, 0x00, 0x43, 0x4f, 0x4e, 0x56,
  0x45, 0x52, 0x53, 0x49, 0x4f, 0x4e, 0x5f, 0x4d, 0x45, 0x54, 0x41, 0x44,
  0x41, 0x54, 0x41, 0x00, 0x08, 0x00, 0x0c, 0x00, 0x08, 0x00, 0x04, 0x00,
  0x08, 0x00, 0x00, 0x00, 0x0c, 0x00, 0x00, 0x00, 0x04, 0x00, 0x00, 0x00,
  0x13, 0x00, 0x00, 0x00, 0x6d, 0x69, 0x6e, 0x5f, 0x72, 0x75, 0x6e, 0x74,
  0x69, 0x6d, 0x65, 0x5f, 0x76, 0x65, 0x72, 0x73, 0x69, 0x6f, 0x6e, 0x00,
  0x0e, 0x00, 0x00, 0x00, 0xa4, 0x2b, 0x00, 0x00, 0x9c, 0x2b, 0x00, 0x00,
  0x78, 0x2b, 0x00, 0x00, 0x68, 0x2a, 0x00, 0x00, 0xd8, 0x29, 0x00, 0x00,
  0xc8, 0x25, 0x00, 0x00, 0xb8, 0x05, 0x00, 0x00, 0xa8, 0x00, 0x00, 0x00,
  0xa0, 0x00, 0x00, 0x00, 0x98, 0x00, 0x00, 0x00, 0x90, 0x00, 0x00, 0x00,
  0x88, 0x00, 0x00, 0x00, 0x68, 0x00, 0x00, 0x00, 0x04, 0x00, 0x00, 0x00,
  0x02, 0xd4, 0xff, 0xff, 0x04, 0x00, 0x00, 0x00, 0x54, 0x00, 0x00, 0x00,
  0x0c, 0x00, 0x00, 0x00, 0x08, 0x00, 0x0e, 0x00, 0x08, 0x00, 0x04, 0x00,
  0x08, 0x00, 0x00, 0x00, 0x10, 0x00, 0x00, 0x00, 0x24, 0x00, 0x00, 0x00,
  0x00, 0x00, 0x06, 0x00, 0x08, 0x00, 0x04, 0x00, 0x06, 0x00, 0x00, 0x00,
  0x04, 0x00, 0x00, 0x00, 0x00, 0x00, 0x00, 0x00, 0x00, 0x00, 0x0a, 0x00,
  0x10, 0x00, 0x0c, 0x00, 0x08, 0x00, 0x04, 0x00, 0x0a, 0x00, 0x00, 0x00,
  0x02, 0x00, 0x00, 0x00, 0x02, 0x00, 0x00, 0x00, 0x04, 0x00, 0x00, 0x00,
  0x06, 0x00, 0x00, 0x00, 0x32, 0x2e, 0x31, 0x35, 0x2e, 0x30, 0x00, 0x00,
  0x62, 0xd4, 0xff, 0xff, 0x04, 0x00, 0x00, 0x00, 0x10, 0x00, 0x00, 0x00,
  0x31, 0x2e, 0x35, 0x2e, 0x30, 0x00, 0x00, 0x00, 0x00, 0x00, 0x00, 0x00,
  0x00, 0x00, 0x00, 0x00, 0x54, 0xcf, 0xff, 0xff, 0x58, 0xcf, 0xff, 0xff,
  0x5c, 0xcf, 0xff, 0xff, 0x60, 0xcf, 0xff, 0xff, 0x8e, 0xd4, 0xff, 0xff,
  0x04, 0x00, 0x00, 0x00, 0x00, 0x05, 0x00, 0x00, 0x81, 0x23, 0xac, 0x3e,
  0x64, 0xbd, 0x67, 0xbe, 0x6a, 0x0b, 0x63, 0xbe, 0xd4, 0x97, 0xfa, 0xbe,
  0x10, 0x2b, 0x2e, 0xbf, 0xab, 0xa9, 0x0f, 0xbe, 0x21, 0x37, 0xb2, 0xbe,
  0x43, 0xb4, 0xb6, 0xbe, 0x44, 0xf4, 0xa0, 0x3e, 0xb2, 0x02, 0x87, 0x3d,
  0x0a, 0x63, 0x21, 0xbd, 0xd5, 0x5d, 0xb4, 0xbe, 0x70, 0x03, 0x55, 0x3e,
  0xef, 0x8e, 0x3c, 0xbf, 0xb9, 0xea, 0x08, 0x3e, 0x0f, 0xe6, 0x4d, 0xbe,
  0x54, 0x41, 0xbd, 0x3b, 0x7c, 0xdb, 0x47, 0x3e, 0xdf, 0xbe, 0x83, 0xbe,
  0xb6, 0x6d, 0x85, 0x3e, 0xe7, 0xbf, 0xf9, 0xbd, 0xbd, 0x1d, 0xa4, 0x3d,
  0x1f, 0x00, 0x5d, 0xbe, 0xad, 0xce, 0xf2, 0xbe, 0x5a, 0x33, 0x38, 0xbf,
  0xa0, 0xf8, 0xec, 0xbe, 0x6d, 0xeb, 0x3b, 0xbf, 0xcd, 0x8f, 0x21, 0x3e,
  0x37, 0x5b, 0x9f, 0x3d, 0x29, 0xb6, 0xb2, 0x3d, 0x06, 0x94, 0x3b, 0x3e,
  0x4b, 0x79, 0x58, 0xbf, 0xa0, 0x52, 0x27, 0xbd, 0x4f, 0xac, 0x83, 0xbe,
  0xcf, 0xcf, 0x64, 0xbd, 0x44, 0x4f, 0xd2, 0x3d, 0xf4, 0x4c, 0x0d, 0x3d,
  0xed, 0x8f, 0x48, 0xbe, 0x11, 0xfd, 0xb1, 0xbe, 0xbf, 0x61, 0xc5, 0x3e,
  0x10, 0xb4, 0x85, 0xbd, 0x34, 0xb8, 0x85, 0xbe, 0xd2, 0xc5, 0x41, 0x3e,
  0x3a, 0x75, 0x30, 0x3e, 0x72, 0x3e, 0xe3, 0xbd, 0x07, 0x26, 0x70, 0xbf,
  0x94, 0x91, 0xf7, 0x3d, 0x12, 0xff, 0x5b, 0x3e, 0xcb, 0x85, 0x2b, 0xbe,
  0xa8, 0x96, 0x13, 0xbf, 0x6b, 0xee, 0x30, 0xbe, 0x0f, 0xa4, 0xe0, 0xbe,
  0xdb, 0xd3, 0xa7, 0xbe, 0xf9, 0x39, 0x21, 0xbe, 0x9b, 0x5a, 0xc9, 0xbe,
  0x58, 0xf9, 0xd0, 0xbe, 0x40, 0x2c, 0x10, 0xbc, 0x42, 0x04, 0xa0, 0xbe,
  0x79, 0x9f, 0x64, 0x3e, 0x83, 0x14, 0xe4, 0x3d, 0xab, 0xcb, 0x96, 0x3d,
  0xf4, 0x93, 0xf6, 0xbd, 0x9d, 0xbe, 0x42, 0x3c, 0x14, 0xf6, 0x7f, 0xbd,
  0xaa, 0x26, 0x35, 0xbe, 0xc8, 0x0e, 0x52, 0xbe, 0x18, 0x3d, 0x07, 0x3c,
  0x8f, 0xac, 0xbd, 0xbe, 0xe1, 0x60, 0x89, 0x3e, 0xfa, 0xfa, 0x06, 0x3e,
  0xf3, 0x2f, 0xb4, 0xbe, 0xf3, 0x1b, 0x42, 0xbf, 0x95, 0x29, 0xf9, 0xbc,
  0xf0, 0x00, 0x58, 0x3e, 0xfc, 0x5c, 0xad, 0xbd, 0x15, 0x0e, 0x06, 0x3e,
  0x1f, 0xd9, 0xb6, 0xbe, 0x64, 0xe6, 0x38, 0xbd, 0x72, 0xc3, 0x49, 0xbe,
  0x49, 0x6c, 0xc1, 0xbc, 0x4c, 0xe8, 0x41, 0xbf, 0xfd, 0xd0, 0xb6, 0x3d,
  0xb3, 0x9a, 0x6e, 0xbf, 0x98, 0x42, 0x79, 0xbe, 0xd0, 0xd7, 0x86, 0xbe,
  0xfd, 0xa2, 0x34, 0xbf, 0x5c, 0xaf, 0x47, 0xbe, 0xf9, 0x08, 0x1e, 0x3e,
  0xe3, 0xe4, 0x91, 0xbe, 0x7b, 0xa6, 0x80, 0xbf, 0xde, 0x28, 0x6f, 0xbf,
  0x29, 0x79, 0x17, 0xbf, 0x98, 0x42, 0x96, 0xbe, 0xca, 0x66, 0xb8, 0x3e,
  0xe8, 0xaa, 0x1b, 0xbe, 0x6e, 0xef, 0x0b, 0xbe, 0x38, 0x35, 0x1a, 0x3e,
  0x70, 0xea, 0x61, 0x3e, 0xd2, 0x10, 0xdf, 0xbd, 0xb0, 0x1a, 0x71, 0x3b,
  0x96, 0x1e, 0x90, 0xbe, 0x87, 0xc8, 0x33, 0xbd, 0xe5, 0x1d, 0x62, 0x3d,
  0xc9, 0xba, 0xb4, 0x3e, 0xf0, 0x05, 0x42, 0x3d, 0x28, 0xd4, 0x28, 0xbe,
  0xeb, 0x74, 0x7a, 0xbe, 0xf2, 0x44, 0xf6, 0x3d, 0xd1, 0x61, 0x91, 0xbd,
  0x8d, 0xd5, 0xd2, 0xbe, 0x0f, 0xe0, 0x31, 0xbf, 0x2b, 0xa2, 0x12, 0x3e,
  0x73, 0x44, 0x98, 0xbe, 0x41, 0x6c, 0x09, 0xbf, 0x63, 0x78, 0x21, 0x3d,
  0x20, 0x79, 0x97, 0xbe, 0x3b, 0x4d, 0x78, 0xbe, 0xb3, 0x43, 0xc2, 0xbe,
  0xfa, 0x84, 0x10, 0xbf, 0x92, 0x20, 0x08, 0xbf, 0x00, 0xce, 0x0e, 0x3d,
  0x22, 0x00, 0x86, 0x39, 0x5f, 0x31, 0x13, 0xbe, 0x1b, 0xb0, 0x45, 0xbe,
  0xec, 0x71, 0x3d, 0x3e, 0x79, 0x1f, 0x1d, 0xbe, 0xb9, 0x7e, 0x8a, 0xbf,
  0x1a, 0x6e, 0x75, 0xbe, 0xcd, 0x99, 0x34, 0x3e, 0x80, 0xbb, 0x1e, 0xbe,
  0xf2, 0xe5, 0x62, 0x3e, 0xb5, 0x1c, 0xb6, 0xbd, 0xdd, 0xf8, 0x11, 0x3e,
  0xcc, 0x7e, 0x55, 0x3e, 0x34, 0x96, 0x67, 0xbf, 0xd8, 0x37, 0x8c, 0xbe,
  0x96, 0xa9, 0xb3, 0xbe, 0x5e, 0x71, 0xad, 0x3d, 0xdb, 0xf3, 0x01, 0xbe,
  0xa2, 0xf3, 0x95, 0xbf, 0x6b, 0xb2, 0x77, 0xbe, 0x4b, 0x6b, 0x12, 0xbe,
  0x13, 0x4b, 0xe9, 0x3d, 0x5b, 0x5f, 0x04, 0x3e, 0x1e, 0x22, 0x98, 0x3d,
  0xa6, 0x8e, 0xac, 0xbd, 0x01, 0x24, 0xb5, 0x3c, 0xf4, 0x84, 0xd8, 0x3d,
  0x20, 0x53, 0x74, 0xbe, 0xc8, 0x6c, 0x9e, 0x3e, 0xee, 0xc2, 0x5b, 0xbd,
  0xcd, 0x39, 0x1c, 0xbf, 0x0b, 0xe1, 0x7c, 0x3e, 0x6f, 0x18, 0xcd, 0xbd,
  0x88, 0xe3, 0x96, 0xbe, 0xe4, 0xd6, 0x5f, 0x3e, 0x33, 0xd9, 0x87, 0x3e,
  0x60, 0x55, 0x92, 0xbf, 0x19, 0xfe, 0x00, 0x3e, 0x8f, 0x50, 0xef, 0xbe,
  0x9d, 0x04, 0xe6, 0x3d, 0xe0, 0x01, 0x42, 0x3c, 0x9a, 0x9b, 0xa9, 0xbd,
  0x37, 0x40, 0x59, 0x3e, 0xc3, 0x6d, 0xcb, 0xbe, 0x93, 0x38, 0xf3, 0xbe,
  0xf8, 0x7a, 0xe8, 0x3d, 0xad, 0x06, 0x8a, 0xbf, 0xb4, 0x1a, 0xba, 0x3d,
  0x0c, 0x52, 0x2e, 0xbe, 0x9c, 0xb8, 0x4d, 0x3e, 0x40, 0xe7, 0xd9, 0xbe,
  0x95, 0x06, 0x55, 0xbe, 0x11, 0x2b, 0xa0, 0xbe, 0xad, 0x2a, 0x3b, 0xbe,
  0x46, 0xbc, 0x1c, 0xbe, 0x5a, 0xd7, 0xac, 0xbe, 0x97, 0x93, 0xa1, 0x3c,
  0x8b, 0x45, 0xa8, 0xbe, 0x1a, 0xf6, 0x07, 0xbe, 0x79, 0xfe, 0x57, 0xbe,
  0x36, 0x0f, 0xfc, 0xbd, 0xca, 0xe0, 0x40, 0x3e, 0x81, 0x0d, 0x15, 0xbe,
  0x50, 0x43, 0x31, 0x3d, 0xa1, 0x99, 0x8b, 0xbe, 0xc6, 0xee, 0x65, 0x3e,
  0x87, 0x88, 0x51, 0xbe, 0xf2, 0x87, 0xb3, 0xbe, 0x68, 0x48, 0x81, 0x3d,
  0x71, 0x6b, 0xcd, 0x3d, 0x74, 0xca, 0xf2, 0x3d, 0x90, 0xf9, 0x23, 0xbf,
  0xdb, 0x92, 0x66, 0x3e, 0x99, 0xf2, 0xfd, 0x3d, 0x7b, 0x6c, 0x68, 0x38,
  0xf4, 0x49, 0xad, 0xbe, 0x57, 0x4e, 0x5e, 0x3e, 0x93, 0x51, 0x5f, 0x3f,
  0xc7, 0xfd, 0xa7, 0x3e, 0x2d, 0x70, 0x61, 0xbd, 0x90, 0x96, 0xa0, 0x3d,
  0xa0, 0x3b, 0x1f, 0xbf, 0xe6, 0xaa, 0x67, 0xbe, 0x23, 0x98, 0x39, 0xbf,
  0x74, 0xa2, 0x3d, 0x3e, 0xe7, 0x86, 0x94, 0x3c, 0xdc, 0xaa, 0x16, 0xbe,
  0x81, 0x9f, 0xfd, 0xbe, 0x09, 0xff, 0xa5, 0xbe, 0x50, 0x3a, 0x21, 0x3d,
  0xe0, 0x52, 0x31, 0x3d, 0xa2, 0x70, 0x26, 0xbf, 0x4c, 0xc5, 0x49, 0xbf,
  0x33, 0x15, 0x52, 0x3d, 0x67, 0xca, 0x12, 0x3d, 0x35, 0x76, 0x76, 0x3c,
  0x28, 0x85, 0x29, 0x3c, 0x4b, 0x91, 0x75, 0x3e, 0xd4, 0xf8, 0x0a, 0xbf,
  0x08, 0x03, 0x8c, 0xbe, 0x0d, 0xf9, 0x9b, 0xba, 0x65, 0x43, 0x3f, 0xbf,
  0xe5, 0xda, 0xb7, 0x3e, 0x47, 0xf3, 0x3c, 0xbf, 0x20, 0x4d, 0x57, 0x3e,
  0x1a, 0x54, 0x80, 0x3e, 0x39, 0xc3, 0x50, 0xbe, 0x69, 0xf8, 0x29, 0xbf,
  0x61, 0xa1, 0x04, 0xbf, 0x3b, 0xb3, 0xa3, 0xbe, 0x33, 0x18, 0x19, 0xbf,
  0xec, 0xeb, 0x2f, 0x3e, 0xf3, 0x3d, 0xa3, 0xbe, 0x88, 0x24, 0x8a, 0x3d,
  0xc5, 0x85, 0x6c, 0xbf, 0x96, 0xdb, 0xe4, 0x3c, 0xd9, 0xfa, 0x2b, 0x3f,
  0x0f, 0x0f, 0xf5, 0x3d, 0xfd, 0x4d, 0x41, 0xbf, 0x6f, 0xbe, 0x42, 0x3d,
  0xd5, 0x54, 0x9c, 0x3d, 0x72, 0x5f, 0x38, 0x3c, 0x75, 0xa4, 0x42, 0x3d,
  0x57, 0x3a, 0xdb, 0xbe, 0xc9, 0x54, 0x3f, 0x3c, 0xca, 0x2a, 0xb6, 0xbe,
  0x4d, 0x37, 0xf4, 0x3e, 0x40, 0x24, 0x05, 0xbe, 0x59, 0xf3, 0x65, 0xbd,
  0x23, 0xd9, 0x8a, 0xbe, 0x37, 0xa8, 0x96, 0x3e, 0x10, 0xcf, 0x89, 0x3d,
  0xa4, 0x18, 0x87, 0x3d, 0x15, 0x08, 0x98, 0x3e, 0xa4, 0xb4, 0x7a, 0x3e,
  0x72, 0xa5, 0x96, 0xbe, 0xa6, 0x37, 0xdf, 0x3d, 0xcb, 0x65, 0x90, 0xbe,
  0x59, 0x62, 0x30, 0xbf, 0x03, 0x1c, 0xde, 0xbe, 0x5c, 0xed, 0x14, 0x3e,
  0x09, 0xb1, 0x10, 0x3d, 0xd8, 0x07, 0x53, 0xbd, 0x46, 0xbc, 0x9b, 0xbd,
  0xca, 0x81, 0x3c, 0xbe, 0x54, 0x10, 0xd1, 0xbe, 0x96, 0xa7, 0x96, 0x3e,
  0x8f, 0xdc, 0x98, 0x3e, 0x84, 0x1a, 0x88, 0x3e, 0x11, 0xf2, 0x9d, 0x3d,
  0xfe, 0x3d, 0xed, 0x3e, 0x11, 0x68, 0xa7, 0x3d, 0x8a, 0xbc, 0xea, 0x3d,
  0xaa, 0xa6, 0xd3, 0x3e, 0x2c, 0x5c, 0x31, 0x3d, 0x1e, 0x9d, 0xdc, 0x3d,
  0x49, 0x53, 0x91, 0xbe, 0x59, 0x6d, 0x8f, 0xbe, 0xd3, 0xc3, 0x8c, 0x3e,
  0xb1, 0x2f, 0x7b, 0xbe, 0x27, 0xa4, 0xe4, 0xbe, 0xea, 0xe6, 0xbe, 0x3e,
  0xa2, 0xf2, 0x39, 0xbe, 0x0a, 0xb5, 0xe4, 0xbe, 0x94, 0x33, 0xa0, 0xbd,
  0x8a, 0x8a, 0x7e, 0x3d, 0x09, 0x96, 0xa4, 0x3e, 0x44, 0x69, 0x22, 0xbc,
  0x04, 0xe5, 0x46, 0x3e, 0x16, 0xe4, 0x7f, 0xbe, 0xfb, 0x94, 0x3d, 0xbd,
  0x35, 0xf7, 0x2c, 0x3f, 0xd0, 0x17, 0xb2, 0x3d, 0x0d, 0x88, 0xd2, 0x3c,
  0x00, 0x0d, 0x9e, 0x3d, 0x20, 0x06, 0x06, 0xbd, 0x11, 0x69, 0x67, 0xbe,
  0x66, 0xab, 0x78, 0xbf, 0x75, 0x68, 0xf9, 0x3e, 0xad, 0xc1, 0x25, 0xbf,
  0x0c, 0x0f, 0xb3, 0xbe, 0xc9, 0xa7, 0x99, 0xbe, 0x6e, 0xbb, 0x7d, 0xbe,
  0x6c, 0x15, 0x24, 0xbf, 0x7d, 0xd4, 0x26, 0xbf, 0x55, 0x1a, 0x2f, 0xbf,
  0xc1, 0x85, 0x54, 0xbf, 0xc3, 0x1d, 0x23, 0x3f, 0x03, 0xfe, 0x63, 0x3d,
  0x1f, 0xd5, 0x67, 0x3e, 0x57, 0xe1, 0x11, 0x3f, 0xa4, 0x15, 0x08, 0xbe,
  0x61, 0x42, 0x50, 0xbe, 0x96, 0x45, 0x09, 0x3e, 0x00, 0xe0, 0xd0, 0xbe,
  0x38, 0xe5, 0x6e, 0xbe, 0x96, 0x16, 0x87, 0x3e, 0x93, 0x42, 0xab, 0xbe,
  0xe0, 0x95, 0x5e, 0x3e, 0x9a, 0xd9, 0xff, 0xff, 0x04, 0x00, 0x00, 0x00,
  0x00, 0x20, 0x00, 0x00, 0x55, 0x13, 0xb6, 0xbc, 0x19, 0x4a, 0xe6, 0x3b,
  0xe2, 0x41, 0xc4, 0x3e, 0x31, 0x42, 0x81, 0x3d, 0xd7, 0x93, 0x35, 0xbe,
  0xf5, 0x49, 0x58, 0x3e, 0x1d, 0xcc, 0xa5, 0x3d, 0x41, 0x08, 0xe8, 0x3d,
  0x71, 0x4c, 0x1c, 0x3e, 0x67, 0xbf, 0x50, 0x3e, 0xf1, 0x4e, 0x50, 0x3d,
  0x13, 0xac, 0x0e, 0x3e, 0x6e, 0x15, 0x77, 0x3e, 0xf3, 0x3e, 0xfd, 0xbd,
  0x5d, 0xfa, 0x77, 0xbb, 0x31, 0x94, 0xb7, 0x3d, 0x96, 0x1c, 0x5f, 0x3f,
  0x0f, 0xf4, 0xc4, 0x3d, 0x2a, 0x8a, 0xdb, 0xbe, 0x2e, 0x74, 0x12, 0xbe,
  0x49, 0xe8, 0x77, 0xbe, 0xb0, 0xbb, 0x79, 0xbe, 0xb3, 0xd7, 0x0d, 0xbe,
  0x1a, 0x28, 0xad, 0xbe, 0xe9, 0x49, 0xd5, 0x3e, 0x54, 0x18, 0x8d, 0xbd,
  0xd3, 0xf8, 0x33, 0x3f, 0x49, 0xe9, 0xf8, 0x3c, 0xef, 0x51, 0x1f, 0xbf,
  0x01, 0x37, 0xcd, 0x3c, 0x1c, 0x92, 0x30, 0xbb, 0x0d, 0xd4, 0x15, 0x3f,
  0xad, 0xef, 0x83, 0xbe, 0x64, 0xf1, 0x38, 0xbe, 0xbd, 0x65, 0xf8, 0x3c,
  0x5d, 0x23, 0x31, 0x3d, 0x7a, 0x1b, 0x59, 0xbd, 0x1f, 0x50, 0x43, 0xbe,
  0x3b, 0x30, 0x7a, 0xbc, 0xa9, 0xbb, 0x0f, 0x3e, 0x22, 0x7e, 0x9b, 0xbd,
  0xd0, 0x1a, 0x1e, 0xbd, 0x50, 0x09, 0x9d, 0xbd, 0x5d, 0x5c, 0x61, 0x3c,
  0xb0, 0x1f, 0x5a, 0xbe, 0xa8, 0x6c, 0x7d, 0x3e, 0x66, 0x63, 0x31, 0x3d,
  0x42, 0x7d, 0x59, 0xbe, 0xd6, 0x39, 0xd4, 0xbd, 0x04, 0x0d, 0x41, 0xbe,
  0xec, 0x1a, 0x44, 0xbe, 0x8c, 0x09, 0x6e, 0xbe, 0xdf, 0xa0, 0xbd, 0xbd,
  0xc8, 0x39, 0x06, 0xbe, 0x85, 0x72, 0xd3, 0x3d, 0x34, 0xe9, 0x50, 0xbe,
  0x10, 0x31, 0x8c, 0xbd, 0x1e, 0xc0, 0xda, 0xbc, 0x66, 0x42, 0x4d, 0x3e,
  0x30, 0x7a, 0x54, 0x3e, 0x78, 0xea, 0x66, 0xbe, 0xbc, 0xec, 0x02, 0xbe,
  0x20, 0x32, 0xb4, 0x3c, 0x9b, 0x61, 0xfa, 0x3d, 0x28, 0xb2, 0x14, 0xbe,
  0x90, 0x99, 0x42, 0xbd, 0x13, 0xba, 0x16, 0xbc, 0x41, 0xc1, 0x75, 0x3e,
  0x9b, 0xbc, 0x4f, 0xbe, 0x6b, 0x95, 0x0d, 0x3e, 0x7e, 0x29, 0x61, 0x3e,
  0x13, 0xfc, 0x03, 0xbe, 0x99, 0x95, 0x21, 0x3d, 0x24, 0x4a, 0x6d, 0x3e,
  0xf6, 0xd0, 0xf2, 0x3d, 0xd0, 0xbd, 0x1b, 0xbe, 0x10, 0xcb, 0x0d, 0xbd,
  0x2a, 0xe0, 0x50, 0xbe, 0x39, 0xde, 0x13, 0xbe, 0x14, 0xdc, 0x5e, 0x3e,
  0x98, 0xee, 0x18, 0x3e, 0xb3, 0x80, 0x38, 0xbd, 0x6b, 0xd6, 0x03, 0xbe,
  0x9c, 0x58, 0x53, 0xbe, 0x5f, 0x32, 0xdb, 0x3d, 0x34, 0x8f, 0x13, 0xbe,
  0xdc, 0x01, 0x8f, 0xba, 0xa9, 0x60, 0x74, 0x3e, 0x35, 0x07, 0x21, 0x3d,
  0xfd, 0x1e, 0x4a, 0xbe, 0x85, 0x12, 0x90, 0xbc, 0x28, 0x46, 0x74, 0x3d,
  0x41, 0x35, 0xf0, 0xbc, 0x32, 0xb4, 0xd3, 0xbd, 0xd0, 0x1d, 0x17, 0xbe,
  0x3c, 0x02, 0x48, 0xbe, 0x18, 0x3b, 0x4c, 0x3e, 0xc1, 0x43, 0x2a, 0xbd,
  0x7a, 0x46, 0x84, 0x3e, 0xb1, 0x71, 0xb1, 0xbe, 0x91, 0xd1, 0x8b, 0xbe,
  0x1d, 0xcd, 0x02, 0xbe, 0x5f, 0x54, 0xb1, 0x3e, 0xdf, 0xa9, 0xb8, 0x3e,
  0x4e, 0x5b, 0x03, 0xbf, 0x94, 0xae, 0x0e, 0x3e, 0xb4, 0xec, 0x56, 0xbe,
  0x61, 0x52, 0x09, 0x3e, 0xfc, 0x55, 0x4b, 0xbe, 0x68, 0x62, 0x44, 0x3e,
  0xaf, 0x22, 0xa0, 0x3e, 0xd5, 0x77, 0x1f, 0x3c, 0x9b, 0xdb, 0x95, 0xbe,
  0x38, 0xe2, 0x9f, 0xbe, 0x0b, 0x68, 0xc1, 0x3e, 0x01, 0x72, 0xc7, 0xbd,
  0x3e, 0x3a, 0x92, 0xbe, 0x01, 0x6c, 0xbf, 0xba, 0x6c, 0xe7, 0x23, 0x3e,
  0xad, 0x76, 0x1c, 0x3e, 0xc8, 0x46, 0x8b, 0xbe, 0x48, 0x2d, 0xeb, 0x3e,
  0x94, 0x3e, 0xdf, 0x3d, 0xb3, 0x33, 0x8b, 0x3c, 0xda, 0xcc, 0xd8, 0x3e,
  0xd4, 0x17, 0xa8, 0xbe, 0x0e, 0x52, 0xa4, 0x3d, 0xe4, 0xfb, 0xc7, 0xbd,
  0x1f, 0xe4, 0x71, 0xbe, 0x48, 0x01, 0x75, 0x3e, 0xdf, 0xd3, 0xd6, 0x3d,
  0xd9, 0xcf, 0xb9, 0xbe, 0xee, 0xe8, 0xc6, 0xbe, 0x05, 0x5c, 0x44, 0xbd,
  0xc7, 0xc4, 0x2c, 0x3e, 0x86, 0x77, 0x32, 0xbe, 0x2f, 0x6b, 0x6e, 0xbe,
  0x50, 0xb8, 0x1c, 0xbe, 0xb3, 0x92, 0x98, 0xbe, 0x89, 0x17, 0x39, 0x3e,
  0x90, 0x44, 0xf9, 0xbd, 0xf2, 0x2c, 0x17, 0x3e, 0xa8, 0x2e, 0x1f, 0x3e,
  0x18, 0x19, 0x23, 0x3e, 0xad, 0x47, 0xe0, 0x3c, 0x68, 0xbc, 0x03, 0xbe,
  0xa7, 0x05, 0xb8, 0x3e, 0xec, 0x59, 0x7a, 0xbe, 0x65, 0xa6, 0xbf, 0xbc,
  0xc0, 0x39, 0x65, 0x3d, 0x1a, 0x52, 0x5c, 0x3e, 0x35, 0xb2, 0x19, 0x3e,
  0xf5, 0x1f, 0xcf, 0xbe, 0x8d, 0x9f, 0x38, 0x3e, 0xc5, 0x41, 0xc4, 0x3e,
  0x5d, 0x42, 0x3d, 0x3d, 0xc0, 0x49, 0x35, 0xbd, 0xea, 0x83, 0xe4, 0xbd,
  0x30, 0x20, 0x06, 0xbe, 0xee, 0xf7, 0x06, 0x3e, 0xb7, 0xa1, 0x8a, 0x3d,
  0x46, 0x18, 0x24, 0x3e, 0xc2, 0xb7, 0x77, 0xbd, 0x1e, 0xd0, 0x04, 0x3e,
  0xf6, 0xd0, 0x69, 0x3d, 0x56, 0xef, 0x69, 0xbe, 0x4d, 0x67, 0x92, 0x3d,
  0x08, 0xe4, 0x3b, 0xbe, 0xf1, 0x2f, 0x3d, 0xbc, 0x51, 0x82, 0xca, 0x3d,
  0xf8, 0x95, 0x20, 0x3e, 0x90, 0x3a, 0xa2, 0x3c, 0xeb, 0xbc, 0x4e, 0x3e,
  0x92, 0xba, 0x7a, 0xbe, 0x4d, 0x73, 0xff, 0xbd, 0x31, 0xef, 0x16, 0xbd,
  0xfa, 0x88, 0x3f, 0x3e, 0xa7, 0xb4, 0x43, 0xbe, 0x3e, 0xd3, 0x4e, 0xbe,
  0xfb, 0xe7, 0x89, 0x3d, 0xd5, 0x9a, 0x3e, 0x3e, 0x0c, 0x49, 0x71, 0xbe,
  0x47, 0x60, 0x21, 0x3e, 0x75, 0x0f, 0x6b, 0x3e, 0xf9, 0xbd, 0xec, 0xbd,
  0x07, 0xfd, 0x52, 0xbe, 0x6f, 0xba, 0x0e, 0x3d, 0x8f, 0x04, 0x66, 0xbe,
  0x95, 0x78, 0x70, 0xbe, 0x28, 0x55, 0x20, 0xbe, 0x28, 0xec, 0x02, 0xbe,
  0x6d, 0x8f, 0xc1, 0xbd, 0x79, 0xda, 0xbb, 0x3d, 0x2a, 0x5e, 0x3f, 0xbe,
  0xb5, 0xd1, 0x16, 0x3d, 0x6b, 0x55, 0x26, 0x3e, 0xe7, 0x7e, 0x7d, 0x3e,
  0x52, 0x3e, 0x80, 0x3e, 0xd5, 0x51, 0x21, 0xbc, 0x5d, 0xb2, 0x6d, 0x3e,
  0xca, 0x36, 0x74, 0xbe, 0x32, 0xaf, 0xd0, 0xbb, 0xdc, 0x47, 0x0a, 0xbe,
  0x98, 0x0c, 0x78, 0xbd, 0x74, 0x91, 0x20, 0x3e, 0x75, 0xa0, 0xff, 0x3d,
  0x6a, 0x5a, 0xae, 0x3c, 0xf7, 0xfc, 0x51, 0xbd, 0x57, 0xae, 0x23, 0xbf,
  0xae, 0xeb, 0x8d, 0x3e, 0x1b, 0xfa, 0x17, 0xbd, 0xe3, 0xc6, 0xae, 0x3c,
  0x7e, 0xb0, 0xa5, 0x3e, 0xb0, 0x32, 0x2e, 0xbd, 0x01, 0x50, 0xf7, 0xbd,
  0x6a, 0x3a, 0x36, 0xbd, 0x3c, 0x98, 0xc7, 0x3d, 0x2b, 0x9a, 0x7a, 0x3e,
  0x61, 0xc0, 0xa1, 0xbe, 0xf1, 0x54, 0x67, 0xbb, 0xf3, 0x06, 0x5b, 0x3f,
  0xb7, 0xb5, 0x59, 0xbe, 0x68, 0xde, 0x2e, 0x3e, 0xc7, 0xf9, 0xd6, 0xbe,
  0xa8, 0x69, 0x83, 0x3e, 0xc6, 0x47, 0x2e, 0xbe, 0xf7, 0x2e, 0x36, 0xbe,
  0xf4, 0x26, 0xe5, 0x3d, 0x6b, 0xb9, 0x26, 0x3e, 0xed, 0xe8, 0x3e, 0xbd,
  0x8e, 0xc2, 0xfc, 0x3c, 0x5f, 0xab, 0x1d, 0xbc, 0x9b, 0x7c, 0xb2, 0xbd,
  0x80, 0x40, 0x0e, 0x3e, 0x75, 0x51, 0x98, 0x3e, 0x58, 0x55, 0x1f, 0x3e,
  0x61, 0xca, 0x15, 0xbe, 0x2a, 0xb1, 0xde, 0x3d, 0x8f, 0x29, 0x7e, 0x3d,
  0xb2, 0xcc, 0x49, 0x3e, 0x6b, 0x2c, 0x05, 0xbf, 0xa3, 0x4c, 0x68, 0x3e,
  0x05, 0x06, 0xca, 0x3d, 0x88, 0x21, 0x2d, 0x3e, 0xe7, 0xf6, 0x8e, 0xbc,
  0x7e, 0x42, 0x91, 0xbd, 0x01, 0x91, 0x6f, 0xbe, 0x15, 0x89, 0xfc, 0x3d,
  0x35, 0xe5, 0x17, 0x3e, 0x88, 0x96, 0x75, 0x3e, 0x7f, 0x78, 0xd0, 0xbe,
  0x91, 0x38, 0x56, 0xbd, 0x2c, 0xef, 0xec, 0x3e, 0x80, 0x3b, 0x75, 0xbe,
  0xf7, 0x0f, 0x35, 0x3e, 0x49, 0x3c, 0x95, 0xbe, 0xde, 0xa2, 0xe4, 0xbd,
  0x00, 0xd6, 0x00, 0xbe, 0x10, 0xf9, 0xd3, 0xbc, 0xc9, 0x65, 0xaa, 0xbd,
  0x20, 0xc6, 0x87, 0xbe, 0x18, 0x77, 0xe0, 0xbd, 0x72, 0x8e, 0x57, 0x3e,
  0x45, 0x17, 0x56, 0x3e, 0x69, 0x3c, 0x51, 0x3e, 0x90, 0xdd, 0xe5, 0x3d,
  0x1c, 0x70, 0xe7, 0x3d, 0x82, 0x12, 0x2c, 0xbe, 0xcc, 0xbe, 0x41, 0xbe,
  0x4e, 0x54, 0xa7, 0x3d, 0x24, 0xd7, 0x5f, 0xbe, 0x5d, 0x47, 0xb6, 0x3d,
  0xed, 0x0e, 0xce, 0xbd, 0x04, 0x72, 0x10, 0x3e, 0x58, 0x11, 0x24, 0x3e,
  0xf1, 0x5b, 0x0f, 0x3d, 0xdf, 0x50, 0x55, 0xbe, 0x30, 0xea, 0x42, 0xbd,
  0xee, 0xeb, 0x83, 0x3c, 0xfb, 0xb7, 0x49, 0x3e, 0xe4, 0x78, 0xda, 0xbc,
  0x01, 0x19, 0x04, 0xbe, 0x92, 0xf3, 0x00, 0x3e, 0xdc, 0x89, 0x1a, 0xbe,
  0xc6, 0xd8, 0x4f, 0xbe, 0x19, 0x53, 0x45, 0xbe, 0xf0, 0xe5, 0xf0, 0x3d,
  0x34, 0x99, 0x8e, 0x3e, 0x4a, 0x5d, 0x3f, 0x3e, 0x4c, 0x66, 0xd9, 0xbd,
  0x34, 0x9c, 0x2f, 0x3e, 0xc3, 0xd7, 0xa2, 0xbd, 0x03, 0x69, 0x00, 0xbe,
  0x64, 0x1e, 0x0b, 0x3e, 0x63, 0x6e, 0x24, 0xbe, 0x50, 0xee, 0x1d, 0xbe,
  0xaf, 0x5f, 0x84, 0xbd, 0xc5, 0xa1, 0x12, 0xbe, 0x35, 0xfa, 0x3e, 0xbd,
  0x32, 0xa3, 0x26, 0xbe, 0x88, 0xfd, 0x43, 0x3e, 0x51, 0x24, 0x75, 0xbc,
  0x24, 0x35, 0x85, 0x3d, 0x7d, 0x50, 0x2d, 0xbe, 0x6d, 0x70, 0x11, 0x3e,
  0x98, 0xdb, 0xbb, 0xbd, 0x60, 0x4e, 0xfe, 0xbd, 0x3c, 0x38, 0x77, 0x3d,
  0x00, 0x7b, 0x56, 0xbb, 0x91, 0x50, 0x0b, 0xbe, 0x06, 0x66, 0xef, 0x3b,
  0xfd, 0x1a, 0x26, 0xbe, 0xd0, 0x2e, 0x4d, 0xbe, 0x34, 0xfd, 0x3b, 0xbe,
  0x00, 0xf5, 0x74, 0xbe, 0x80, 0xd3, 0x52, 0x3d, 0xdc, 0x25, 0x15, 0xbe,
  0x60, 0xc9, 0x4a, 0xbe, 0xb9, 0xbe, 0x65, 0x3e, 0x64, 0xc4, 0x4d, 0xbe,
  0xcc, 0xb4, 0xb0, 0x3c, 0xc3, 0x90, 0x59, 0x3e, 0x83, 0x4c, 0x6e, 0x3d,
  0x34, 0xa1, 0x13, 0x3e, 0x23, 0x39, 0xc1, 0x3e, 0x02, 0x5d, 0xc8, 0x3e,
  0xb2, 0x68, 0xb7, 0x3d, 0xd7, 0x58, 0x31, 0xbc, 0xea, 0xf5, 0xd7, 0xbd,
  0x8f, 0x9a, 0xd0, 0xbb, 0xbc, 0x6f, 0x8a, 0xbe, 0xc2, 0x72, 0x9f, 0x3d,
  0x95, 0x8b, 0xe9, 0x3d, 0xad, 0xd8, 0x38, 0xbe, 0xc7, 0xdb, 0x4b, 0x3e,
  0x94, 0x05, 0xa1, 0x3e, 0x8c, 0xbe, 0x02, 0x3f, 0x09, 0x3a, 0xe1, 0x3c,
  0xd0, 0x20, 0x89, 0xbc, 0xe6, 0xe8, 0x5f, 0x3c, 0xd8, 0x59, 0xa8, 0x3e,
  0x81, 0xd3, 0x72, 0x3b, 0x84, 0x15, 0x63, 0x3e, 0x59, 0xdc, 0xcf, 0xbe,
  0x85, 0x91, 0x07, 0x3e, 0xc9, 0x7b, 0xbf, 0x3d, 0x4e, 0xd6, 0x24, 0x3f,
  0x23, 0x3c, 0xd6, 0xbd, 0xca, 0xc1, 0x2a, 0xbf, 0x4e, 0x79, 0x9d, 0xb9,
  0x27, 0x35, 0xbc, 0x3c, 0x5c, 0x77, 0x4c, 0x3e, 0xcb, 0x4d, 0x96, 0xbe,
  0x35, 0x44, 0xf9, 0x3d, 0xc6, 0xe7, 0x45, 0xbd, 0x5b, 0xd8, 0x1e, 0x3f,
  0x84, 0xf0, 0x49, 0x3f, 0x6e, 0xeb, 0x30, 0x3f, 0xc8, 0xde, 0x8d, 0xbd,
  0xfb, 0xfa, 0xd1, 0xbb, 0xe3, 0xb5, 0x1a, 0x3d, 0x6e, 0xd9, 0x3f, 0x3e,
  0x30, 0x95, 0xac, 0x3e, 0xb6, 0x02, 0x99, 0x3e, 0x04, 0x36, 0xc5, 0x3d,
  0xb9, 0x13, 0x2f, 0xbd, 0x2f, 0xda, 0xf5, 0x3d, 0x10, 0xf6, 0xc7, 0xbe,
  0x89, 0xe5, 0x59, 0xbe, 0x83, 0x8e, 0x98, 0xbd, 0x03, 0xe7, 0x5d, 0x3f,
  0x1d, 0x58, 0xec, 0x3d, 0x29, 0x86, 0x60, 0x3f, 0x1d, 0x70, 0xdf, 0xbd,
  0xc9, 0x49, 0x8b, 0x3e, 0xf8, 0xb8, 0xbb, 0x3e, 0x55, 0x07, 0x27, 0xbe,
  0x09, 0x4d, 0x52, 0x3e, 0x9f, 0x16, 0xd1, 0xbc, 0x4c, 0xbe, 0x8f, 0x3e,
  0x1e, 0x78, 0x18, 0x3f, 0x9e, 0xa7, 0xa8, 0x3e, 0xa3, 0xe9, 0xc6, 0xbd,
  0x87, 0xe8, 0x07, 0x3b, 0x0a, 0x4e, 0xcd, 0xbd, 0x0a, 0x80, 0xd0, 0xbc,
  0xc0, 0xa2, 0xf7, 0xbd, 0xea, 0x37, 0x86, 0x3e, 0x45, 0xb6, 0x73, 0x3e,
  0xcd, 0xbb, 0xa4, 0x3e, 0x5d, 0xce, 0x18, 0x3e, 0x23, 0x01, 0x19, 0xbe,
  0x3f, 0xe6, 0x30, 0x3f, 0xe9, 0x51, 0xf5, 0xbc, 0x4e, 0x78, 0x1c, 0xbd,
  0xa5, 0xa0, 0x31, 0xbe, 0xd7, 0xf7, 0xa7, 0x3d, 0x9e, 0x41, 0xe3, 0xbd,
  0x78, 0x01, 0x51, 0x3e, 0x59, 0x01, 0x34, 0x3e, 0xd6, 0xd3, 0x5f, 0x3e,
  0xc9, 0x1d, 0x67, 0x3e, 0x55, 0xd2, 0xa6, 0xbe, 0x57, 0x35, 0x5f, 0x3e,
  0xe2, 0x1a, 0x59, 0x3e, 0x0c, 0xd5, 0x15, 0xbe, 0x6b, 0x23, 0xa4, 0x3c,
  0xae, 0xcf, 0x8f, 0xbe, 0x15, 0x9d, 0xc8, 0x3e, 0xf3, 0x32, 0xb0, 0xbe,
  0x3f, 0x40, 0xb7, 0x3e, 0xb1, 0xf4, 0xb8, 0xbd, 0xc7, 0xc3, 0x17, 0xbf,
  0x0e, 0x1c, 0xc3, 0x3e, 0x1f, 0x58, 0x01, 0xbd, 0x7c, 0xf0, 0xed, 0x3e,
  0x95, 0x14, 0x81, 0xbd, 0x82, 0x64, 0x16, 0xbe, 0xa7, 0xd8, 0xf1, 0x3d,
  0xce, 0x52, 0x7d, 0x3e, 0xfc, 0xcc, 0x9a, 0x3e, 0xab, 0xf3, 0x00, 0x3e,
  0xf8, 0x56, 0x0c, 0xbe, 0xad, 0x62, 0x84, 0xbe, 0x9d, 0xe3, 0x74, 0x3e,
  0xa1, 0xe6, 0x76, 0xbd, 0x46, 0xe2, 0x68, 0x3e, 0x58, 0xaa, 0x8c, 0x3d,
  0x03, 0x83, 0x51, 0xbd, 0x79, 0x4d, 0x58, 0xbe, 0x3c, 0x03, 0x64, 0xbd,
  0x74, 0x5e, 0x93, 0xbe, 0x31, 0x6a, 0x84, 0x3c, 0x0b, 0xe0, 0x2e, 0xbd,
  0xd7, 0x2d, 0xaf, 0x3e, 0xf8, 0xfc, 0x91, 0x3e, 0x6b, 0x2a, 0xb2, 0x3e,
  0xd7, 0xc4, 0x54, 0xbe, 0xd2, 0x25, 0x52, 0xbe, 0x0e, 0x98, 0xbc, 0x3e,
  0xd5, 0x14, 0x91, 0xbe, 0x9f, 0xcc, 0x56, 0x3e, 0x89, 0x38, 0x80, 0x3c,
  0x84, 0xae, 0xfa, 0xbd, 0x9a, 0x38, 0xb1, 0x3e, 0xfb, 0xbb, 0x0a, 0x3e,
  0x46, 0x3e, 0x0d, 0xbe, 0x96, 0xa7, 0x99, 0x3d, 0xe6, 0xd5, 0x47, 0x3c,
  0x96, 0xdb, 0x2b, 0x3e, 0xbd, 0x64, 0x73, 0x3e, 0x79, 0xd3, 0x44, 0x3d,
  0x0a, 0xa5, 0x11, 0xbe, 0x1f, 0x99, 0x0d, 0xbe, 0x0f, 0x73, 0x80, 0xbe,
  0xbb, 0xd8, 0x3f, 0xbe, 0x42, 0xcf, 0x1d, 0x3e, 0x10, 0xd8, 0xd5, 0xbd,
  0xdd, 0x0e, 0xe5, 0x3d, 0x66, 0x34, 0xf0, 0xbd, 0x75, 0x29, 0x46, 0x3e,
  0xde, 0x60, 0x62, 0x3e, 0x44, 0x96, 0x50, 0xbe, 0x59, 0x37, 0x5e, 0x3e,
  0x74, 0xf0, 0x73, 0xbe, 0x10, 0xe6, 0x6e, 0xbd, 0x9b, 0xa7, 0xfb, 0xbc,
  0x16, 0x6c, 0x25, 0xbd, 0x18, 0x47, 0x27, 0xbe, 0x6d, 0xa1, 0x60, 0x3e,
  0xbc, 0x00, 0x2a, 0x3e, 0xe7, 0xc7, 0x89, 0x3c, 0x19, 0x27, 0x01, 0x3e,
  0xd1, 0x90, 0x16, 0x3e, 0xd8, 0x24, 0xfd, 0xbd, 0x74, 0x13, 0x7e, 0x3e,
  0x65, 0x43, 0x3e, 0x3e, 0xba, 0x8d, 0x09, 0x3b, 0x45, 0x1c, 0x73, 0xbe,
  0x08, 0xef, 0xac, 0x3d, 0xe3, 0x2b, 0xe8, 0x3d, 0xc8, 0x4d, 0xed, 0x3d,
  0x59, 0x26, 0x91, 0xbe, 0x2a, 0xb4, 0xff, 0xb9, 0xc9, 0x78, 0xf6, 0x3c,
  0xa5, 0xe0, 0x6d, 0x3d, 0xe0, 0xc5, 0x98, 0x3d, 0x6e, 0x84, 0xcf, 0xbd,
  0x93, 0x81, 0x40, 0x3e, 0x8a, 0x76, 0xf3, 0xbd, 0x9b, 0xd9, 0xd9, 0x3d,
  0xda, 0x82, 0x46, 0xbe, 0xb3, 0xf6, 0x64, 0xbe, 0x29, 0x23, 0xfc, 0xbd,
  0x38, 0xdb, 0x61, 0xbe, 0x88, 0x8e, 0x7e, 0x3e, 0xad, 0x80, 0xb6, 0xbd,
  0x6e, 0xe3, 0x27, 0xbe, 0xab, 0x0e, 0xee, 0x3d, 0x2e, 0x14, 0x8e, 0xbd,
  0xc4, 0x87, 0x02, 0xbe, 0x60, 0x3d, 0xdb, 0xbc, 0xfc, 0xb0, 0x86, 0xbd,
  0x5b, 0xe6, 0x15, 0xbe, 0xbc, 0x57, 0x06, 0xbb, 0x45, 0xd1, 0x89, 0x3c,
  0xb9, 0x47, 0x63, 0xbd, 0x1e, 0x78, 0x55, 0x3d, 0x65, 0x8f, 0xfa, 0xbd,
  0x01, 0x2a, 0x9a, 0x3e, 0xb2, 0x83, 0xe6, 0x3d, 0xfd, 0xad, 0x35, 0x3e,
  0x71, 0x07, 0x19, 0x3e, 0x1c, 0xa8, 0x41, 0xbd, 0x8b, 0xb4, 0xef, 0x3d,
  0xf5, 0x3f, 0x81, 0xbc, 0xf3, 0x17, 0xc6, 0xbe, 0x2d, 0x34, 0x77, 0xbd,
  0x56, 0xfc, 0x3f, 0xbe, 0xf5, 0x4e, 0x84, 0xbd, 0x35, 0x8d, 0x7e, 0x3e,
  0xb6, 0xb1, 0xf5, 0x3d, 0xa5, 0x2b, 0x68, 0xbd, 0x39, 0xb8, 0xd6, 0xbd,
  0x9f, 0xbb, 0x4f, 0x3e, 0x0d, 0xce, 0x04, 0xbe, 0x9a, 0x2e, 0x9a, 0x3e,
  0x9a, 0x9d, 0xbf, 0x3d, 0xb5, 0x6e, 0xb2, 0x3e, 0x5f, 0x46, 0x67, 0x3c,
  0xee, 0x27, 0x47, 0xbe, 0x6a, 0xc0, 0xe6, 0x3d, 0x8b, 0xc8, 0x2f, 0xbe,
  0x4a, 0x3f, 0xc9, 0xbd, 0x5f, 0xd5, 0x1f, 0xbe, 0xcd, 0xf1, 0xe8, 0x3d,
  0x37, 0xea, 0xf5, 0x3d, 0xb5, 0xde, 0x37, 0xbe, 0xb1, 0x8f, 0x63, 0x3e,
  0x56, 0x60, 0x80, 0x3d, 0xaf, 0x6f, 0x3c, 0xbf, 0x7e, 0x69, 0x95, 0x3e,
  0xa7, 0xcf, 0x0b, 0x3d, 0x30, 0xca, 0xb0, 0x3e, 0x62, 0xea, 0x4f, 0xbe,
  0x03, 0x5a, 0xa0, 0xbd, 0xb9, 0x38, 0x32, 0x3e, 0x2c, 0xbd, 0xf4, 0xbd,
  0xa3, 0x38, 0xab, 0xbd, 0xb4, 0x76, 0xe0, 0xbd, 0x33, 0x26, 0xb5, 0xbd,
  0x0b, 0x23, 0xf0, 0x3c, 0x4d, 0x79, 0x88, 0x3e, 0xf7, 0x90, 0x17, 0x3e,
  0x61, 0xa9, 0x47, 0x3e, 0x8b, 0x22, 0x79, 0x3d, 0x54, 0x9a, 0x7e, 0x3e,
  0x5a, 0x94, 0xa7, 0x3d, 0xc5, 0x3e, 0x78, 0x3d, 0xc7, 0xe6, 0x6e, 0xbe,
  0x31, 0xc6, 0x47, 0xbe, 0x48, 0x2a, 0xb3, 0x3d, 0xef, 0xa1, 0x5f, 0xbe,
  0x1b, 0x65, 0x68, 0xbd, 0x08, 0x34, 0x6a, 0xbe, 0x88, 0xa3, 0x3e, 0x3e,
  0x96, 0xfb, 0xe0, 0x3d, 0x3f, 0xd4, 0x05, 0xbe, 0x4c, 0xb6, 0x31, 0x3a,
  0x78, 0xcb, 0x55, 0xbe, 0x80, 0x6c, 0xd3, 0x3b, 0x9e, 0x99, 0x5b, 0x3e,
  0x5f, 0x2f, 0x51, 0x3e, 0x12, 0xbf, 0x36, 0x3e, 0x94, 0xe9, 0x25, 0x3e,
  0xa4, 0xae, 0x4b, 0xbe, 0xe0, 0xcc, 0x3c, 0x3e, 0x67, 0x0b, 0x88, 0x3e,
  0x29, 0x34, 0x87, 0xbb, 0x32, 0xa4, 0xa2, 0xbe, 0x5c, 0xbd, 0x8e, 0xbe,
  0xdd, 0x95, 0x07, 0xbf, 0x0e, 0x3e, 0xb5, 0x3e, 0x70, 0x27, 0x1e, 0x3e,
  0x89, 0xec, 0x56, 0x3d, 0xe7, 0x77, 0x30, 0x3e, 0x7a, 0x80, 0x42, 0xbd,
  0x01, 0xd1, 0xa8, 0x3d, 0x36, 0x23, 0x0a, 0x3e, 0xd5, 0xab, 0x18, 0xbc,
  0xd0, 0x53, 0x5a, 0x3e, 0xc8, 0x7c, 0xef, 0x3d, 0x96, 0x2b, 0x36, 0xbd,
  0xb2, 0xff, 0xec, 0x3d, 0x04, 0x83, 0x94, 0xbd, 0x7a, 0x98, 0x81, 0x3e,
  0x87, 0x09, 0x0b, 0xbf, 0x9e, 0x45, 0x67, 0x3e, 0x5c, 0x99, 0xc2, 0x3d,
  0x67, 0x4a, 0x63, 0x3d, 0x13, 0x7f, 0xf1, 0x3d, 0xa6, 0xfb, 0x4a, 0x3e,
  0x6c, 0x4b, 0xf6, 0x3d, 0x3e, 0xd4, 0xfe, 0x3d, 0xdb, 0x9e, 0xcc, 0x3e,
  0x7b, 0xcc, 0x99, 0x3e, 0xa0, 0x2d, 0x28, 0xbe, 0x01, 0xe2, 0x2b, 0x3e,
  0x90, 0xe7, 0x66, 0x3d, 0x88, 0xc9, 0x70, 0x3e, 0xe8, 0x0f, 0x83, 0x3c,
  0xfc, 0x61, 0xa9, 0xbd, 0xe6, 0xcf, 0xd0, 0x3d, 0x8f, 0x6a, 0x7a, 0xbe,
  0xf4, 0xd7, 0x1d, 0xbe, 0xc8, 0x3b, 0x03, 0xbe, 0x8c, 0x1e, 0x34, 0xbe,
  0xd0, 0x54, 0x76, 0x3d, 0xac, 0x5c, 0x7f, 0x3e, 0xed, 0x71, 0x10, 0xbe,
  0xf4, 0x41, 0x58, 0x3e, 0xb4, 0x2e, 0xe8, 0xbd, 0x70, 0x7f, 0x42, 0x3d,
  0xe8, 0x8a, 0x72, 0x3e, 0x54, 0x52, 0x2d, 0x3e, 0x3c, 0xb1, 0x4b, 0x3d,
  0x01, 0x85, 0x88, 0xbd, 0x3b, 0x3a, 0x26, 0x3b, 0xc7, 0xb3, 0x22, 0x3e,
  0xb0, 0x93, 0x8a, 0xbd, 0x58, 0x11, 0xda, 0x3d, 0xa4, 0xc1, 0x0c, 0xbd,
  0x34, 0xac, 0x77, 0xbe, 0xea, 0xc5, 0x7d, 0xbd, 0xba, 0x98, 0x25, 0xbe,
  0xd3, 0xc2, 0x3d, 0x3e, 0x20, 0xc5, 0x55, 0xbe, 0xa0, 0x7d, 0x73, 0xbe,
  0x7c, 0x05, 0x74, 0xbe, 0x00, 0xc1, 0x5f, 0x3d, 0x89, 0x31, 0x12, 0x3e,
  0x37, 0x38, 0x78, 0x3d, 0xad, 0x1f, 0x90, 0x3c, 0xe2, 0xbe, 0x54, 0xbe,
  0xee, 0x9f, 0x87, 0xbc, 0xa2, 0x73, 0x92, 0x3e, 0xf8, 0x9f, 0x0b, 0x3e,
  0x55, 0x9d, 0x8a, 0x3d, 0x12, 0x11, 0x37, 0x3e, 0x1f, 0xd3, 0x28, 0x3b,
  0xae, 0x4e, 0x98, 0x3d, 0x91, 0xf4, 0x83, 0x3d, 0x2e, 0x9b, 0x62, 0x3e,
  0xba, 0x8e, 0x94, 0xbd, 0xc5, 0xa4, 0xb8, 0x3d, 0x43, 0x83, 0xc2, 0x3c,
  0x7f, 0xb1, 0x19, 0x3f, 0x01, 0x6e, 0x33, 0xbe, 0xd8, 0x4d, 0x17, 0xbe,
  0x46, 0xa7, 0xb2, 0xbd, 0x5d, 0xaa, 0xb6, 0x3d, 0xf8, 0xe0, 0xe0, 0xbd,
  0x44, 0xa2, 0x73, 0x3e, 0x9e, 0xa5, 0xb2, 0x3d, 0x71, 0x87, 0xdd, 0x3e,
  0xd4, 0x94, 0x12, 0xbe, 0xdc, 0x3b, 0xc5, 0x3e, 0xcf, 0x03, 0x4e, 0xbe,
  0x04, 0x41, 0x2a, 0xbf, 0x12, 0x54, 0x7f, 0x3e, 0xba, 0xb3, 0x4d, 0x3e,
  0xf8, 0xdd, 0xde, 0x3e, 0x76, 0x31, 0xde, 0x3c, 0xc1, 0x01, 0x52, 0x3e,
  0x2d, 0xbc, 0x3b, 0x3e, 0x83, 0xf6, 0xa9, 0xbd, 0xc4, 0x70, 0xb1, 0xbc,
  0x1e, 0x31, 0xcb, 0xbd, 0x53, 0xc4, 0x23, 0xbe, 0x70, 0x8c, 0x93, 0xbd,
  0x97, 0xf1, 0x1a, 0xbe, 0x03, 0x07, 0xe6, 0x3d, 0xd1, 0x4c, 0x03, 0x3e,
  0xa9, 0x9c, 0x32, 0x3e, 0xa0, 0x14, 0x21, 0xbd, 0xaf, 0x77, 0x1a, 0x3e,
  0x89, 0x96, 0x47, 0xbd, 0xcd, 0x1d, 0xa9, 0x3e, 0x7f, 0xa5, 0xed, 0x3e,
  0x68, 0xaa, 0x2e, 0x3c, 0xa2, 0x28, 0x99, 0xbe, 0x71, 0x27, 0xb2, 0x3b,
  0xe6, 0x25, 0xf3, 0xbe, 0x64, 0x09, 0x00, 0x3e, 0x97, 0x8b, 0xe8, 0x3d,
  0xae, 0xb0, 0x28, 0xbc, 0x03, 0xea, 0x9a, 0x3d, 0x38, 0x62, 0xb6, 0x3d,
  0x03, 0xe2, 0x57, 0x3e, 0x6e, 0x6d, 0x5c, 0x3e, 0xd4, 0xaa, 0x57, 0xbf,
  0x20, 0xa6, 0x12, 0x3d, 0xb4, 0xde, 0x4a, 0xbe, 0xde, 0xa8, 0xef, 0x3e,
  0x2a, 0xbe, 0x6e, 0xbe, 0x88, 0x2b, 0xa6, 0x3d, 0xe9, 0x1e, 0x1b, 0xbd,
  0x00, 0x8d, 0x23, 0x3d, 0x0c, 0xfd, 0x34, 0xbe, 0x98, 0x19, 0xdd, 0x3d,
  0x46, 0x3c, 0x86, 0x3c, 0x93, 0xc3, 0xb5, 0xbc, 0xd3, 0xcb, 0x44, 0x3e,
  0xbc, 0x4d, 0x7e, 0xbe, 0x80, 0x8c, 0x3a, 0xbc, 0x3a, 0x6d, 0x5f, 0xbe,
  0x14, 0x93, 0x41, 0xbe, 0x9c, 0xb8, 0x5b, 0xbe, 0x46, 0x34, 0x45, 0xbe,
  0xdd, 0x7e, 0x95, 0x3d, 0x4e, 0x1b, 0xdd, 0xbd, 0x78, 0x74, 0xf2, 0x3d,
  0x70, 0x90, 0x23, 0x3e, 0xc0, 0xf0, 0xaa, 0x3d, 0xc0, 0x85, 0xc2, 0x3c,
  0x60, 0xfe, 0x9b, 0xbc, 0x38, 0xe4, 0x4f, 0xbd, 0xd0, 0x17, 0x44, 0x3e,
  0x65, 0x96, 0x5b, 0x3d, 0x95, 0x82, 0x54, 0xbe, 0x70, 0x63, 0x3c, 0xbe,
  0x38, 0xff, 0x45, 0xbe, 0x38, 0xdf, 0x14, 0xbe, 0xb7, 0xb9, 0x13, 0x3e,
  0x1c, 0x49, 0x3c, 0x3e, 0x19, 0x7f, 0xf4, 0xbd, 0x4e, 0x8c, 0xbe, 0x3c,
  0x46, 0x19, 0x4a, 0x3e, 0xcd, 0x87, 0xf8, 0xbd, 0x6d, 0xaa, 0x52, 0x3e,
  0x76, 0x1d, 0x52, 0x3e, 0x80, 0x0f, 0xc7, 0x3e, 0x6b, 0x8f, 0x4f, 0xbe,
  0x17, 0x95, 0x26, 0x3e, 0x23, 0x7d, 0xf1, 0xbd, 0xb9, 0x51, 0xe1, 0x3c,
  0x0a, 0x24, 0x06, 0x3e, 0x64, 0x8f, 0xa2, 0xbd, 0xf4, 0xea, 0x33, 0x3d,
  0x02, 0x01, 0x76, 0x3e, 0x73, 0xb9, 0x81, 0xbe, 0xad, 0x3e, 0x4c, 0x3d,
  0xaf, 0x1a, 0x0d, 0x3d, 0xa3, 0x96, 0x6d, 0x3e, 0xc8, 0x7e, 0x1c, 0x3f,
  0xa3, 0x59, 0x89, 0x3e, 0x0a, 0x1e, 0x09, 0x3f, 0x50, 0x69, 0x73, 0x3d,
  0x08, 0x50, 0x06, 0xbe, 0x69, 0x7d, 0x8c, 0x3d, 0xbb, 0xf5, 0x52, 0x3d,
  0x7d, 0x3e, 0xb7, 0x3e, 0x85, 0x85, 0x87, 0x3e, 0xd5, 0x63, 0x5c, 0x3e,
  0xdf, 0x6d, 0xef, 0x3e, 0x25, 0x9f, 0x8e, 0x3e, 0x21, 0x26, 0x89, 0x3d,
  0x8c, 0x0b, 0x38, 0x3e, 0x50, 0x76, 0x39, 0xbe, 0xc6, 0xd7, 0x73, 0x3e,
  0x6e, 0x52, 0x4f, 0x3c, 0x59, 0x46, 0xeb, 0xbe, 0x15, 0x18, 0xff, 0xbe,
  0xa6, 0x6a, 0xf9, 0xbe, 0x32, 0xa4, 0x8c, 0x3e, 0x02, 0xf5, 0x27, 0xbe,
  0x40, 0xcc, 0xb4, 0xbe, 0xc6, 0x8e, 0xd2, 0xbd, 0x49, 0x6c, 0x4d, 0x3d,
  0xd0, 0x19, 0xbc, 0x3e, 0xc8, 0x22, 0xef, 0x3d, 0x1d, 0x14, 0xb7, 0xbd,
  0x8a, 0xbf, 0x35, 0x3e, 0x55, 0xc9, 0x2c, 0x3e, 0xff, 0x34, 0xa4, 0xbd,
  0xce, 0x26, 0x13, 0x3e, 0x23, 0x34, 0x82, 0x3e, 0x94, 0xe7, 0x8b, 0x3d,
  0x33, 0xc8, 0x07, 0xbd, 0x0f, 0xeb, 0x7d, 0x3e, 0xde, 0x1b, 0xbf, 0xbd,
  0xa6, 0xe4, 0x17, 0xbe, 0xc3, 0x50, 0xae, 0xbe, 0x15, 0xf2, 0x8d, 0x3e,
  0x2c, 0x04, 0x04, 0x3e, 0x7a, 0x28, 0xb5, 0x3d, 0x56, 0x0f, 0x34, 0x3e,
  0xda, 0xd5, 0x02, 0x3c, 0x04, 0xbb, 0x36, 0x3e, 0x46, 0x29, 0x87, 0x3e,
  0x06, 0x5c, 0x9e, 0x3e, 0xba, 0x22, 0x59, 0xbe, 0x39, 0x81, 0xae, 0xbd,
  0xc0, 0xa0, 0xcc, 0xbe, 0x37, 0xc6, 0x98, 0xbe, 0x12, 0x18, 0xa4, 0xbe,
  0xe3, 0xde, 0x7b, 0x3e, 0xee, 0x92, 0xeb, 0x3d, 0x0d, 0xf2, 0xd3, 0xbe,
  0x7d, 0x8b, 0xe2, 0x3d, 0x0e, 0x95, 0x39, 0xbe, 0x6b, 0xad, 0x7b, 0x3e,
  0xea, 0x53, 0x0f, 0xbe, 0x42, 0xa1, 0x63, 0x3e, 0xdb, 0x0b, 0xd0, 0x3e,
  0x44, 0x91, 0x67, 0x3e, 0x01, 0xec, 0xd9, 0xbe, 0xfd, 0x61, 0x85, 0xbe,
  0xc9, 0xe7, 0x0b, 0x3c, 0x6f, 0xe6, 0xfd, 0x3c, 0x76, 0x03, 0x08, 0xbf,
  0x9e, 0x78, 0x2c, 0x3e, 0x6d, 0xf2, 0x9b, 0xbd, 0x1d, 0x32, 0x5b, 0xbe,
  0xa1, 0x59, 0x8d, 0xbe, 0x95, 0xea, 0x0b, 0x3f, 0xe1, 0x27, 0x0a, 0x3e,
  0xb4, 0x48, 0xb1, 0x3d, 0x47, 0x6f, 0x21, 0x3f, 0x2d, 0x30, 0x00, 0xbe,
  0xc8, 0x29, 0xf3, 0xbc, 0x13, 0xf6, 0x91, 0xbe, 0xaf, 0x66, 0xd1, 0x3e,
  0xc3, 0x43, 0xbf, 0x3d, 0xc4, 0x8b, 0x9e, 0xbd, 0xef, 0xd2, 0xdb, 0xbd,
  0x1a, 0x4e, 0x9c, 0xbd, 0xb1, 0x57, 0xd4, 0xbe, 0x00, 0xf1, 0x61, 0x3d,
  0x2f, 0xe6, 0xf7, 0xbd, 0x42, 0x42, 0x85, 0xbd, 0x90, 0x36, 0x42, 0xbb,
  0x51, 0x3c, 0xc1, 0xbc, 0x1c, 0xca, 0x42, 0x3e, 0xd2, 0x96, 0x81, 0x3e,
  0x89, 0x5f, 0x36, 0xbe, 0x0a, 0xa8, 0x91, 0x3e, 0xf1, 0xa2, 0x0c, 0xbe,
  0x67, 0x0a, 0x51, 0xbf, 0xc4, 0x88, 0x54, 0x3d, 0xf4, 0x57, 0x7b, 0x3e,
  0x3e, 0xfc, 0xc8, 0x3e, 0xaf, 0xe2, 0xa4, 0xbd, 0x09, 0x6e, 0x16, 0x3e,
  0x30, 0xa6, 0xef, 0xbc, 0x41, 0x35, 0x6f, 0x3e, 0xb7, 0xca, 0x11, 0x3d,
  0x19, 0xb5, 0xb3, 0xbc, 0xdf, 0x78, 0x25, 0xbe, 0x0e, 0x62, 0x26, 0x3e,
  0x45, 0x44, 0x86, 0x3f, 0xd9, 0x55, 0x6d, 0x3e, 0x54, 0x6d, 0x39, 0x3e,
  0xf7, 0xdf, 0xa5, 0xbe, 0x29, 0x6f, 0xa7, 0xbd, 0x44, 0x73, 0x5e, 0x3c,
  0x37, 0xce, 0x03, 0x3d, 0x07, 0x0b, 0x7e, 0xbe, 0xde, 0x25, 0xd2, 0xbc,
  0xab, 0xbb, 0x7e, 0xbd, 0xca, 0xd8, 0xe7, 0xbd, 0x57, 0xa1, 0xb5, 0x3d,
  0x5c, 0x8c, 0xe4, 0xbd, 0x63, 0xee, 0x56, 0xbe, 0x9d, 0x56, 0xf6, 0x3d,
  0x77, 0xab, 0xd9, 0x3c, 0x8c, 0x4a, 0x72, 0x3e, 0x96, 0xbe, 0x88, 0xbd,
  0x5b, 0xe9, 0x6f, 0x3e, 0x35, 0x30, 0x41, 0x3e, 0x83, 0x02, 0x12, 0x3f,
  0x91, 0x2f, 0xef, 0x3d, 0xa0, 0x31, 0xfb, 0xbe, 0x5d, 0x7b, 0x40, 0xbd,
  0x3a, 0x29, 0x88, 0xbe, 0x20, 0x34, 0x53, 0x3d, 0xc1, 0x47, 0x77, 0x3c,
  0xcd, 0x4b, 0x41, 0xbe, 0xc6, 0xa3, 0x6d, 0x3e, 0x2b, 0xe6, 0x5a, 0xbe,
  0x81, 0xf3, 0xcf, 0x3e, 0x28, 0x60, 0x58, 0xbe, 0x30, 0x62, 0x1f, 0xbf,
  0xbf, 0x1f, 0x50, 0x3e, 0xe6, 0xe3, 0x0e, 0xbd, 0x48, 0x43, 0x2a, 0x3e,
  0x36, 0x52, 0x62, 0xbe, 0x20, 0x55, 0x3c, 0x3d, 0xea, 0x47, 0x88, 0xbd,
  0x4a, 0x2c, 0xec, 0xbe, 0x84, 0x81, 0xc5, 0xbe, 0x25, 0x49, 0x53, 0xbe,
  0x8c, 0x50, 0x99, 0x3d, 0x17, 0x51, 0xce, 0x3d, 0xdc, 0x2b, 0x5f, 0xbe,
  0x00, 0x87, 0xdf, 0x3d, 0x32, 0x89, 0x4d, 0xbe, 0x1b, 0x30, 0x52, 0x3d,
  0xb8, 0x23, 0x2f, 0x3e, 0xb3, 0x43, 0x57, 0xbe, 0x06, 0x71, 0x34, 0x3e,
  0x0f, 0x4f, 0x32, 0x3d, 0x9f, 0x16, 0xaa, 0x3e, 0xb3, 0xba, 0xc1, 0xbb,
  0xee, 0xd8, 0x81, 0xbe, 0x7b, 0x26, 0x2f, 0x3e, 0xa8, 0x40, 0x8f, 0xbd,
  0x00, 0x53, 0x76, 0x3d, 0x17, 0x84, 0xc0, 0x3a, 0x43, 0x36, 0xa0, 0xbe,
  0x38, 0xd1, 0x70, 0x3d, 0x83, 0x71, 0x00, 0xbc, 0xc5, 0x11, 0xf1, 0x3e,
  0x22, 0x44, 0x38, 0xbe, 0x32, 0xd7, 0x1b, 0xbf, 0x86, 0x2f, 0x06, 0xbe,
  0x00, 0xc6, 0x6a, 0xbd, 0x2e, 0x5b, 0x3e, 0x3e, 0x81, 0xc6, 0xeb, 0xbd,
  0xa5, 0xa2, 0x5a, 0x3e, 0xba, 0xb5, 0x2d, 0x3d, 0xaf, 0x68, 0x36, 0x3f,
  0x5c, 0x14, 0x73, 0x3f, 0x3f, 0x1b, 0x3b, 0x3f, 0xe6, 0x85, 0x42, 0xbe,
  0x16, 0x08, 0x77, 0xbe, 0x00, 0x53, 0x44, 0xbe, 0xce, 0x98, 0xd7, 0x3c,
  0xb5, 0xeb, 0xb5, 0x3d, 0x14, 0xdd, 0x35, 0xbe, 0x38, 0xdb, 0x30, 0x3d,
  0x98, 0x9b, 0x1b, 0x3e, 0x4a, 0x89, 0xfb, 0x3d, 0x20, 0x91, 0x80, 0xbe,
  0x3f, 0x55, 0x9b, 0x3e, 0x73, 0x84, 0x84, 0xbe, 0x5f, 0xdd, 0x47, 0x3f,
  0x5c, 0xf6, 0xa4, 0xbe, 0xbb, 0xe2, 0x79, 0x3f, 0x74, 0xac, 0xea, 0xbd,
  0x46, 0x5a, 0x0f, 0xbe, 0x20, 0x53, 0x95, 0x3d, 0xe4, 0x48, 0x54, 0xbe,
  0x58, 0x57, 0x73, 0x3e, 0xec, 0x6a, 0x52, 0x3e, 0x57, 0x1b, 0xcf, 0xbd,
  0x0f, 0xa3, 0x62, 0x3e, 0x48, 0x23, 0x14, 0x3e, 0x7d, 0xd0, 0x2f, 0xbe,
  0x12, 0x23, 0x59, 0x3e, 0x99, 0xa9, 0x03, 0xbe, 0x3f, 0xb0, 0x84, 0x3d,
  0x10, 0xd0, 0xd8, 0x3e, 0xfe, 0x69, 0x0e, 0xbe, 0x14, 0x07, 0x95, 0x3e,
  0xb6, 0x7b, 0xe2, 0x3e, 0xfe, 0x3d, 0x6c, 0xbc, 0x6c, 0xdb, 0xc8, 0xbc,
  0x92, 0x45, 0xdf, 0x3e, 0xa5, 0xce, 0xcc, 0x3c, 0xcb, 0x09, 0xc3, 0x3c,
  0xee, 0x68, 0x66, 0x3e, 0x4f, 0xdb, 0x38, 0xbd, 0x68, 0x5e, 0x46, 0xbe,
  0xe1, 0x24, 0xa6, 0x3e, 0x8b, 0x4e, 0x19, 0x3e, 0x67, 0xe5, 0x03, 0x3f,
  0x64, 0x79, 0x8b, 0x3e, 0x51, 0x9b, 0x7b, 0xbe, 0xe5, 0x6b, 0xd8, 0x3c,
  0xda, 0x17, 0x10, 0xbe, 0x3c, 0xf3, 0x30, 0xbe, 0x88, 0xff, 0x90, 0xbd,
  0x2a, 0xab, 0xee, 0xbd, 0x35, 0x92, 0x53, 0x3e, 0x65, 0x7f, 0xef, 0x3c,
  0x2c, 0x25, 0x2d, 0x3f, 0x47, 0x14, 0x17, 0x3e, 0xc1, 0x1e, 0x65, 0xbf,
  0x61, 0x1f, 0x10, 0x3f, 0x2a, 0xc3, 0xe8, 0x3d, 0xcd, 0x38, 0x2e, 0x3f,
  0xb2, 0x9b, 0xd1, 0xbd, 0x5b, 0xaa, 0x03, 0x3e, 0xcb, 0xc6, 0x82, 0xbd,
  0x2a, 0x9f, 0x32, 0xbe, 0xfa, 0x89, 0x7e, 0x3e, 0x06, 0xc7, 0x8b, 0xbe,
  0x38, 0x5f, 0x78, 0xbc, 0xa6, 0x9d, 0xa9, 0xbd, 0xaf, 0xc9, 0x93, 0x3e,
  0xdc, 0x9e, 0x76, 0x3e, 0xbd, 0x21, 0x5d, 0x3e, 0x5f, 0xe8, 0xaf, 0x3e,
  0xaa, 0xcc, 0x90, 0x3d, 0x31, 0x9f, 0x2c, 0xbe, 0xcf, 0x19, 0xa5, 0x3c,
  0x2b, 0x2b, 0x51, 0xbd, 0x92, 0x2c, 0xca, 0xbe, 0x2d, 0x9c, 0x86, 0x3e,
  0x95, 0x6c, 0x05, 0x3f, 0x9e, 0x24, 0x42, 0x3e, 0x7c, 0x18, 0x0e, 0x3e,
  0x2c, 0xcc, 0x61, 0x3e, 0xca, 0xf9, 0x4a, 0xbe, 0xa2, 0x6d, 0xcc, 0x3e,
  0x12, 0x42, 0x63, 0x3e, 0x33, 0x51, 0x27, 0x3e, 0x4d, 0x0c, 0xaa, 0x3d,
  0x1c, 0xad, 0xe4, 0x3d, 0x6d, 0xd8, 0xf0, 0x3e, 0x92, 0xc0, 0x0a, 0xbd,
  0x21, 0xe8, 0x93, 0x3b, 0xf9, 0xd9, 0x9a, 0xbd, 0x38, 0xaf, 0x3e, 0xbe,
  0xdb, 0x85, 0xa4, 0x3c, 0xf6, 0x27, 0xd1, 0x3e, 0xeb, 0x01, 0xbe, 0x3e,
  0x1b, 0x37, 0xba, 0x3e, 0x6e, 0xb5, 0xf3, 0x3e, 0x76, 0x79, 0x55, 0xbe,
  0xbe, 0xf2, 0x3c, 0x3e, 0xbd, 0x1f, 0x7c, 0xbd, 0xce, 0x13, 0x0c, 0xbe,
  0x8a, 0x33, 0xde, 0xbd, 0xa9, 0x0e, 0x83, 0x3e, 0xda, 0x03, 0x5b, 0x3e,
  0x5d, 0x42, 0x37, 0xbd, 0xf6, 0x1a, 0x57, 0xbe, 0x23, 0x57, 0xd2, 0xbc,
  0xdf, 0x03, 0x49, 0x3f, 0x69, 0xec, 0x52, 0xbd, 0xbe, 0xb1, 0x61, 0x3e,
  0x6e, 0x5e, 0xa3, 0xbd, 0xb4, 0x03, 0xab, 0x3e, 0xfc, 0x1d, 0x55, 0xbc,
  0x93, 0x60, 0x9e, 0xbd, 0xfc, 0x6b, 0xa8, 0xbd, 0xb4, 0xa1, 0x8e, 0xbe,
  0xb9, 0xb6, 0x95, 0x3d, 0xf6, 0x2a, 0x18, 0x3f, 0x07, 0x66, 0xda, 0xbd,
  0xb1, 0xb0, 0x1b, 0xbf, 0xee, 0xeb, 0x56, 0x3e, 0xa9, 0x69, 0xd9, 0x3d,
  0x32, 0xeb, 0x53, 0x3e, 0x90, 0xc0, 0x5c, 0xbd, 0x0c, 0x0a, 0x33, 0xbe,
  0xc4, 0xb4, 0x0b, 0x3e, 0x38, 0xf7, 0xca, 0x3d, 0x60, 0x77, 0xf9, 0xbc,
  0x00, 0x94, 0x88, 0xbc, 0x00, 0xbc, 0x06, 0xbc, 0x28, 0xc5, 0xd8, 0xbd,
  0xe8, 0x55, 0x11, 0xbe, 0x70, 0xd9, 0x86, 0xbd, 0x80, 0x65, 0x99, 0xbb,
  0x00, 0x94, 0x36, 0xbe, 0xa4, 0xfd, 0x05, 0xbe, 0xd4, 0x85, 0x45, 0xbe,
  0xa0, 0x30, 0x79, 0x3d, 0x34, 0xca, 0x30, 0x3e, 0xec, 0xf1, 0x26, 0xbe,
  0xd4, 0xd8, 0x2f, 0x3e, 0x08, 0xe9, 0x44, 0xbe, 0x30, 0x8b, 0x20, 0xbe,
  0x30, 0x04, 0x30, 0x3e, 0xb8, 0xb2, 0x49, 0x3e, 0xcc, 0xec, 0x19, 0xbe,
  0xe0, 0xc0, 0xcc, 0x3c, 0x40, 0xf2, 0x5c, 0x3c, 0x00, 0xae, 0x80, 0xbd,
  0xa0, 0x96, 0x24, 0xbe, 0x80, 0x3f, 0xad, 0x3b, 0x60, 0x5e, 0xa1, 0xbd,
  0xe8, 0x03, 0xb3, 0xbd, 0x30, 0x31, 0x64, 0x3d, 0x2c, 0x3c, 0x17, 0xbe,
  0xa5, 0x83, 0xe9, 0xbd, 0x80, 0x29, 0xe5, 0x3b, 0x97, 0x6a, 0x84, 0xbe,
  0x12, 0x32, 0x64, 0xbe, 0xd6, 0x4d, 0xaa, 0xbd, 0x22, 0xfb, 0x5b, 0xbd,
  0x54, 0xf5, 0x2e, 0xbe, 0x92, 0x40, 0xfa, 0xbc, 0x76, 0x77, 0xd3, 0x3d,
  0x44, 0xe4, 0x0e, 0xbe, 0x6f, 0xe2, 0xde, 0xbd, 0xea, 0xf1, 0x4c, 0x3d,
  0xfc, 0x26, 0x27, 0xbe, 0x44, 0xad, 0x49, 0x3e, 0xa1, 0xb1, 0x02, 0x3c,
  0xb8, 0xb0, 0xc6, 0x3b, 0x2f, 0xa7, 0x4e, 0x3e, 0xe6, 0xc0, 0x31, 0xbe,
  0x14, 0xe6, 0x33, 0x3e, 0xd8, 0x07, 0x37, 0xbe, 0xc3, 0x82, 0x78, 0x3d,
  0x00, 0x57, 0x4e, 0x3d, 0x80, 0xcc, 0x61, 0x3c, 0x60, 0x3b, 0x76, 0x3d,
  0xcd, 0xfd, 0x99, 0xbd, 0x0e, 0xaa, 0x92, 0x3b, 0x29, 0x51, 0x98, 0xbc,
  0xb3, 0x83, 0x19, 0xbe, 0x4f, 0xd5, 0x65, 0x3d, 0x7b, 0x8b, 0xe9, 0x3d,
  0x30, 0x50, 0x19, 0xbe, 0xb4, 0xd0, 0x33, 0x3e, 0xa7, 0x23, 0x65, 0xbe,
  0x44, 0x7e, 0xad, 0x3c, 0x16, 0x2d, 0x59, 0xbe, 0xb3, 0xaa, 0x45, 0x3e,
  0x36, 0x97, 0x0a, 0x3e, 0xb0, 0xce, 0xc0, 0x3d, 0xb9, 0xee, 0x5f, 0xbc,
  0xf8, 0x7d, 0x62, 0x3e, 0x6a, 0xfa, 0x03, 0x3d, 0xa1, 0xc4, 0x13, 0x3e,
  0xbe, 0xab, 0x57, 0x3e, 0xbe, 0x18, 0x99, 0x3d, 0xa5, 0xf6, 0x0f, 0xbe,
  0x94, 0xf1, 0x4c, 0x3d, 0xf1, 0xb7, 0x0b, 0xbe, 0x6b, 0x5f, 0x00, 0x3e,
  0xbb, 0xa9, 0x1e, 0xbe, 0xc5, 0xdd, 0x26, 0x3e, 0x97, 0xb7, 0x7f, 0xbe,
  0x04, 0x68, 0x4d, 0x3d, 0xd8, 0x23, 0x7c, 0xbe, 0x85, 0x9a, 0x36, 0x3e,
  0x3b, 0x4b, 0x1d, 0x3e, 0x4b, 0x0f, 0x71, 0xbd, 0xee, 0xb1, 0x3e, 0xbd,
  0x15, 0x48, 0x8a, 0xbd, 0xc8, 0x09, 0x69, 0xbe, 0x00, 0x37, 0x9f, 0x3d,
  0x09, 0xee, 0x3d, 0xbe, 0xbc, 0xa2, 0x49, 0xbd, 0x07, 0xeb, 0xfa, 0xbd,
  0x66, 0x77, 0x06, 0xbe, 0x1e, 0x8e, 0xc8, 0xbd, 0x60, 0x1c, 0xbe, 0x3d,
  0x8b, 0x05, 0x6e, 0xbc, 0x56, 0x5c, 0x00, 0x3f, 0xda, 0x8a, 0xa9, 0x3e,
  0x74, 0x51, 0x2e, 0xbd, 0x89, 0x77, 0x17, 0x3c, 0x9e, 0xca, 0x98, 0xbe,
  0x9e, 0x05, 0x07, 0x3f, 0x0c, 0xd9, 0x0f, 0xbe, 0x9a, 0x74, 0x77, 0x3e,
  0x54, 0xea, 0x5f, 0x3e, 0x2d, 0xe3, 0xda, 0x3c, 0x1f, 0xe0, 0x99, 0x3e,
  0xb1, 0xe9, 0xe5, 0x3c, 0xd9, 0xec, 0x9a, 0x3e, 0x4e, 0x03, 0xac, 0x3e,
  0x09, 0x74, 0x0f, 0xbd, 0x0a, 0x86, 0x59, 0x3e, 0xa2, 0x1a, 0x91, 0x3e,
  0x80, 0x4d, 0x0e, 0xbd, 0xa7, 0xb1, 0x36, 0x3e, 0x4b, 0xfe, 0xac, 0x3e,
  0xac, 0x6e, 0x32, 0x3e, 0x77, 0xde, 0x02, 0x3f, 0x52, 0x6b, 0xa9, 0xbe,
  0x18, 0xb4, 0x84, 0xbd, 0x9e, 0x04, 0x5c, 0xbd, 0xc7, 0x4f, 0x2b, 0xbe,
  0xf5, 0x02, 0x18, 0x3f, 0x5e, 0xa8, 0x8e, 0x3d, 0xc7, 0xcb, 0x02, 0x3f,
  0xc0, 0x55, 0x24, 0x3e, 0xb5, 0x96, 0x67, 0x3e, 0xf9, 0x6e, 0x2d, 0xbe,
  0x07, 0x27, 0xa2, 0xbd, 0x73, 0x2c, 0x87, 0xbc, 0xef, 0x87, 0x6e, 0xbe,
  0x6d, 0x3c, 0xc6, 0x3b, 0xdc, 0x40, 0x8f, 0xbd, 0x58, 0x4b, 0x95, 0x3e,
  0x24, 0x54, 0x3d, 0x3e, 0x53, 0x79, 0xd6, 0x3c, 0xd0, 0x83, 0x86, 0xbe,
  0xba, 0x30, 0xde, 0xbc, 0x1a, 0x95, 0x3e, 0xbe, 0x14, 0x80, 0xe0, 0x3d,
  0xbc, 0x0d, 0x8c, 0xbd, 0x29, 0xa0, 0x29, 0x3e, 0x44, 0x8d, 0x04, 0xbe,
  0x73, 0xab, 0xcc, 0xbd, 0xc5, 0xa6, 0x77, 0x3e, 0xa4, 0xc3, 0xbb, 0xbc,
  0x44, 0x4c, 0x46, 0x3e, 0x93, 0xe9, 0xbd, 0x3d, 0x29, 0x62, 0x55, 0x3e,
  0x6f, 0xf2, 0x9c, 0x3e, 0xaf, 0xa9, 0x54, 0xbe, 0xef, 0xdf, 0xb3, 0x3d,
  0x95, 0x1c, 0x8b, 0x3e, 0x43, 0x0f, 0x18, 0xbe, 0x8b, 0x4c, 0x99, 0x3e,
  0x1c, 0x54, 0x27, 0x3d, 0xb0, 0x74, 0xac, 0xbd, 0x71, 0x3b, 0x27, 0xbe,
  0x40, 0xa5, 0x77, 0x3c, 0x24, 0x8d, 0x7f, 0xbe, 0x48, 0x8c, 0x7d, 0xbe,
  0xc9, 0xe9, 0xa6, 0x3d, 0x15, 0x4a, 0x2d, 0x3e, 0x95, 0xf5, 0x8a, 0xbd,
  0x0d, 0xe2, 0x4b, 0xbe, 0x78, 0xa9, 0x85, 0x3e, 0xc4, 0x20, 0x47, 0x3e,
  0x6f, 0xfa, 0x86, 0xbe, 0x54, 0x7f, 0xb3, 0xbd, 0xa0, 0x05, 0xe4, 0xbd,
  0xac, 0x91, 0x5c, 0x3e, 0x5a, 0xe1, 0x09, 0xbd, 0x92, 0x9a, 0x4a, 0xbe,
  0x0d, 0x80, 0x82, 0x3d, 0xa6, 0x5e, 0xfe, 0xbc, 0xc0, 0xec, 0xde, 0x3d,
  0xb5, 0x06, 0x56, 0x3e, 0x48, 0x44, 0xe4, 0xbd, 0xc8, 0x5e, 0xa3, 0x3d,
  0x31, 0x92, 0xcf, 0xbd, 0x1a, 0xa9, 0x0f, 0x3e, 0xbe, 0xf9, 0x3f, 0x3e,
  0x85, 0x0c, 0x45, 0xbb, 0xd3, 0x6a, 0xce, 0x3d, 0xdf, 0x10, 0xc3, 0x3c,
  0x3c, 0x6a, 0xe6, 0x3d, 0x10, 0x71, 0x3c, 0x3e, 0xe0, 0xbf, 0x7a, 0x3e,
  0x45, 0x7e, 0xbe, 0xbb, 0x3f, 0xac, 0xb2, 0xbe, 0xbd, 0x9f, 0x49, 0xbe,
  0x03, 0x7d, 0x9a, 0x3d, 0xd7, 0x55, 0x27, 0x3f, 0x08, 0x95, 0x45, 0x3f,
  0x41, 0xf3, 0x5b, 0x3f, 0xf6, 0x35, 0xcb, 0x3d, 0x62, 0xf8, 0x08, 0x3e,
  0x69, 0x82, 0x99, 0x3e, 0x66, 0xfd, 0x40, 0xbe, 0x4b, 0x54, 0x9f, 0xbe,
  0x64, 0x15, 0xa8, 0xbd, 0x0b, 0x61, 0x94, 0x3d, 0xaa, 0xea, 0xe8, 0x3d,
  0x46, 0xc3, 0x1e, 0xbe, 0x9d, 0x1d, 0x4a, 0x3e, 0x6d, 0x67, 0xd1, 0x3e,
  0xe7, 0x65, 0x10, 0xbe, 0x4a, 0x90, 0x13, 0x3e, 0x34, 0xf5, 0x4d, 0xbe,
  0x65, 0x6e, 0x28, 0x3f, 0xc8, 0xc1, 0xa9, 0x3d, 0x37, 0x06, 0xcc, 0xbd,
  0xfc, 0xc2, 0x3e, 0xbe, 0xe6, 0x3f, 0x41, 0x3e, 0x72, 0x12, 0x8b, 0xbe,
  0xed, 0xe3, 0xaa, 0x3e, 0xf7, 0x94, 0x99, 0xbd, 0x07, 0x11, 0x25, 0xbf,
  0xbb, 0x93, 0x6c, 0x3e, 0x14, 0xdb, 0x68, 0xbd, 0x9d, 0x95, 0x86, 0x3e,
  0xe0, 0x57, 0x0b, 0x3d, 0x60, 0xca, 0xa9, 0xbc, 0x70, 0x52, 0xff, 0x3d,
  0x34, 0x17, 0x7c, 0xbe, 0xc0, 0x0d, 0xda, 0xbc, 0x74, 0x84, 0x06, 0x3e,
  0x20, 0x2a, 0xc7, 0x3c, 0xa8, 0x4d, 0xe9, 0xbd, 0x30, 0x7e, 0x35, 0xbe,
  0x2c, 0x3e, 0x51, 0x3e, 0x38, 0x6f, 0x3c, 0x3e, 0x10, 0x7e, 0x97, 0x3d,
  0x90, 0x6c, 0x67, 0xbe, 0x38, 0x7e, 0xaa, 0xbd, 0x64, 0xde, 0x0a, 0xbe,
  0x38, 0x2e, 0x0d, 0xbe, 0x30, 0x8e, 0xd5, 0x3d, 0xb0, 0x9a, 0x1a, 0xbe,
  0x00, 0x63, 0x2c, 0x3c, 0xc4, 0x3f, 0x42, 0x3e, 0x10, 0xeb, 0xf3, 0xbd,
  0x20, 0x64, 0x14, 0x3e, 0xc0, 0xfa, 0x25, 0x3c, 0x18, 0x43, 0x54, 0x3e,
  0x6c, 0xb6, 0x0d, 0x3e, 0x20, 0xbc, 0x3f, 0xbe, 0x00, 0x31, 0xfa, 0xbd,
  0x18, 0x57, 0x9e, 0xbd, 0x80, 0xae, 0xdf, 0x3b, 0xf0, 0x8d, 0xa9, 0xbd,
  0x04, 0xff, 0x3a, 0xbe, 0x28, 0x87, 0x8c, 0xbd, 0x60, 0xc8, 0x80, 0x3d,
  0x4a, 0x92, 0x25, 0x3e, 0xa6, 0xf5, 0x02, 0xbd, 0x57, 0x06, 0x2c, 0x3e,
  0x2d, 0x73, 0xc6, 0x3d, 0xd2, 0xdc, 0x31, 0xbe, 0x07, 0x3f, 0xc4, 0x3b,
  0xc7, 0x05, 0x0d, 0xbc, 0x19, 0x6a, 0x81, 0xbe, 0x53, 0x43, 0x12, 0xbe,
  0x27, 0x0e, 0x8f, 0x3c, 0xee, 0xd5, 0xb0, 0xbd, 0xdc, 0x23, 0x7e, 0x3d,
  0xa7, 0x8b, 0x07, 0xbd, 0xa4, 0x5c, 0x85, 0xbe, 0x3b, 0x1b, 0x2d, 0x3d,
  0xbb, 0xdb, 0xdc, 0xbc, 0x33, 0x81, 0x31, 0x3d, 0xcc, 0x2f, 0xde, 0xbc,
  0x63, 0x4e, 0x0c, 0xbe, 0xa5, 0x01, 0xd0, 0x3d, 0x08, 0x28, 0x1e, 0x3d,
  0x9b, 0x7c, 0x6a, 0xbe, 0x89, 0xf2, 0x6c, 0xbb, 0x6f, 0x44, 0x86, 0x3d,
  0xfb, 0xe8, 0x4f, 0xbe, 0xe8, 0xe0, 0x05, 0xbe, 0x76, 0x98, 0x97, 0xbd,
  0x00, 0x07, 0x3c, 0x3e, 0x39, 0xfa, 0x69, 0x3d, 0x55, 0x03, 0xde, 0x3d,
  0x04, 0x86, 0x2d, 0xbe, 0x2a, 0xb7, 0x51, 0xbd, 0x9d, 0xb4, 0x9b, 0x3d,
  0xe7, 0x4b, 0xd6, 0x3e, 0x7c, 0x9f, 0x56, 0xbe, 0xe0, 0x30, 0xa4, 0xbe,
  0x9c, 0xaf, 0x24, 0x3e, 0x41, 0x71, 0xf3, 0xbd, 0x1c, 0x6c, 0x94, 0x3e,
  0xaa, 0xc2, 0x91, 0xbd, 0x40, 0x8b, 0x31, 0x3e, 0x32, 0x9d, 0xba, 0xbd,
  0xdc, 0xcb, 0x67, 0x3d, 0xf9, 0x21, 0x5d, 0xbd, 0x4a, 0x34, 0xfe, 0x3d,
  0x93, 0x0b, 0xce, 0x3d, 0x15, 0x39, 0x38, 0xbc, 0x0d, 0x08, 0x0b, 0x3f,
  0x23, 0xa5, 0x46, 0xbd, 0xc9, 0xe3, 0xee, 0xbe, 0xfd, 0xeb, 0xbb, 0x3d,
  0x34, 0xcf, 0x2a, 0xbe, 0xd6, 0x2a, 0x61, 0x3e, 0x66, 0xd5, 0x00, 0xbe,
  0xf9, 0x74, 0x93, 0xbe, 0x1e, 0xdb, 0xf0, 0x3d, 0x27, 0xf1, 0x8c, 0x3e,
  0x77, 0x0a, 0x01, 0x3f, 0x9c, 0x50, 0x82, 0x3b, 0x17, 0x18, 0xe6, 0xbe,
  0x5f, 0xfd, 0x83, 0xbe, 0x9b, 0x4f, 0xab, 0x3b, 0x5a, 0x0c, 0x39, 0x3e,
  0x45, 0xfe, 0x11, 0x3d, 0xca, 0x4b, 0x8c, 0x3d, 0xbf, 0xff, 0x30, 0xbd,
  0xeb, 0x73, 0x28, 0x3f, 0x84, 0x21, 0x1b, 0x3f, 0xca, 0x05, 0x3a, 0x3f,
  0xd4, 0x6b, 0x30, 0x3e, 0x5e, 0x44, 0x15, 0x3d, 0xdf, 0x1c, 0x23, 0x3f,
  0x7b, 0x32, 0xe7, 0x3d, 0x2d, 0x1c, 0xe0, 0xbd, 0xd8, 0x83, 0xad, 0xbd,
  0x27, 0xad, 0x6a, 0x3c, 0xf8, 0xce, 0x42, 0xbe, 0xad, 0x26, 0xad, 0xbe,
  0x1c, 0xd7, 0xc2, 0xbd, 0xe2, 0xfd, 0xf1, 0x3e, 0x71, 0xf9, 0x09, 0xbe,
  0xa8, 0x19, 0x31, 0x3e, 0xb9, 0xc1, 0xc5, 0x3e, 0x90, 0xa3, 0x10, 0x3f,
  0x2c, 0x42, 0x24, 0x3e, 0x22, 0xdd, 0x55, 0x3e, 0x9c, 0xe1, 0x02, 0x3d,
  0x20, 0x9b, 0xa0, 0x3c, 0xd6, 0x72, 0x6f, 0xbe, 0x07, 0x67, 0xe7, 0x3e,
  0xcc, 0xe4, 0x96, 0x3e, 0xef, 0xdd, 0xfc, 0xbe, 0x1e, 0xa6, 0x03, 0x3f,
  0x90, 0xcd, 0x61, 0x3e, 0x20, 0xad, 0x13, 0x3f, 0xcd, 0x39, 0xda, 0xbd,
  0xc8, 0x7f, 0xd5, 0xbb, 0x6b, 0xaa, 0x32, 0x3e, 0x43, 0x93, 0xaa, 0x3d,
  0x76, 0xab, 0xa8, 0x3e, 0xf9, 0x97, 0x3e, 0x3e, 0xd0, 0xea, 0xb6, 0x3e,
  0xaa, 0x46, 0xb8, 0x3e, 0x08, 0x1f, 0xda, 0x3c, 0x15, 0x9f, 0x28, 0x3d,
  0x16, 0x29, 0x31, 0xbd, 0x3d, 0xc4, 0x34, 0xbd, 0x64, 0xdd, 0x71, 0x3e,
  0x47, 0x99, 0x73, 0xbd, 0x4d, 0xe8, 0xed, 0x3d, 0x9d, 0x32, 0x2b, 0xbd,
  0x81, 0xf4, 0x2e, 0x3e, 0xab, 0x81, 0xe0, 0xbd, 0x58, 0xfc, 0xb5, 0x3e,
  0x83, 0xf8, 0x99, 0x3d, 0xf4, 0xc4, 0x97, 0x3e, 0x2c, 0x9b, 0x16, 0x3e,
  0x15, 0x7f, 0x85, 0xbe, 0x93, 0x16, 0xc5, 0xbc, 0x67, 0xcf, 0x23, 0x3e,
  0x98, 0x12, 0x43, 0x3e, 0x10, 0x7f, 0xd4, 0xbd, 0x0c, 0x32, 0x99, 0xbe,
  0x3a, 0x31, 0x58, 0x3e, 0x08, 0x59, 0xc6, 0xbe, 0x58, 0xad, 0x00, 0xbe,
  0xc7, 0x40, 0x59, 0xbe, 0xe6, 0xb7, 0xa9, 0x3e, 0xcc, 0x43, 0x2c, 0x3e,
  0x53, 0x46, 0x7b, 0xbb, 0x8f, 0x53, 0xbf, 0x3c, 0x59, 0x67, 0xd2, 0x3c,
  0x97, 0xd7, 0x79, 0xbe, 0x3f, 0x64, 0x4c, 0x3e, 0x27, 0xfe, 0x45, 0x3e,
  0x6b, 0xf1, 0xe0, 0xbe, 0x4b, 0x56, 0x9d, 0xbd, 0x2f, 0xb2, 0x97, 0xbd,
  0xbd, 0xa2, 0x77, 0x3e, 0x8f, 0x10, 0x5c, 0x3e, 0x60, 0xc6, 0xeb, 0xbd,
  0x34, 0x31, 0xa0, 0x3d, 0x8a, 0x50, 0x9a, 0xbe, 0x76, 0xfb, 0x2d, 0xbf,
  0x2e, 0xfa, 0x11, 0xbe, 0xd7, 0x7c, 0x53, 0x3e, 0x1b, 0xf9, 0x2c, 0xbe,
  0x72, 0x47, 0x7d, 0x3d, 0x98, 0xd1, 0x34, 0xbe, 0x19, 0x0a, 0x33, 0x3e,
  0xfe, 0x5b, 0x5e, 0x3d, 0xdc, 0x62, 0x98, 0xbe, 0x60, 0x50, 0x55, 0x3c,
  0x08, 0xb7, 0xf7, 0xbe, 0xa8, 0x68, 0x2e, 0xbd, 0xbe, 0x97, 0x32, 0x3f,
  0x80, 0x3a, 0x9f, 0xbe, 0x56, 0xb9, 0x72, 0x3a, 0x8f, 0xac, 0x56, 0xbe,
  0xbd, 0xd6, 0xae, 0x3e, 0x5d, 0x1c, 0x51, 0x3e, 0x4d, 0x76, 0xd9, 0xbd,
  0x3b, 0x9f, 0x3f, 0xbd, 0xf9, 0xbb, 0x19, 0xbc, 0x9d, 0x12, 0x94, 0x3e,
  0x4a, 0xa6, 0x9e, 0x3e, 0xb7, 0x85, 0x8d, 0x3e, 0x8e, 0x99, 0x3e, 0x3e,
  0x9e, 0x6b, 0xbc, 0x3c, 0xee, 0xdc, 0x72, 0x3e, 0xa5, 0x94, 0x3b, 0xbc,
  0x45, 0x25, 0x2a, 0xbe, 0x72, 0xfa, 0x83, 0x3d, 0x0b, 0xa8, 0x81, 0x3e,
  0xfa, 0x9c, 0x7e, 0x3e, 0x55, 0x97, 0xdb, 0x3d, 0xbb, 0xdc, 0x51, 0xbe,
  0x7d, 0x57, 0x13, 0xbf, 0x2b, 0x3b, 0x0c, 0x3e, 0xcb, 0xde, 0x60, 0xbd,
  0x88, 0x9b, 0x86, 0xbd, 0x8f, 0xd5, 0x87, 0xbe, 0xdd, 0x7a, 0x68, 0xbe,
  0x2b, 0xc3, 0x3f, 0x3d, 0x8b, 0xa3, 0x5c, 0x3e, 0x88, 0x68, 0x56, 0xbd,
  0x4d, 0xd1, 0x61, 0xbe, 0x83, 0x8d, 0xe2, 0x3d, 0x46, 0xc7, 0x27, 0xbe,
  0xca, 0xc1, 0x3a, 0xbe, 0x87, 0xa9, 0xa3, 0xbe, 0x81, 0x1b, 0xb3, 0xbd,
  0xc7, 0xbb, 0x03, 0xba, 0x1d, 0x93, 0xa5, 0x3e, 0xaf, 0x2d, 0x1f, 0x3f,
  0x97, 0x9a, 0xa5, 0x3e, 0x31, 0x01, 0x45, 0x3f, 0xa3, 0xb5, 0xd9, 0xbd,
  0x86, 0x63, 0x76, 0x3e, 0xfd, 0xa3, 0xbe, 0x3e, 0xc3, 0xe3, 0x3d, 0x3e,
  0xfa, 0x5e, 0x2b, 0xbe, 0xf5, 0x70, 0x0e, 0x3d, 0x30, 0x39, 0x1f, 0x3e,
  0xd3, 0x0c, 0x03, 0x3e, 0x21, 0x59, 0x3a, 0x3d, 0x10, 0x69, 0x71, 0x3d,
  0x0b, 0xb8, 0x30, 0x3f, 0x93, 0x84, 0x61, 0xbe, 0x67, 0x20, 0x39, 0xbd,
  0xbd, 0x8d, 0x9a, 0xbe, 0xa0, 0x38, 0xab, 0x3e, 0x30, 0x06, 0xc0, 0xbd,
  0x89, 0x00, 0xf2, 0xbd, 0xe5, 0x9d, 0x58, 0xbe, 0x20, 0x86, 0xab, 0x3e,
  0xd8, 0xcb, 0xb5, 0xbd, 0x2d, 0xa6, 0x09, 0x3f, 0x3f, 0x11, 0x4a, 0xbe,
  0x66, 0x6c, 0x3e, 0xbf, 0xa9, 0x79, 0x61, 0x3e, 0x57, 0xf8, 0x81, 0xbe,
  0xf6, 0xa0, 0x12, 0x3f, 0x78, 0xdf, 0xa4, 0x3e, 0x71, 0x39, 0x94, 0xbd,
  0xc0, 0xda, 0x08, 0xbe, 0x38, 0x05, 0xa3, 0x3e, 0xd0, 0xec, 0xa0, 0x3e,
  0x3d, 0x1d, 0x9e, 0x3e, 0xea, 0xa7, 0xa2, 0x3e, 0x8c, 0x32, 0x09, 0x3e,
  0x70, 0xa9, 0x8a, 0xbe, 0xb5, 0x71, 0x32, 0x3e, 0x2b, 0x79, 0x32, 0xbe,
  0x2b, 0x23, 0x5e, 0x3e, 0xb8, 0xd5, 0x1c, 0xbe, 0xa3, 0x07, 0x69, 0x3e,
  0x57, 0xdd, 0x2f, 0x3d, 0xa0, 0x42, 0xcf, 0x3d, 0xee, 0x5d, 0x1e, 0xbe,
  0xe9, 0x57, 0x86, 0xbe, 0xf4, 0x10, 0x01, 0xbd, 0xd5, 0x5a, 0xa5, 0xbe,
  0x6b, 0xdf, 0xd2, 0x3e, 0x1c, 0x27, 0x3e, 0xbe, 0x41, 0x64, 0x49, 0x3c,
  0x27, 0x11, 0xa2, 0xbd, 0xcf, 0x75, 0xce, 0xbb, 0x3f, 0x29, 0x75, 0x3e,
  0xde, 0x60, 0x39, 0xbe, 0xf3, 0xe5, 0x90, 0xbe, 0xae, 0x7f, 0x4d, 0x3e,
  0x88, 0xe8, 0x53, 0xbe, 0x96, 0xed, 0x7f, 0xbe, 0x37, 0xe6, 0xdb, 0xbd,
  0x9f, 0xb5, 0x4b, 0x3d, 0x20, 0xa7, 0x04, 0xbe, 0x4b, 0x36, 0x96, 0xbd,
  0xf2, 0x48, 0xd0, 0xbe, 0x83, 0x2a, 0xb4, 0xbe, 0xe5, 0xfc, 0x12, 0xbf,
  0x56, 0x56, 0xac, 0x3e, 0xa5, 0x61, 0x78, 0x3e, 0x5c, 0x5a, 0x8f, 0xbe,
  0x60, 0xf0, 0x5f, 0x3e, 0x06, 0xca, 0xef, 0x3d, 0x23, 0x68, 0x97, 0x3e,
  0x24, 0x10, 0x76, 0xbe, 0x22, 0xf3, 0xdb, 0x3d, 0xb9, 0x78, 0xb2, 0x3e,
  0x1c, 0x1b, 0x67, 0x3e, 0x80, 0x73, 0xa4, 0xbe, 0x39, 0xc9, 0x61, 0xbd,
  0x24, 0x21, 0x52, 0x3e, 0x96, 0x5d, 0x06, 0xbc, 0x3e, 0xc4, 0xab, 0xbe,
  0xd0, 0x71, 0xc7, 0x3d, 0xf2, 0x61, 0xa4, 0xbd, 0x8c, 0xa0, 0x37, 0x3c,
  0x36, 0x4c, 0xd1, 0xbe, 0xd7, 0x8e, 0x97, 0x3e, 0x91, 0xa1, 0x1d, 0x3e,
  0x04, 0xa6, 0x47, 0x3d, 0x8d, 0xb2, 0x18, 0x3f, 0x8b, 0x59, 0x9f, 0xbe,
  0xf0, 0xf8, 0x29, 0xbd, 0x05, 0xcd, 0x24, 0x3a, 0x2e, 0x93, 0xa7, 0xbd,
  0x31, 0xba, 0x70, 0xbe, 0xf0, 0x9f, 0xa7, 0x3e, 0x12, 0x06, 0x92, 0x3e,
  0x82, 0xd0, 0xcb, 0x3e, 0x8e, 0x29, 0xfe, 0x3e, 0xc6, 0xc4, 0xa3, 0x3e,
  0x89, 0x64, 0xcf, 0x3e, 0xfb, 0x7b, 0x04, 0x3c, 0x39, 0x12, 0x20, 0x3d,
  0x2e, 0x58, 0x6b, 0xbe, 0xf2, 0xba, 0xfd, 0x3a, 0xa8, 0xe0, 0x41, 0x3d,
  0x97, 0x81, 0x1e, 0x3e, 0x19, 0xfa, 0x24, 0xbe, 0xa5, 0x28, 0x47, 0x3d,
  0x4a, 0x56, 0xaf, 0xbd, 0x4e, 0x41, 0x24, 0xbe, 0xe8, 0x7f, 0xfe, 0x3e,
  0x4f, 0x64, 0xa4, 0xbe, 0x7e, 0xb7, 0x0a, 0x3f, 0x10, 0xd6, 0x23, 0x3d,
  0x94, 0x12, 0x8f, 0xbd, 0x74, 0x51, 0xb5, 0xbd, 0x33, 0x09, 0x6d, 0xbd,
  0xec, 0x28, 0xcf, 0x3e, 0x85, 0x19, 0x6d, 0xbe, 0xde, 0xd5, 0x68, 0xbe,
  0xfd, 0xa5, 0x7b, 0x3e, 0x2f, 0x2e, 0x23, 0xbe, 0x6e, 0x1b, 0xe4, 0x3d,
  0x1c, 0x66, 0x43, 0x3e, 0x74, 0xdb, 0xd4, 0x3d, 0x37, 0x40, 0xdd, 0x3c,
  0x5b, 0xfa, 0x4a, 0x3d, 0x17, 0x7f, 0xc5, 0xbe, 0xcd, 0x94, 0x21, 0xbe,
  0x54, 0x87, 0xc9, 0xbc, 0xbf, 0x5a, 0xd5, 0x3e, 0xf2, 0x7a, 0xbb, 0x3e,
  0xd9, 0xbe, 0x02, 0xbf, 0xd2, 0xaf, 0x6a, 0xbe, 0xf4, 0x84, 0x1b, 0xbd,
  0x5b, 0x85, 0x3e, 0x3e, 0x88, 0xf1, 0x20, 0x3e, 0x74, 0xd6, 0xf0, 0xbb,
  0x48, 0x72, 0xe1, 0x3d, 0xed, 0xf8, 0xe1, 0xbd, 0x71, 0x15, 0x4d, 0x3d,
  0x40, 0x96, 0x14, 0xbe, 0x09, 0x4b, 0xbe, 0x3e, 0x37, 0x28, 0x7c, 0xbd,
  0xe5, 0x35, 0x96, 0xbe, 0xf8, 0xb2, 0xb6, 0x3c, 0x5d, 0xef, 0x32, 0x3e,
  0xf8, 0xae, 0xc9, 0xbd, 0x1f, 0xe6, 0x15, 0xbe, 0xfd, 0xa1, 0xaf, 0x3e,
  0x08, 0x04, 0x9e, 0xbd, 0x57, 0x04, 0x8b, 0xbe, 0xd6, 0x0d, 0x40, 0x3f,
  0x3d, 0x81, 0xbc, 0xbe, 0xb8, 0xf4, 0xae, 0xbb, 0xa9, 0x9d, 0xba, 0xbe,
  0x64, 0x50, 0x1a, 0x3e, 0x14, 0x2f, 0x5e, 0x3e, 0x40, 0x6a, 0x8a, 0xbe,
  0x26, 0x99, 0x25, 0x3e, 0x4c, 0x4f, 0x28, 0xbe, 0xfa, 0x14, 0x4f, 0x3a,
  0xf2, 0x13, 0xaf, 0xbd, 0x7e, 0xce, 0x8d, 0xbe, 0x81, 0x5c, 0xca, 0x3e,
  0x4d, 0x33, 0x83, 0x3d, 0x99, 0xd1, 0x5a, 0x3e, 0xf6, 0xfd, 0x51, 0x3c,
  0x11, 0xbb, 0x25, 0x3e, 0x04, 0x5d, 0x13, 0xbd, 0xce, 0x05, 0x09, 0xbe,
  0x6d, 0x2c, 0x4f, 0xbd, 0x47, 0x70, 0xc9, 0x3d, 0x8a, 0xb9, 0x48, 0xbe,
  0x9f, 0x00, 0xd6, 0xbd, 0xa6, 0x71, 0x8a, 0x3e, 0x33, 0x38, 0x9f, 0x3d,
  0x99, 0xd8, 0x4b, 0xbe, 0xad, 0xe4, 0x6e, 0x3d, 0x3a, 0x3e, 0x93, 0x3b,
  0x40, 0x7a, 0xa7, 0xbd, 0xd7, 0x49, 0x53, 0x3d, 0x8d, 0x1c, 0x4e, 0x3d,
  0xd4, 0xc6, 0x86, 0x3e, 0x61, 0x4b, 0xca, 0x3e, 0x94, 0x0b, 0xd7, 0x3e,
  0xb1, 0x37, 0x65, 0x3e, 0xc3, 0x85, 0x22, 0x3e, 0xab, 0xa3, 0x4d, 0xbe,
  0xbe, 0x71, 0x82, 0xbd, 0xa7, 0xfd, 0xdf, 0xbd, 0x02, 0xa7, 0x83, 0xbd,
  0x4f, 0x76, 0xd5, 0xbc, 0x2d, 0x54, 0x30, 0x3e, 0x37, 0x15, 0x9b, 0xbe,
  0xb5, 0x88, 0x3c, 0xbe, 0xd0, 0x91, 0x58, 0x3e, 0x3a, 0x05, 0xed, 0x3d,
  0xee, 0x7f, 0x07, 0x3e, 0x91, 0x45, 0x72, 0x3d, 0x01, 0xb7, 0x5a, 0x3e,
  0xd4, 0x54, 0x27, 0x3e, 0xa4, 0x68, 0x00, 0x3e, 0x6b, 0xae, 0x33, 0x3e,
  0xdf, 0xa0, 0x96, 0x3d, 0x2f, 0x8f, 0x9b, 0x3e, 0x0b, 0x99, 0x43, 0x3e,
  0xd1, 0xd3, 0x55, 0x3d, 0x15, 0x97, 0x76, 0x3e, 0xc0, 0xe4, 0x33, 0x3d,
  0xbe, 0x18, 0x45, 0x3e, 0x1e, 0x7a, 0x83, 0xbb, 0xd9, 0x56, 0x1d, 0x3e,
  0xa3, 0xc2, 0x20, 0x3e, 0x70, 0x8f, 0x93, 0xbe, 0x2b, 0xce, 0x3a, 0x3d,
  0x09, 0x9d, 0x6d, 0x3e, 0xfa, 0x47, 0x26, 0xbd, 0xa0, 0x19, 0x5e, 0xbe,
  0x71, 0x69, 0x07, 0x3e, 0xc5, 0xd0, 0x08, 0xbc, 0x87, 0x83, 0x03, 0xbe,
  0xf6, 0x67, 0x45, 0x3e, 0x1c, 0xd1, 0xd4, 0xbe, 0xc0, 0x90, 0x0b, 0xbf,
  0xc9, 0xa8, 0xa5, 0xbe, 0xa0, 0x9f, 0xc0, 0x3d, 0x27, 0x85, 0x3b, 0xbd,
  0x07, 0xcc, 0xd7, 0x3d, 0xab, 0xc1, 0x8a, 0xbd, 0x62, 0x18, 0x0b, 0x3e,
  0xe9, 0x83, 0x49, 0x3e, 0x69, 0xba, 0xe5, 0x3d, 0xef, 0x62, 0x96, 0x3e,
  0x5b, 0xa6, 0xa6, 0x3d, 0x50, 0x81, 0xb3, 0x3c, 0x7a, 0xa5, 0x4f, 0xbd,
  0x99, 0x99, 0xf5, 0x3d, 0x79, 0x3a, 0x3a, 0xbe, 0x68, 0xc7, 0x3c, 0x3e,
  0xbc, 0x1d, 0xf1, 0xbe, 0xd0, 0x30, 0x47, 0x3d, 0x5d, 0x67, 0x24, 0x3e,
  0xed, 0x5c, 0xac, 0x3e, 0x9d, 0x6f, 0xd8, 0xbc, 0xd6, 0x02, 0x0b, 0xbe,
  0x21, 0x4a, 0x0f, 0x3d, 0xf7, 0x48, 0xb9, 0x3e, 0xb4, 0xff, 0xbf, 0xbe,
  0x57, 0x5b, 0xd9, 0x3e, 0xbd, 0xdd, 0xa7, 0x3d, 0xb9, 0x53, 0x73, 0x3e,
  0x8c, 0xf3, 0xbd, 0x3e, 0x9f, 0x40, 0x7d, 0x3e, 0x79, 0xa8, 0xac, 0xbe,
  0x94, 0x7b, 0xd4, 0xbd, 0xd1, 0x41, 0xb6, 0x3d, 0x60, 0x1a, 0xbc, 0xbd,
  0xec, 0x42, 0x3c, 0x3e, 0x6a, 0x83, 0x10, 0x3e, 0xc1, 0x75, 0xc2, 0x3d,
  0xcf, 0x84, 0x33, 0xbe, 0x4d, 0x8d, 0x93, 0x3e, 0x13, 0x33, 0xb5, 0xbc,
  0x71, 0x5c, 0x70, 0x3e, 0xcf, 0x25, 0x5a, 0x3c, 0xbb, 0xb1, 0x91, 0x3d,
  0xd5, 0xd4, 0x32, 0xbd, 0xc4, 0x7e, 0x0f, 0xbf, 0x21, 0xe6, 0x96, 0x3e,
  0xcb, 0xe0, 0x75, 0x3e, 0xe5, 0x50, 0x93, 0x3e, 0x10, 0x6a, 0x99, 0x3e,
  0x7d, 0x8f, 0xbb, 0xbd, 0xcd, 0xb4, 0x05, 0xbe, 0x71, 0xb5, 0x9d, 0x3e,
  0xd2, 0x7f, 0x0a, 0xbe, 0x12, 0x4f, 0x28, 0x3e, 0x3a, 0xa3, 0x01, 0xbf,
  0x01, 0x61, 0xb5, 0x3e, 0x65, 0x8f, 0x2a, 0x3f, 0x16, 0xa0, 0xb0, 0xbb,
  0xb7, 0x4f, 0xf2, 0x3d, 0x14, 0x48, 0x8f, 0xbe, 0x80, 0xa4, 0x62, 0xbd,
  0xc8, 0x99, 0xc1, 0xbd, 0x70, 0xa2, 0x16, 0xbe, 0x4c, 0x03, 0x05, 0xbe,
  0x68, 0x12, 0xbf, 0x3d, 0x24, 0xaf, 0x2b, 0xbe, 0x64, 0x31, 0x11, 0xbe,
  0x80, 0x06, 0x09, 0xbe, 0xdc, 0xf2, 0x18, 0xbe, 0xe8, 0x28, 0x42, 0xbe,
  0x6c, 0x06, 0x70, 0xbe, 0x74, 0xf2, 0x5c, 0xbe, 0x04, 0xc4, 0x62, 0x3e,
  0xa4, 0x67, 0x03, 0xbe, 0xf4, 0x8f, 0x13, 0xbe, 0x28, 0x35, 0x3b, 0x3e,
  0xb4, 0x46, 0x6e, 0xbe, 0xd0, 0xd2, 0x2b, 0x3d, 0x28, 0x84, 0x33, 0xbe,
  0x34, 0xd7, 0x1d, 0x3e, 0x4c, 0x01, 0x66, 0x3e, 0x90, 0x7c, 0xa7, 0x3d,
  0xb8, 0x9b, 0x0f, 0x3e, 0x08, 0x3b, 0x2b, 0xbe, 0x88, 0x8c, 0x2f, 0x3e,
  0xa4, 0xde, 0x64, 0xbe, 0x8c, 0x00, 0x1b, 0xbe, 0x1c, 0x98, 0x7f, 0x3e,
  0xf0, 0x6d, 0x7b, 0xbe, 0x2c, 0x2d, 0x4f, 0xbe, 0x08, 0x78, 0x7f, 0xbe,
  0x20, 0xa4, 0x16, 0x3d, 0x18, 0x2a, 0x7a, 0xbe, 0xab, 0x44, 0x13, 0xbe,
  0xd4, 0xb1, 0xbf, 0x3c, 0xb5, 0xbd, 0xf6, 0xbc, 0x05, 0xad, 0x4b, 0x3e,
  0xb0, 0x6a, 0x24, 0xbd, 0xd5, 0x5c, 0xae, 0xbc, 0xed, 0x22, 0xbc, 0xbd,
  0x2c, 0x5f, 0xc5, 0xbd, 0x6e, 0x88, 0x04, 0xbe, 0xb4, 0x2f, 0x17, 0x3e,
  0x67, 0xe3, 0x05, 0xbe, 0xe4, 0xab, 0x6a, 0x3e, 0xda, 0x26, 0x0f, 0x3d,
  0x61, 0xdd, 0xfe, 0x3d, 0x5e, 0x84, 0xa0, 0x3d, 0x02, 0x3e, 0x5d, 0x3e,
  0xb0, 0x1d, 0x83, 0xbd, 0x43, 0x5b, 0xb9, 0xbd, 0x42, 0x5a, 0xb1, 0xbd,
  0x84, 0xbf, 0x37, 0xbe, 0xf2, 0x4d, 0x6b, 0x3e, 0x1b, 0x7e, 0x15, 0xbe,
  0xb3, 0xde, 0x9d, 0xbd, 0x7e, 0xb7, 0x22, 0x3e, 0x5a, 0xa5, 0x3d, 0x3e,
  0xac, 0x3f, 0x63, 0xbe, 0x14, 0xf8, 0x9a, 0x3d, 0x5c, 0x5e, 0xbe, 0xbc,
  0xf3, 0xb6, 0x6b, 0x3e, 0xff, 0x81, 0xd5, 0x3d, 0x12, 0x71, 0x7b, 0xbe,
  0x80, 0xed, 0x3f, 0x3e, 0x61, 0x55, 0x01, 0xbe, 0x53, 0xbd, 0x2b, 0x3c,
  0x9c, 0xfc, 0x40, 0x3e, 0xac, 0x5b, 0x00, 0x3d, 0x7d, 0x39, 0xf3, 0xbd,
  0x1c, 0x07, 0x42, 0xbe, 0x52, 0xc7, 0x3e, 0xbe, 0x11, 0x6b, 0x99, 0x3d,
  0x6b, 0x19, 0xb7, 0x3d, 0x4d, 0xe8, 0x72, 0xbe, 0xfb, 0xbb, 0x81, 0xbe,
  0xba, 0x77, 0x35, 0x3e, 0xc5, 0x33, 0x0e, 0x3e, 0x73, 0x28, 0x1f, 0x3e,
  0x6c, 0xb7, 0x65, 0x3e, 0x87, 0xed, 0x58, 0xbe, 0xc0, 0xdd, 0x02, 0xbe,
  0xc0, 0xba, 0xb7, 0x3d, 0xe2, 0x3d, 0x56, 0xbe, 0x78, 0xbc, 0x8f, 0x3d,
  0xf0, 0x45, 0xbc, 0xbc, 0x09, 0xc1, 0x8d, 0x3d, 0x82, 0x3d, 0x47, 0x3d,
  0xc9, 0x3a, 0x63, 0xbe, 0x5c, 0x25, 0x72, 0xbe, 0x48, 0x34, 0x7b, 0xbe,
  0x23, 0x8a, 0x91, 0x3d, 0x4d, 0x49, 0x73, 0x3e, 0xee, 0x78, 0x58, 0x3c,
  0x92, 0x95, 0x54, 0x3d, 0x55, 0x1d, 0xe2, 0x3c, 0x43, 0x92, 0x02, 0x3d,
  0xe6, 0xf9, 0x76, 0xbe, 0x23, 0xcf, 0x6a, 0x3e, 0x5e, 0xf9, 0x8c, 0x3e,
  0xac, 0x77, 0xe2, 0x3d, 0x0d, 0x82, 0xab, 0x3e, 0x94, 0x4f, 0xee, 0x3d,
  0x93, 0x9f, 0x9f, 0x3e, 0xa5, 0xbf, 0xa7, 0x3b, 0x79, 0xeb, 0x43, 0xbe,
  0x44, 0x97, 0xef, 0x3d, 0x25, 0xcd, 0xb6, 0x3c, 0x18, 0x3f, 0xeb, 0xbb,
  0xbd, 0x6f, 0x59, 0xbe, 0xf3, 0x3a, 0x9d, 0x3e, 0xa0, 0xd8, 0x5f, 0xbe,
  0xc7, 0xba, 0x64, 0xbe, 0x4a, 0x6d, 0x42, 0xbe, 0xd7, 0x5a, 0x8a, 0x3d,
  0x19, 0x98, 0xd1, 0xbc, 0xa2, 0x03, 0x4c, 0x3e, 0xc0, 0x5c, 0xf6, 0x3d,
  0x7c, 0x99, 0x1d, 0xba, 0x5a, 0x7a, 0x98, 0xbe, 0xc6, 0x0d, 0x38, 0x3e,
  0xda, 0x1d, 0x40, 0x3e, 0xfd, 0x01, 0x9e, 0xbe, 0x5a, 0xd4, 0x08, 0x3d,
  0xfb, 0x9c, 0xab, 0x3e, 0x64, 0x19, 0xac, 0xbe, 0x54, 0x3f, 0xec, 0xbd,
  0xe0, 0x9e, 0x1c, 0x3e, 0x88, 0x58, 0x49, 0xbe, 0x3d, 0x21, 0x49, 0xbe,
  0xef, 0xb8, 0x4f, 0x3e, 0xda, 0x3f, 0x3d, 0x3f, 0x11, 0x30, 0x3d, 0x3f,
  0x7c, 0x55, 0x3e, 0x3f, 0x57, 0xd4, 0xa1, 0x3e, 0xce, 0x04, 0x9a, 0x3d,
  0x27, 0x26, 0x1b, 0x3e, 0x17, 0x82, 0x85, 0xbe, 0x8d, 0x40, 0x9a, 0xbe,
  0xaf, 0xb5, 0xd4, 0xbd, 0x06, 0x4c, 0x55, 0x3b, 0x74, 0xb0, 0x9b, 0xbd,
  0xba, 0x9e, 0x55, 0x3e, 0xae, 0xd9, 0x58, 0xbd, 0x62, 0xbd, 0xc4, 0x3d,
  0xc9, 0x5e, 0x2f, 0xbe, 0x74, 0xd5, 0xcb, 0x3d, 0x71, 0x55, 0x0e, 0xbe,
  0xdd, 0x32, 0x41, 0x3f, 0xbd, 0xc5, 0x2a, 0xbe, 0x90, 0xfa, 0x86, 0xbe,
  0x1c, 0x61, 0xcb, 0xbd, 0x99, 0xe7, 0x49, 0x3d, 0xb4, 0x9c, 0x64, 0x3e,
  0x76, 0x7f, 0x04, 0x3e, 0x6b, 0x26, 0x96, 0xbd, 0x97, 0x7d, 0xd4, 0x3e,
  0x3f, 0x5a, 0x76, 0xbd, 0x1d, 0x1a, 0xfc, 0x3c, 0xd9, 0x6a, 0xcb, 0xbd,
  0xe0, 0xbb, 0x19, 0x3e, 0x50, 0x23, 0xb1, 0xbd, 0xd8, 0x30, 0x83, 0x3d,
  0xc0, 0x7a, 0x77, 0x3d, 0x10, 0xdf, 0x27, 0xbe, 0x50, 0x65, 0x21, 0x3d,
  0x20, 0x28, 0xb5, 0xbc, 0xe4, 0xcb, 0x16, 0xbe, 0xd0, 0x60, 0x3b, 0xbe,
  0xd0, 0x11, 0x48, 0x3e, 0x14, 0xf1, 0x00, 0xbe, 0x10, 0x95, 0x34, 0xbe,
  0x88, 0x64, 0x6c, 0xbe, 0x9c, 0x9d, 0x4b, 0xbe, 0x40, 0x35, 0x34, 0xbd,
  0x10, 0xf7, 0x28, 0xbd, 0x84, 0xbe, 0x79, 0xbe, 0xe0, 0x47, 0x3c, 0xbe,
  0x04, 0xff, 0x62, 0x3e, 0x90, 0x07, 0x16, 0x3e, 0x88, 0x08, 0xc7, 0xbd,
  0x20, 0x20, 0x2e, 0x3e, 0x30, 0xf3, 0x1b, 0x3d, 0x58, 0xa3, 0x24, 0x3e,
  0xa0, 0x95, 0xf3, 0x3d, 0xf4, 0xfb, 0x65, 0xbe, 0x80, 0x01, 0x7d, 0x3d,
  0x70, 0x82, 0x05, 0x3d, 0x14, 0x16, 0x7d, 0xbe, 0xb0, 0xa5, 0xb8, 0xbd,
  0xc8, 0xbe, 0xcd, 0xbd, 0xf8, 0x23, 0x64, 0xbe, 0xcd, 0x32, 0xfc, 0x3e,
  0x69, 0x99, 0x4c, 0x3e, 0xc7, 0xf7, 0x8b, 0x3e, 0x2a, 0x38, 0x5f, 0xbd,
  0x50, 0x16, 0x95, 0xbe, 0x1a, 0xf7, 0x9a, 0xbd, 0xf7, 0x88, 0x0b, 0xbd,
  0xc8, 0x98, 0xa7, 0x3e, 0x2e, 0x93, 0xac, 0xbe, 0x3a, 0xed, 0x38, 0x3e,
  0x40, 0x88, 0xa6, 0x3d, 0x84, 0x4c, 0xa4, 0x3e, 0xa4, 0xdd, 0xbb, 0xbc,
  0x5e, 0x38, 0xc6, 0xbc, 0xce, 0xf9, 0x47, 0x3d, 0x94, 0xcb, 0x25, 0x3e,
  0xfa, 0x69, 0xc5, 0xbe, 0xb2, 0x50, 0x8c, 0x3d, 0xe0, 0x88, 0xdf, 0xbe,
  0xb0, 0x7f, 0xa2, 0x3d, 0xe9, 0xc1, 0x21, 0xbe, 0xfe, 0x73, 0xcd, 0x3d,
  0x8e, 0xc9, 0x20, 0xbd, 0x79, 0xa7, 0x24, 0xbd, 0x79, 0xf7, 0x47, 0x3e,
  0xa3, 0x52, 0x8d, 0x3e, 0xf2, 0xb6, 0x7a, 0xbe, 0x08, 0x71, 0x8e, 0xbd,
  0xab, 0x91, 0xa2, 0x3e, 0xac, 0xd8, 0x8c, 0xbe, 0x11, 0x29, 0x46, 0x3e,
  0x8a, 0x5f, 0x11, 0xbf, 0xd0, 0x4c, 0xc2, 0xbd, 0x80, 0x47, 0x97, 0x3d,
  0xe8, 0xfa, 0x96, 0x3d, 0xbc, 0x62, 0x29, 0x3e, 0x3c, 0x68, 0x23, 0x3e,
  0x20, 0x0e, 0x44, 0x3d, 0xfc, 0x5e, 0x7f, 0xbe, 0x00, 0xb4, 0x46, 0x3d,
  0x60, 0xcc, 0x41, 0xbe, 0x4c, 0x98, 0x1e, 0xbe, 0x20, 0xb3, 0x95, 0xbd,
  0x98, 0x83, 0x4c, 0xbe, 0xf8, 0xeb, 0xd5, 0x3d, 0x70, 0x3a, 0x89, 0xbd,
  0x0c, 0x2e, 0x26, 0x3e, 0x88, 0xee, 0x6d, 0xbe, 0x4c, 0x97, 0x31, 0xbe,
  0xc8, 0xfb, 0xd8, 0xbd, 0xcc, 0x64, 0x5e, 0xbe, 0x60, 0x61, 0x76, 0x3d,
  0xb4, 0x62, 0x70, 0xbe, 0xb0, 0x32, 0x17, 0xbe, 0x20, 0x83, 0x35, 0xbe,
  0xa0, 0x62, 0xef, 0xbd, 0xe0, 0xc9, 0x3d, 0xbd, 0xc8, 0xb9, 0xf3, 0xbd,
  0x40, 0xb6, 0x87, 0x3c, 0x40, 0xf1, 0x5f, 0x3c, 0x84, 0xa4, 0x28, 0xbe,
  0xe0, 0x64, 0x57, 0xbe, 0xf0, 0xac, 0x6b, 0xbe, 0xd8, 0x26, 0x94, 0x3d,
  0xa6, 0xf9, 0xff, 0xff, 0x04, 0x00, 0x00, 0x00, 0x00, 0x04, 0x00, 0x00,
  0x5d, 0x7d, 0x4b, 0x3e, 0xb4, 0x2d, 0x88, 0xbb, 0x47, 0x8b, 0xb6, 0x3d,
  0xa7, 0x53, 0x2a, 0xbe, 0x54, 0xa4, 0x2b, 0x3f, 0x47, 0x4e, 0xf7, 0x3e,
  0x40, 0x55, 0x19, 0xbe, 0xc6, 0xbc, 0xc1, 0xbe, 0xe5, 0x91, 0x1a, 0x3d,
  0x5d, 0xe1, 0xbe, 0xbe, 0xcd, 0xa0, 0x85, 0xbc, 0xfe, 0x62, 0xf3, 0xbc,
  0xa3, 0x66, 0x33, 0xbe, 0x96, 0x92, 0x23, 0x3e, 0xd7, 0x7e, 0xe8, 0x3b,
  0x31, 0xa3, 0x26, 0x3e, 0x11, 0xf4, 0x36, 0x3e, 0xcb, 0x97, 0x9e, 0xbd,
  0xd2, 0x86, 0xef, 0x3e, 0xd6, 0x0b, 0xfb, 0x3e, 0x4f, 0xa5, 0x3f, 0xbf,
  0x1c, 0xda, 0xb1, 0x3c, 0x84, 0xaa, 0x12, 0x3e, 0x06, 0xb9, 0x2d, 0xbe,
  0x62, 0x1c, 0x50, 0xbe, 0x8f, 0x49, 0x88, 0x3e, 0x48, 0x4f, 0x7f, 0x3c,
  0xfa, 0xa1, 0x40, 0xbe, 0x7b, 0xf9, 0xb6, 0xbf, 0x62, 0xd2, 0xbe, 0x3e,
  0x62, 0xc5, 0xd0, 0x3e, 0x9d, 0x03, 0x65, 0xbe, 0x0e, 0x16, 0x98, 0xba,
  0x74, 0x9a, 0x9f, 0x3d, 0x96, 0x72, 0xdb, 0xbe, 0xe4, 0x72, 0x73, 0xbe,
  0x67, 0xf2, 0xc7, 0xbf, 0x67, 0x65, 0x28, 0x3e, 0x44, 0xd0, 0x19, 0x38,
  0xb0, 0x04, 0x03, 0xbe, 0xbf, 0xa8, 0x52, 0xbe, 0x71, 0x4c, 0xff, 0x3d,
  0x5b, 0xbe, 0x1a, 0x3e, 0x36, 0x9c, 0xd6, 0x3e, 0x38, 0x56, 0x8a, 0xbf,
  0x53, 0xbc, 0x09, 0xbf, 0x29, 0x09, 0xc1, 0xbe, 0x25, 0xa6, 0xa3, 0x3e,
  0x1f, 0xff, 0x32, 0xbe, 0x03, 0x61, 0xcf, 0x3e, 0x63, 0x05, 0x49, 0xbe,
  0x1a, 0xe2, 0xc0, 0x3e, 0x82, 0x01, 0xdc, 0x3e, 0xe7, 0xf7, 0xbf, 0x3e,
  0xec, 0xb8, 0xee, 0x3d, 0x22, 0xad, 0xc4, 0xbe, 0x19, 0x59, 0x16, 0x3e,
  0xd1, 0x60, 0x3d, 0x3e, 0x7f, 0x36, 0xa3, 0x3e, 0xe3, 0x5b, 0x93, 0x3c,
  0x72, 0xd2, 0x93, 0x3e, 0x6e, 0x47, 0xb4, 0xbe, 0xdc, 0x33, 0x98, 0xbd,
  0x63, 0x3f, 0xdc, 0xbe, 0x3e, 0x49, 0x23, 0xbf, 0xce, 0xa3, 0x0e, 0x3e,
  0x42, 0x1c, 0x5a, 0x3e, 0x61, 0x4e, 0x43, 0x3e, 0xe1, 0x46, 0x12, 0x3f,
  0x17, 0x57, 0x48, 0x3e, 0xb6, 0xef, 0x66, 0x3e, 0x38, 0xd6, 0x21, 0x3e,
  0xbd, 0xb8, 0xc1, 0xbd, 0x6d, 0x94, 0x9e, 0xbe, 0x6f, 0x83, 0xa2, 0x3d,
  0xae, 0x3c, 0x9c, 0x3d, 0xea, 0xc3, 0x77, 0xbe, 0x7e, 0x79, 0xbe, 0x3d,
  0xd5, 0x57, 0xd1, 0xbd, 0x53, 0x56, 0x72, 0x3d, 0xcb, 0x27, 0x73, 0x3e,
  0x39, 0x3c, 0x6f, 0xbe, 0xcb, 0xd1, 0x6a, 0xbe, 0x2a, 0x3f, 0x1a, 0xbe,
  0x57, 0xc7, 0xe0, 0xbe, 0x1d, 0x0f, 0xc6, 0xbd, 0x8e, 0xbc, 0xb0, 0x3e,
  0xdd, 0xcf, 0x0e, 0x3d, 0xea, 0xcf, 0x88, 0xbd, 0xf4, 0xe8, 0x9d, 0x3e,
  0x89, 0x06, 0xfd, 0xbe, 0x96, 0x4d, 0x3f, 0xbd, 0x56, 0xf9, 0xb9, 0xbe,
  0x96, 0x19, 0x98, 0x3e, 0x4c, 0xb5, 0xaa, 0xbe, 0x4f, 0x9f, 0x79, 0xbd,
  0x5a, 0x71, 0xa0, 0x3e, 0x9a, 0x5e, 0x9b, 0xbe, 0xd5, 0x94, 0xae, 0x3e,
  0xf5, 0x6c, 0x65, 0xbd, 0xf6, 0xf9, 0x0c, 0x3d, 0x1d, 0xb9, 0x91, 0x3e,
  0x1f, 0x5e, 0x98, 0x3e, 0x86, 0x5d, 0xb2, 0x3e, 0x37, 0x55, 0x11, 0xbe,
  0xb9, 0x3e, 0x19, 0xbe, 0x52, 0xa2, 0x81, 0xbb, 0x05, 0x66, 0x58, 0xbe,
  0x21, 0x75, 0x74, 0xbe, 0x92, 0xe6, 0x06, 0xbd, 0xae, 0xa0, 0x46, 0x3c,
  0x97, 0xa1, 0x86, 0x3e, 0xef, 0x26, 0xba, 0x3e, 0x0c, 0xae, 0x8a, 0xbd,
  0xe7, 0x94, 0x21, 0x3e, 0x18, 0xfe, 0x40, 0x3e, 0x54, 0x14, 0xa3, 0x3b,
  0xc1, 0xdd, 0xd7, 0x3e, 0xcf, 0xee, 0xd8, 0xbe, 0xa7, 0xbf, 0x2a, 0xbe,
  0xd5, 0xdf, 0x60, 0x3d, 0x98, 0xb2, 0x29, 0xbe, 0xc5, 0x38, 0x92, 0x3e,
  0xa1, 0x05, 0x25, 0x3e, 0x83, 0x0d, 0xab, 0xbd, 0x50, 0xf1, 0x08, 0x3e,
  0x10, 0x72, 0x81, 0xbe, 0x37, 0x39, 0x8d, 0x3d, 0xed, 0xff, 0xe8, 0xbd,
  0xc6, 0x5e, 0x30, 0xbd, 0x1c, 0xe6, 0x2b, 0x3f, 0xb5, 0xfb, 0xb1, 0x3e,
  0xc7, 0x01, 0x4d, 0xbf, 0x44, 0xf8, 0x0c, 0xbd, 0x89, 0xfb, 0x8f, 0xbd,
  0x3b, 0x6c, 0xd4, 0xbd, 0x39, 0xc1, 0xab, 0x3d, 0xe6, 0x44, 0xac, 0x3e,
  0x3e, 0x92, 0x18, 0xbd, 0x2e, 0xa0, 0xa0, 0xbe, 0x08, 0x51, 0x01, 0xbe,
  0x9d, 0x3b, 0x5d, 0xbe, 0x1d, 0xed, 0x49, 0x3e, 0x5e, 0x60, 0x0f, 0x3e,
  0x93, 0x88, 0x0c, 0xbe, 0x71, 0xab, 0xe4, 0x3e, 0xb8, 0x97, 0x9d, 0xbf,
  0xf7, 0xb3, 0x60, 0x3e, 0x0b, 0xe2, 0x11, 0xbf, 0xa2, 0xd3, 0x7d, 0xbe,
  0x7d, 0x1f, 0xcc, 0x3e, 0x4b, 0x4e, 0x3e, 0x3d, 0x14, 0x25, 0x9f, 0xbe,
  0xe3, 0x66, 0x7d, 0xbd, 0xc3, 0xc7, 0x23, 0xbf, 0xca, 0x54, 0x88, 0x3d,
  0x60, 0x22, 0x77, 0xbe, 0x6c, 0x46, 0x83, 0x3e, 0x9e, 0xc4, 0x05, 0x3e,
  0x5d, 0x8b, 0x28, 0x3e, 0x86, 0x1e, 0x07, 0x3f, 0x40, 0xbc, 0x92, 0x3e,
  0x63, 0x9d, 0x06, 0xbf, 0x94, 0xe9, 0x3b, 0xbe, 0x06, 0xaa, 0xa6, 0xbf,
  0xf4, 0x7c, 0x30, 0xbe, 0x8e, 0x59, 0x11, 0x3e, 0x70, 0x2a, 0xe7, 0x3d,
  0x2d, 0xc6, 0x06, 0x3e, 0xbb, 0xf6, 0x4a, 0xbe, 0x5c, 0x65, 0x3a, 0x3d,
  0x67, 0xbd, 0x49, 0xbd, 0x36, 0x57, 0x02, 0x3d, 0x55, 0xb0, 0x20, 0xbb,
  0xa7, 0x48, 0x10, 0x3e, 0x37, 0xfc, 0x95, 0x3e, 0x1e, 0x1a, 0xc1, 0xbe,
  0x17, 0xd8, 0x72, 0xbe, 0x49, 0x4c, 0x64, 0x3e, 0x0f, 0x05, 0x19, 0xbd,
  0xc9, 0xc9, 0xfe, 0xbd, 0xa3, 0xd7, 0x86, 0xbd, 0x8b, 0x4b, 0x66, 0x3e,
  0xa9, 0xff, 0x79, 0xbe, 0x63, 0xb6, 0x02, 0x3f, 0x28, 0x72, 0x8b, 0x3e,
  0x9e, 0x03, 0xf7, 0xbe, 0x18, 0x47, 0x59, 0xbd, 0xed, 0x91, 0x56, 0xbe,
  0x7a, 0x99, 0x2c, 0x3e, 0x6e, 0xd7, 0xe7, 0x3e, 0xf0, 0xec, 0x42, 0x3e,
  0xe2, 0x6c, 0xe6, 0xbe, 0x2a, 0xf8, 0xf5, 0xbb, 0x9d, 0x63, 0x67, 0x3f,
  0xa5, 0x0d, 0x37, 0x3e, 0x3a, 0x5f, 0x29, 0xbe, 0xd8, 0x69, 0x8d, 0xbe,
  0xbe, 0xb1, 0x7d, 0x3d, 0x7d, 0xf3, 0x51, 0xbe, 0x7e, 0xd3, 0xbd, 0x3e,
  0xcd, 0xec, 0x82, 0x3e, 0xb9, 0x30, 0xfb, 0xbe, 0xb3, 0x3f, 0x34, 0x3c,
  0xf9, 0x4a, 0x08, 0x3e, 0x16, 0xe1, 0x97, 0x3e, 0xfe, 0x30, 0x96, 0x3e,
  0x41, 0x31, 0xb4, 0xbe, 0xe0, 0xe3, 0xfb, 0x3e, 0xc5, 0xdc, 0xf0, 0x3e,
  0x2c, 0xa4, 0x16, 0x3f, 0xa5, 0xe1, 0x08, 0x3f, 0xae, 0xdb, 0x2a, 0xbf,
  0x60, 0x0f, 0xf9, 0xbe, 0xb5, 0x73, 0xf8, 0xbd, 0x8d, 0x73, 0x88, 0x3e,
  0xdd, 0x37, 0x7f, 0x3e, 0x79, 0xb3, 0xaa, 0xbd, 0x7f, 0xa5, 0x04, 0xbf,
  0xfb, 0x9c, 0x9e, 0x3d, 0xc2, 0xc0, 0xbd, 0x3e, 0x59, 0xe4, 0xc4, 0xbe,
  0x36, 0xd1, 0x66, 0x3e, 0x53, 0xd2, 0x5c, 0x3e, 0x31, 0xe5, 0x7e, 0x3d,
  0x4e, 0xac, 0xbe, 0x3e, 0x57, 0xb0, 0x55, 0xbf, 0x1e, 0xa7, 0x8b, 0xbe,
  0x71, 0xba, 0x1c, 0x3f, 0x51, 0xce, 0xfc, 0xbd, 0xa2, 0x91, 0xe9, 0x3e,
  0x03, 0xd0, 0xad, 0xbe, 0x8d, 0xcf, 0xcd, 0xbe, 0xe4, 0x10, 0xbe, 0xbe,
  0x92, 0x25, 0xd4, 0x3a, 0x24, 0x74, 0xba, 0x3e, 0x32, 0x87, 0xe2, 0x3e,
  0x08, 0x38, 0x37, 0x3e, 0xe8, 0xd0, 0xc9, 0xbd, 0x14, 0xf5, 0xe9, 0x3d,
  0x66, 0x0e, 0x88, 0x3e, 0x0f, 0x3f, 0x80, 0xbe, 0x88, 0x31, 0xce, 0x3b,
  0xc5, 0x83, 0xc5, 0xbe, 0xc8, 0xca, 0x4d, 0x3e, 0xaf, 0xa7, 0x5f, 0x3e,
  0xed, 0x8d, 0x8d, 0x3e, 0xa5, 0x3a, 0xda, 0xbd, 0x07, 0x36, 0x93, 0xbe,
  0x0f, 0x31, 0x51, 0x3e, 0x99, 0xed, 0xa9, 0x3e, 0x0b, 0x30, 0x03, 0x3f,
  0x0b, 0x2a, 0x6f, 0xbe, 0x7c, 0x35, 0x12, 0xbe, 0xd9, 0x03, 0x8d, 0xbe,
  0x8f, 0xee, 0x23, 0x3e, 0xb2, 0xfd, 0xff, 0xff, 0x04, 0x00, 0x00, 0x00,
  0x80, 0x00, 0x00, 0x00, 0x0e, 0x72, 0xa4, 0x3d, 0x8d, 0x2d, 0xd2, 0x3c,
  0xc2, 0xf9, 0x04, 0xbc, 0x72, 0xfb, 0xc4, 0x3d, 0xc1, 0xbd, 0x76, 0x3c,
  0x96, 0x41, 0x32, 0x3d, 0x59, 0x50, 0x9a, 0x3c, 0xe7, 0xf4, 0xa8, 0xbb,
  0xc6, 0xae, 0x56, 0x3e, 0x3a, 0xa3, 0x94, 0xbb, 0x8b, 0x09, 0x13, 0x3e,
  0x98, 0x9f, 0x0a, 0x3d, 0xfe, 0x62, 0x05, 0x3d, 0x75, 0xf4, 0x81, 0xbd,
  0x3b, 0x53, 0x6f, 0x3b, 0x2b, 0x80, 0x89, 0xbd, 0x8a, 0x3a, 0xba, 0x3d,
  0x61, 0x7f, 0xaf, 0x3d, 0x49, 0xd3, 0x3a, 0x3d, 0x0e, 0x6a, 0x9a, 0x3e,
  0x11, 0x00, 0xde, 0x3d, 0x91, 0x72, 0x18, 0xbc, 0x43, 0x7a, 0x35, 0x3c,
  0xda, 0xba, 0x54, 0x3e, 0xa8, 0x8f, 0x1d, 0x3d, 0x05, 0x94, 0x4e, 0xbd,
  0xe1, 0x4d, 0xe3, 0x3d, 0xdc, 0x87, 0x77, 0x3e, 0xb3, 0x7e, 0x5d, 0x3d,
  0xd6, 0x21, 0x16, 0x3e, 0x96, 0x1d, 0xf5, 0x3c, 0x90, 0x83, 0xa1, 0x3d,
  0x3e, 0xfe, 0xff, 0xff, 0x04, 0x00, 0x00, 0x00, 0x00, 0x01, 0x00, 0x00,
  0x52, 0x40, 0xfd, 0x3d, 0xa6, 0x5e, 0xed, 0xbc, 0x58, 0x41, 0x9a, 0xbc,
  0x25, 0x21, 0x08, 0x3e, 0x9c, 0x13, 0x74, 0x3c, 0x87, 0x26, 0x52, 0xbc,
  0x1c, 0xc0, 0xea, 0x3c, 0xd0, 0x03, 0x06, 0x3d, 0x75, 0xd1, 0x9e, 0xbc,
  0xd5, 0xd1, 0xce, 0xbb, 0x1d, 0xd5, 0x68, 0x3c, 0x7b, 0x00, 0xcf, 0x3d,
  0x11, 0xc8, 0xfe, 0x3c, 0xd4, 0x7a, 0xe5, 0x3d, 0x75, 0xec, 0xaf, 0xba,
  0x0f, 0x57, 0xa2, 0x3d, 0xef, 0x3c, 0x9a, 0x3c, 0x88, 0xa5, 0x51, 0x3d,
  0x04, 0xfd, 0x2f, 0x3e, 0xcd, 0x36, 0x64, 0x38, 0xd0, 0x36, 0xc8, 0x3d,
  0x97, 0x50, 0x4b, 0xbd, 0x35, 0x2b, 0x7c, 0xba, 0x1b, 0xb4, 0xf1, 0x3d,
  0xc6, 0x16, 0xa5, 0x3d, 0x1d, 0x1c, 0x0a, 0x3e, 0x06, 0x44, 0x19, 0x3e,
  0x29, 0x34, 0x03, 0xbd, 0x08, 0xbf, 0xbe, 0xbd, 0x77, 0x91, 0xd3, 0xbc,
  0x4e, 0x68, 0x9e, 0x3d, 0x27, 0xa9, 0x12, 0x3e, 0xf3, 0x71, 0x48, 0x3d,
  0x00, 0x00, 0x00, 0x00, 0x67, 0x12, 0x85, 0xbd, 0xb6, 0xb9, 0x4e, 0xbd,
  0xcc, 0x00, 0xfd, 0x3d, 0x1a, 0xdc, 0xb9, 0x3c, 0x23, 0x0e, 0xd1, 0xbb,
  0x74, 0x6d, 0x21, 0x3c, 0x00, 0x00, 0x00, 0x00, 0x5e, 0x6b, 0x79, 0xbd,
  0x08, 0xf1, 0x78, 0xbd, 0x44, 0x67, 0x10, 0xbc, 0xb1, 0x5c, 0xbc, 0x3d,
  0x04, 0xab, 0xc1, 0x3d, 0x06, 0xd2, 0x08, 0x3d, 0xf3, 0x12, 0xf8, 0xbb,
  0x53, 0xfc, 0x36, 0x3d, 0xc5, 0xb9, 0xf9, 0x3d, 0x64, 0x66, 0xb3, 0x3d,
  0xb3, 0xb9, 0x10, 0x3e, 0x27, 0x50, 0x13, 0x3e, 0xca, 0x9a, 0x3b, 0xbc,
  0xed, 0xf1, 0x1d, 0xbd, 0xdf, 0xc5, 0x10, 0x3e, 0x00, 0x00, 0x00, 0x00,
  0xad, 0xf1, 0xe0, 0xbc, 0x5d, 0x1e, 0xc1, 0x3c, 0xd9, 0x01, 0xc4, 0x3d,
  0xfc, 0x99, 0x2d, 0x3d, 0x00, 0x00, 0x00, 0x00, 0x1b, 0x31, 0xe7, 0x3d,
  0x00, 0x00, 0x00, 0x00, 0x4a, 0xff, 0xff, 0xff, 0x04, 0x00, 0x00, 0x00,
  0x14, 0x00, 0x00, 0x00, 0xe8, 0x0c, 0x35, 0xbe, 0xb6, 0xcb, 0x9f, 0xbe,
  0xa3, 0x99, 0x01, 0xbe, 0x27, 0xc7, 0x7b, 0xbd, 0x1f, 0xea, 0xbb, 0x3c,
  0x40, 0xfa, 0xff, 0xff, 0x44, 0xfa, 0xff, 0xff, 0x0f, 0x00, 0x00, 0x00,
  0x4d, 0x4c, 0x49, 0x52, 0x20, 0x43, 0x6f, 0x6e, 0x76, 0x65, 0x72, 0x74,
  0x65, 0x64, 0x2e, 0x00, 0x01, 0x00, 0x00, 0x00, 0x14, 0x00, 0x00, 0x00,
  0x00, 0x00, 0x0e, 0x00, 0x18, 0x00, 0x14, 0x00, 0x10, 0x00, 0x0c, 0x00,
  0x08, 0x00, 0x04, 0x00, 0x0e, 0x00, 0x00, 0x00, 0x14, 0x00, 0x00, 0x00,
  0x1c, 0x00, 0x00, 0x00, 0x24, 0x01, 0x00, 0x00, 0x28, 0x01, 0x00, 0x00,
  0x2c, 0x01, 0x00, 0x00, 0x04, 0x00, 0x00, 0x00, 0x6d, 0x61, 0x69, 0x6e,
  0x00, 0x00, 0x00, 0x00, 0x04, 0x00, 0x00, 0x00, 0xcc, 0x00, 0x00, 0x00,
  0x84, 0x00, 0x00, 0x00, 0x50, 0x00, 0x00, 0x00, 0x14, 0x00, 0x00, 0x00,
  0x00, 0x00, 0x0e, 0x00, 0x1a, 0x00, 0x14, 0x00, 0x10, 0x00, 0x0c, 0x00,
  0x0b, 0x00, 0x04, 0x00, 0x0e, 0x00, 0x00, 0x00, 0x1c, 0x00, 0x00, 0x00,
  0x00, 0x00, 0x00, 0x09, 0x1c, 0x00, 0x00, 0x00, 0x20, 0x00, 0x00, 0x00,
  0x01, 0x00, 0x00, 0x00, 0x00, 0x00, 0x06, 0x00, 0x08, 0x00, 0x04, 0x00,
  0x06, 0x00, 0x00, 0x00, 0x00, 0x00, 0x80, 0x3f, 0x01, 0x00, 0x00, 0x00,
  0x0a, 0x00, 0x00, 0x00, 0x01, 0x00, 0x00, 0x00, 0x09, 0x00, 0x00, 0x00,
  0x9a, 0xff, 0xff, 0xff, 0x10, 0x00, 0x00, 0x00, 0x00, 0x00, 0x00, 0x08,
  0x0c, 0x00, 0x00, 0x00, 0x10, 0x00, 0x00, 0x00, 0x08, 0xfb, 0xff, 0xff,
  0x01, 0x00, 0x00, 0x00, 0x09, 0x00, 0x00, 0x00, 0x03, 0x00, 0x00, 0x00,
  0x08, 0x00, 0x00, 0x00, 0x06, 0x00, 0x00, 0x00, 0x01, 0x00, 0x00, 0x00,
  0xca, 0xff, 0xff, 0xff, 0x10, 0x00, 0x00, 0x00, 0x00, 0x00, 0x00, 0x08,
  0x10, 0x00, 0x00, 0x00, 0x14, 0x00, 0x00, 0x00, 0xba, 0xff, 0xff, 0xff,
  0x00, 0x00, 0x00, 0x01, 0x01, 0x00, 0x00, 0x00, 0x08, 0x00, 0x00, 0x00,
  0x03, 0x00, 0x00, 0x00, 0x07, 0x00, 0x00, 0x00, 0x05, 0x00, 0x00, 0x00,
  0x02, 0x00, 0x00, 0x00, 0x00, 0x00, 0x0e, 0x00, 0x16, 0x00, 0x00, 0x00,
  0x10, 0x00, 0x0c, 0x00, 0x0b, 0x00, 0x04, 0x00, 0x0e, 0x00, 0x00, 0x00,
  0x18, 0x00, 0x00, 0x00, 0x00, 0x00, 0x00, 0x08, 0x18, 0x00, 0x00, 0x00,
  0x1c, 0x00, 0x00, 0x00, 0x00, 0x00, 0x06, 0x00, 0x08, 0x00, 0x07, 0x00,
  0x06, 0x00, 0x00, 0x00, 0x00, 0x00, 0x00, 0x01, 0x01, 0x00, 0x00, 0x00,
  0x07, 0x00, 0x00, 0x00, 0x03, 0x00, 0x00, 0x00, 0x00, 0x00, 0x00, 0x00,
  0x04, 0x00, 0x00, 0x00, 0x03, 0x00, 0x00, 0x00, 0x01, 0x00, 0x00, 0x00,
  0x0a, 0x00, 0x00, 0x00, 0x01, 0x00, 0x00, 0x00, 0x00, 0x00, 0x00, 0x00,
  0x0b, 0x00, 0x00, 0x00, 0x20, 0x04, 0x00, 0x00, 0xb0, 0x03, 0x00, 0x00,
  0x40, 0x03, 0x00, 0x00, 0xe8, 0x02, 0x00, 0x00, 0x9c, 0x02, 0x00, 0x00,
  0x50, 0x02, 0x00, 0x00, 0x04, 0x02, 0x00, 0x00, 0x70, 0x01, 0x00, 0x00,
  0xdc, 0x00, 0x00, 0x00, 0x60, 0x00, 0x00, 0x00, 0x04, 0x00, 0x00, 0x00,
  0x22, 0xfc, 0xff, 0xff, 0x00, 0x00, 0x00, 0x01, 0x14, 0x00, 0x00, 0x00,
  0x1c, 0x00, 0x00, 0x00, 0x1c, 0x00, 0x00, 0x00, 0x0b, 0x00, 0x00, 0x00,
  0x34, 0x00, 0x00, 0x00, 0x02, 0x00, 0x00, 0x00, 0xff, 0xff, 0xff, 0xff,
  0x05, 0x00, 0x00, 0x00, 0x0c, 0xfc, 0xff, 0xff, 0x19, 0x00, 0x00, 0x00,
  0x53, 0x74, 0x61, 0x74, 0x65, 0x66, 0x75, 0x6c, 0x50, 0x61, 0x72, 0x74,
  0x69, 0x74, 0x69, 0x6f, 0x6e, 0x65, 0x64, 0x43, 0x61, 0x6c, 0x6c, 0x3a,
  0x30, 0x00, 0x00, 0x00, 0x02, 0x00, 0x00, 0x00, 0x01, 0x00, 0x00, 0x00,
  0x05, 0x00, 0x00, 0x00, 0x7a, 0xfc, 0xff, 0xff, 0x00, 0x00, 0x00, 0x01,
  0x14, 0x00, 0x00, 0x00, 0x1c, 0x00, 0x00, 0x00, 0x1c, 0x00, 0x00, 0x00,
  0x0a, 0x00, 0x00, 0x00, 0x54, 0x00, 0x00, 0x00, 0x02, 0x00, 0x00, 0x00,
  0xff, 0xff, 0xff, 0xff, 0x05, 0x00, 0x00, 0x00, 0x64, 0xfc, 0xff, 0xff,
  0x38, 0x00, 0x00, 0x00, 0x73, 0x65, 0x71, 0x75, 0x65, 0x6e, 0x74, 0x69,
  0x61, 0x6c, 0x5f, 0x32, 0x2f, 0x64, 0x65, 0x6e, 0x73, 0x65, 0x5f, 0x38,
  0x2f, 0x4d, 0x61, 0x74, 0x4d, 0x75, 0x6c, 0x3b, 0x73, 0x65, 0x71, 0x75,
  0x65, 0x6e, 0x74, 0x69, 0x61, 0x6c, 0x5f, 0x32, 0x2f, 0x64, 0x65, 0x6e,
  0x73, 0x65, 0x5f, 0x38, 0x2f, 0x42, 0x69, 0x61, 0x73, 0x41, 0x64, 0x64,
  0x00, 0x00, 0x00, 0x00, 0x02, 0x00, 0x00, 0x00, 0x01, 0x00, 0x00, 0x00,
  0x05, 0x00, 0x00, 0x00, 0xf2, 0xfc, 0xff, 0xff, 0x00, 0x00, 0x00, 0x01,
  0x14, 0x00, 0x00, 0x00, 0x1c, 0x00, 0x00, 0x00, 0x1c, 0x00, 0x00, 0x00,
  0x09, 0x00, 0x00, 0x00, 0x6c, 0x00, 0x00, 0x00, 0x02, 0x00, 0x00, 0x00,
  0xff, 0xff, 0xff, 0xff, 0x40, 0x00, 0x00, 0x00, 0xdc, 0xfc, 0xff, 0xff,
  0x52, 0x00, 0x00, 0x00, 0x73, 0x65, 0x71, 0x75, 0x65, 0x6e, 0x74, 0x69,
  0x61, 0x6c, 0x5f, 0x32, 0x2f, 0x64, 0x65, 0x6e, 0x73, 0x65, 0x5f, 0x37,
  0x2f, 0x4d, 0x61, 0x74, 0x4d, 0x75, 0x6c, 0x3b, 0x73, 0x65, 0x71, 0x75,
  0x65, 0x6e, 0x74, 0x69, 0x61, 0x6c, 0x5f, 0x32, 0x2f, 0x64, 0x65, 0x6e,
  0x73, 0x65, 0x5f, 0x37, 0x2f, 0x52, 0x65, 0x6c, 0x75, 0x3b, 0x73, 0x65,
  0x71, 0x75, 0x65, 0x6e, 0x74, 0x69, 0x61, 0x6c, 0x5f, 0x32, 0x2f, 0x64,
  0x65, 0x6e, 0x73, 0x65, 0x5f, 0x37, 0x2f, 0x42, 0x69, 0x61, 0x73, 0x41,
  0x64, 0x64, 0x00, 0x00, 0x02, 0x00, 0x00, 0x00, 0x01, 0x00, 0x00, 0x00,
  0x40, 0x00, 0x00, 0x00, 0x82, 0xfd, 0xff, 0xff, 0x00, 0x00, 0x00, 0x01,
  0x14, 0x00, 0x00, 0x00, 0x1c, 0x00, 0x00, 0x00, 0x1c, 0x00, 0x00, 0x00,
  0x08, 0x00, 0x00, 0x00, 0x6c, 0x00, 0x00, 0x00, 0x02, 0x00, 0x00, 0x00,
  0xff, 0xff, 0xff, 0xff, 0x20, 0x00, 0x00, 0x00, 0x6c, 0xfd, 0xff, 0xff,
  0x52, 0x00, 0x00, 0x00, 0x73, 0x65, 0x71, 0x75, 0x65, 0x6e, 0x74, 0x69,
  0x61, 0x6c, 0x5f, 0x32, 0x2f, 0x64, 0x65, 0x6e, 0x73, 0x65, 0x5f, 0x36,
  0x2f, 0x4d, 0x61, 0x74, 0x4d, 0x75, 0x6c, 0x3b, 0x73, 0x65, 0x71, 0x75,
  0x65, 0x6e, 0x74, 0x69, 0x61, 0x6c, 0x5f, 0x32, 0x2f, 0x64, 0x65, 0x6e,
  0x73, 0x65, 0x5f, 0x36, 0x2f, 0x52, 0x65, 0x6c, 0x75, 0x3b, 0x73, 0x65,
  0x71, 0x75, 0x65, 0x6e, 0x74, 0x69, 0x61, 0x6c, 0x5f, 0x32, 0x2f, 0x64,
  0x65, 0x6e, 0x73, 0x65, 0x5f, 0x36, 0x2f, 0x42, 0x69, 0x61, 0x73, 0x41,
  0x64, 0x64, 0x00, 0x00, 0x02, 0x00, 0x00, 0x00, 0x01, 0x00, 0x00, 0x00,
  0x20, 0x00, 0x00, 0x00, 0x7e, 0xfe, 0xff, 0xff, 0x00, 0x00, 0x00, 0x01,
  0x10, 0x00, 0x00, 0x00, 0x10, 0x00, 0x00, 0x00, 0x07, 0x00, 0x00, 0x00,
  0x28, 0x00, 0x00, 0x00, 0xec, 0xfd, 0xff, 0xff, 0x1b, 0x00, 0x00, 0x00,
  0x73, 0x65, 0x71, 0x75, 0x65, 0x6e, 0x74, 0x69, 0x61, 0x6c, 0x5f, 0x32,
  0x2f, 0x64, 0x65, 0x6e, 0x73, 0x65, 0x5f, 0x38, 0x2f, 0x4d, 0x61, 0x74,
  0x4d, 0x75, 0x6c, 0x00, 0x02, 0x00, 0x00, 0x00, 0x05, 0x00, 0x00, 0x00,
  0x40, 0x00, 0x00, 0x00, 0xc6, 0xfe, 0xff, 0xff, 0x00, 0x00, 0x00, 0x01,
  0x10, 0x00, 0x00, 0x00, 0x10, 0x00, 0x00, 0x00, 0x06, 0x00, 0x00, 0x00,
  0x28, 0x00, 0x00, 0x00, 0x34, 0xfe, 0xff, 0xff, 0x1b, 0x00, 0x00, 0x00,
  0x73, 0x65, 0x71, 0x75, 0x65, 0x6e, 0x74, 0x69, 0x61, 0x6c, 0x5f, 0x32,
  0x2f, 0x64, 0x65, 0x6e, 0x73, 0x65, 0x5f, 0x37, 0x2f, 0x4d, 0x61, 0x74,
  0x4d, 0x75, 0x6c, 0x00, 0x02, 0x00, 0x00, 0x00, 0x40, 0x00, 0x00, 0x00,
  0x20, 0x00, 0x00, 0x00, 0x0e, 0xff, 0xff, 0xff, 0x00, 0x00, 0x00, 0x01,
  0x10, 0x00, 0x00, 0x00, 0x10, 0x00, 0x00, 0x00, 0x05, 0x00, 0x00, 0x00,
  0x28, 0x00, 0x00, 0x00, 0x7c, 0xfe, 0xff, 0xff, 0x1b, 0x00, 0x00, 0x00,
  0x73, 0x65, 0x71, 0x75, 0x65, 0x6e, 0x74, 0x69, 0x61, 0x6c, 0x5f, 0x32,
  0x2f, 0x64, 0x65, 0x6e, 0x73, 0x65, 0x5f, 0x36, 0x2f, 0x4d, 0x61, 0x74,
  0x4d, 0x75, 0x6c, 0x00, 0x02, 0x00, 0x00, 0x00, 0x20, 0x00, 0x00, 0x00,
  0x08, 0x00, 0x00, 0x00, 0x56, 0xff, 0xff, 0xff, 0x00, 0x00, 0x00, 0x01,
  0x10, 0x00, 0x00, 0x00, 0x10, 0x00, 0x00, 0x00, 0x04, 0x00, 0x00, 0x00,
  0x38, 0x00, 0x00, 0x00, 0xc4, 0xfe, 0xff, 0xff, 0x2b, 0x00, 0x00, 0x00,
  0x73, 0x65, 0x71, 0x75, 0x65, 0x6e, 0x74, 0x69, 0x61, 0x6c, 0x5f, 0x32,
  0x2f, 0x64, 0x65, 0x6e, 0x73, 0x65, 0x5f, 0x36, 0x2f, 0x42, 0x69, 0x61,
  0x73, 0x41, 0x64, 0x64, 0x2f, 0x52, 0x65, 0x61, 0x64, 0x56, 0x61, 0x72,
  0x69, 0x61, 0x62, 0x6c, 0x65, 0x4f, 0x70, 0x00, 0x01, 0x00, 0x00, 0x00,
  0x20, 0x00, 0x00, 0x00, 0xaa, 0xff, 0xff, 0xff, 0x00, 0x00, 0x00, 0x01,
  0x10, 0x00, 0x00, 0x00, 0x10, 0x00, 0x00, 0x00, 0x03, 0x00, 0x00, 0x00,
  0x38, 0x00, 0x00, 0x00, 0x18, 0xff, 0xff, 0xff, 0x2b, 0x00, 0x00, 0x00,
  0x73, 0x65, 0x71, 0x75, 0x65, 0x6e, 0x74, 0x69, 0x61, 0x6c, 0x5f, 0x32,
  0x2f, 0x64, 0x65, 0x6e, 0x73, 0x65, 0x5f, 0x37, 0x2f, 0x42, 0x69, 0x61,
  0x73, 0x41, 0x64, 0x64, 0x2f, 0x52, 0x65, 0x61, 0x64, 0x56, 0x61, 0x72,
  0x69, 0x61, 0x62, 0x6c, 0x65, 0x4f, 0x70, 0x00, 0x01, 0x00, 0x00, 0x00,
  0x40, 0x00, 0x00, 0x00, 0x00, 0x00, 0x16, 0x00, 0x18, 0x00, 0x14, 0x00,
  0x00, 0x00, 0x10, 0x00, 0x0c, 0x00, 0x08, 0x00, 0x00, 0x00, 0x00, 0x00,
  0x00, 0x00, 0x07, 0x00, 0x16, 0x00, 0x00, 0x00, 0x00, 0x00, 0x00, 0x01,
  0x10, 0x00, 0x00, 0x00, 0x10, 0x00, 0x00, 0x00, 0x02, 0x00, 0x00, 0x00,
  0x38, 0x00, 0x00, 0x00, 0x84, 0xff, 0xff, 0xff, 0x2b, 0x00, 0x00, 0x00,
  0x73, 0x65, 0x71, 0x75, 0x65, 0x6e, 0x74, 0x69, 0x61, 0x6c, 0x5f, 0x32,
  0x2f, 0x64, 0x65, 0x6e, 0x73, 0x65, 0x5f, 0x38, 0x2f, 0x42, 0x69, 0x61,
  0x73, 0x41, 0x64, 0x64, 0x2f, 0x52, 0x65, 0x61, 0x64, 0x56, 0x61, 0x72,
  0x69, 0x61, 0x62, 0x6c, 0x65, 0x4f, 0x70, 0x00, 0x01, 0x00, 0x00, 0x00,
  0x05, 0x00, 0x00, 0x00, 0x00, 0x00, 0x16, 0x00, 0x1c, 0x00, 0x18, 0x00,
  0x00, 0x00, 0x14, 0x00, 0x10, 0x00, 0x0c, 0x00, 0x00, 0x00, 0x00, 0x00,
  0x08, 0x00, 0x07, 0x00, 0x16, 0x00, 0x00, 0x00, 0x00, 0x00, 0x00, 0x01,
  0x14, 0x00, 0x00, 0x00, 0x20, 0x00, 0x00, 0x00, 0x20, 0x00, 0x00, 0x00,
  0x01, 0x00, 0x00, 0x00, 0x3c, 0x00, 0x00, 0x00, 0x02, 0x00, 0x00, 0x00,
  0xff, 0xff, 0xff, 0xff, 0x08, 0x00, 0x00, 0x00, 0x04, 0x00, 0x04, 0x00,
  0x04, 0x00, 0x00, 0x00, 0x1f, 0x00, 0x00, 0x00, 0x73, 0x65, 0x72, 0x76,
  0x69, 0x6e, 0x67, 0x5f, 0x64, 0x65, 0x66, 0x61, 0x75, 0x6c, 0x74, 0x5f,
  0x64, 0x65, 0x6e, 0x73, 0x65, 0x5f, 0x36, 0x5f, 0x69, 0x6e, 0x70, 0x75,
  0x74, 0x3a, 0x30, 0x00, 0x02, 0x00, 0x00, 0x00, 0x01, 0x00, 0x00, 0x00,
  0x08, 0x00, 0x00, 0x00, 0x02, 0x00, 0x00, 0x00, 0x20, 0x00, 0x00, 0x00,
  0x04, 0x00, 0x00, 0x00, 0xf4, 0xff, 0xff, 0xff, 0x19, 0x00, 0x00, 0x00,
  0x00, 0x00, 0x00, 0x19, 0x0c, 0x00, 0x0c, 0x00, 0x0b, 0x00, 0x00, 0x00,
  0x00, 0x00, 0x04, 0x00, 0x0c, 0x00, 0x00, 0x00, 0x09, 0x00, 0x00, 0x00,
  0x00, 0x00, 0x00, 0x09
};
