const unsigned char model[] = {
  0x1c, 0x00, 0x00, 0x00, 0x54, 0x46, 0x4c, 0x33, 0x14, 0x00, 0x20, 0x00,
  0x1c, 0x00, 0x18, 0x00, 0x14, 0x00, 0x10, 0x00, 0x0c, 0x00, 0x00, 0x00,
  0x08, 0x00, 0x04, 0x00, 0x14, 0x00, 0x00, 0x00, 0x1c, 0x00, 0x00, 0x00,
  0x90, 0x00, 0x00, 0x00, 0xe8, 0x00, 0x00, 0x00, 0x90, 0x2c, 0x00, 0x00,
  0xa0, 0x2c, 0x00, 0x00, 0x5c, 0x32, 0x00, 0x00, 0x03, 0x00, 0x00, 0x00,
  0x01, 0x00, 0x00, 0x00, 0x10, 0x00, 0x00, 0x00, 0x00, 0x00, 0x0a, 0x00,
  0x10, 0x00, 0x0c, 0x00, 0x08, 0x00, 0x04, 0x00, 0x0a, 0x00, 0x00, 0x00,
  0x0c, 0x00, 0x00, 0x00, 0x1c, 0x00, 0x00, 0x00, 0x38, 0x00, 0x00, 0x00,
  0x0f, 0x00, 0x00, 0x00, 0x73, 0x65, 0x72, 0x76, 0x69, 0x6e, 0x67, 0x5f,
  0x64, 0x65, 0x66, 0x61, 0x75, 0x6c, 0x74, 0x00, 0x01, 0x00, 0x00, 0x00,
  0x04, 0x00, 0x00, 0x00, 0x98, 0xff, 0xff, 0xff, 0x0a, 0x00, 0x00, 0x00,
  0x04, 0x00, 0x00, 0x00, 0x07, 0x00, 0x00, 0x00, 0x64, 0x65, 0x6e, 0x73,
  0x65, 0x5f, 0x32, 0x00, 0x01, 0x00, 0x00, 0x00, 0x04, 0x00, 0x00, 0x00,
  0x52, 0xd3, 0xff, 0xff, 0x04, 0x00, 0x00, 0x00, 0x0b, 0x00, 0x00, 0x00,
  0x64, 0x65, 0x6e, 0x73, 0x65, 0x5f, 0x69, 0x6e, 0x70, 0x75, 0x74, 0x00,
  0x02, 0x00, 0x00, 0x00, 0x34, 0x00, 0x00, 0x00, 0x04, 0x00, 0x00, 0x00,
  0xdc, 0xff, 0xff, 0xff, 0x0d, 0x00, 0x00, 0x00, 0x04, 0x00, 0x00, 0x00,
  0x13, 0x00, 0x00, 0x00, 0x43, 0x4f, 0x4e, 0x56, 0x45, 0x52, 0x53, 0x49,
  0x4f, 0x4e, 0x5f, 0x4d, 0x45, 0x54, 0x41, 0x44, 0x41, 0x54, 0x41, 0x00,
  0x08, 0x00, 0x0c, 0x00, 0x08, 0x00, 0x04, 0x00, 0x08, 0x00, 0x00, 0x00,
  0x0c, 0x00, 0x00, 0x00, 0x04, 0x00, 0x00, 0x00, 0x13, 0x00, 0x00, 0x00,
  0x6d, 0x69, 0x6e, 0x5f, 0x72, 0x75, 0x6e, 0x74, 0x69, 0x6d, 0x65, 0x5f,
  0x76, 0x65, 0x72, 0x73, 0x69, 0x6f, 0x6e, 0x00, 0x0e, 0x00, 0x00, 0x00,
  0xa4, 0x2b, 0x00, 0x00, 0x9c, 0x2b, 0x00, 0x00, 0x8c, 0x2a, 0x00, 0x00,
  0x68, 0x2a, 0x00, 0x00, 0xd8, 0x29, 0x00, 0x00, 0xc8, 0x25, 0x00, 0x00,
  0xb8, 0x05, 0x00, 0x00, 0xa8, 0x00, 0x00, 0x00, 0xa0, 0x00, 0x00, 0x00,
  0x98, 0x00, 0x00, 0x00, 0x90, 0x00, 0x00, 0x00, 0x88, 0x00, 0x00, 0x00,
  0x68, 0x00, 0x00, 0x00, 0x04, 0x00, 0x00, 0x00, 0x02, 0xd4, 0xff, 0xff,
  0x04, 0x00, 0x00, 0x00, 0x54, 0x00, 0x00, 0x00, 0x0c, 0x00, 0x00, 0x00,
  0x08, 0x00, 0x0e, 0x00, 0x08, 0x00, 0x04, 0x00, 0x08, 0x00, 0x00, 0x00,
  0x10, 0x00, 0x00, 0x00, 0x24, 0x00, 0x00, 0x00, 0x00, 0x00, 0x06, 0x00,
  0x08, 0x00, 0x04, 0x00, 0x06, 0x00, 0x00, 0x00, 0x04, 0x00, 0x00, 0x00,
  0x00, 0x00, 0x00, 0x00, 0x00, 0x00, 0x0a, 0x00, 0x10, 0x00, 0x0c, 0x00,
  0x08, 0x00, 0x04, 0x00, 0x0a, 0x00, 0x00, 0x00, 0x02, 0x00, 0x00, 0x00,
  0x02, 0x00, 0x00, 0x00, 0x04, 0x00, 0x00, 0x00, 0x06, 0x00, 0x00, 0x00,
  0x32, 0x2e, 0x31, 0x35, 0x2e, 0x30, 0x00, 0x00, 0x62, 0xd4, 0xff, 0xff,
  0x04, 0x00, 0x00, 0x00, 0x10, 0x00, 0x00, 0x00, 0x31, 0x2e, 0x35, 0x2e,
  0x30, 0x00, 0x00, 0x00, 0x00, 0x00, 0x00, 0x00, 0x00, 0x00, 0x00, 0x00,
  0x70, 0xcf, 0xff, 0xff, 0x74, 0xcf, 0xff, 0xff, 0x78, 0xcf, 0xff, 0xff,
  0x7c, 0xcf, 0xff, 0xff, 0x8e, 0xd4, 0xff, 0xff, 0x04, 0x00, 0x00, 0x00,
  0x00, 0x05, 0x00, 0x00, 0x0e, 0x12, 0x63, 0x3e, 0xf7, 0xa6, 0x08, 0x3e,
  0xe7, 0x13, 0x47, 0xbe, 0xb2, 0xda, 0x19, 0x3e, 0x7a, 0xe6, 0x84, 0xbe,
  0x76, 0x86, 0x47, 0xbf, 0xab, 0x3e, 0x87, 0xbe, 0x15, 0xf9, 0x0e, 0x3e,
  0x28, 0xe7, 0x84, 0xbf, 0xc5, 0x29, 0x76, 0x3e, 0x75, 0x3f, 0x3a, 0x3e,
  0x1d, 0x6a, 0x8c, 0x3e, 0x2f, 0x0a, 0xb2, 0x3e, 0x8e, 0x3f, 0x02, 0xbf,
  0x4e, 0x7e, 0x85, 0xbe, 0xb5, 0x3a, 0xed, 0xbe, 0x44, 0x81, 0xe7, 0x3e,
  0xea, 0xec, 0x08, 0xbf, 0x25, 0x95, 0x0c, 0x3f, 0xe7, 0x05, 0xc9, 0x3e,
  0xce, 0x12, 0x01, 0x3f, 0xf7, 0x3e, 0x50, 0xbe, 0xc6, 0x32, 0x0e, 0xbf,
  0xb7, 0xd4, 0x47, 0x3c, 0x11, 0x00, 0x96, 0xbe, 0x6f, 0x84, 0x30, 0x3f,
  0x35, 0x7c, 0xea, 0xbe, 0x54, 0x5b, 0x4d, 0xbf, 0x7b, 0x1e, 0x0b, 0xbf,
  0x28, 0x90, 0x11, 0x3f, 0xc2, 0x41, 0x3f, 0x3d, 0x89, 0xc5, 0x76, 0x3e,
  0x5f, 0x52, 0xc7, 0x3d, 0xb7, 0xbe, 0x66, 0x3e, 0x00, 0x13, 0x88, 0xbe,
  0x23, 0xb9, 0xa5, 0x3d, 0x83, 0x34, 0x91, 0x3e, 0x67, 0x2e, 0xfb, 0xbe,
  0xb8, 0x0a, 0x21, 0x3d, 0xe7, 0x33, 0xb8, 0xbe, 0x10, 0x7f, 0x49, 0x3e,
  0x9d, 0x74, 0xeb, 0x3e, 0x5d, 0xb0, 0xbc, 0xbe, 0x6f, 0x22, 0xe8, 0xbc,
  0x48, 0xc1, 0x5d, 0x3d, 0xcf, 0xad, 0x97, 0x3c, 0x51, 0xdd, 0xba, 0x3c,
  0x6d, 0xd2, 0xad, 0xbe, 0x7d, 0x3f, 0x27, 0xbf, 0xe1, 0x75, 0x6d, 0x3d,
  0xd9, 0xea, 0x89, 0x3d, 0xf4, 0xa1, 0x0f, 0xbf, 0xf6, 0xcf, 0x7b, 0xbe,
  0xdf, 0xcd, 0x0b, 0xbd, 0xfc, 0xa3, 0x1a, 0xbe, 0xb5, 0x35, 0x86, 0xbe,
  0x7c, 0x23, 0xab, 0x3c, 0x15, 0x1a, 0x9a, 0x3e, 0xee, 0xeb, 0xf6, 0x3d,
  0x48, 0x17, 0xd5, 0x3e, 0x56, 0x3f, 0x8e, 0x3e, 0x01, 0x86, 0x04, 0xbe,
  0x9f, 0x20, 0x7e, 0xbe, 0x86, 0x28, 0xad, 0x3e, 0xd1, 0xdd, 0x2a, 0xbf,
  0x26, 0x60, 0x73, 0xbd, 0xeb, 0xdb, 0xc7, 0x3e, 0x60, 0x7f, 0x69, 0xbf,
  0xe5, 0x5f, 0x85, 0x3d, 0x69, 0x00, 0x9a, 0xbe, 0xa7, 0xdd, 0x3b, 0xbf,
  0xf4, 0xc4, 0xff, 0x3d, 0x81, 0xcf, 0xaa, 0xbe, 0xc6, 0x33, 0x32, 0xbf,
  0xc3, 0x9f, 0xb2, 0x3e, 0xb2, 0x71, 0x09, 0xbf, 0x8e, 0x6c, 0x8c, 0xbe,
  0x82, 0x10, 0x34, 0x3e, 0x5b, 0x11, 0xa0, 0xbe, 0x53, 0xa4, 0x2a, 0xbb,
  0xc2, 0x0b, 0x5c, 0xbd, 0xc4, 0xd0, 0x21, 0x3c, 0xa0, 0xc5, 0x11, 0xbf,
  0xea, 0x7e, 0x80, 0x3e, 0xd9, 0x83, 0x8d, 0xbe, 0x7f, 0xa3, 0xe3, 0x3d,
  0xe4, 0xa4, 0x26, 0xbe, 0xeb, 0xff, 0x14, 0xbe, 0x4c, 0x08, 0x19, 0xbd,
  0xb1, 0x08, 0xad, 0xbe, 0xc5, 0xf3, 0x1c, 0xbf, 0x80, 0x10, 0xaf, 0xbc,
  0x20, 0x76, 0x82, 0x3d, 0x31, 0x9d, 0x18, 0xbe, 0xcc, 0x7a, 0x89, 0xbd,
  0x25, 0xc3, 0x45, 0x3e, 0x0a, 0x27, 0x38, 0x3e, 0xa6, 0xf3, 0x40, 0x3e,
  0x12, 0xf4, 0x5a, 0x3d, 0xfb, 0x7e, 0x6f, 0xbe, 0x2f, 0x1d, 0xbb, 0xbd,
  0x02, 0x3a, 0x1e, 0x3e, 0x07, 0x0d, 0x4f, 0xbd, 0xbe, 0x68, 0xc3, 0x3c,
  0xcc, 0xd9, 0xe8, 0xbe, 0xa8, 0xa8, 0x09, 0xbf, 0xc7, 0xf4, 0x53, 0x3e,
  0xf1, 0xec, 0xb8, 0x3d, 0xe3, 0x50, 0x68, 0xbe, 0x8c, 0xda, 0x71, 0xbf,
  0x8d, 0xe5, 0xd3, 0x3d, 0xcb, 0x50, 0x9f, 0xbd, 0xa3, 0xde, 0x65, 0x3e,
  0xde, 0xb3, 0xb5, 0x3d, 0x97, 0xae, 0x7b, 0x3e, 0xb0, 0xd7, 0xf6, 0xbe,
  0xc0, 0xa8, 0xa8, 0x3e, 0xf9, 0x5b, 0x76, 0x3e, 0x0f, 0xa1, 0x5d, 0xbe,
  0x40, 0xfb, 0xf9, 0x3c, 0x6f, 0xa5, 0x78, 0x3e, 0x36, 0x31, 0xd0, 0xbe,
  0xad, 0x1d, 0x09, 0x3d, 0x91, 0x15, 0x4e, 0xbd, 0xd9, 0x7d, 0x2d, 0x3e,
  0xb8, 0x45, 0xb4, 0xbe, 0x29, 0x12, 0x96, 0xbe, 0x65, 0x3a, 0x3c, 0xbf,
  0x36, 0x68, 0x06, 0x3f, 0xd3, 0xff, 0x21, 0x3e, 0x87, 0x45, 0x4d, 0xbf,
  0x6a, 0xfc, 0x20, 0xbf, 0x8d, 0x97, 0x31, 0xbf, 0x10, 0xde, 0xd0, 0x3e,
  0x4c, 0x94, 0xe0, 0xbe, 0x88, 0x54, 0x0d, 0xbd, 0x40, 0x03, 0x9c, 0x3e,
  0x5a, 0x87, 0x3d, 0xbe, 0x79, 0x75, 0x05, 0xbf, 0x9a, 0x74, 0x9e, 0x3e,
  0xb3, 0x6f, 0xd4, 0xbe, 0xbc, 0x8e, 0x67, 0xbe, 0xbc, 0x06, 0x56, 0xbe,
  0xd1, 0x5c, 0x93, 0x3d, 0x96, 0xc5, 0x35, 0xbd, 0x22, 0xb5, 0x13, 0xbd,
  0x2d, 0xba, 0x04, 0xbe, 0x53, 0xcc, 0xcb, 0xbe, 0x12, 0x79, 0x03, 0xbe,
  0x01, 0x86, 0x74, 0x3e, 0xab, 0xa6, 0x7b, 0x3d, 0x5c, 0xeb, 0x20, 0xbf,
  0xe2, 0xb6, 0x09, 0xbf, 0x88, 0xf4, 0xe0, 0xbd, 0x45, 0x9e, 0x68, 0xbd,
  0x31, 0x79, 0x7d, 0x3e, 0x24, 0x57, 0x8f, 0x3e, 0xc6, 0x06, 0x16, 0x3d,
  0xa7, 0x97, 0x1c, 0xbf, 0x1a, 0xea, 0x8d, 0x3d, 0x1a, 0x62, 0x52, 0xbf,
  0x24, 0x8a, 0xcf, 0xbe, 0x26, 0x45, 0x60, 0x3d, 0xb4, 0x06, 0x01, 0xbe,
  0x89, 0xa4, 0x16, 0xbf, 0xc8, 0xa5, 0xf2, 0xbe, 0x81, 0xcb, 0xff, 0xbe,
  0xa7, 0xa6, 0xf0, 0xbe, 0x41, 0xfc, 0xaa, 0x3e, 0x9e, 0xfb, 0x07, 0xbf,
  0x5c, 0x95, 0x16, 0x3e, 0xe5, 0x9b, 0x5c, 0x3c, 0xb8, 0x3d, 0x43, 0x3d,
  0xc0, 0x88, 0x34, 0x3e, 0xf7, 0x44, 0x98, 0xbe, 0x35, 0x2d, 0xb2, 0xbe,
  0xd5, 0x2a, 0xa0, 0xbe, 0x27, 0xd7, 0xb6, 0xbe, 0x69, 0x08, 0xc7, 0x3d,
  0x4e, 0xb2, 0xe2, 0x3e, 0xd2, 0x47, 0x9f, 0xbc, 0x55, 0x4b, 0x33, 0xbe,
  0x7b, 0xc2, 0x82, 0x3e, 0xba, 0xbe, 0x86, 0xbe, 0x2e, 0xd7, 0xae, 0xbe,
  0x27, 0x4d, 0x45, 0xbd, 0x3b, 0x42, 0x90, 0x3e, 0x1d, 0x5a, 0xde, 0xbb,
  0xd3, 0x39, 0x21, 0xbf, 0xf1, 0x68, 0xe6, 0x3e, 0x05, 0xa7, 0x54, 0x3b,
  0x1d, 0x27, 0xa1, 0xbe, 0x8b, 0x52, 0xe2, 0xbe, 0xe8, 0x74, 0x3d, 0xbf,
  0x3e, 0x45, 0xfc, 0xbe, 0x8d, 0xbc, 0x43, 0x3e, 0xe6, 0x8f, 0x8a, 0x3e,
  0xb7, 0x67, 0x02, 0xbe, 0x4c, 0x0f, 0x35, 0x3d, 0x42, 0xeb, 0xfb, 0x3d,
  0x71, 0xd5, 0x74, 0x3e, 0x5e, 0x98, 0xe8, 0x3e, 0xf9, 0xeb, 0x23, 0xbf,
  0x91, 0xff, 0xc0, 0xbd, 0x9a, 0x65, 0xf8, 0xbe, 0x5a, 0xac, 0x0e, 0xbe,
  0xca, 0x26, 0x0c, 0x3e, 0xbd, 0x72, 0x27, 0xbf, 0x02, 0x94, 0xd7, 0x3c,
  0x9c, 0xbe, 0xb0, 0x3d, 0xfd, 0x9a, 0x1c, 0xbf, 0x4f, 0x86, 0x51, 0xbf,
  0x5b, 0x2c, 0xc0, 0xbd, 0x5c, 0x50, 0xfb, 0x3d, 0xaf, 0xc9, 0x1b, 0x3e,
  0x0c, 0xf1, 0x0d, 0x3d, 0xa7, 0x83, 0x8c, 0x3d, 0xbe, 0xfb, 0xc7, 0xbe,
  0xa7, 0xeb, 0x6d, 0x3e, 0x99, 0x33, 0x95, 0xbd, 0x38, 0xf2, 0xce, 0x3d,
  0xd8, 0x87, 0xff, 0xbd, 0x07, 0x63, 0xa0, 0xbe, 0xb9, 0x2a, 0xc3, 0x3d,
  0x59, 0x4e, 0x2d, 0xbb, 0x2f, 0x22, 0xe9, 0x3d, 0xf0, 0xe3, 0x0a, 0xbe,
  0x91, 0xaa, 0x2f, 0x3c, 0x13, 0x90, 0x88, 0x3d, 0xc2, 0x13, 0x02, 0x3e,
  0x95, 0xb0, 0xb8, 0x3e, 0x24, 0xf2, 0xcc, 0x3e, 0x72, 0x46, 0x88, 0x3d,
  0x58, 0x81, 0x8c, 0xbe, 0xd9, 0xd3, 0xc1, 0xbd, 0x60, 0x41, 0xcd, 0xbe,
  0x62, 0xff, 0x81, 0x3e, 0x53, 0x98, 0xb7, 0xbd, 0x2a, 0x0e, 0xf8, 0xbe,
  0x85, 0xa9, 0x98, 0x3e, 0xc7, 0xfc, 0x03, 0x3e, 0xd3, 0x2e, 0x4d, 0x3e,
  0xae, 0xdc, 0x41, 0x3d, 0xf4, 0x22, 0x09, 0x3d, 0x74, 0xde, 0x2b, 0xbf,
  0x43, 0x84, 0x48, 0xbf, 0x20, 0xb6, 0x77, 0x3e, 0x40, 0x4d, 0xda, 0xbb,
  0xf0, 0xc5, 0xce, 0x3d, 0x47, 0x15, 0x90, 0xbe, 0x9e, 0x2a, 0xd5, 0xbe,
  0x82, 0x6c, 0xdf, 0xbe, 0x79, 0xb1, 0x96, 0x3c, 0x4d, 0x92, 0x15, 0xbf,
  0x0b, 0x6c, 0xb6, 0xbc, 0x9b, 0x6e, 0x3e, 0x3f, 0x70, 0xbc, 0x44, 0x3d,
  0xfb, 0x92, 0x24, 0xbf, 0x53, 0x27, 0xe4, 0x3e, 0x0f, 0xf6, 0x91, 0x3d,
  0x86, 0x79, 0x98, 0xbe, 0xd3, 0xf4, 0xfd, 0xbe, 0xfc, 0xcf, 0xd2, 0x3e,
  0xe4, 0x8f, 0x74, 0xbe, 0x1d, 0x1e, 0x0c, 0xbf, 0xe5, 0x83, 0xa1, 0x3e,
  0xae, 0x85, 0xb0, 0xbe, 0x7d, 0x20, 0x98, 0xbc, 0xe6, 0xcc, 0xc4, 0x3e,
  0xb4, 0x54, 0xa0, 0xbd, 0x21, 0xbf, 0x61, 0x3c, 0x22, 0x4a, 0x14, 0x3e,
  0xe8, 0x81, 0xe4, 0xbd, 0x4a, 0x58, 0x14, 0xbf, 0x1e, 0x4c, 0xf1, 0x3d,
  0x48, 0x29, 0x13, 0xbf, 0xe8, 0x18, 0x01, 0xbe, 0x54, 0x51, 0x2d, 0x3e,
  0x35, 0x09, 0x91, 0x3e, 0x52, 0xf5, 0xc7, 0x3d, 0xa7, 0x99, 0x89, 0x3e,
  0x35, 0x0a, 0x5b, 0xbe, 0xf3, 0x2d, 0xb4, 0xbe, 0x01, 0x6b, 0xdb, 0x3d,
  0x91, 0x19, 0xe4, 0xbe, 0xe6, 0xa3, 0x94, 0xbe, 0x5b, 0x4a, 0x46, 0xbf,
  0xbe, 0x52, 0xc5, 0xbe, 0x9b, 0x83, 0xf2, 0xbd, 0x42, 0x26, 0x88, 0xbe,
  0x0d, 0xbe, 0x90, 0x3e, 0x05, 0xcc, 0x11, 0xbf, 0x76, 0xb2, 0x9d, 0xbd,
  0x14, 0xf2, 0xf7, 0xbe, 0x64, 0xfa, 0xcd, 0xbe, 0x20, 0x02, 0x56, 0xbe,
  0xfa, 0x2a, 0x9f, 0x3e, 0xbc, 0x5a, 0x8a, 0xbe, 0xb9, 0xd0, 0x39, 0xbf,
  0x86, 0x89, 0x01, 0xbf, 0x8f, 0x2c, 0x4c, 0xbe, 0xb6, 0xc5, 0xab, 0x3e,
  0x0a, 0x41, 0xf9, 0x3d, 0xbc, 0x2f, 0xbd, 0xbe, 0xa4, 0xa3, 0x61, 0x3e,
  0xef, 0xef, 0x1b, 0x3e, 0xcd, 0x3c, 0xaf, 0x3d, 0xbd, 0xce, 0xdd, 0xbe,
  0x6b, 0x9d, 0x9c, 0xbe, 0x4e, 0x96, 0x12, 0xbf, 0x16, 0x9f, 0xa2, 0x3c,
  0xe0, 0x11, 0x77, 0x3e, 0x63, 0xb0, 0x40, 0xbf, 0x84, 0x92, 0x37, 0x3d,
  0x8f, 0x0b, 0xd8, 0xbe, 0x39, 0x92, 0x84, 0xbe, 0x34, 0x97, 0xf7, 0x3d,
  0x97, 0x38, 0x2f, 0xbf, 0x0d, 0xac, 0x9a, 0xbe, 0xdd, 0x73, 0x8e, 0xbe,
  0x9a, 0xd9, 0xff, 0xff, 0x04, 0x00, 0x00, 0x00, 0x00, 0x20, 0x00, 0x00,
  0xfd, 0x4b, 0xe6, 0x3d, 0x8a, 0x4b, 0xc3, 0x3d, 0x6c, 0x98, 0x59, 0x3e,
  0xb3, 0xfd, 0x6b, 0x3e, 0xb4, 0x2d, 0x51, 0x3e, 0x5c, 0x95, 0x6b, 0xbe,
  0x14, 0x4f, 0x5e, 0xbe, 0x6e, 0xbb, 0x80, 0x3e, 0xcc, 0xa6, 0x22, 0x3e,
  0xa6, 0xe7, 0xcc, 0xbd, 0xab, 0xc3, 0x35, 0x3e, 0x12, 0x25, 0xb8, 0x3e,
  0x08, 0xed, 0xe5, 0x3d, 0x93, 0x88, 0x9d, 0x3e, 0xea, 0xbb, 0x8b, 0xbd,
  0x22, 0x36, 0xcf, 0xbc, 0x98, 0x9c, 0xa5, 0x3d, 0x25, 0xb5, 0xc6, 0x3d,
  0x46, 0xcb, 0xa8, 0x3d, 0x1d, 0x88, 0xce, 0xbd, 0x11, 0x87, 0xbb, 0xbd,
  0x4b, 0x53, 0x7c, 0xbe, 0x4e, 0x33, 0x14, 0xbe, 0x90, 0x9e, 0x67, 0x3d,
  0x4b, 0x56, 0x24, 0x3f, 0xcd, 0x56, 0x91, 0x3c, 0x6c, 0x01, 0xa3, 0x3d,
  0xdc, 0x8a, 0x9a, 0x3e, 0xb6, 0x7d, 0xbc, 0x3d, 0xde, 0x0a, 0x5e, 0x3c,
  0x77, 0xa7, 0xb0, 0x3d, 0xf3, 0xb1, 0x86, 0xbe, 0x8c, 0xa1, 0x21, 0xbe,
  0x14, 0xde, 0x56, 0x3d, 0x72, 0xc6, 0x58, 0x3c, 0x11, 0xa0, 0x01, 0x3f,
  0x9b, 0x5f, 0x93, 0x3e, 0x4c, 0x1b, 0x9f, 0xbd, 0xe3, 0xcf, 0x01, 0x3e,
  0xd5, 0xd8, 0xb2, 0xbe, 0xd4, 0x4d, 0xd1, 0x3d, 0x28, 0xb4, 0xd2, 0x3e,
  0xc6, 0x97, 0x0c, 0xbd, 0xa0, 0x19, 0x33, 0x3e, 0xc0, 0x9d, 0x17, 0xbe,
  0x7c, 0x1a, 0x55, 0x3d, 0xdc, 0x54, 0xae, 0x3e, 0x9d, 0x58, 0x16, 0x3e,
  0x2d, 0x8e, 0xa4, 0x3e, 0xd1, 0xfd, 0x27, 0xbe, 0x22, 0x40, 0x92, 0xbe,
  0xa6, 0x58, 0x51, 0x3c, 0x0a, 0xcb, 0x92, 0x3e, 0x0b, 0x20, 0x33, 0x3e,
  0x9a, 0xfd, 0x82, 0x3e, 0x02, 0xbc, 0xb3, 0xbe, 0x8c, 0x1c, 0x0c, 0x3f,
  0xdb, 0x2f, 0x77, 0x3d, 0xe5, 0xea, 0x5d, 0x3e, 0xae, 0xad, 0xfe, 0x3e,
  0x89, 0x67, 0x7b, 0x3d, 0x10, 0x8f, 0xd1, 0x3e, 0xc2, 0xde, 0xbf, 0x3d,
  0xaf, 0x15, 0x0b, 0x3e, 0x6e, 0xf4, 0x25, 0x3c, 0x37, 0x22, 0x3d, 0xbe,
  0xf6, 0x93, 0x19, 0xbe, 0x4d, 0x3e, 0x67, 0xbe, 0x4a, 0xbd, 0xe6, 0x3c,
  0x0b, 0x88, 0xad, 0x3e, 0xfe, 0xa1, 0x62, 0xbe, 0x00, 0xac, 0x25, 0xbf,
  0x69, 0xfd, 0x92, 0x3d, 0x8d, 0xc4, 0x48, 0xbd, 0x00, 0x2f, 0x99, 0x3c,
  0x00, 0x33, 0x24, 0x3e, 0xc0, 0x03, 0xb1, 0xbe, 0xe2, 0xc0, 0x97, 0x3e,
  0x2e, 0xb9, 0xc9, 0x3d, 0x8f, 0x40, 0x43, 0xbe, 0x86, 0xd4, 0xa9, 0xbe,
  0x2f, 0x92, 0xed, 0xbe, 0xbc, 0xcd, 0x37, 0xbd, 0xab, 0xad, 0xce, 0x3e,
  0xa4, 0x7e, 0x4b, 0xbe, 0x10, 0x23, 0x15, 0x3e, 0x65, 0xfe, 0x69, 0x3c,
  0x23, 0xa2, 0x9d, 0x3e, 0x2b, 0x7d, 0x33, 0xbe, 0x58, 0xfa, 0x29, 0xbe,
  0x28, 0x6d, 0x10, 0x3e, 0x1a, 0x06, 0x1b, 0xbe, 0x9e, 0xc1, 0xf1, 0x3c,
  0x35, 0x25, 0x86, 0xbd, 0x0a, 0x35, 0x1b, 0xbd, 0x20, 0x77, 0xb1, 0x3d,
  0x81, 0x9e, 0x2d, 0x3e, 0xbf, 0x19, 0x74, 0xbe, 0x79, 0x8d, 0x6c, 0x3e,
  0xd1, 0xf0, 0x8a, 0xbe, 0x9f, 0xb8, 0x38, 0x3e, 0x7c, 0x60, 0x5e, 0x3d,
  0xb7, 0x42, 0x9f, 0x3e, 0xe6, 0x35, 0xf1, 0x3e, 0x13, 0xc8, 0xac, 0x3d,
  0xe3, 0xc7, 0x11, 0xbe, 0xbc, 0x3b, 0xbc, 0x3e, 0x5a, 0xef, 0x31, 0x3e,
  0xb4, 0x52, 0xe3, 0x3d, 0xdd, 0xd7, 0x24, 0x3e, 0x3d, 0x60, 0x1e, 0x3e,
  0x53, 0x75, 0x02, 0xbd, 0x67, 0xd3, 0x16, 0xbe, 0xf3, 0x78, 0x3a, 0x3f,
  0x60, 0xdf, 0x1a, 0x3e, 0x65, 0x7d, 0x22, 0xbe, 0x8a, 0x85, 0x0d, 0xbe,
  0x1f, 0xa6, 0x90, 0x3e, 0xaf, 0x43, 0xe2, 0xbd, 0x99, 0x50, 0x24, 0x3e,
  0x6f, 0x37, 0xc6, 0xbe, 0x46, 0x2a, 0xb0, 0x3e, 0xdf, 0xc4, 0x92, 0xbe,
  0x4c, 0x7a, 0x2a, 0xbe, 0xfa, 0x1a, 0x16, 0x3e, 0x27, 0xd3, 0x88, 0xbe,
  0x5e, 0x1c, 0xba, 0x3e, 0x07, 0x98, 0x4c, 0x3e, 0x98, 0x85, 0x15, 0xbe,
  0x65, 0xdd, 0x3e, 0x3e, 0x75, 0x63, 0xa2, 0xbe, 0xd6, 0x5d, 0x1d, 0x3d,
  0xb4, 0x68, 0xa4, 0xbe, 0x2b, 0xaa, 0x25, 0x3e, 0xc4, 0xaf, 0xb4, 0x3e,
  0x61, 0xa1, 0xa8, 0x3e, 0xb4, 0x0e, 0x30, 0x3e, 0x5e, 0x71, 0x3f, 0x3d,
  0xc0, 0x14, 0xb8, 0xbc, 0x13, 0x35, 0xea, 0xbe, 0x73, 0x80, 0x83, 0xbe,
  0x78, 0x2a, 0x1e, 0xbe, 0xb4, 0x11, 0x4b, 0x3e, 0x0a, 0x41, 0x5a, 0xbd,
  0x20, 0xdb, 0x34, 0xbe, 0xbb, 0xfc, 0xba, 0xbb, 0x74, 0xd4, 0xbf, 0x3d,
  0xb5, 0x24, 0xcb, 0x3d, 0x8a, 0xb0, 0x55, 0xbe, 0x71, 0x62, 0xaa, 0xbd,
  0xf9, 0x82, 0x7e, 0xbe, 0xde, 0x52, 0xa3, 0x3e, 0x77, 0xe3, 0xef, 0xbe,
  0x73, 0x73, 0x84, 0x3e, 0x56, 0x59, 0x12, 0x3e, 0x7e, 0x88, 0x9c, 0xbe,
  0xff, 0x37, 0xc4, 0xbd, 0x14, 0xda, 0x4c, 0x3e, 0x29, 0xae, 0x9e, 0xbd,
  0xd6, 0x97, 0x27, 0x3e, 0xcf, 0x7e, 0xc1, 0x3e, 0xbc, 0x59, 0x70, 0x3e,
  0x0f, 0x5a, 0x9b, 0x3e, 0x36, 0x3f, 0xa5, 0x3e, 0xa5, 0xfc, 0xb5, 0x3d,
  0xf3, 0x66, 0xf8, 0xbe, 0x88, 0x39, 0x7a, 0x3d, 0xc8, 0x27, 0x45, 0x3e,
  0x9c, 0xc3, 0x1d, 0x3e, 0x54, 0x6a, 0xdc, 0x3e, 0x24, 0xd5, 0xd8, 0xbe,
  0xea, 0x6e, 0xc4, 0xbc, 0x9b, 0x5c, 0x3a, 0xbe, 0x99, 0x70, 0xa2, 0x3d,
  0xac, 0xbd, 0x93, 0xbe, 0xef, 0x25, 0x82, 0x3d, 0x99, 0xfd, 0xa8, 0x3d,
  0x0a, 0x78, 0x0a, 0x3e, 0xee, 0x86, 0xb7, 0x3e, 0xbf, 0xd3, 0xa0, 0xbe,
  0xc1, 0x78, 0x13, 0xbe, 0x7d, 0x4d, 0x92, 0xbe, 0x28, 0xe4, 0xde, 0x3d,
  0x58, 0x60, 0xa7, 0xbd, 0x0e, 0x07, 0x36, 0x3e, 0x2f, 0x15, 0xda, 0xbd,
  0x9f, 0xf3, 0x95, 0x3e, 0x0e, 0xe1, 0x83, 0x3e, 0x71, 0x28, 0xa8, 0xbe,
  0x23, 0xa6, 0x0d, 0xbc, 0x96, 0xde, 0xce, 0xbe, 0x6f, 0xa3, 0x08, 0x3e,
  0x4e, 0x5e, 0xab, 0xbd, 0xdb, 0x42, 0xae, 0xbd, 0xe3, 0xb3, 0xd3, 0xbd,
  0x5c, 0xae, 0x36, 0xbe, 0x7a, 0x26, 0x6a, 0x3e, 0x81, 0xb8, 0x64, 0x3d,
  0x6f, 0x58, 0x32, 0x3e, 0x4b, 0x16, 0xf7, 0x3e, 0xf1, 0x52, 0x8c, 0xbe,
  0x31, 0xa1, 0x9b, 0xbe, 0xa9, 0x97, 0x21, 0x3d, 0xd4, 0x57, 0x1a, 0x3d,
  0xee, 0xd9, 0xbf, 0xbd, 0x38, 0x2d, 0x11, 0x3e, 0x6f, 0xb7, 0x8c, 0xbd,
  0x20, 0x0d, 0x92, 0xbd, 0x39, 0x4a, 0x67, 0xbe, 0xf6, 0x68, 0x3e, 0x3e,
  0xd6, 0x29, 0x83, 0x3a, 0x70, 0xb5, 0x32, 0xbe, 0xf6, 0xc3, 0x11, 0x3e,
  0x8f, 0xf2, 0xf4, 0x3c, 0x0a, 0xc7, 0xf8, 0x3d, 0xa5, 0xba, 0xa4, 0x3e,
  0xca, 0xa3, 0xc8, 0xbe, 0x22, 0x66, 0xc5, 0xbd, 0x04, 0x52, 0x49, 0x3d,
  0x24, 0xd8, 0xbe, 0xbe, 0x18, 0x8d, 0x0a, 0x3e, 0x0d, 0x46, 0x80, 0x3e,
  0x01, 0x03, 0x2b, 0xbe, 0xe7, 0x8e, 0x3a, 0x3e, 0x0c, 0x7b, 0xc3, 0x3b,
  0x40, 0x11, 0x24, 0x3c, 0x60, 0x81, 0x88, 0xbd, 0x93, 0x7e, 0x81, 0x3d,
  0xe0, 0x8f, 0x22, 0xbe, 0x3e, 0xdf, 0x9e, 0x3d, 0xf4, 0x47, 0x4d, 0x3e,
  0x88, 0xea, 0xc7, 0xbd, 0x76, 0x74, 0x3d, 0x3e, 0x3e, 0x08, 0x59, 0xbe,
  0x80, 0x9e, 0x2d, 0x3d, 0xb0, 0x79, 0xca, 0xbd, 0x40, 0x9a, 0x67, 0xbd,
  0x10, 0x96, 0x51, 0xbe, 0x86, 0x12, 0x19, 0xbe, 0x10, 0x51, 0x0e, 0x3d,
  0x6f, 0x99, 0x20, 0xbe, 0x82, 0xdb, 0x22, 0x3c, 0xdf, 0x13, 0x4c, 0x3e,
  0xdf, 0xa0, 0x93, 0xbc, 0xca, 0x29, 0x65, 0x3e, 0x55, 0xcf, 0xf1, 0xbd,
  0x4f, 0x97, 0x25, 0x3e, 0x49, 0x35, 0xde, 0x3d, 0x07, 0x7e, 0x40, 0x3e,
  0x01, 0x68, 0x71, 0xbe, 0x70, 0xb8, 0x10, 0x3d, 0x90, 0x80, 0x38, 0xbe,
  0x30, 0x35, 0x78, 0x3d, 0x78, 0x7b, 0x92, 0xbd, 0x80, 0x5b, 0x05, 0xbd,
  0x32, 0x31, 0x2f, 0xbe, 0xde, 0x05, 0xec, 0x3e, 0x9a, 0xe1, 0xfc, 0x3e,
  0xbd, 0x86, 0xf3, 0x3e, 0x90, 0xd8, 0xb3, 0x3d, 0x24, 0x74, 0x57, 0xbd,
  0x2e, 0xd6, 0xb0, 0xbe, 0x14, 0x08, 0xe6, 0x3e, 0xf5, 0x31, 0x84, 0x3e,
  0x91, 0x9b, 0xa6, 0xbd, 0xa7, 0xbf, 0xd3, 0x3e, 0xa3, 0x2e, 0x25, 0xbe,
  0xb8, 0x7c, 0x90, 0xba, 0xb7, 0x54, 0x84, 0xbe, 0x3d, 0x6f, 0xdf, 0xbe,
  0xd2, 0x1b, 0xaa, 0xbe, 0xba, 0x19, 0x54, 0xbe, 0xc6, 0xff, 0x1b, 0xbe,
  0x10, 0x77, 0x5a, 0x3e, 0xed, 0xa8, 0x8d, 0x3e, 0x4b, 0x89, 0x69, 0xbe,
  0x93, 0xdc, 0x8d, 0x3d, 0x44, 0x71, 0xdb, 0xbd, 0x47, 0x05, 0x26, 0x3e,
  0x1e, 0x8e, 0xdb, 0xbc, 0x1f, 0x43, 0x70, 0x3e, 0x53, 0x7a, 0xda, 0x3e,
  0x47, 0xce, 0xbe, 0x3c, 0x9d, 0xc9, 0xb7, 0x3d, 0x74, 0xe3, 0x70, 0xbe,
  0x40, 0xcc, 0x47, 0x3c, 0x08, 0x23, 0xa5, 0xbe, 0x5d, 0x07, 0xbf, 0x3d,
  0xce, 0x77, 0xbb, 0xbd, 0xae, 0x13, 0x64, 0xbe, 0x8b, 0x5d, 0x3b, 0xbe,
  0xfb, 0x06, 0x26, 0x3c, 0xb4, 0x01, 0xa5, 0x3c, 0xcb, 0x7a, 0x9b, 0x3e,
  0xfb, 0xcf, 0xcc, 0x3b, 0x50, 0xce, 0x08, 0x3f, 0x87, 0x30, 0x55, 0xbe,
  0xd3, 0xaa, 0xfb, 0xbd, 0x3b, 0x5b, 0x3c, 0xbe, 0x7f, 0x36, 0x61, 0x3e,
  0x8e, 0x1b, 0x43, 0xbd, 0x2b, 0x65, 0x03, 0x3e, 0xda, 0xb0, 0x62, 0xbe,
  0x54, 0xe1, 0x3a, 0x3e, 0x57, 0x97, 0xbe, 0x3d, 0x7b, 0x34, 0x1f, 0x3f,
  0xfb, 0x90, 0x24, 0x3e, 0x04, 0xd7, 0x6a, 0xbe, 0xe3, 0x80, 0x1a, 0x3d,
  0x51, 0xc5, 0xdb, 0x3d, 0xa1, 0x90, 0xe5, 0xbd, 0xfa, 0xd1, 0x9f, 0xbd,
  0xb0, 0xd0, 0xc3, 0xbe, 0x00, 0x78, 0xbe, 0x3c, 0x09, 0x71, 0x10, 0x3e,
  0x70, 0x0b, 0xea, 0xbd, 0xa2, 0x3a, 0xfd, 0x3c, 0x14, 0x59, 0xb8, 0x3d,
  0x98, 0xc2, 0x78, 0x3c, 0xfe, 0xe8, 0xb4, 0x3e, 0xce, 0xc3, 0x61, 0xbe,
  0xa3, 0xa7, 0x42, 0xbe, 0x44, 0x0c, 0x4a, 0xbe, 0xed, 0xc4, 0x23, 0xbc,
  0x9d, 0x75, 0xee, 0x3d, 0x86, 0x5f, 0x3d, 0x3d, 0x93, 0x6d, 0x86, 0xbe,
  0x54, 0x42, 0xa9, 0xbe, 0xe6, 0x21, 0x33, 0x3e, 0x97, 0xa6, 0x7b, 0xbe,
  0x9e, 0x43, 0x1b, 0xbe, 0x3b, 0xb8, 0x63, 0x3e, 0x3d, 0x6d, 0xa2, 0x3e,
  0x85, 0x38, 0xb5, 0xbc, 0x69, 0xc1, 0xb0, 0x3e, 0xce, 0xf9, 0x5a, 0x3d,
  0xe5, 0x06, 0x7d, 0x3e, 0x3d, 0x80, 0x0e, 0xbe, 0x96, 0x6d, 0xce, 0xbe,
  0x30, 0x91, 0x1d, 0x3e, 0xbc, 0x0c, 0xa0, 0x3e, 0x08, 0x8d, 0x12, 0x3f,
  0x7a, 0x8e, 0x6f, 0x3e, 0xb9, 0xac, 0x43, 0xbd, 0x97, 0xe4, 0x3d, 0x3d,
  0x62, 0xc9, 0x5c, 0xbe, 0xd6, 0x4e, 0xd5, 0xbb, 0xbc, 0x3f, 0x32, 0x3e,
  0xd2, 0xc4, 0x21, 0xbe, 0x28, 0xa8, 0x6a, 0x3e, 0x8b, 0x15, 0xb1, 0x3e,
  0xae, 0xbc, 0x7d, 0x3e, 0xf9, 0xa1, 0xba, 0xbd, 0xeb, 0x65, 0x20, 0x3e,
  0x3d, 0x3d, 0x74, 0x3e, 0x44, 0xce, 0x80, 0x3e, 0x32, 0xdb, 0x12, 0x3e,
  0xd3, 0x48, 0x11, 0x3e, 0x47, 0x1a, 0x88, 0xbe, 0x51, 0xe5, 0xf4, 0x3d,
  0x6a, 0x5e, 0x0c, 0x3e, 0xe6, 0x2e, 0x87, 0x3e, 0x19, 0x05, 0x56, 0x3d,
  0xfa, 0xe4, 0x21, 0xbe, 0x22, 0xf5, 0x6c, 0xbe, 0xbf, 0x7a, 0xf2, 0xbd,
  0xaf, 0x95, 0x5a, 0x3c, 0xbc, 0x7e, 0x96, 0x3d, 0x19, 0x36, 0x4e, 0x3c,
  0xcf, 0x86, 0x43, 0x3e, 0x7a, 0x6b, 0xda, 0x3e, 0xbe, 0x2c, 0x5a, 0xbe,
  0x3f, 0xff, 0xae, 0x3d, 0x1a, 0x66, 0x65, 0xbd, 0x3f, 0x0f, 0xaa, 0xba,
  0x7d, 0xb9, 0xb3, 0xbe, 0x06, 0xa6, 0xfe, 0x3d, 0x4d, 0xe2, 0x5d, 0xbd,
  0xbc, 0xe9, 0x32, 0xbe, 0xd4, 0x3d, 0x8a, 0x3e, 0xfa, 0x75, 0x01, 0x3e,
  0xe1, 0x94, 0x06, 0x3d, 0x98, 0xdd, 0x61, 0x3e, 0xba, 0x75, 0x1c, 0x3e,
  0x0a, 0xa1, 0x51, 0x3d, 0x7d, 0x9b, 0x03, 0xbe, 0x67, 0x02, 0xc7, 0xbc,
  0x6a, 0x4e, 0x9e, 0xbe, 0x9b, 0x58, 0xbb, 0x3e, 0xba, 0x1c, 0x35, 0x3e,
  0x23, 0x56, 0x65, 0xbe, 0x5e, 0xb6, 0x5c, 0x3e, 0x81, 0xc3, 0xf5, 0xbd,
  0xdf, 0xb3, 0x3f, 0xbe, 0x90, 0xc7, 0x88, 0xbd, 0xbf, 0x8e, 0xe8, 0x3e,
  0x12, 0x02, 0xd6, 0x3e, 0x63, 0x07, 0x91, 0x3e, 0x60, 0xe3, 0xc5, 0xbc,
  0x2c, 0xba, 0x1f, 0x3e, 0x04, 0x09, 0x9c, 0x3e, 0xec, 0xae, 0xa4, 0x3d,
  0x55, 0x7f, 0x00, 0xbe, 0x49, 0xa1, 0x4c, 0xbe, 0xa1, 0xcb, 0xab, 0x3b,
  0x17, 0x56, 0x62, 0x3d, 0x35, 0xa6, 0xfc, 0x3d, 0xe5, 0x9a, 0xb6, 0xbd,
  0xaa, 0xe3, 0x63, 0xbe, 0x2b, 0x8d, 0xa9, 0xbc, 0x0e, 0xec, 0x27, 0x3d,
  0x5c, 0xb9, 0x1a, 0x3e, 0x1d, 0x32, 0x3f, 0x3e, 0xc0, 0xcb, 0x6a, 0xbd,
  0xa8, 0xf0, 0x35, 0x3e, 0xa9, 0x66, 0x3e, 0xbe, 0x0f, 0x81, 0xdc, 0xbd,
  0x99, 0x63, 0x64, 0xbc, 0x57, 0x87, 0xcd, 0xbc, 0x5e, 0x2c, 0xa4, 0xbe,
  0xc6, 0xfb, 0x02, 0x3e, 0xc4, 0x4e, 0xf0, 0xbd, 0x5f, 0x33, 0x1f, 0x3e,
  0xde, 0xdc, 0xd7, 0xbe, 0x11, 0xc1, 0xc0, 0x3d, 0xe5, 0x0a, 0xaf, 0x3d,
  0xff, 0x42, 0x2d, 0xbe, 0x78, 0x91, 0x6d, 0xbe, 0xa8, 0x29, 0x34, 0x3e,
  0x9c, 0xe6, 0xbc, 0xbd, 0xab, 0x98, 0x6f, 0x3e, 0x4e, 0x5e, 0xa4, 0xbe,
  0xfc, 0xee, 0xbb, 0xbe, 0xc0, 0xa0, 0x49, 0xbe, 0xc1, 0xa8, 0xe0, 0xbd,
  0xc0, 0xc7, 0x41, 0x3e, 0x9e, 0x57, 0x5e, 0x3d, 0x6b, 0x16, 0xa4, 0xbd,
  0x47, 0xde, 0xf0, 0xbd, 0x30, 0x39, 0x9a, 0x3e, 0x94, 0x68, 0x00, 0xbf,
  0xef, 0xf5, 0xab, 0x3d, 0xdc, 0x94, 0xf9, 0x3d, 0xe8, 0xe2, 0x3f, 0xbd,
  0xf8, 0xc5, 0x0d, 0xbd, 0x0c, 0xbd, 0x67, 0x3e, 0x74, 0xa3, 0x24, 0xbe,
  0xcd, 0x49, 0xd5, 0xbd, 0x80, 0xb0, 0x31, 0xbe, 0x60, 0x06, 0x55, 0xbe,
  0x08, 0x81, 0x2d, 0x3e, 0x8e, 0x4c, 0x8c, 0xbd, 0xd6, 0xf7, 0xec, 0xbd,
  0x1f, 0x67, 0x4e, 0x3e, 0xa0, 0x0d, 0x1a, 0x3e, 0xf2, 0xd3, 0x54, 0xbe,
  0xdf, 0x35, 0x5b, 0x3b, 0x7d, 0xe8, 0x58, 0x3d, 0x5a, 0x18, 0xc5, 0xbd,
  0xd1, 0x5a, 0xcb, 0x3d, 0x2b, 0xe6, 0x1a, 0xbe, 0xdd, 0x8e, 0xca, 0x3d,
  0x7c, 0x39, 0x07, 0xbe, 0x48, 0x6d, 0x2b, 0x3e, 0x42, 0x40, 0x6b, 0x3d,
  0x04, 0xa8, 0xf4, 0x3c, 0x38, 0x75, 0x77, 0x3d, 0x18, 0x99, 0x72, 0xbe,
  0x38, 0x7a, 0x56, 0x3e, 0x88, 0x72, 0x85, 0xbd, 0x11, 0x7e, 0x75, 0xbe,
  0xc8, 0x45, 0x08, 0xbe, 0xe3, 0xd7, 0x13, 0x3d, 0xcb, 0xa3, 0x47, 0x3d,
  0x41, 0xbb, 0x7f, 0xbe, 0x75, 0x7f, 0x4d, 0xbd, 0x25, 0xaf, 0x6e, 0x3e,
  0x74, 0x6d, 0x00, 0x3d, 0xe7, 0x30, 0x3b, 0x3e, 0xb0, 0x19, 0x98, 0xbd,
  0x87, 0x18, 0x93, 0x3e, 0xcf, 0x30, 0x2e, 0x3e, 0x2d, 0xa8, 0xe0, 0xbc,
  0x3a, 0x92, 0xde, 0xbd, 0x70, 0x65, 0x50, 0x3e, 0xb3, 0xf1, 0x61, 0x3d,
  0x9a, 0xab, 0xdd, 0xbd, 0x93, 0xd1, 0x85, 0xbe, 0x2a, 0xca, 0x07, 0xbd,
  0xe3, 0x5d, 0xd8, 0x3d, 0x66, 0xe4, 0x96, 0xbe, 0x4b, 0x27, 0x8d, 0x3e,
  0x7a, 0xab, 0x89, 0xbe, 0x6d, 0xcc, 0xf9, 0x3e, 0x12, 0x6b, 0x0e, 0xbe,
  0x3a, 0x27, 0xe7, 0xbc, 0x7b, 0x8c, 0x16, 0xbe, 0x6e, 0xe1, 0x84, 0xbd,
  0x7a, 0x32, 0xe0, 0xbd, 0xe4, 0x4c, 0x7a, 0x3e, 0x32, 0x32, 0x67, 0xbe,
  0x40, 0xdd, 0x6f, 0xbc, 0xd7, 0x6c, 0xf8, 0x3e, 0xd5, 0x1e, 0x5e, 0xbe,
  0x12, 0x5b, 0xf0, 0x3e, 0x89, 0x00, 0x59, 0xbc, 0x87, 0xf3, 0xd6, 0x3e,
  0x92, 0xb3, 0xa0, 0x3e, 0x02, 0x1b, 0x82, 0xbe, 0xb1, 0x3c, 0x88, 0x3e,
  0x87, 0x21, 0x31, 0xbe, 0x6d, 0x5e, 0xc8, 0xbd, 0x81, 0x3a, 0xa8, 0xbe,
  0xe1, 0x54, 0xc4, 0x3d, 0x91, 0x5b, 0x26, 0xbe, 0x46, 0x99, 0xf6, 0xbd,
  0x9e, 0x3a, 0x8e, 0x3d, 0xf4, 0xf4, 0x0a, 0xbe, 0xe9, 0xdb, 0x86, 0xbe,
  0xd9, 0x69, 0x29, 0x3e, 0x0a, 0x94, 0x37, 0x3e, 0xf1, 0x29, 0xb2, 0xbd,
  0xe9, 0x49, 0x8a, 0x3e, 0xe3, 0xb7, 0x41, 0x3e, 0x29, 0x21, 0xaf, 0x3e,
  0xe3, 0x88, 0xf2, 0x3d, 0x80, 0x9e, 0x49, 0x3e, 0x54, 0xfc, 0x46, 0x3e,
  0xaa, 0xfb, 0x68, 0x3e, 0x8c, 0x46, 0xba, 0xbc, 0x50, 0xa6, 0xac, 0x3b,
  0x82, 0xab, 0x76, 0xbc, 0xeb, 0x8b, 0xcb, 0xbd, 0x34, 0x90, 0x9a, 0x3c,
  0x6e, 0x7f, 0x03, 0xbd, 0xe8, 0x33, 0x15, 0x3e, 0x45, 0xa3, 0x6c, 0xbd,
  0x12, 0xeb, 0x81, 0xbe, 0x7c, 0x99, 0x65, 0x3d, 0x34, 0xe3, 0x86, 0x3e,
  0x39, 0x69, 0xdd, 0x3e, 0xa4, 0xe0, 0x0b, 0x3e, 0xbb, 0x6b, 0x0e, 0x3e,
  0x32, 0x28, 0x37, 0xbe, 0xd8, 0xbd, 0x92, 0x3e, 0x3d, 0x2d, 0x94, 0x3e,
  0x12, 0x53, 0xb3, 0x3e, 0xf0, 0x9c, 0xfb, 0x3d, 0x9a, 0x33, 0x50, 0xbe,
  0x51, 0x0c, 0x65, 0xbe, 0xb6, 0x3a, 0xc8, 0xbc, 0x0f, 0x1c, 0xab, 0xbd,
  0x34, 0x8d, 0x39, 0xbe, 0xfe, 0xa4, 0x98, 0x3e, 0xf4, 0xff, 0x12, 0x3e,
  0xb7, 0xea, 0x4f, 0xbe, 0x4e, 0x0c, 0xdb, 0xbc, 0xb7, 0xab, 0x24, 0xbe,
  0x12, 0x85, 0x4a, 0xbe, 0x47, 0x13, 0x47, 0xbe, 0x06, 0xca, 0x69, 0xbe,
  0x45, 0x6f, 0x9c, 0xbe, 0xb0, 0xab, 0xa4, 0x3e, 0x79, 0xcb, 0xb3, 0xbd,
  0xe2, 0xe0, 0x8f, 0xbe, 0xde, 0x2e, 0x8d, 0x3b, 0xfa, 0xba, 0x88, 0xbd,
  0x1f, 0xb2, 0xb1, 0x3d, 0x49, 0x6d, 0xda, 0xbe, 0x3a, 0x93, 0x2b, 0x3e,
  0xf2, 0x75, 0x0a, 0x3e, 0x42, 0x86, 0x44, 0xbe, 0xbc, 0xcc, 0xb7, 0x3d,
  0x82, 0xc6, 0xc3, 0xbc, 0x1d, 0xbb, 0x74, 0xbe, 0x7b, 0x2f, 0x98, 0x3e,
  0x3b, 0x13, 0x88, 0xbe, 0xbb, 0x64, 0x58, 0xbe, 0xd2, 0x96, 0x45, 0xbd,
  0xf4, 0xad, 0xbe, 0x3e, 0xc2, 0x18, 0xe2, 0x3d, 0xa2, 0x91, 0xcd, 0x3d,
  0xd7, 0x20, 0x72, 0x3d, 0x21, 0x34, 0x92, 0x3e, 0x24, 0xe7, 0x83, 0x3e,
  0x5b, 0x34, 0x99, 0xbd, 0x2f, 0x40, 0x35, 0xbc, 0x97, 0x85, 0xb0, 0x3e,
  0x8a, 0xa0, 0xba, 0xbb, 0x50, 0x1f, 0xe7, 0x3e, 0x9c, 0xca, 0x68, 0xbc,
  0xf6, 0xc0, 0xb7, 0x3e, 0x16, 0xf9, 0xe9, 0x3e, 0x8a, 0x5d, 0x00, 0x3f,
  0x8a, 0xfd, 0x15, 0xbe, 0xf1, 0x2e, 0x1c, 0x3e, 0x5a, 0x44, 0x21, 0x3d,
  0x1c, 0xd9, 0x8b, 0x3e, 0x27, 0x7c, 0x21, 0xbd, 0xde, 0x3a, 0xd4, 0x3e,
  0x92, 0xeb, 0xe8, 0x3d, 0xec, 0xfe, 0x4e, 0x3e, 0xe3, 0xca, 0x64, 0xbe,
  0xc4, 0x6d, 0x3a, 0xbc, 0x97, 0x5c, 0x0d, 0xba, 0x97, 0x38, 0xdd, 0xbd,
  0x36, 0x47, 0x06, 0x3d, 0xd8, 0x16, 0x18, 0xbe, 0x0b, 0x0a, 0x7d, 0xbe,
  0x85, 0xbb, 0x63, 0xbe, 0x0e, 0x50, 0x87, 0x3c, 0x25, 0x5c, 0x01, 0x3e,
  0xd5, 0x70, 0x96, 0x3e, 0xc6, 0xa8, 0x12, 0x3e, 0x25, 0x87, 0xa8, 0xbe,
  0x83, 0x85, 0x63, 0xbe, 0xc5, 0xff, 0x0b, 0x3e, 0x7f, 0xe0, 0xd0, 0x3b,
  0xa7, 0x72, 0x18, 0xbd, 0x0b, 0xaf, 0xfc, 0x3d, 0x5f, 0x3f, 0xe0, 0x3e,
  0xb7, 0x52, 0xfa, 0x3d, 0x68, 0x6a, 0xf0, 0x3e, 0x31, 0xb3, 0x34, 0x3e,
  0x60, 0x93, 0x6c, 0x3e, 0x75, 0x57, 0x68, 0xbe, 0xdd, 0x2c, 0xba, 0xbe,
  0xb6, 0x4b, 0x9e, 0x3e, 0xa4, 0xda, 0xb9, 0x3e, 0xc4, 0x34, 0x9a, 0x3e,
  0x0c, 0xa0, 0xe8, 0x3e, 0x1a, 0x73, 0x19, 0xbe, 0x7f, 0x0e, 0xfb, 0xbd,
  0xa0, 0x94, 0x1e, 0xbd, 0x03, 0xf4, 0x96, 0x3d, 0xdb, 0xaf, 0xfa, 0x3d,
  0x6d, 0x43, 0xee, 0x3e, 0x35, 0x8a, 0xaa, 0x3e, 0xd0, 0x24, 0x43, 0x3e,
  0x49, 0x6d, 0x4f, 0x3e, 0xb2, 0x11, 0x9d, 0x3d, 0xe9, 0x33, 0x2a, 0xbe,
  0xa8, 0xf4, 0x48, 0x3e, 0x6d, 0xe5, 0x9e, 0x3e, 0x45, 0x64, 0x5a, 0x3e,
  0xdc, 0xf1, 0x71, 0x3e, 0x5a, 0x64, 0xdb, 0xbe, 0x50, 0xd7, 0x83, 0x3e,
  0x02, 0xd9, 0x97, 0x3d, 0x48, 0x3d, 0x7d, 0xbe, 0xfd, 0xb2, 0xf2, 0xbd,
  0x75, 0xf2, 0xb6, 0x3d, 0xb6, 0xf7, 0x90, 0x3e, 0xac, 0xb0, 0xf4, 0x3c,
  0x50, 0x48, 0xac, 0x3e, 0xdd, 0x9d, 0x99, 0xbd, 0xbf, 0xc8, 0x7a, 0x3e,
  0xa0, 0x65, 0x81, 0x3d, 0x58, 0xe1, 0x01, 0x3d, 0xe4, 0x95, 0xd0, 0xbd,
  0x67, 0xb9, 0x95, 0x3e, 0x38, 0x02, 0xc6, 0x3d, 0xfa, 0x93, 0x8b, 0x3e,
  0x53, 0x79, 0x5a, 0xbe, 0x9f, 0x2e, 0x52, 0x3d, 0xa5, 0x50, 0x0b, 0x3e,
  0x1c, 0x58, 0x83, 0xbe, 0x2d, 0xc3, 0x72, 0xbe, 0xab, 0xc3, 0xb0, 0xbd,
  0x4b, 0x57, 0x57, 0xbe, 0x89, 0xdb, 0x0d, 0xbd, 0x69, 0x02, 0x9a, 0x3d,
  0xb6, 0x39, 0x8c, 0xbe, 0x6a, 0xc3, 0x2c, 0xbe, 0xae, 0x48, 0xf4, 0x3b,
  0x8c, 0xad, 0x1e, 0xbe, 0xe9, 0x72, 0x91, 0xbd, 0xfa, 0x12, 0x3d, 0x3e,
  0xca, 0x1f, 0xc0, 0xbd, 0x94, 0xd4, 0x8d, 0xbe, 0x04, 0x80, 0xf8, 0xbd,
  0x2f, 0x57, 0xa5, 0xbd, 0x76, 0x28, 0x08, 0x3d, 0x33, 0x9a, 0x06, 0x3e,
  0x73, 0x58, 0xed, 0x3d, 0x21, 0x4a, 0x1e, 0x3a, 0xc4, 0x9a, 0x30, 0xbe,
  0xa8, 0x1a, 0x2d, 0xbe, 0x4d, 0x05, 0x04, 0xbe, 0x03, 0x02, 0xeb, 0xbd,
  0x65, 0x58, 0x47, 0xbe, 0xcc, 0xd9, 0x51, 0x3e, 0x2e, 0xd0, 0x16, 0xbe,
  0xc0, 0x48, 0x42, 0x3d, 0xab, 0x8b, 0x1e, 0xbe, 0xc2, 0x3c, 0xc0, 0x3c,
  0x8a, 0x87, 0x49, 0xbe, 0xd0, 0x14, 0x32, 0x3c, 0x7e, 0x8d, 0x65, 0xbe,
  0x5c, 0x52, 0x23, 0x3d, 0x22, 0x76, 0x5e, 0x3e, 0x10, 0xab, 0x3a, 0xbb,
  0x1f, 0x0e, 0x46, 0x3e, 0xe4, 0xaa, 0x0f, 0x3e, 0x04, 0x44, 0x3a, 0x3e,
  0xf6, 0x2d, 0x23, 0x3e, 0xfc, 0xbe, 0x95, 0x3e, 0xbe, 0x22, 0x06, 0x3d,
  0x79, 0x12, 0x8e, 0x3d, 0x1c, 0x9e, 0x13, 0xbe, 0x1c, 0x89, 0x79, 0x3e,
  0x95, 0xb0, 0x8b, 0x3e, 0x63, 0x4a, 0x99, 0x3d, 0xcc, 0xd8, 0x91, 0x3d,
  0xc6, 0xab, 0x0e, 0xbc, 0xf3, 0x75, 0x0b, 0xbe, 0xb3, 0x30, 0xc7, 0xbd,
  0xc1, 0xa0, 0x81, 0x3e, 0xb7, 0x46, 0x58, 0xbe, 0x47, 0x15, 0x20, 0x3e,
  0x0e, 0xc5, 0x57, 0xbe, 0x4a, 0x74, 0xae, 0x3e, 0xfa, 0xe5, 0xa6, 0x3e,
  0x07, 0xa4, 0xce, 0x3c, 0xd0, 0x5d, 0x21, 0xbe, 0xc2, 0x18, 0xc0, 0xbd,
  0xff, 0x45, 0x10, 0xbe, 0x18, 0xce, 0x38, 0x3e, 0x7f, 0x43, 0x43, 0xbe,
  0x3a, 0xd4, 0x4f, 0x3d, 0x7a, 0x83, 0xa1, 0x3e, 0xc6, 0x32, 0x44, 0x3e,
  0x51, 0x60, 0x79, 0xbe, 0xea, 0xa6, 0x87, 0x3e, 0xf4, 0x41, 0x7c, 0xbe,
  0xfc, 0x86, 0x64, 0x3d, 0xfb, 0xac, 0x37, 0xbd, 0x0a, 0xd0, 0xa0, 0xbd,
  0x13, 0x0c, 0x47, 0xbc, 0xe9, 0xa8, 0x70, 0xbe, 0x9d, 0x9a, 0x90, 0xbd,
  0x18, 0x93, 0xf2, 0x3e, 0x83, 0x8f, 0x62, 0x3e, 0xcd, 0x8a, 0xc2, 0x3e,
  0xca, 0xe5, 0xd9, 0xb9, 0x0a, 0x9e, 0xf4, 0x3c, 0xd3, 0xe2, 0x49, 0x3e,
  0x91, 0xe6, 0x5d, 0xbd, 0x1a, 0xdc, 0x81, 0x3e, 0x1a, 0xd5, 0x69, 0xbd,
  0x4a, 0x20, 0xe8, 0x3e, 0x57, 0x2f, 0xc5, 0xbd, 0xea, 0x4d, 0xaf, 0xbd,
  0x3b, 0xb6, 0x98, 0x3e, 0xb1, 0x78, 0xc7, 0x3e, 0x3b, 0xd1, 0xc5, 0x3d,
  0xa2, 0xec, 0x4a, 0xbd, 0xde, 0x8a, 0xae, 0x3e, 0x65, 0x0a, 0x3d, 0xbe,
  0x0a, 0xf9, 0x91, 0x3e, 0xa3, 0x38, 0xf9, 0xbd, 0xb0, 0x7c, 0x47, 0x3c,
  0xae, 0x3b, 0x82, 0x3e, 0x83, 0x9b, 0x64, 0xbe, 0x03, 0xf5, 0x81, 0x3e,
  0x21, 0xa6, 0x3e, 0xbe, 0xdb, 0xf7, 0x71, 0xbd, 0x11, 0xb8, 0x63, 0x3e,
  0xe0, 0x02, 0x4a, 0x3e, 0x1e, 0x05, 0xdb, 0x3d, 0x0d, 0x7f, 0xd6, 0xbe,
  0x06, 0x35, 0x78, 0xbe, 0x30, 0xfa, 0xcb, 0x3c, 0x91, 0xaf, 0xd3, 0x3d,
  0xad, 0x18, 0x12, 0x3d, 0xff, 0xb6, 0xd9, 0x3e, 0x1f, 0x3c, 0x51, 0x3c,
  0xc2, 0x77, 0xff, 0xbe, 0xbe, 0x06, 0x92, 0x3d, 0xbe, 0x38, 0x34, 0xbe,
  0x7d, 0x6b, 0x9e, 0xbe, 0xb6, 0xe9, 0x40, 0xbd, 0x52, 0x18, 0xeb, 0x3d,
  0x28, 0xdc, 0x03, 0xbd, 0xa0, 0x1e, 0x1f, 0x3e, 0xe5, 0x54, 0xb4, 0x3e,
  0xb7, 0x09, 0x82, 0xbe, 0x95, 0x98, 0x43, 0xbe, 0x1f, 0x90, 0x30, 0xbe,
  0x35, 0xa6, 0xdf, 0xbe, 0x83, 0x51, 0x91, 0xbd, 0xf6, 0x6c, 0xe4, 0x3e,
  0x91, 0xd9, 0x07, 0xbf, 0x13, 0xc2, 0xfd, 0x3d, 0x01, 0xd2, 0xb8, 0x3c,
  0x57, 0x52, 0xd6, 0xbd, 0x35, 0x0e, 0x87, 0xbd, 0x45, 0xa8, 0x29, 0x3e,
  0x6d, 0x6c, 0x77, 0xbe, 0xf0, 0x2e, 0x2a, 0x3e, 0x45, 0xb8, 0x9b, 0xbe,
  0x3f, 0x41, 0x7e, 0xbe, 0x92, 0xf8, 0x71, 0xbe, 0x49, 0x67, 0xb4, 0x3e,
  0x01, 0x04, 0xf7, 0x3d, 0x1b, 0xbd, 0x40, 0x3d, 0x16, 0x90, 0xbe, 0xbe,
  0x0d, 0x15, 0xd4, 0x3e, 0xf7, 0x7d, 0x74, 0x3e, 0x7c, 0x2b, 0x19, 0x3d,
  0x13, 0xcb, 0x38, 0x3d, 0x7e, 0xf7, 0x53, 0x3e, 0x88, 0xc0, 0x98, 0x3e,
  0x88, 0x55, 0xaa, 0x3e, 0x82, 0x2b, 0x06, 0xbd, 0xa1, 0x28, 0x01, 0xbb,
  0x69, 0xd9, 0x73, 0x3d, 0x39, 0xf7, 0x95, 0x3c, 0x26, 0xf1, 0xa6, 0xbd,
  0x70, 0x22, 0x5d, 0x3e, 0x40, 0xbf, 0xa3, 0x3e, 0x31, 0x83, 0xe5, 0x3d,
  0x3f, 0xf8, 0x63, 0x3e, 0x15, 0xb3, 0x95, 0xbc, 0xeb, 0x80, 0xc0, 0x3e,
  0x6a, 0x7a, 0x1c, 0xbe, 0x6a, 0xa5, 0x9d, 0xbe, 0x5b, 0xbd, 0x71, 0xbe,
  0xed, 0xef, 0xb4, 0x3e, 0xb8, 0x71, 0x3d, 0xbe, 0x48, 0x96, 0x38, 0x3e,
  0xe7, 0xd4, 0x5d, 0x3e, 0x2d, 0x7b, 0xea, 0x3a, 0xde, 0x9b, 0x39, 0x3e,
  0x8c, 0x7b, 0x42, 0x3e, 0x75, 0xfe, 0xb2, 0xbd, 0x81, 0xae, 0x0f, 0xbe,
  0x81, 0x00, 0x7b, 0xbe, 0x20, 0x1e, 0x43, 0x3e, 0x6e, 0x91, 0x01, 0x3f,
  0xf5, 0xd8, 0x5a, 0xbe, 0xf4, 0x67, 0x68, 0x3d, 0x75, 0xbd, 0x32, 0x3d,
  0x9b, 0xcd, 0x32, 0xbe, 0xa3, 0xfd, 0x05, 0x3e, 0x1d, 0x73, 0x79, 0xbe,
  0xd5, 0x76, 0xd4, 0xbe, 0x8a, 0x3e, 0x0f, 0xbe, 0x12, 0x50, 0x5f, 0xbe,
  0xb7, 0xf7, 0x64, 0x3e, 0x59, 0x5e, 0x04, 0x3f, 0x0f, 0x1f, 0xa2, 0xbe,
  0x5a, 0x80, 0x6e, 0xbe, 0xa9, 0x66, 0x63, 0xbe, 0x2f, 0xf3, 0xb7, 0xbd,
  0x73, 0xbc, 0x2c, 0x3e, 0x96, 0x3c, 0x1a, 0x3e, 0x4f, 0xc0, 0x60, 0x3e,
  0x1c, 0x9f, 0xf7, 0x3d, 0x47, 0x18, 0x63, 0x3e, 0x9b, 0x85, 0x22, 0x3e,
  0x46, 0xfc, 0x3e, 0x3e, 0xee, 0x22, 0x9a, 0xbd, 0x07, 0x28, 0x0e, 0x3e,
  0xd4, 0x07, 0xd8, 0x3e, 0xb8, 0xb9, 0xaa, 0x3e, 0xce, 0x15, 0x49, 0x3e,
  0x3c, 0x04, 0xdd, 0xbd, 0x06, 0x2f, 0x2a, 0xbe, 0x92, 0x99, 0x39, 0xbe,
  0xee, 0x7a, 0xb0, 0x3e, 0x76, 0xef, 0xbe, 0x3a, 0xa9, 0xc3, 0x2f, 0x3e,
  0xce, 0xcf, 0x18, 0x3e, 0x80, 0xfc, 0xbb, 0xbe, 0x4b, 0xeb, 0x80, 0x3e,
  0x3b, 0x41, 0x3f, 0xbe, 0xd6, 0x63, 0xb7, 0x3e, 0xa1, 0xb4, 0x13, 0xbe,
  0xd8, 0xed, 0x9b, 0xbe, 0x82, 0xcb, 0xaf, 0xbe, 0x68, 0x66, 0xe8, 0xbd,
  0x07, 0xd9, 0xac, 0xbd, 0x17, 0xb7, 0x32, 0xbc, 0x4c, 0x7f, 0x2e, 0x3e,
  0xbc, 0x6c, 0x96, 0xbc, 0x53, 0xc1, 0x1c, 0x3d, 0xe7, 0x41, 0x23, 0x3d,
  0xe6, 0x6e, 0x6a, 0x3d, 0x31, 0x57, 0xcb, 0xbd, 0xb9, 0xda, 0x28, 0x3e,
  0xfe, 0x44, 0xb0, 0x3c, 0x8d, 0x03, 0x82, 0x3c, 0xbf, 0x77, 0x8f, 0x3c,
  0x2b, 0xa6, 0x99, 0xbd, 0xec, 0x88, 0x05, 0x3e, 0x65, 0xf6, 0x98, 0x3e,
  0x15, 0xd5, 0xe9, 0x3e, 0xf3, 0xcb, 0xb4, 0x3e, 0x5a, 0x61, 0x92, 0xbd,
  0x6c, 0x88, 0xb0, 0x3d, 0xef, 0xca, 0x31, 0xbe, 0xfb, 0x4e, 0x6f, 0x3b,
  0x5b, 0x6a, 0x51, 0x3d, 0xc7, 0x50, 0x84, 0x3d, 0x37, 0xbc, 0xc1, 0x3e,
  0x09, 0xf6, 0x82, 0xbe, 0x53, 0x7f, 0x3e, 0x3d, 0xc3, 0x50, 0x7e, 0xbe,
  0x81, 0xd6, 0x1f, 0xbe, 0x77, 0x50, 0xb9, 0xbe, 0xb5, 0x26, 0xc9, 0xbe,
  0x8d, 0xba, 0xdf, 0xbd, 0xa5, 0x65, 0xc7, 0xbd, 0x46, 0xde, 0x83, 0x3e,
  0x85, 0xa8, 0xb2, 0xbd, 0xfc, 0xce, 0x80, 0xbd, 0x08, 0x18, 0x81, 0xbe,
  0xad, 0xcc, 0x71, 0x3d, 0xd9, 0x91, 0xa5, 0xbd, 0x3b, 0xe7, 0x3b, 0xbd,
  0x96, 0x61, 0x8e, 0x3e, 0x54, 0xaa, 0x40, 0x3e, 0x27, 0xd0, 0xba, 0x3e,
  0x28, 0x78, 0x5e, 0xbd, 0xca, 0xdb, 0x06, 0x3e, 0x82, 0x05, 0x75, 0xbe,
  0x9c, 0xa9, 0x1f, 0x3e, 0x45, 0x15, 0x89, 0xbe, 0x0c, 0xed, 0xa8, 0xbe,
  0x22, 0x35, 0x46, 0xbe, 0x61, 0x60, 0x32, 0x3e, 0x63, 0xfb, 0x5e, 0x3e,
  0x0a, 0x24, 0x01, 0x3e, 0xe1, 0x8b, 0xfa, 0x3d, 0x5c, 0xbb, 0xf1, 0x3d,
  0x4a, 0x08, 0xee, 0x3d, 0x51, 0xfd, 0xa6, 0xbd, 0x68, 0x29, 0xf3, 0xbd,
  0x89, 0x33, 0x90, 0x3a, 0xe0, 0x66, 0x78, 0x3e, 0x0c, 0x43, 0x88, 0x3e,
  0x94, 0x55, 0xda, 0xbd, 0x06, 0x48, 0xa1, 0x3e, 0x59, 0x78, 0xc5, 0xbd,
  0xb8, 0xb0, 0x90, 0xbd, 0x46, 0x88, 0x53, 0xbd, 0x8e, 0xad, 0x86, 0xbd,
  0xb7, 0x4a, 0xb3, 0x3e, 0xfe, 0xca, 0xbd, 0x3e, 0xf4, 0x0e, 0x42, 0x3e,
  0xfb, 0x2f, 0xd3, 0x3c, 0xa1, 0xa5, 0x7c, 0x3b, 0x61, 0x8c, 0x92, 0xbe,
  0x0e, 0x40, 0xf4, 0xbc, 0x40, 0x4b, 0x08, 0x3e, 0x42, 0x19, 0xb3, 0x3e,
  0x87, 0x99, 0x01, 0x3e, 0x3d, 0xbd, 0xa8, 0xbd, 0x7e, 0x97, 0x01, 0xbd,
  0x5c, 0xdc, 0x8a, 0x3d, 0x24, 0xdf, 0x24, 0xbe, 0x36, 0x43, 0xfc, 0xbd,
  0x10, 0x0b, 0x03, 0x3e, 0xb9, 0x55, 0x13, 0x3e, 0xb0, 0xc7, 0xcc, 0x3e,
  0xe6, 0x11, 0x9c, 0xbe, 0x7c, 0x17, 0x33, 0xbe, 0xa2, 0xab, 0x02, 0xbd,
  0xd5, 0xc4, 0x91, 0xbe, 0x94, 0xfe, 0x86, 0x3e, 0x11, 0x06, 0x8f, 0xbe,
  0x22, 0xa5, 0x57, 0x3e, 0x0f, 0x23, 0xf9, 0xbe, 0x0b, 0xf9, 0x9d, 0x3e,
  0x2e, 0x18, 0x39, 0x3e, 0x52, 0x49, 0xe3, 0x3c, 0x34, 0xa8, 0x81, 0xbe,
  0x69, 0x1a, 0x19, 0x3e, 0x5c, 0x01, 0xab, 0x3e, 0x39, 0x40, 0x04, 0x3e,
  0xb9, 0x78, 0x12, 0x3f, 0xbc, 0x16, 0x08, 0xbd, 0x23, 0xb7, 0x9b, 0x3d,
  0x4d, 0xe8, 0x82, 0xbe, 0x21, 0x44, 0xea, 0x3c, 0x97, 0xa3, 0x2a, 0x3d,
  0x6a, 0x16, 0xdc, 0x3d, 0x1b, 0x1c, 0xa2, 0x3b, 0x18, 0x9b, 0x8e, 0x3a,
  0xc0, 0x38, 0xc0, 0xbd, 0x93, 0xa5, 0x88, 0x3e, 0x91, 0x2e, 0x97, 0xbd,
  0xae, 0x91, 0x46, 0xbe, 0x58, 0xe2, 0x7a, 0xbe, 0x17, 0xb7, 0x87, 0xbe,
  0x4f, 0xb9, 0x5d, 0x3e, 0x41, 0x53, 0x3c, 0x3d, 0x0b, 0x75, 0xba, 0xbd,
  0x33, 0xa4, 0x08, 0xbd, 0x2c, 0xbf, 0x6d, 0xbe, 0x16, 0x36, 0xc0, 0xbd,
  0xbc, 0xbe, 0x1d, 0x3e, 0xfd, 0xce, 0xb3, 0x3d, 0x8a, 0x93, 0xc0, 0x3e,
  0x4f, 0xd6, 0x00, 0x3d, 0x42, 0x1e, 0x1c, 0xbe, 0xf8, 0x80, 0xbf, 0x3d,
  0x58, 0xda, 0x6a, 0xbe, 0x50, 0xb5, 0x17, 0x3e, 0xe8, 0x55, 0x0f, 0x3e,
  0xb0, 0x81, 0xb2, 0xbd, 0x3c, 0xb3, 0x79, 0xbe, 0xd4, 0x51, 0x63, 0x3e,
  0x34, 0x7f, 0x79, 0xbe, 0xbb, 0x0d, 0xd1, 0xbd, 0x0f, 0x4c, 0x16, 0x3d,
  0x3a, 0xb1, 0x77, 0xbe, 0x26, 0x47, 0xac, 0x3d, 0xe8, 0x26, 0xeb, 0xbd,
  0x30, 0xd7, 0x3a, 0xbe, 0x59, 0x52, 0x0c, 0xbd, 0x0e, 0x68, 0x59, 0xbd,
  0x54, 0x49, 0xa5, 0xbd, 0xb2, 0x2d, 0x54, 0xbe, 0x4a, 0xa6, 0x95, 0xbe,
  0x22, 0x51, 0xc5, 0xbe, 0x39, 0x1f, 0x0b, 0x3e, 0xdc, 0xe2, 0x09, 0xbe,
  0x3b, 0xef, 0xe6, 0x3e, 0x1a, 0xff, 0x05, 0xbe, 0xfe, 0xd6, 0x14, 0x3e,
  0x01, 0xea, 0x1c, 0x3e, 0xdb, 0xd4, 0x40, 0x3e, 0x7f, 0xa8, 0xdc, 0x3c,
  0x3a, 0x7b, 0xc8, 0x3c, 0x68, 0xbf, 0x56, 0x3b, 0xa2, 0x92, 0x7d, 0xbd,
  0xc5, 0xb5, 0xcb, 0x3d, 0x56, 0x00, 0x80, 0xbe, 0x1f, 0x36, 0x09, 0x3e,
  0x35, 0xb9, 0x82, 0x3d, 0xa1, 0x25, 0x4a, 0x3d, 0x51, 0x1b, 0x8e, 0x3e,
  0x9d, 0xf2, 0xaa, 0xbc, 0xc7, 0x97, 0x95, 0x3d, 0x73, 0xbc, 0x87, 0x3e,
  0x7e, 0xf4, 0x9c, 0xbb, 0xae, 0xcf, 0xbe, 0xbe, 0xab, 0x61, 0xeb, 0xbd,
  0x68, 0xab, 0x84, 0xbd, 0x89, 0x54, 0x80, 0xbe, 0xe5, 0xf7, 0x5c, 0xbe,
  0x58, 0x9d, 0x4a, 0x3e, 0x74, 0xcb, 0xb5, 0x3d, 0x4a, 0x52, 0x92, 0x3e,
  0x12, 0x2f, 0x71, 0xbe, 0xcc, 0x3c, 0x97, 0x3d, 0x1c, 0xbc, 0x89, 0xbe,
  0x8c, 0x6a, 0x70, 0xbd, 0x5d, 0x01, 0x8c, 0xbe, 0x69, 0x38, 0x7b, 0x3e,
  0x35, 0x64, 0x6a, 0x3d, 0x24, 0x86, 0xd1, 0xbd, 0xcd, 0xdb, 0x34, 0x3e,
  0x3d, 0x7d, 0xbd, 0xbc, 0x1f, 0xc0, 0x9b, 0x3e, 0x96, 0xb9, 0x1c, 0xbd,
  0xe3, 0x47, 0x91, 0xbc, 0x94, 0xd6, 0x43, 0xbe, 0x41, 0x51, 0x06, 0x3e,
  0xce, 0x1b, 0x34, 0x3e, 0xb4, 0x31, 0xfa, 0xbd, 0x67, 0x40, 0x48, 0xbd,
  0x83, 0xfa, 0x47, 0x3e, 0x7f, 0x09, 0xd9, 0xbc, 0xc2, 0xc3, 0x72, 0x3b,
  0x3f, 0xa7, 0xbf, 0x3e, 0x90, 0xa3, 0x84, 0x3d, 0x48, 0x9e, 0x39, 0x3d,
  0x24, 0x53, 0xc2, 0xbe, 0xdf, 0x08, 0x0c, 0xbe, 0xf9, 0x04, 0x93, 0x3c,
  0x73, 0x8a, 0x20, 0x3c, 0xe0, 0x1d, 0x3b, 0xbd, 0xce, 0x6e, 0x2f, 0x3e,
  0xe8, 0x5a, 0x09, 0x3d, 0x34, 0xaa, 0x6d, 0x3e, 0xd5, 0xab, 0x21, 0xbe,
  0xd9, 0xef, 0x46, 0xbe, 0x9b, 0x6e, 0xb5, 0xbd, 0xa7, 0x4f, 0x37, 0x3c,
  0x10, 0x22, 0xe9, 0x3d, 0xa0, 0x89, 0x90, 0xbd, 0xed, 0x97, 0x1d, 0x3d,
  0x14, 0x17, 0x36, 0xbe, 0x6a, 0x11, 0x43, 0xbe, 0x4c, 0x21, 0x1a, 0x3d,
  0x29, 0xda, 0x65, 0x3e, 0xc4, 0x73, 0xc8, 0xbc, 0x5b, 0xa7, 0x10, 0x3e,
  0x7c, 0x53, 0x22, 0xbe, 0x70, 0x5d, 0x03, 0x3e, 0x0f, 0x1b, 0xef, 0x3d,
  0x96, 0x0a, 0x73, 0x3d, 0x50, 0xad, 0x3a, 0xbd, 0x96, 0x02, 0x6f, 0x3d,
  0xa0, 0x2c, 0x02, 0xbe, 0xf0, 0x09, 0x7f, 0x3e, 0x24, 0xe3, 0x05, 0x3e,
  0xbe, 0x5d, 0x68, 0xbe, 0x68, 0x64, 0xa1, 0xbd, 0xab, 0x37, 0xed, 0x3d,
  0xdc, 0x21, 0x02, 0xbe, 0x26, 0x00, 0x97, 0xbd, 0xe4, 0x94, 0x2a, 0xbd,
  0x46, 0x18, 0xb1, 0xbd, 0x28, 0xbb, 0xc0, 0xbd, 0xd5, 0xc2, 0xb9, 0x3d,
  0x60, 0x33, 0xb9, 0x3c, 0x48, 0x9c, 0x6b, 0x3e, 0xe2, 0x55, 0xa7, 0x3e,
  0x7f, 0xb5, 0xb3, 0x3d, 0x0e, 0xb6, 0x86, 0x3d, 0xa4, 0xcc, 0x2d, 0x3e,
  0xc2, 0x98, 0xc7, 0x3d, 0x8a, 0x24, 0x5d, 0x3e, 0xd0, 0xa4, 0xca, 0x3e,
  0x36, 0xb8, 0x2f, 0x3e, 0xa3, 0x0a, 0x20, 0x38, 0x27, 0x60, 0xab, 0x3e,
  0x6f, 0x39, 0xe3, 0xbe, 0xf8, 0x17, 0x8c, 0x3e, 0xfc, 0x1f, 0x05, 0xbf,
  0x5c, 0x4c, 0x47, 0xbe, 0x05, 0xc3, 0x2a, 0x3e, 0xa8, 0x7e, 0xbf, 0x3e,
  0x3c, 0x15, 0xb1, 0x3d, 0xd6, 0x0f, 0xc5, 0x3e, 0xbb, 0x2f, 0x43, 0x3e,
  0xe4, 0x6b, 0x58, 0x3d, 0x31, 0x03, 0x2d, 0x3e, 0x40, 0xaa, 0xfa, 0x3d,
  0xda, 0x5a, 0x87, 0xbe, 0x60, 0x51, 0xff, 0x3d, 0xf8, 0x1f, 0xb2, 0x3e,
  0xde, 0x7e, 0x16, 0x3e, 0xef, 0x9a, 0xe7, 0xbd, 0xf2, 0x0b, 0x9b, 0xba,
  0x59, 0xa7, 0x08, 0x3e, 0x62, 0x4c, 0x62, 0x3e, 0x25, 0x7b, 0x8d, 0x3e,
  0x6d, 0x0a, 0x3b, 0xbe, 0xbe, 0x61, 0x52, 0x3c, 0xa9, 0x67, 0x07, 0x3e,
  0x2b, 0x13, 0xe8, 0xbc, 0xb4, 0xb5, 0x00, 0x3e, 0x55, 0x58, 0x36, 0xbe,
  0xeb, 0xc9, 0x96, 0xbe, 0x1c, 0xbe, 0x4c, 0xbd, 0x36, 0xc6, 0xa9, 0x3e,
  0xb6, 0xcc, 0x2a, 0xbe, 0xf9, 0x45, 0xfb, 0x3d, 0x38, 0xa3, 0x4b, 0xbe,
  0x8a, 0x6d, 0x80, 0x3e, 0x64, 0x09, 0x49, 0x3d, 0xed, 0x21, 0x01, 0x3e,
  0xac, 0x01, 0xd0, 0x3e, 0x46, 0x84, 0x58, 0x3e, 0xdb, 0x5a, 0xf8, 0x3d,
  0x76, 0xd9, 0x30, 0x3e, 0x7c, 0x83, 0x57, 0x3e, 0xee, 0x78, 0x47, 0x3d,
  0xb8, 0x94, 0x7f, 0x3e, 0xee, 0xe8, 0x78, 0xbe, 0x5c, 0x28, 0x61, 0x3d,
  0x80, 0xde, 0x82, 0x3e, 0xb8, 0xd6, 0x54, 0x3e, 0x15, 0x5c, 0x36, 0xbe,
  0x69, 0x63, 0x5b, 0x3e, 0x8f, 0x9b, 0xab, 0x3e, 0xd7, 0xb5, 0x66, 0xbe,
  0x65, 0x3d, 0xba, 0xbd, 0x84, 0xb3, 0x1b, 0x3d, 0x1a, 0xf2, 0xb0, 0x3d,
  0x61, 0x16, 0x3c, 0xbe, 0xc4, 0xce, 0xe7, 0x3d, 0xda, 0xe6, 0x31, 0xbe,
  0x75, 0x11, 0xdb, 0xbe, 0xe8, 0xf5, 0x45, 0x3e, 0x52, 0x6f, 0x1a, 0xbd,
  0x99, 0x6b, 0x94, 0xbd, 0xfa, 0x46, 0x3e, 0xbe, 0x79, 0x60, 0xa4, 0xbd,
  0x31, 0x1d, 0x21, 0x3e, 0x80, 0x9f, 0xc1, 0xbe, 0x77, 0xf2, 0x4a, 0x3e,
  0x57, 0x0f, 0x5c, 0xbd, 0x28, 0xa0, 0xf8, 0xbc, 0x75, 0x45, 0x08, 0xbe,
  0x2f, 0x5f, 0x6b, 0xbe, 0x2f, 0xa9, 0x9d, 0xbe, 0xc8, 0xd9, 0xed, 0x3d,
  0x9e, 0xfe, 0xb7, 0x3b, 0xe7, 0xee, 0xba, 0x3a, 0x67, 0x95, 0x20, 0x3e,
  0x99, 0xae, 0x3a, 0x3d, 0x21, 0xb4, 0xb9, 0x3c, 0x71, 0x2e, 0xbf, 0xbe,
  0xa2, 0x6b, 0x7c, 0x3e, 0x5b, 0xf0, 0x9d, 0x3e, 0x71, 0x95, 0x9b, 0x3d,
  0xd9, 0x7a, 0xbb, 0xbe, 0x08, 0x4f, 0x82, 0x3e, 0xe5, 0x3e, 0x31, 0xbd,
  0x2e, 0x5f, 0xee, 0x3d, 0xb8, 0xc3, 0x0e, 0xbe, 0x2a, 0x8e, 0x50, 0x3e,
  0x6b, 0x39, 0xda, 0xbd, 0x54, 0x89, 0x76, 0xbd, 0x6f, 0xc6, 0xb6, 0xbe,
  0x58, 0x71, 0x22, 0x3c, 0xcd, 0x07, 0x24, 0xbd, 0x10, 0x11, 0xf9, 0x3e,
  0x4a, 0x7e, 0x9e, 0x3d, 0x2b, 0x6b, 0x7b, 0x3d, 0x84, 0x13, 0x75, 0xbe,
  0x9a, 0x15, 0x94, 0xbd, 0x70, 0x9d, 0xa3, 0x3c, 0xbc, 0x85, 0x30, 0xbe,
  0x38, 0xdd, 0x1a, 0xbe, 0x8d, 0x04, 0xe9, 0x3c, 0x28, 0xbe, 0x20, 0xbe,
  0x55, 0xfd, 0x87, 0xbd, 0x99, 0xc6, 0x22, 0xbd, 0x3e, 0x06, 0xeb, 0xbc,
  0xee, 0x01, 0x8f, 0xbe, 0xe0, 0x15, 0x2c, 0x3e, 0x5f, 0xb2, 0x56, 0x3e,
  0x1e, 0x92, 0x72, 0x3e, 0xf8, 0x32, 0xd8, 0xbe, 0xaa, 0xac, 0x17, 0xbc,
  0x70, 0xd1, 0x91, 0xbd, 0xdd, 0xb8, 0xac, 0xbe, 0xef, 0x04, 0x67, 0xbe,
  0x56, 0xdb, 0x55, 0xbe, 0x51, 0x67, 0x25, 0x3d, 0xa6, 0xc1, 0x97, 0x3e,
  0xe4, 0x1e, 0xbc, 0xbd, 0xf8, 0xf8, 0xd5, 0x3c, 0xe3, 0x15, 0x90, 0xb8,
  0xb3, 0x37, 0xa6, 0xbe, 0x12, 0x68, 0xe9, 0x3c, 0xbf, 0xe8, 0x61, 0x3e,
  0xf0, 0xb0, 0xbe, 0x3e, 0x9f, 0x3c, 0x5f, 0x3d, 0x22, 0x73, 0x4c, 0xbd,
  0xf6, 0xa0, 0xbc, 0x3c, 0x66, 0x55, 0xa0, 0x3d, 0x51, 0x38, 0x69, 0xbe,
  0x63, 0xdc, 0x82, 0x3e, 0xe9, 0x13, 0xde, 0xbe, 0x6b, 0x23, 0x2f, 0xbd,
  0x0a, 0x98, 0x9e, 0xbd, 0x45, 0x0b, 0xa5, 0xbe, 0x12, 0x05, 0x6c, 0x3e,
  0xd2, 0xde, 0x31, 0x3e, 0x7b, 0x03, 0xa6, 0xbd, 0x61, 0x61, 0x6a, 0xbe,
  0x11, 0x6e, 0xa9, 0xbd, 0x83, 0xbb, 0x9b, 0x3d, 0x14, 0x3c, 0xa0, 0x3d,
  0xfe, 0x3c, 0x2b, 0xbf, 0x93, 0xba, 0xab, 0x3e, 0x5b, 0xeb, 0x30, 0xbe,
  0x88, 0xe9, 0xf8, 0x3d, 0x85, 0x7c, 0x80, 0xbe, 0xc6, 0xf0, 0xa8, 0xbc,
  0x2a, 0x00, 0xfe, 0x3d, 0x62, 0x99, 0xa7, 0x3e, 0x97, 0x3b, 0x87, 0x3e,
  0x1f, 0xce, 0x8e, 0xbd, 0x1b, 0x6d, 0xd2, 0x3e, 0xb8, 0x86, 0x0c, 0x3e,
  0x59, 0x4a, 0x93, 0x3e, 0x51, 0x30, 0x2a, 0xbe, 0x76, 0x0d, 0x1a, 0x3e,
  0x2a, 0x04, 0x24, 0x3f, 0xf6, 0xc7, 0x29, 0x3e, 0x86, 0x4e, 0xe5, 0x3d,
  0x26, 0x00, 0x83, 0xbd, 0x98, 0x16, 0xd6, 0x3e, 0xfa, 0x14, 0x00, 0xbe,
  0x89, 0x34, 0x00, 0x3f, 0x93, 0xf3, 0x8a, 0x3d, 0x7f, 0xbc, 0x5d, 0x3e,
  0x26, 0xc9, 0x67, 0x3d, 0xc3, 0xda, 0xfb, 0x3e, 0x56, 0xb3, 0x9c, 0x3e,
  0xf2, 0x8e, 0x86, 0xbe, 0x26, 0xfb, 0xeb, 0x3d, 0x4d, 0x9d, 0xce, 0xbe,
  0x5a, 0x6e, 0x17, 0xbc, 0x1e, 0x42, 0x6a, 0x3c, 0x95, 0xa7, 0xeb, 0x3e,
  0xc0, 0x93, 0xaf, 0xbc, 0x22, 0x07, 0x5d, 0x3e, 0x1b, 0x34, 0x6f, 0xbd,
  0xae, 0x2b, 0x9f, 0x3e, 0x32, 0xae, 0xf8, 0x3d, 0xf1, 0x58, 0xf8, 0x3d,
  0x3d, 0x6d, 0x10, 0xbe, 0xda, 0x41, 0x35, 0x3d, 0xe1, 0xa2, 0x0a, 0xbe,
  0xcd, 0x32, 0x2c, 0xbe, 0x61, 0x08, 0x12, 0x3d, 0x87, 0x10, 0xb6, 0x3d,
  0xfc, 0xa9, 0xdf, 0xbd, 0x9b, 0xa0, 0x77, 0x3d, 0xe7, 0xd3, 0x9c, 0x3e,
  0xfa, 0xa0, 0xec, 0xbd, 0x37, 0xac, 0x6e, 0x3e, 0x08, 0x1f, 0x57, 0x3e,
  0xb3, 0x3e, 0x1b, 0x3e, 0xa8, 0x7f, 0xd3, 0x3e, 0x2e, 0x98, 0x8d, 0x3c,
  0xc0, 0x03, 0x05, 0x3e, 0x0e, 0xfe, 0xa0, 0x3e, 0x30, 0x87, 0xa6, 0x3e,
  0x76, 0x47, 0xf7, 0x3d, 0xec, 0x1e, 0x45, 0xbe, 0xbf, 0x25, 0xfa, 0x3d,
  0xc1, 0xd7, 0x12, 0xbe, 0xd9, 0xeb, 0x74, 0x3e, 0x63, 0x60, 0x3c, 0xbd,
  0x46, 0x43, 0x48, 0xbe, 0x8e, 0xe7, 0x92, 0xbd, 0x64, 0x9d, 0x52, 0xbe,
  0x19, 0xb7, 0x5b, 0xbe, 0x9a, 0xaa, 0x2d, 0x3e, 0xe0, 0x71, 0x87, 0x3e,
  0x9a, 0xd0, 0x19, 0x3e, 0xdd, 0x82, 0xa3, 0x3e, 0xf1, 0x42, 0x03, 0xbe,
  0x53, 0xfc, 0xa2, 0x3e, 0x9c, 0xf2, 0x98, 0x3e, 0xb4, 0xa5, 0x95, 0xbd,
  0x1b, 0x82, 0x8b, 0x3e, 0xb6, 0x10, 0xb9, 0xbe, 0x99, 0x36, 0xbc, 0xbc,
  0x0e, 0x72, 0x01, 0xbd, 0x6e, 0xe9, 0xf7, 0xbe, 0x6e, 0xcb, 0x31, 0xbe,
  0x98, 0xc4, 0xc0, 0x3e, 0x46, 0xe4, 0x8c, 0xbd, 0x0c, 0x8b, 0x0f, 0xbc,
  0xaa, 0x8b, 0xa5, 0xbe, 0x50, 0x5e, 0x47, 0xbe, 0xbe, 0x61, 0x49, 0xbc,
  0x72, 0xff, 0x38, 0xbe, 0x18, 0x58, 0x70, 0xbe, 0x13, 0x13, 0xe8, 0xbe,
  0x0d, 0xc3, 0x3f, 0x3d, 0x01, 0xf3, 0x9d, 0xbd, 0x1e, 0xfb, 0x26, 0xbd,
  0xc8, 0xe2, 0x95, 0xbe, 0x2b, 0x12, 0xa2, 0x3e, 0x75, 0xd7, 0x04, 0xbe,
  0x59, 0x47, 0x85, 0x3e, 0xdf, 0x5a, 0x80, 0x3d, 0x74, 0x8a, 0x2c, 0x3e,
  0x0b, 0xd5, 0x52, 0x3e, 0x74, 0x13, 0x87, 0xbd, 0x95, 0xc3, 0x6f, 0x3e,
  0xcc, 0xbd, 0x17, 0x3e, 0x41, 0xb8, 0xae, 0x3e, 0x4f, 0x03, 0x29, 0xbe,
  0xcd, 0xb4, 0x97, 0x3e, 0x32, 0x4f, 0x2b, 0xbe, 0xe5, 0x94, 0x0c, 0x3e,
  0xd4, 0xac, 0x43, 0x3e, 0xde, 0xc6, 0x97, 0xbd, 0x7c, 0xf7, 0x50, 0x3d,
  0x3a, 0x98, 0x39, 0xbe, 0x82, 0x01, 0xcc, 0x3e, 0x68, 0xec, 0xd7, 0x3e,
  0x5c, 0x2e, 0x52, 0xbe, 0x07, 0x83, 0xed, 0x3b, 0x5b, 0xd5, 0x5a, 0xbe,
  0x44, 0x27, 0x5f, 0xbe, 0x7d, 0xc7, 0x76, 0x3e, 0xae, 0x52, 0x41, 0xbe,
  0xe4, 0x8d, 0xb7, 0xbd, 0x88, 0xc1, 0x29, 0x3d, 0xa4, 0x9c, 0x9a, 0xbe,
  0xf1, 0x46, 0xd4, 0x3e, 0x7f, 0x0c, 0x97, 0x3e, 0xb7, 0xc2, 0x1d, 0x3e,
  0x0b, 0x7a, 0x7f, 0x3e, 0x87, 0x6d, 0xce, 0xbd, 0x4a, 0xa2, 0x02, 0x3f,
  0x19, 0x03, 0xc6, 0xbd, 0x10, 0xaf, 0x4c, 0x3e, 0x3b, 0x61, 0xbe, 0x3e,
  0x6c, 0x20, 0xbe, 0xbc, 0x7b, 0x21, 0x8d, 0x3e, 0x73, 0x2c, 0x66, 0xbd,
  0x2f, 0x8d, 0x77, 0x3d, 0x60, 0xda, 0x60, 0xbd, 0x00, 0xe8, 0xb5, 0xb9,
  0x20, 0x12, 0xab, 0xbc, 0x00, 0x80, 0xca, 0x3b, 0x78, 0x6a, 0x7a, 0xbe,
  0x30, 0x43, 0x70, 0x3d, 0x38, 0x40, 0xf2, 0xbd, 0x90, 0x81, 0xae, 0xbd,
  0x90, 0x70, 0x70, 0xbd, 0x00, 0xc3, 0xa5, 0x3d, 0x64, 0x91, 0x29, 0xbe,
  0x78, 0xe0, 0xf2, 0x3d, 0x50, 0x94, 0xfc, 0x3d, 0xe8, 0x46, 0x4f, 0xbe,
  0x40, 0x6d, 0x17, 0x3e, 0x58, 0x61, 0x2a, 0xbe, 0x44, 0x23, 0x6d, 0xbe,
  0xd0, 0x62, 0xe8, 0xbd, 0x30, 0xd8, 0xbc, 0xbd, 0x3c, 0x77, 0x50, 0xbe,
  0x8c, 0xe6, 0x4a, 0xbe, 0xe0, 0xb7, 0x99, 0x3c, 0xb8, 0x07, 0xcd, 0x3d,
  0x20, 0x9b, 0x1a, 0xbd, 0x44, 0x06, 0x5c, 0xbe, 0x9c, 0xcf, 0x36, 0x3e,
  0xc4, 0xba, 0x26, 0xbe, 0xa0, 0x84, 0x36, 0xbd, 0x80, 0x3e, 0x61, 0x3d,
  0x04, 0x40, 0x1c, 0xbe, 0x80, 0xbd, 0xcc, 0x3b, 0x88, 0x1e, 0xc1, 0xbd,
  0x0f, 0x4f, 0xc8, 0x3b, 0x34, 0x19, 0xc3, 0x3d, 0xfb, 0x98, 0x0d, 0xbe,
  0xbf, 0xcd, 0x31, 0xbe, 0x21, 0xf9, 0xc0, 0x3e, 0x7c, 0xc6, 0x84, 0x3e,
  0xa2, 0xe7, 0x7a, 0x3c, 0x20, 0xcf, 0xfe, 0x3e, 0x6b, 0x03, 0xdd, 0xbd,
  0x92, 0x59, 0xc0, 0xbd, 0x57, 0x6d, 0xc5, 0xbd, 0x0d, 0xc7, 0x00, 0x3f,
  0xec, 0x74, 0xc3, 0x3d, 0xa6, 0xd8, 0xf3, 0x3e, 0xfd, 0x68, 0x7e, 0xbe,
  0xae, 0x53, 0x41, 0xbe, 0x2d, 0x96, 0x7d, 0x3e, 0xc8, 0xab, 0x1c, 0x3f,
  0xd4, 0xe4, 0x34, 0xbc, 0xa0, 0xe7, 0x15, 0xbe, 0x88, 0x2c, 0x4a, 0xbe,
  0x66, 0x14, 0x0a, 0xbd, 0x0e, 0x7f, 0xae, 0xbc, 0xf8, 0xc6, 0x8e, 0xbb,
  0xa6, 0x12, 0xca, 0x3c, 0x8b, 0xe4, 0x71, 0x3e, 0xca, 0x15, 0x2d, 0x3e,
  0x40, 0xa8, 0x53, 0xbe, 0x26, 0x2b, 0x45, 0x3e, 0xd4, 0x03, 0x0d, 0x3e,
  0x18, 0xd2, 0xfd, 0xbd, 0xc6, 0xea, 0x03, 0xbe, 0x17, 0x20, 0x51, 0xbe,
  0x7e, 0x9d, 0x2e, 0xbe, 0x7f, 0x32, 0x5a, 0xbe, 0xd8, 0x91, 0x33, 0x3d,
  0x01, 0xd4, 0x13, 0x3d, 0x91, 0xb7, 0x9f, 0x3e, 0x72, 0x41, 0x60, 0x3d,
  0xf6, 0x03, 0x94, 0xbe, 0x3a, 0x3c, 0x61, 0xbd, 0xfa, 0x63, 0x7e, 0xbe,
  0xad, 0x21, 0x08, 0xbe, 0x37, 0xc3, 0xf5, 0x3d, 0x48, 0xa4, 0xe9, 0xbd,
  0xe8, 0xe3, 0x9d, 0x3e, 0x73, 0x8a, 0x63, 0x3e, 0x28, 0x29, 0x01, 0xbe,
  0x94, 0xdf, 0x27, 0x3e, 0x11, 0x21, 0xdb, 0x3d, 0x69, 0xae, 0xe0, 0xbe,
  0x43, 0xfd, 0x8a, 0x3e, 0xc4, 0xb8, 0xe9, 0xbc, 0xc0, 0x3f, 0xd0, 0x3e,
  0x72, 0xfa, 0x96, 0x3e, 0xe9, 0x42, 0x97, 0x3d, 0x96, 0xb6, 0x03, 0x3e,
  0xb8, 0x0a, 0xf1, 0xbd, 0x66, 0x4d, 0xf0, 0xbd, 0x49, 0x43, 0x77, 0x3e,
  0xd4, 0x89, 0xa5, 0x3e, 0xda, 0x25, 0x29, 0x3e, 0x3e, 0x1f, 0x2c, 0x3e,
  0x50, 0x31, 0x53, 0x3e, 0xa2, 0x25, 0xf1, 0xbd, 0xf0, 0x80, 0x36, 0x3e,
  0xab, 0x18, 0x48, 0xbe, 0x3c, 0xd1, 0x49, 0x3d, 0xbc, 0x95, 0xf1, 0xbe,
  0xfa, 0x9c, 0x61, 0xbd, 0x9d, 0x08, 0xc9, 0xbd, 0x67, 0x7e, 0x76, 0x3c,
  0xd3, 0x25, 0x6d, 0xbd, 0x63, 0x4f, 0xca, 0x3c, 0xbe, 0xf6, 0x1f, 0x3d,
  0x19, 0xd4, 0xed, 0xbd, 0x68, 0x84, 0xa7, 0x3d, 0x62, 0xa6, 0x70, 0xbd,
  0xdd, 0x58, 0x2e, 0xbe, 0x78, 0x8b, 0xa1, 0xbe, 0x04, 0xd8, 0x0b, 0x3e,
  0x35, 0x08, 0x41, 0xbd, 0x66, 0xd6, 0x9e, 0x3e, 0xd2, 0x3d, 0xf1, 0xbd,
  0x35, 0xd6, 0x55, 0xbe, 0xd1, 0x0b, 0x5d, 0x3e, 0xbc, 0x89, 0x21, 0xbe,
  0x3b, 0xaf, 0xad, 0x3e, 0x7c, 0xef, 0x85, 0xbe, 0x54, 0xec, 0x78, 0x3e,
  0x43, 0x06, 0x86, 0x3d, 0xfd, 0xc5, 0x4b, 0xbe, 0x1b, 0x45, 0xa5, 0xbe,
  0x2a, 0x47, 0x9e, 0xbd, 0x58, 0x64, 0x41, 0x3e, 0xe1, 0x8a, 0x2b, 0x3e,
  0x69, 0xcc, 0x60, 0x3e, 0xbf, 0x24, 0x19, 0x3e, 0xbe, 0xc3, 0x70, 0xbe,
  0x0f, 0x03, 0x20, 0xbe, 0x19, 0xc0, 0xc3, 0xbe, 0xd6, 0xbd, 0x2b, 0x3e,
  0x56, 0xf1, 0x8f, 0x3e, 0x6a, 0xe8, 0xfe, 0xbd, 0x47, 0x4a, 0x4a, 0xbe,
  0x9b, 0xb7, 0x83, 0xbe, 0x77, 0x67, 0x87, 0x3e, 0x51, 0x8c, 0x84, 0xbd,
  0xc4, 0x8c, 0x37, 0xbe, 0xa2, 0x4e, 0xa3, 0x3b, 0x9d, 0xc9, 0x17, 0x3d,
  0x76, 0x2a, 0x38, 0xbe, 0x77, 0x87, 0xf9, 0x3d, 0x65, 0x49, 0xf6, 0xbd,
  0xdf, 0x0b, 0x1d, 0xbd, 0xf6, 0xf1, 0xaa, 0xbc, 0x55, 0x23, 0x8d, 0xbd,
  0xa1, 0x25, 0xac, 0x3d, 0x2a, 0x22, 0xe5, 0xbd, 0x16, 0xdb, 0xba, 0x3e,
  0xd0, 0xd7, 0xb7, 0xbe, 0x87, 0x03, 0xca, 0x3d, 0xd5, 0x22, 0x46, 0x3e,
  0xab, 0x8a, 0x3c, 0xbe, 0x1a, 0x51, 0x12, 0xbe, 0x1c, 0xd7, 0x83, 0x3d,
  0x43, 0x39, 0x15, 0xbe, 0xc5, 0xb7, 0x00, 0x3e, 0xee, 0x91, 0xaa, 0xbd,
  0x0e, 0x1d, 0x32, 0x3d, 0xf6, 0x46, 0x68, 0xbe, 0x9c, 0xc9, 0x4e, 0xbd,
  0x55, 0x2c, 0x67, 0xbe, 0x0b, 0xcb, 0x05, 0x3f, 0x95, 0x34, 0xa0, 0x3e,
  0x0a, 0xfb, 0x55, 0x3e, 0xe3, 0xeb, 0x91, 0x3b, 0x39, 0xcc, 0x75, 0x3d,
  0x23, 0x76, 0x97, 0x3e, 0x3d, 0x27, 0xd6, 0xbd, 0xe3, 0xdd, 0x57, 0x3e,
  0x18, 0x07, 0x97, 0xbe, 0xc6, 0xcf, 0x35, 0x3e, 0xd6, 0xe0, 0x1b, 0xbe,
  0x70, 0x92, 0x8e, 0x3d, 0x83, 0xaf, 0xc2, 0x3e, 0xaa, 0x68, 0x27, 0x3e,
  0xd9, 0x8b, 0x72, 0xbd, 0xb1, 0x09, 0x9e, 0x3d, 0xbf, 0xb7, 0x4c, 0x3e,
  0xcb, 0x3e, 0x7c, 0xbe, 0x89, 0xaf, 0x02, 0x3f, 0x8b, 0xe2, 0x82, 0xbe,
  0xe5, 0x7e, 0x86, 0x3d, 0xae, 0x72, 0x4f, 0x3d, 0x38, 0x15, 0xc2, 0x3b,
  0x19, 0xe3, 0xf4, 0xbc, 0x1f, 0x40, 0x19, 0x3c, 0x1c, 0xaa, 0x7b, 0x3d,
  0x47, 0xfb, 0xde, 0x3d, 0x03, 0x06, 0x6e, 0xbe, 0x46, 0x63, 0x56, 0xbe,
  0x6e, 0x66, 0x46, 0x3d, 0x86, 0x43, 0x29, 0x3e, 0xac, 0x0c, 0x9d, 0x3c,
  0x78, 0x22, 0x58, 0xbe, 0xa6, 0x9d, 0x29, 0xbe, 0x47, 0x13, 0x23, 0xbe,
  0x4d, 0x30, 0x56, 0xbd, 0x87, 0xa0, 0x4b, 0x3e, 0xee, 0x38, 0xf9, 0x3d,
  0x41, 0x83, 0x85, 0xbd, 0x53, 0xf1, 0x5b, 0xbe, 0x98, 0xee, 0x7b, 0x3d,
  0x50, 0xff, 0x93, 0xbc, 0x91, 0xa0, 0xbb, 0xbc, 0xf5, 0xee, 0x12, 0x3d,
  0x1e, 0xc2, 0xce, 0x3d, 0x06, 0x79, 0x4d, 0xbe, 0x0d, 0x47, 0x0a, 0xbe,
  0x47, 0x0b, 0x6d, 0x3e, 0xa8, 0xf3, 0xa9, 0x3d, 0x1b, 0x4f, 0xd1, 0x3d,
  0x99, 0x76, 0x46, 0x3e, 0x50, 0x96, 0xd1, 0x3c, 0xec, 0x06, 0x69, 0xbe,
  0x18, 0x68, 0xeb, 0xbd, 0x55, 0x97, 0xd3, 0x3b, 0x10, 0xaf, 0x1c, 0xbc,
  0x73, 0x3e, 0x52, 0xbd, 0x33, 0xbc, 0x49, 0x3e, 0xeb, 0x0a, 0x2e, 0xbe,
  0x63, 0xb2, 0xbc, 0x3e, 0x53, 0x85, 0xa4, 0x3e, 0xbb, 0x61, 0x69, 0x3e,
  0x40, 0xb1, 0x90, 0x3e, 0x4c, 0x48, 0x18, 0xbc, 0x23, 0x88, 0xec, 0xbd,
  0xac, 0xaa, 0xbf, 0x3d, 0xcc, 0x39, 0xac, 0x3e, 0x27, 0x6b, 0x1a, 0xbe,
  0x32, 0x7c, 0xbb, 0x3e, 0xbf, 0x3b, 0xc0, 0xbe, 0x49, 0xe8, 0xfe, 0xbd,
  0x3b, 0x88, 0xe3, 0xbd, 0x38, 0x2d, 0x8f, 0xbd, 0x49, 0x1f, 0x00, 0xbd,
  0x85, 0xa9, 0x07, 0xbe, 0xfb, 0x93, 0x1d, 0xbe, 0x3f, 0x6d, 0x61, 0x3e,
  0x4f, 0x08, 0x60, 0x3e, 0x9a, 0x3a, 0xa8, 0xbe, 0x07, 0x1b, 0xc2, 0x3c,
  0x16, 0xa2, 0x06, 0xbf, 0x5c, 0x41, 0x8d, 0x3e, 0x5f, 0x44, 0x52, 0xbe,
  0x45, 0x7f, 0xe7, 0x3e, 0xcd, 0x9c, 0xbf, 0x3e, 0x26, 0x0e, 0x9f, 0x3d,
  0xd0, 0x3c, 0x62, 0xbd, 0x7b, 0xe6, 0x04, 0xbe, 0x72, 0x24, 0xe8, 0xbd,
  0x7f, 0xa2, 0x81, 0xbe, 0x0e, 0xf9, 0xeb, 0xbd, 0xa5, 0xeb, 0xf8, 0xbd,
  0x4c, 0xb4, 0x80, 0x3e, 0x5b, 0xcd, 0x80, 0xbe, 0x6a, 0x09, 0x6a, 0x3e,
  0x5d, 0x25, 0x10, 0x3e, 0xe3, 0xb1, 0xed, 0xbd, 0x68, 0x53, 0x4c, 0xbe,
  0xda, 0xad, 0xd0, 0xbe, 0xf2, 0x0e, 0x65, 0x3e, 0x60, 0x71, 0x88, 0x3c,
  0x71, 0x51, 0xa9, 0xbe, 0x4a, 0xb8, 0x45, 0xbc, 0xd8, 0xb0, 0x6e, 0x3d,
  0x86, 0x71, 0x70, 0x3e, 0xf8, 0xc1, 0x93, 0x3e, 0x49, 0x18, 0x0d, 0xbe,
  0x30, 0xad, 0xad, 0xbe, 0x89, 0x31, 0x22, 0xbe, 0xdf, 0x6a, 0xe4, 0xbe,
  0xc7, 0x11, 0x13, 0x3e, 0xe6, 0x05, 0xc0, 0xbd, 0x2b, 0x12, 0x29, 0x3e,
  0xc3, 0xa2, 0x9d, 0x3b, 0x18, 0xd5, 0x21, 0x3e, 0x81, 0x25, 0x28, 0xbe,
  0x9c, 0x31, 0x18, 0xbd, 0x1c, 0x98, 0xfb, 0xbc, 0xc1, 0xee, 0x9b, 0x3e,
  0xad, 0x37, 0xa2, 0xbe, 0x02, 0xa8, 0xa8, 0x3e, 0x2c, 0xaf, 0x99, 0xbe,
  0x74, 0x8f, 0x9e, 0xbd, 0xd9, 0x1e, 0x09, 0xbe, 0x86, 0x1e, 0x6f, 0x3e,
  0x63, 0x8f, 0x04, 0xbe, 0xc8, 0x66, 0x05, 0xbe, 0xc8, 0xf7, 0x2e, 0x3d,
  0xd0, 0x50, 0x76, 0x3d, 0xdd, 0xa5, 0x55, 0xbe, 0x57, 0x69, 0x8c, 0xbe,
  0x01, 0x1a, 0x12, 0x3e, 0x26, 0xf4, 0x54, 0x3e, 0x94, 0x32, 0x09, 0x3e,
  0x10, 0x45, 0xe0, 0xbc, 0x8a, 0x34, 0x0c, 0x3d, 0x3e, 0x77, 0x99, 0x3e,
  0x9d, 0x8c, 0xda, 0x3e, 0x59, 0x74, 0x50, 0x3d, 0xb3, 0xd2, 0x8d, 0xbd,
  0x69, 0x99, 0xbd, 0xbe, 0xa8, 0x97, 0xdd, 0xbe, 0xf7, 0xe1, 0xbc, 0x3e,
  0xe7, 0xf5, 0x4f, 0x3d, 0x7f, 0x9a, 0x9c, 0x3e, 0x80, 0x05, 0x8a, 0x3e,
  0xd1, 0xd1, 0x51, 0x3d, 0x1f, 0xd1, 0xdf, 0x3c, 0xed, 0x59, 0xa3, 0xbd,
  0x00, 0x76, 0x74, 0x3d, 0x63, 0x88, 0xfb, 0x3d, 0x27, 0x1f, 0x85, 0x3d,
  0x9e, 0x13, 0xb0, 0x3e, 0xc4, 0xe2, 0x80, 0x3e, 0xa2, 0x01, 0x4d, 0xbe,
  0x2e, 0xfc, 0x15, 0x3e, 0xaf, 0x8e, 0x95, 0x3d, 0x34, 0x50, 0x80, 0xbe,
  0xbb, 0xfd, 0x70, 0xbe, 0xd8, 0x1a, 0x3b, 0x3e, 0xaa, 0xfe, 0xab, 0xbd,
  0xeb, 0xeb, 0x34, 0xbe, 0xe7, 0x82, 0xea, 0x3c, 0xa0, 0xcb, 0x5a, 0x3e,
  0xc5, 0x81, 0x41, 0xbe, 0x91, 0x01, 0x87, 0xbd, 0xaf, 0xd8, 0xa8, 0xbd,
  0x7d, 0xf6, 0x87, 0xbd, 0xcd, 0xa4, 0xa0, 0x3c, 0x6f, 0x68, 0x07, 0xbe,
  0x7d, 0xb3, 0x66, 0xbe, 0x9f, 0xd3, 0xc3, 0xbc, 0x2d, 0xd5, 0x2f, 0xbe,
  0x38, 0x00, 0x2c, 0xbe, 0x42, 0xeb, 0x26, 0xbe, 0x18, 0xe7, 0x0b, 0x3e,
  0x20, 0x9b, 0x06, 0xbd, 0x86, 0x55, 0x35, 0xbe, 0x3e, 0x16, 0x05, 0xbe,
  0x41, 0x08, 0x2e, 0xbd, 0xa1, 0x13, 0x55, 0xbe, 0x32, 0x49, 0x08, 0xbe,
  0x8e, 0x0a, 0x5f, 0x3e, 0x66, 0x6e, 0x1f, 0x3e, 0x2b, 0xcc, 0xa1, 0x3d,
  0xa8, 0x75, 0x65, 0x3d, 0x29, 0xab, 0x1d, 0x3e, 0x08, 0x0f, 0x1e, 0xbe,
  0x80, 0xb6, 0xa3, 0x3c, 0xa0, 0x3e, 0x17, 0x3e, 0xf8, 0xfc, 0xc4, 0xbd,
  0x18, 0xc4, 0x41, 0x3e, 0x80, 0x07, 0xd8, 0x3d, 0x9c, 0x67, 0x1b, 0x3e,
  0x08, 0xb1, 0xd2, 0xbd, 0xfc, 0x7e, 0x74, 0x3e, 0x24, 0xd1, 0x64, 0xbe,
  0x0c, 0x2d, 0x01, 0xbe, 0x00, 0x49, 0x2a, 0xbc, 0xc0, 0x50, 0xa7, 0xbd,
  0xf8, 0x7b, 0x24, 0xbe, 0x68, 0x98, 0x06, 0xbe, 0xa8, 0x21, 0x8d, 0xbd,
  0xe8, 0x00, 0x8d, 0xbd, 0x30, 0x9c, 0x12, 0xbd, 0xa8, 0x3e, 0x8c, 0xbd,
  0x3c, 0xd9, 0x38, 0x3e, 0xa0, 0x1b, 0xb1, 0xbd, 0x80, 0x74, 0xb8, 0xbd,
  0xc0, 0x5e, 0xb0, 0x3d, 0xd0, 0xda, 0x17, 0xbd, 0xe0, 0x69, 0xe4, 0xbd,
  0xcc, 0x13, 0x47, 0x3e, 0xdc, 0xcf, 0x06, 0xbe, 0x60, 0xdd, 0x88, 0x3c,
  0xbc, 0x71, 0x46, 0xbe, 0x20, 0x9d, 0x52, 0xbd, 0x20, 0x6f, 0x6e, 0x3e,
  0x70, 0x46, 0x49, 0xbe, 0xc6, 0x48, 0x48, 0x3e, 0x63, 0xeb, 0x34, 0xbd,
  0x2e, 0xf2, 0x67, 0xbe, 0xf6, 0xde, 0x77, 0xbe, 0x96, 0xd2, 0xe5, 0xbe,
  0x4b, 0x7d, 0x6e, 0x3e, 0x2a, 0xc4, 0x1e, 0x3d, 0x28, 0x8c, 0x2a, 0xbe,
  0xb5, 0x3d, 0x2b, 0xbe, 0x93, 0xe9, 0x57, 0xbc, 0xa1, 0xe1, 0xaa, 0x3e,
  0xe7, 0xc9, 0xad, 0xbe, 0xe3, 0x9f, 0x6a, 0x3e, 0x72, 0xae, 0x03, 0xbf,
  0x47, 0x08, 0x90, 0x3e, 0xfd, 0x2b, 0xc3, 0xbd, 0x97, 0x77, 0x54, 0xbe,
  0x12, 0xf6, 0x9a, 0xbe, 0x26, 0x45, 0x75, 0xbd, 0x46, 0x01, 0x25, 0x3e,
  0x44, 0xf5, 0x2c, 0xbe, 0xf9, 0x46, 0xaa, 0x3e, 0x7b, 0xc0, 0xaf, 0xbd,
  0x36, 0xf3, 0xb3, 0x3e, 0x47, 0xd3, 0x0d, 0xbf, 0x85, 0x1a, 0x97, 0x3d,
  0xc5, 0x15, 0xbb, 0xbd, 0x2d, 0x23, 0x19, 0x3c, 0xde, 0x97, 0x6b, 0x3e,
  0x93, 0x00, 0x88, 0x3e, 0xfd, 0x70, 0x50, 0x3c, 0x7f, 0x4b, 0x86, 0x3e,
  0xdc, 0xc1, 0x43, 0x3d, 0x26, 0x09, 0xc9, 0xbe, 0x5c, 0x17, 0xbd, 0x3d,
  0x3f, 0x16, 0x09, 0x3e, 0xc8, 0x3c, 0x1e, 0xbd, 0xc5, 0x76, 0xb4, 0x3e,
  0x7e, 0x0e, 0xb0, 0xbe, 0x00, 0x91, 0x67, 0x3d, 0x95, 0x5f, 0x57, 0x3e,
  0x98, 0xb5, 0x8f, 0xbe, 0x99, 0x2c, 0x8d, 0xbd, 0xfd, 0x9c, 0x21, 0xbe,
  0xd1, 0x6e, 0x1c, 0xbd, 0xd2, 0xdb, 0x9b, 0xbb, 0xe9, 0xe0, 0x65, 0x3e,
  0xb3, 0x11, 0x3c, 0x3e, 0xd3, 0x91, 0x79, 0xbd, 0xeb, 0xc0, 0x4c, 0x3d,
  0x7c, 0x80, 0x1d, 0x3e, 0xfa, 0x3c, 0x85, 0x39, 0x79, 0x85, 0x7c, 0x3e,
  0x30, 0xed, 0x9b, 0x3e, 0x10, 0x36, 0x2f, 0xbe, 0x09, 0xae, 0x83, 0x3e,
  0x9f, 0x4c, 0x46, 0x3d, 0xec, 0xb0, 0x3a, 0x3d, 0x80, 0x57, 0x8e, 0xbe,
  0x3c, 0x1a, 0x0c, 0x3e, 0x3f, 0xda, 0x92, 0x3d, 0x00, 0xc2, 0x90, 0xbd,
  0x09, 0xee, 0x42, 0xbe, 0x35, 0xc1, 0x7d, 0xbd, 0xee, 0x51, 0x7f, 0x3e,
  0x9c, 0xfd, 0xd1, 0xbd, 0x6b, 0x82, 0xd5, 0x3d, 0x05, 0x5e, 0x88, 0x3e,
  0xc2, 0xaf, 0xa4, 0xbd, 0xb1, 0xb9, 0x0b, 0xbe, 0xda, 0xd0, 0x24, 0xbe,
  0x75, 0xc2, 0x0d, 0xbf, 0xaa, 0x14, 0x9c, 0x3e, 0xbe, 0x19, 0xc1, 0x3e,
  0x76, 0xc3, 0xc7, 0x3d, 0x07, 0x35, 0x0d, 0x3e, 0x2b, 0x71, 0xbb, 0xbd,
  0x66, 0x31, 0x59, 0xbd, 0x7d, 0x3f, 0x9e, 0xbd, 0xc6, 0x2f, 0x32, 0x3e,
  0xe3, 0x60, 0x01, 0x3e, 0x7a, 0x10, 0x00, 0xbe, 0xea, 0xa1, 0x20, 0xbe,
  0x37, 0xdb, 0xa5, 0xbd, 0xe3, 0x51, 0xb4, 0x3c, 0x3f, 0xee, 0x6f, 0x3c,
  0x5f, 0x1d, 0x49, 0x3e, 0xde, 0xb7, 0xc5, 0xbe, 0x33, 0x86, 0xa9, 0x3e,
  0xab, 0x9e, 0x2b, 0xbe, 0x0a, 0x80, 0x6a, 0x3e, 0x80, 0xf4, 0x90, 0x3d,
  0x87, 0x65, 0x92, 0x3e, 0x6a, 0x2f, 0x9d, 0x3e, 0xe5, 0x46, 0xd7, 0x3d,
  0x86, 0x7e, 0x5a, 0x3d, 0xd9, 0x78, 0xe7, 0x3d, 0x8b, 0x09, 0x41, 0xbe,
  0xb6, 0x76, 0xa9, 0xbd, 0x4d, 0xea, 0x1c, 0x3d, 0x1a, 0xb6, 0xbf, 0x3e,
  0x40, 0xf2, 0xc5, 0xbd, 0x1a, 0xaa, 0xa0, 0xbe, 0x5c, 0x65, 0x4d, 0xbc,
  0x2a, 0x90, 0x4f, 0x3e, 0x7c, 0xff, 0x1b, 0xbe, 0xee, 0x2c, 0x85, 0xbd,
  0xd5, 0x45, 0x78, 0x3d, 0xad, 0xfc, 0x8f, 0x3c, 0x10, 0xe5, 0x93, 0x3e,
  0x73, 0x69, 0x01, 0x3e, 0x66, 0x38, 0x99, 0x3e, 0xf9, 0xfc, 0xf8, 0x3d,
  0xe1, 0x97, 0xa0, 0x3e, 0xc6, 0x45, 0x0d, 0x3e, 0xc5, 0xdb, 0x88, 0x3d,
  0xf9, 0x42, 0x8a, 0x3e, 0x5b, 0x14, 0x45, 0x3d, 0x69, 0x81, 0x9a, 0x3e,
  0x8a, 0x59, 0x37, 0x3e, 0x5b, 0x80, 0x50, 0x3e, 0x40, 0xfe, 0x93, 0xbe,
  0x18, 0xd2, 0xf6, 0xbd, 0xc1, 0xb0, 0xd9, 0x3d, 0xea, 0xa4, 0xeb, 0xbd,
  0x57, 0x98, 0xb6, 0xbd, 0x41, 0xe6, 0x3f, 0x3e, 0x02, 0x21, 0x86, 0xbd,
  0xa0, 0xe8, 0x03, 0xbe, 0xe2, 0x3b, 0x8c, 0xbe, 0xa9, 0x59, 0x15, 0xbd,
  0x93, 0xda, 0x52, 0xbd, 0xb1, 0x51, 0x20, 0x3d, 0x2a, 0x83, 0x1a, 0x3f,
  0x08, 0x1a, 0x44, 0xbd, 0x5f, 0x2e, 0xf8, 0x3e, 0xc2, 0x15, 0x18, 0xbe,
  0xc5, 0x3a, 0x25, 0x3d, 0x27, 0x93, 0xd9, 0x3e, 0x6e, 0xf4, 0x4d, 0xbd,
  0xd9, 0x6f, 0xf2, 0x3e, 0x1e, 0x51, 0x05, 0x3e, 0x14, 0x4e, 0x9d, 0x3e,
  0x03, 0xcf, 0xe8, 0x3c, 0xa4, 0x43, 0xd1, 0x3e, 0x9d, 0xd3, 0x82, 0x3e,
  0x08, 0x4c, 0x14, 0xbe, 0x23, 0xa7, 0xcb, 0x3e, 0xb3, 0x11, 0x34, 0xbc,
  0x76, 0x01, 0xc8, 0x3e, 0xa3, 0x63, 0x34, 0x3e, 0x13, 0xe8, 0x02, 0x3f,
  0x6d, 0xe5, 0x00, 0xbf, 0xc1, 0x8d, 0xb9, 0x3d, 0x7f, 0x0c, 0xd4, 0x3d,
  0x4a, 0x7d, 0x12, 0xbe, 0xe3, 0x8f, 0x65, 0x3e, 0x85, 0xf2, 0x06, 0x3e,
  0x15, 0xe3, 0xcd, 0x3d, 0xf6, 0x65, 0xc9, 0x3e, 0x78, 0x00, 0x87, 0x3e,
  0x3b, 0x20, 0x05, 0x3a, 0xb9, 0xf6, 0x9c, 0x3e, 0x05, 0xf7, 0x99, 0x3e,
  0x35, 0x3f, 0xb9, 0x3e, 0xd5, 0xfc, 0xa4, 0xbe, 0x2a, 0xfd, 0x99, 0xbd,
  0xa3, 0xfc, 0xf0, 0xbc, 0x4f, 0x20, 0x83, 0x3e, 0xe1, 0xa7, 0x39, 0x3d,
  0xed, 0x67, 0x42, 0xbe, 0x3d, 0x59, 0x9d, 0x3d, 0xd5, 0xf8, 0x91, 0xbe,
  0x5c, 0x6b, 0x86, 0xbd, 0xe8, 0x1e, 0x1b, 0x3c, 0x67, 0x40, 0x67, 0x3e,
  0x8d, 0xe3, 0xac, 0xbd, 0xfc, 0x0f, 0xe5, 0xbd, 0xd6, 0x3d, 0x59, 0xbe,
  0xc4, 0x79, 0x35, 0xbe, 0x8c, 0x08, 0x9a, 0x3d, 0xe9, 0x87, 0x86, 0xbe,
  0x46, 0x71, 0x09, 0xbe, 0x3b, 0x58, 0xc2, 0xbe, 0xd7, 0xe4, 0xd0, 0x3e,
  0x96, 0x4f, 0x16, 0x3e, 0xc2, 0x2d, 0x28, 0x3e, 0x1b, 0xc6, 0x9c, 0x3e,
  0x7f, 0x76, 0x64, 0x3e, 0x6a, 0x2f, 0x43, 0x3e, 0xbd, 0x86, 0xaf, 0xbb,
  0xf0, 0xa8, 0xa6, 0xbd, 0xed, 0x58, 0x06, 0xbe, 0x1f, 0x70, 0x78, 0xbe,
  0x37, 0x4d, 0x5d, 0xbd, 0x38, 0x52, 0xe7, 0x3c, 0x64, 0x68, 0x32, 0x3d,
  0xda, 0x0b, 0x53, 0x3e, 0x5f, 0x73, 0x10, 0x3d, 0x16, 0xe9, 0x72, 0x3d,
  0xfb, 0xdc, 0x82, 0xbd, 0xb4, 0x2b, 0x67, 0x3e, 0x62, 0x6d, 0xac, 0x3c,
  0xb7, 0x02, 0x19, 0xbe, 0xe4, 0xcb, 0x2b, 0x3e, 0x79, 0xc1, 0x32, 0xbd,
  0xa8, 0x46, 0x4c, 0xbd, 0x9e, 0x72, 0xef, 0xbd, 0x4c, 0x8d, 0x3f, 0xbe,
  0x9a, 0xcf, 0x6e, 0xbe, 0x4f, 0xa6, 0x38, 0xbe, 0xc3, 0x90, 0x25, 0xbe,
  0xd4, 0x12, 0xd9, 0x3d, 0x2e, 0x8f, 0x70, 0xbe, 0x93, 0xa3, 0x28, 0xbe,
  0xdf, 0x18, 0x5b, 0x3e, 0xf0, 0x75, 0xb2, 0xbc, 0x60, 0x1e, 0x9e, 0xbd,
  0xc2, 0xdb, 0x15, 0xbe, 0x58, 0x18, 0x15, 0xbd, 0x86, 0xaa, 0x3f, 0x3e,
  0x49, 0xf0, 0xac, 0x3c, 0x97, 0xf5, 0x09, 0x3e, 0xe4, 0x22, 0x32, 0xbe,
  0x0c, 0x94, 0x37, 0x3e, 0x83, 0xa6, 0x70, 0xbe, 0x89, 0x11, 0x32, 0x3e,
  0x1e, 0xdb, 0xc8, 0x3d, 0x9b, 0x27, 0xa9, 0xbe, 0x69, 0x7a, 0x48, 0x3e,
  0x6b, 0xaf, 0x8e, 0xbc, 0x98, 0xec, 0xc0, 0x3e, 0xfe, 0x75, 0x3d, 0xbe,
  0x91, 0x29, 0xdc, 0x3d, 0x4d, 0xaa, 0x1a, 0x3e, 0xd5, 0x62, 0x39, 0xbe,
  0x5f, 0x45, 0xfc, 0xbd, 0x77, 0xc7, 0xb4, 0xbe, 0x2e, 0xae, 0xcd, 0x3d,
  0xac, 0x5d, 0x30, 0xbe, 0xaf, 0x93, 0x91, 0x3d, 0xf5, 0x7e, 0xe5, 0x3e,
  0xed, 0x33, 0xa3, 0x3e, 0xf3, 0x41, 0x8f, 0xbe, 0x7b, 0x06, 0x46, 0xbe,
  0xfd, 0xeb, 0x3e, 0xbd, 0xab, 0x57, 0xc6, 0xbd, 0x36, 0xef, 0x14, 0xbe,
  0xf1, 0x60, 0x47, 0xbe, 0x74, 0x83, 0x81, 0x3e, 0x2f, 0x99, 0x21, 0xbe,
  0xee, 0x40, 0x97, 0xbe, 0x57, 0x56, 0xed, 0xbd, 0x47, 0x40, 0xbd, 0xbb,
  0x69, 0xfc, 0xdf, 0x3d, 0xcd, 0x46, 0x95, 0x3e, 0xa6, 0xf9, 0xff, 0xff,
  0x04, 0x00, 0x00, 0x00, 0x00, 0x04, 0x00, 0x00, 0x6a, 0xf5, 0x46, 0x3f,
  0x9b, 0xd5, 0xf4, 0x3e, 0x98, 0x9a, 0x5e, 0xbe, 0x26, 0xdc, 0x84, 0x3e,
  0x4d, 0xe2, 0xaa, 0x3e, 0x93, 0x66, 0xf5, 0xbd, 0xbb, 0xab, 0x4b, 0xbe,
  0x80, 0x4f, 0x86, 0xbd, 0xd5, 0x97, 0xd1, 0x3e, 0x5d, 0x49, 0x33, 0x3e,
  0xe0, 0x83, 0xa8, 0xbe, 0x30, 0xa4, 0x9f, 0xbd, 0x61, 0x7a, 0x03, 0x3f,
  0x6c, 0xb2, 0x0e, 0x3f, 0x07, 0x48, 0xa0, 0xbe, 0xfe, 0xc1, 0x97, 0xbe,
  0xfd, 0x75, 0x05, 0x3f, 0x38, 0x14, 0x6c, 0xbe, 0xcd, 0x3b, 0xc0, 0xbd,
  0x90, 0x5f, 0xc0, 0xbe, 0x6f, 0xd6, 0x1b, 0x3f, 0xb9, 0xf4, 0xcc, 0x3c,
  0xae, 0x60, 0xaa, 0xbe, 0xfa, 0x2d, 0xc9, 0xbe, 0x8c, 0x4f, 0x81, 0xbe,
  0xfb, 0xb2, 0xd7, 0x3e, 0x37, 0x19, 0xf5, 0xbd, 0xbe, 0xde, 0xa2, 0x3e,
  0x57, 0x4c, 0x2f, 0x3f, 0xed, 0x6a, 0xa4, 0xbd, 0x90, 0xb8, 0xa9, 0x3e,
  0xfb, 0x84, 0xe7, 0x3d, 0x5a, 0x5e, 0x42, 0xbe, 0x88, 0x95, 0x83, 0x3e,
  0x8a, 0x18, 0x0a, 0xbe, 0x3f, 0x0c, 0x01, 0xbe, 0xce, 0x95, 0xb0, 0xbe,
  0x3c, 0x2f, 0x0b, 0xbf, 0x1a, 0xae, 0xd9, 0x3e, 0xb8, 0x31, 0x5f, 0xbe,
  0x06, 0x29, 0x07, 0xbf, 0x3f, 0x3a, 0x28, 0xbd, 0x3c, 0x45, 0xf7, 0x3d,
  0x2d, 0x8b, 0x9d, 0x3e, 0x87, 0x31, 0x88, 0xbf, 0x6a, 0xb4, 0xbe, 0xbe,
  0xf6, 0xf4, 0x58, 0x3e, 0xb0, 0xad, 0x94, 0xbe, 0x6d, 0x0b, 0xd2, 0x3e,
  0x4a, 0x4d, 0x3a, 0xbe, 0x70, 0x5e, 0x55, 0x3e, 0x0a, 0x89, 0x44, 0xbe,
  0x1f, 0xa1, 0xe2, 0xbe, 0xe1, 0xb0, 0x06, 0xbd, 0x8c, 0x02, 0x3b, 0xbe,
  0x6e, 0x4b, 0x95, 0xbe, 0xe6, 0x04, 0x10, 0x3f, 0x62, 0x04, 0x73, 0x3e,
  0x5c, 0x85, 0x2b, 0x3f, 0xd2, 0x8e, 0xcb, 0xbd, 0x16, 0x3e, 0xd9, 0xbe,
  0xa5, 0x78, 0x0c, 0xbf, 0x38, 0xa6, 0x0a, 0xbd, 0xcd, 0x64, 0xa8, 0x3e,
  0x22, 0x1a, 0x2a, 0xbf, 0xe1, 0x8c, 0x4e, 0x3e, 0x4c, 0x4c, 0x25, 0xbe,
  0x45, 0x3b, 0x1b, 0x3e, 0xe6, 0x73, 0x55, 0x3e, 0x09, 0x13, 0x87, 0xbd,
  0x66, 0xf1, 0x60, 0xbe, 0xe6, 0x9f, 0xc1, 0xbc, 0xea, 0xa4, 0xcd, 0x3d,
  0x31, 0x78, 0x28, 0x3e, 0x55, 0x93, 0xc1, 0xbe, 0x0c, 0xf9, 0x3b, 0x3e,
  0xdd, 0x23, 0x37, 0x3f, 0x0a, 0x0f, 0x74, 0x3e, 0x9b, 0x65, 0xdd, 0xbc,
  0x1a, 0x8c, 0x5b, 0xbe, 0xe4, 0xa8, 0x40, 0x3e, 0xf2, 0xaf, 0x93, 0xbd,
  0xa0, 0x87, 0xfb, 0xbd, 0xaf, 0x6e, 0x02, 0xbe, 0x6c, 0x8b, 0xdf, 0x3e,
  0xc7, 0x02, 0xb9, 0xbe, 0x82, 0x62, 0x3b, 0xbe, 0x7f, 0x68, 0x1a, 0x3e,
  0x37, 0xc5, 0x98, 0xbd, 0xc8, 0xd1, 0x27, 0x3e, 0x53, 0x85, 0x21, 0xbf,
  0xed, 0xec, 0x09, 0x3d, 0x2f, 0x6e, 0x90, 0xbe, 0xc0, 0x54, 0xae, 0x3d,
  0x40, 0xcb, 0x42, 0x3e, 0xeb, 0x07, 0x85, 0x3e, 0x6d, 0x06, 0xa7, 0x3e,
  0x6a, 0x7e, 0xbc, 0x3c, 0x8c, 0xcf, 0x12, 0xbf, 0x2d, 0xc3, 0xd0, 0xbe,
  0xf3, 0xed, 0x21, 0x3f, 0x9d, 0x1b, 0xc2, 0x3d, 0x7c, 0x76, 0x66, 0x3e,
  0x70, 0x97, 0xad, 0x3d, 0x46, 0x4e, 0xda, 0x3e, 0x88, 0xdc, 0xd5, 0x3e,
  0x75, 0x2e, 0xd5, 0xbe, 0xda, 0xb8, 0x9f, 0xbe, 0x77, 0xd4, 0x9e, 0xbe,
  0xac, 0xaa, 0x2a, 0xbe, 0xe5, 0x43, 0x03, 0x3f, 0x23, 0x52, 0xe9, 0x3e,
  0xca, 0xc8, 0x30, 0xbf, 0xcc, 0x34, 0xfb, 0x3d, 0x84, 0xb1, 0x34, 0x3e,
  0x1f, 0x92, 0x10, 0x3f, 0x64, 0x3f, 0xf4, 0xbd, 0xde, 0xb9, 0xa6, 0xbd,
  0xe2, 0x96, 0x80, 0x3e, 0x4d, 0x85, 0x06, 0x3e, 0x07, 0xd6, 0xb7, 0xbe,
  0x39, 0x2e, 0x99, 0xbe, 0xbf, 0xcd, 0x81, 0x3e, 0x5d, 0xdb, 0x6b, 0x3d,
  0x8f, 0x90, 0x0a, 0x3f, 0x05, 0xe6, 0x02, 0x3e, 0x1d, 0x27, 0xb8, 0x3d,
  0xaf, 0x6f, 0x87, 0x3e, 0x45, 0x77, 0x08, 0xbf, 0x1b, 0x1f, 0x00, 0xbe,
  0x4c, 0xe7, 0xda, 0xbd, 0xaa, 0xba, 0xd8, 0xbe, 0x88, 0xca, 0x09, 0x3f,
  0x1f, 0x24, 0xb3, 0x3d, 0x24, 0xb4, 0x3c, 0x3d, 0x0d, 0x88, 0x87, 0xbe,
  0xca, 0x34, 0x14, 0xbd, 0x56, 0x8c, 0xa0, 0x3e, 0xc8, 0xbe, 0x50, 0x3e,
  0x36, 0x46, 0x9d, 0xbe, 0x3c, 0x69, 0x0b, 0xbf, 0x00, 0xd9, 0x75, 0xbf,
  0x43, 0x21, 0x03, 0xbe, 0xe9, 0x40, 0x12, 0x3e, 0x9d, 0x04, 0x8f, 0x3e,
  0x82, 0x32, 0x86, 0x3e, 0x2d, 0x5f, 0x14, 0x3f, 0x51, 0x15, 0x00, 0xbf,
  0x2f, 0x69, 0x30, 0x3e, 0x6a, 0x1b, 0xc7, 0xbe, 0x4a, 0x00, 0xff, 0xbd,
  0x11, 0xe7, 0xa9, 0xbe, 0xbb, 0x1e, 0x4a, 0xbf, 0xf0, 0x58, 0x12, 0x3d,
  0x77, 0x0b, 0x82, 0x3e, 0x95, 0xde, 0xe8, 0x3e, 0x12, 0xc4, 0x3f, 0xbe,
  0x78, 0x17, 0xb7, 0x3e, 0x0c, 0x09, 0x79, 0xbe, 0x8b, 0xf9, 0x5b, 0x3e,
  0x64, 0x86, 0x00, 0xbf, 0xf9, 0x71, 0xb4, 0x3e, 0x5a, 0xbd, 0xd0, 0x3e,
  0xdb, 0x21, 0x8d, 0xbe, 0xd4, 0x57, 0x9a, 0xbe, 0x9e, 0x9e, 0xc1, 0xbd,
  0x9b, 0xf2, 0x9e, 0xbc, 0x3d, 0x91, 0xed, 0x3d, 0x7d, 0xf6, 0x32, 0xbf,
  0x5f, 0x9a, 0x8c, 0xbe, 0x85, 0x5e, 0x01, 0x3f, 0x8a, 0x61, 0x02, 0xbe,
  0xd3, 0x6c, 0xb1, 0x3e, 0xef, 0x26, 0x34, 0xbf, 0x44, 0x4d, 0x58, 0xbe,
  0x30, 0xff, 0x23, 0xbe, 0xbc, 0xfc, 0xff, 0xbe, 0xa9, 0x86, 0x94, 0x3e,
  0xa8, 0x06, 0x35, 0xbb, 0xb9, 0x92, 0xf8, 0x3e, 0x72, 0xad, 0x87, 0x3e,
  0x5d, 0x43, 0xb7, 0x3e, 0x7c, 0x8a, 0xaa, 0xbc, 0xe3, 0x8e, 0x2e, 0x3e,
  0xf8, 0x08, 0x6b, 0x3e, 0x4e, 0x33, 0x98, 0xbd, 0xe3, 0xd8, 0x30, 0x3e,
  0x0f, 0xa8, 0xd2, 0x3e, 0x87, 0xf4, 0x59, 0xbf, 0x03, 0x81, 0xd2, 0xbe,
  0xf8, 0x14, 0xcd, 0xbe, 0x24, 0x89, 0x90, 0x3d, 0xf8, 0xce, 0x8b, 0xbe,
  0x55, 0xee, 0xf3, 0x3e, 0xb9, 0x3a, 0xbe, 0xbe, 0xb6, 0x27, 0xb5, 0x3b,
  0xdd, 0x87, 0x25, 0x3f, 0x0e, 0xe8, 0x3f, 0x3d, 0x7c, 0xa0, 0x07, 0x3e,
  0xdb, 0x19, 0xa6, 0x3d, 0x9d, 0x97, 0x0b, 0x3f, 0x36, 0x25, 0xa4, 0x3e,
  0x7d, 0x64, 0x04, 0x3f, 0x8a, 0xb9, 0xf4, 0xbc, 0x87, 0xf0, 0xca, 0xbd,
  0x7a, 0x00, 0x10, 0xbe, 0xb4, 0xcc, 0xc9, 0x3a, 0x61, 0x16, 0x77, 0x3d,
  0x77, 0xd0, 0x15, 0x3e, 0xcf, 0x22, 0x44, 0xbe, 0x04, 0x3a, 0xca, 0xbe,
  0x70, 0x10, 0xb3, 0x3e, 0x86, 0xf5, 0xc6, 0xbe, 0x05, 0x45, 0x30, 0x3e,
  0xe9, 0x8a, 0xe8, 0xbd, 0x32, 0xe7, 0xd3, 0xbe, 0xf6, 0x8a, 0x33, 0x3e,
  0x84, 0x57, 0x91, 0xbe, 0xd2, 0x8f, 0x20, 0xbf, 0x6a, 0x54, 0x92, 0x3e,
  0x0a, 0x00, 0x51, 0x3f, 0xf9, 0xc7, 0xf6, 0x3e, 0x67, 0x0b, 0xd9, 0xbd,
  0x08, 0xe5, 0xd5, 0xbe, 0x39, 0xcf, 0xec, 0xbe, 0xd2, 0x43, 0xe6, 0xbe,
  0xf1, 0xbc, 0x37, 0xbe, 0x32, 0xba, 0x2f, 0xbe, 0x0f, 0xc0, 0xe7, 0x3e,
  0xb3, 0x38, 0x97, 0xbc, 0xc6, 0x67, 0xc3, 0xbd, 0x74, 0xe6, 0x86, 0xbd,
  0x40, 0xc3, 0x50, 0xbe, 0x0e, 0xc7, 0x46, 0xbe, 0x77, 0x38, 0xc5, 0xbe,
  0x57, 0x77, 0xee, 0x3e, 0x05, 0xaf, 0xa2, 0xbe, 0x86, 0xf8, 0x09, 0x3f,
  0x77, 0xdc, 0xdb, 0xbc, 0xa9, 0x2a, 0x72, 0xbe, 0x6d, 0x8c, 0x07, 0xbe,
  0xff, 0x48, 0x5d, 0x3e, 0xb5, 0x5f, 0xe2, 0xbe, 0xb6, 0x88, 0xa7, 0xbe,
  0x30, 0x05, 0xfc, 0x3e, 0x28, 0x41, 0x89, 0x3e, 0xe4, 0xe2, 0x26, 0x3d,
  0xb4, 0xaf, 0x2d, 0x3e, 0x06, 0x7f, 0x3d, 0xbd, 0x77, 0x83, 0xcc, 0x3e,
  0x45, 0xf8, 0x36, 0x3f, 0xea, 0x0b, 0xbb, 0x3e, 0xa1, 0xe8, 0x59, 0xbf,
  0x47, 0xdf, 0x1e, 0xbf, 0xac, 0xdd, 0xda, 0xbe, 0x9f, 0x47, 0xc6, 0xbd,
  0xb2, 0xfd, 0xff, 0xff, 0x04, 0x00, 0x00, 0x00, 0x80, 0x00, 0x00, 0x00,
  0xa6, 0x24, 0xb4, 0x3c, 0xcf, 0xd7, 0xad, 0xbc, 0x1c, 0x3f, 0x61, 0x3c,
  0xed, 0x3b, 0x2b, 0x3c, 0x31, 0xf5, 0xf4, 0x3d, 0x44, 0x40, 0xea, 0x3d,
  0xd9, 0x24, 0x82, 0xbd, 0x8c, 0x86, 0x15, 0x3e, 0x3a, 0xed, 0xd2, 0x3d,
  0x63, 0x62, 0x2c, 0xbd, 0x55, 0xbe, 0x35, 0x3e, 0xb2, 0xa1, 0x5f, 0x3e,
  0x5a, 0x57, 0x8c, 0x3e, 0x6f, 0x3c, 0x09, 0x3e, 0xe0, 0x9c, 0xd9, 0x3d,
  0x6b, 0x60, 0xc9, 0x3d, 0x33, 0xed, 0x2d, 0x3d, 0x3a, 0x95, 0x25, 0x3e,
  0x4a, 0xe9, 0xfb, 0xbc, 0x24, 0x46, 0x2d, 0x3d, 0xee, 0xb7, 0x6c, 0x3d,
  0xc8, 0xf8, 0xd4, 0x3d, 0x6d, 0x94, 0xd1, 0x3d, 0xa8, 0x40, 0x16, 0x3e,
  0x21, 0xa9, 0x98, 0x3c, 0x07, 0xc2, 0xba, 0xbc, 0xf0, 0x84, 0x36, 0x3d,
  0xa5, 0x55, 0x4f, 0x3d, 0x09, 0x12, 0xb5, 0x3d, 0x2a, 0x25, 0x96, 0x3c,
  0x6f, 0x0c, 0x53, 0x3e, 0x80, 0x6d, 0x0e, 0x3e, 0x3e, 0xfe, 0xff, 0xff,
  0x04, 0x00, 0x00, 0x00, 0x14, 0x00, 0x00, 0x00, 0x04, 0xc1, 0xa8, 0xbd,
  0x09, 0x56, 0xcd, 0xbd, 0xa6, 0xbf, 0xca, 0xbd, 0x8c, 0xac, 0x06, 0xbe,
  0xb7, 0xaa, 0xfb, 0xbd, 0x5e, 0xfe, 0xff, 0xff, 0x04, 0x00, 0x00, 0x00,
  0x00, 0x01, 0x00, 0x00, 0x7e, 0x7f, 0x9f, 0x3d, 0x9d, 0xf9, 0xcf, 0x3d,
  0xd3, 0x07, 0x62, 0xbc, 0x27, 0xe1, 0xb1, 0x3d, 0xcd, 0x0b, 0x5e, 0x3a,
  0xcc, 0x5b, 0xa5, 0x3d, 0xa1, 0xf9, 0x1e, 0x3d, 0x62, 0x28, 0xcd, 0x3b,
  0x18, 0x16, 0x23, 0x3e, 0xab, 0x0b, 0xab, 0x3d, 0xd1, 0x7a, 0x64, 0x3d,
  0x3d, 0x8e, 0xa5, 0x3c, 0x27, 0x0f, 0xdd, 0x3a, 0x5a, 0x81, 0x65, 0xbd,
  0x48, 0x00, 0x9d, 0xbc, 0xdd, 0x15, 0xb9, 0x3d, 0x5a, 0x58, 0x2b, 0x3d,
  0xff, 0x94, 0x81, 0x3c, 0x38, 0xdd, 0xeb, 0x3d, 0x99, 0xcf, 0xb4, 0x3d,
  0x86, 0x9b, 0x2d, 0x3d, 0x96, 0x2e, 0x45, 0xbd, 0x28, 0x34, 0xdf, 0x3d,
  0x75, 0xfe, 0xd5, 0x3d, 0xb6, 0xcd, 0x4f, 0xbd, 0x6f, 0x97, 0xc9, 0x3d,
  0xb8, 0x69, 0x30, 0x3d, 0x1d, 0xb6, 0x84, 0x3d, 0x44, 0x90, 0x11, 0x3e,
  0x90, 0x95, 0x6d, 0x3d, 0xa0, 0xab, 0x39, 0xbc, 0x04, 0x66, 0xf2, 0x3a,
  0xa3, 0x06, 0xcb, 0x3c, 0xc2, 0x2b, 0x72, 0x3d, 0x09, 0x53, 0x37, 0xbc,
  0x45, 0x0d, 0xad, 0x3d, 0xdc, 0xe4, 0xec, 0x3d, 0xb1, 0x01, 0x20, 0x3c,
  0xd9, 0x15, 0x6c, 0x3c, 0x43, 0x64, 0x22, 0x3d, 0x24, 0x2a, 0x96, 0x3d,
  0x52, 0xe1, 0xda, 0x3d, 0x00, 0x46, 0xd1, 0x3d, 0xa1, 0xff, 0xba, 0x3d,
  0x00, 0x00, 0x00, 0x00, 0x2a, 0x77, 0xfd, 0x3d, 0x6d, 0xff, 0x42, 0xbc,
  0x1a, 0x2c, 0x21, 0xbc, 0x2c, 0x1e, 0x42, 0xbc, 0xc0, 0x0f, 0xc0, 0x3c,
  0x0b, 0x56, 0x37, 0xbd, 0xdd, 0x5d, 0xfe, 0x3d, 0x6d, 0x44, 0x16, 0xbd,
  0x35, 0x46, 0x85, 0x3c, 0xf6, 0xff, 0xb6, 0xbb, 0x00, 0x00, 0x00, 0x00,
  0x94, 0x1c, 0x0d, 0xba, 0x0d, 0xec, 0x8f, 0x3c, 0xbc, 0x17, 0x60, 0x3d,
  0x8e, 0x0b, 0x34, 0x3d, 0xe8, 0xa9, 0x15, 0x3d, 0x9c, 0x92, 0x2d, 0x3d,
  0x65, 0xe0, 0xb8, 0xbc, 0x9d, 0x45, 0xf8, 0x3c, 0x5c, 0xfa, 0xff, 0xff,
  0x60, 0xfa, 0xff, 0xff, 0x0f, 0x00, 0x00, 0x00, 0x4d, 0x4c, 0x49, 0x52,
  0x20, 0x43, 0x6f, 0x6e, 0x76, 0x65, 0x72, 0x74, 0x65, 0x64, 0x2e, 0x00,
  0x01, 0x00, 0x00, 0x00, 0x14, 0x00, 0x00, 0x00, 0x00, 0x00, 0x0e, 0x00,
  0x18, 0x00, 0x14, 0x00, 0x10, 0x00, 0x0c, 0x00, 0x08, 0x00, 0x04, 0x00,
  0x0e, 0x00, 0x00, 0x00, 0x14, 0x00, 0x00, 0x00, 0x1c, 0x00, 0x00, 0x00,
  0x24, 0x01, 0x00, 0x00, 0x28, 0x01, 0x00, 0x00, 0x2c, 0x01, 0x00, 0x00,
  0x04, 0x00, 0x00, 0x00, 0x6d, 0x61, 0x69, 0x6e, 0x00, 0x00, 0x00, 0x00,
  0x04, 0x00, 0x00, 0x00, 0xcc, 0x00, 0x00, 0x00, 0x84, 0x00, 0x00, 0x00,
  0x50, 0x00, 0x00, 0x00, 0x14, 0x00, 0x00, 0x00, 0x00, 0x00, 0x0e, 0x00,
  0x1a, 0x00, 0x14, 0x00, 0x10, 0x00, 0x0c, 0x00, 0x0b, 0x00, 0x04, 0x00,
  0x0e, 0x00, 0x00, 0x00, 0x1c, 0x00, 0x00, 0x00, 0x00, 0x00, 0x00, 0x09,
  0x1c, 0x00, 0x00, 0x00, 0x20, 0x00, 0x00, 0x00, 0x01, 0x00, 0x00, 0x00,
  0x00, 0x00, 0x06, 0x00, 0x08, 0x00, 0x04, 0x00, 0x06, 0x00, 0x00, 0x00,
  0x00, 0x00, 0x80, 0x3f, 0x01, 0x00, 0x00, 0x00, 0x0a, 0x00, 0x00, 0x00,
  0x01, 0x00, 0x00, 0x00, 0x09, 0x00, 0x00, 0x00, 0x9a, 0xff, 0xff, 0xff,
  0x10, 0x00, 0x00, 0x00, 0x00, 0x00, 0x00, 0x08, 0x0c, 0x00, 0x00, 0x00,
  0x10, 0x00, 0x00, 0x00, 0x24, 0xfb, 0xff, 0xff, 0x01, 0x00, 0x00, 0x00,
  0x09, 0x00, 0x00, 0x00, 0x03, 0x00, 0x00, 0x00, 0x08, 0x00, 0x00, 0x00,
  0x06, 0x00, 0x00, 0x00, 0x02, 0x00, 0x00, 0x00, 0xca, 0xff, 0xff, 0xff,
  0x10, 0x00, 0x00, 0x00, 0x00, 0x00, 0x00, 0x08, 0x10, 0x00, 0x00, 0x00,
  0x14, 0x00, 0x00, 0x00, 0xba, 0xff, 0xff, 0xff, 0x00, 0x00, 0x00, 0x01,
  0x01, 0x00, 0x00, 0x00, 0x08, 0x00, 0x00, 0x00, 0x03, 0x00, 0x00, 0x00,
  0x07, 0x00, 0x00, 0x00, 0x05, 0x00, 0x00, 0x00, 0x01, 0x00, 0x00, 0x00,
  0x00, 0x00, 0x0e, 0x00, 0x16, 0x00, 0x00, 0x00, 0x10, 0x00, 0x0c, 0x00,
  0x0b, 0x00, 0x04, 0x00, 0x0e, 0x00, 0x00, 0x00, 0x18, 0x00, 0x00, 0x00,
  0x00, 0x00, 0x00, 0x08, 0x18, 0x00, 0x00, 0x00, 0x1c, 0x00, 0x00, 0x00,
  0x00, 0x00, 0x06, 0x00, 0x08, 0x00, 0x07, 0x00, 0x06, 0x00, 0x00, 0x00,
  0x00, 0x00, 0x00, 0x01, 0x01, 0x00, 0x00, 0x00, 0x07, 0x00, 0x00, 0x00,
  0x03, 0x00, 0x00, 0x00, 0x00, 0x00, 0x00, 0x00, 0x04, 0x00, 0x00, 0x00,
  0x03, 0x00, 0x00, 0x00, 0x01, 0x00, 0x00, 0x00, 0x0a, 0x00, 0x00, 0x00,
  0x01, 0x00, 0x00, 0x00, 0x00, 0x00, 0x00, 0x00, 0x0b, 0x00, 0x00, 0x00,
  0x04, 0x04, 0x00, 0x00, 0x94, 0x03, 0x00, 0x00, 0x24, 0x03, 0x00, 0x00,
  0xd0, 0x02, 0x00, 0x00, 0x88, 0x02, 0x00, 0x00, 0x3c, 0x02, 0x00, 0x00,
  0xf0, 0x01, 0x00, 0x00, 0x68, 0x01, 0x00, 0x00, 0xd8, 0x00, 0x00, 0x00,
  0x60, 0x00, 0x00, 0x00, 0x04, 0x00, 0x00, 0x00, 0x3e, 0xfc, 0xff, 0xff,
  0x00, 0x00, 0x00, 0x01, 0x14, 0x00, 0x00, 0x00, 0x1c, 0x00, 0x00, 0x00,
  0x1c, 0x00, 0x00, 0x00, 0x0b, 0x00, 0x00, 0x00, 0x34, 0x00, 0x00, 0x00,
  0x02, 0x00, 0x00, 0x00, 0xff, 0xff, 0xff, 0xff, 0x05, 0x00, 0x00, 0x00,
  0x28, 0xfc, 0xff, 0xff, 0x19, 0x00, 0x00, 0x00, 0x53, 0x74, 0x61, 0x74,
  0x65, 0x66, 0x75, 0x6c, 0x50, 0x61, 0x72, 0x74, 0x69, 0x74, 0x69, 0x6f,
  0x6e, 0x65, 0x64, 0x43, 0x61, 0x6c, 0x6c, 0x3a, 0x30, 0x00, 0x00, 0x00,
  0x02, 0x00, 0x00, 0x00, 0x01, 0x00, 0x00, 0x00, 0x05, 0x00, 0x00, 0x00,
  0x96, 0xfc, 0xff, 0xff, 0x00, 0x00, 0x00, 0x01, 0x14, 0x00, 0x00, 0x00,
  0x1c, 0x00, 0x00, 0x00, 0x1c, 0x00, 0x00, 0x00, 0x0a, 0x00, 0x00, 0x00,
  0x50, 0x00, 0x00, 0x00, 0x02, 0x00, 0x00, 0x00, 0xff, 0xff, 0xff, 0xff,
  0x05, 0x00, 0x00, 0x00, 0x80, 0xfc, 0xff, 0xff, 0x34, 0x00, 0x00, 0x00,
  0x73, 0x65, 0x71, 0x75, 0x65, 0x6e, 0x74, 0x69, 0x61, 0x6c, 0x2f, 0x64,
  0x65, 0x6e, 0x73, 0x65, 0x5f, 0x32, 0x2f, 0x4d, 0x61, 0x74, 0x4d, 0x75,
  0x6c, 0x3b, 0x73, 0x65, 0x71, 0x75, 0x65, 0x6e, 0x74, 0x69, 0x61, 0x6c,
  0x2f, 0x64, 0x65, 0x6e, 0x73, 0x65, 0x5f, 0x32, 0x2f, 0x42, 0x69, 0x61,
  0x73, 0x41, 0x64, 0x64, 0x00, 0x00, 0x00, 0x00, 0x02, 0x00, 0x00, 0x00,
  0x01, 0x00, 0x00, 0x00, 0x05, 0x00, 0x00, 0x00, 0x0a, 0xfd, 0xff, 0xff,
  0x00, 0x00, 0x00, 0x01, 0x14, 0x00, 0x00, 0x00, 0x1c, 0x00, 0x00, 0x00,
  0x1c, 0x00, 0x00, 0x00, 0x09, 0x00, 0x00, 0x00, 0x68, 0x00, 0x00, 0x00,
  0x02, 0x00, 0x00, 0x00, 0xff, 0xff, 0xff, 0xff, 0x40, 0x00, 0x00, 0x00,
  0xf4, 0xfc, 0xff, 0xff, 0x4c, 0x00, 0x00, 0x00, 0x73, 0x65, 0x71, 0x75,
  0x65, 0x6e, 0x74, 0x69, 0x61, 0x6c, 0x2f, 0x64, 0x65, 0x6e, 0x73, 0x65,
  0x5f, 0x31, 0x2f, 0x4d, 0x61, 0x74, 0x4d, 0x75, 0x6c, 0x3b, 0x73, 0x65,
  0x71, 0x75, 0x65, 0x6e, 0x74, 0x69, 0x61, 0x6c, 0x2f, 0x64, 0x65, 0x6e,
  0x73, 0x65, 0x5f, 0x31, 0x2f, 0x52, 0x65, 0x6c, 0x75, 0x3b, 0x73, 0x65,
  0x71, 0x75, 0x65, 0x6e, 0x74, 0x69, 0x61, 0x6c, 0x2f, 0x64, 0x65, 0x6e,
  0x73, 0x65, 0x5f, 0x31, 0x2f, 0x42, 0x69, 0x61, 0x73, 0x41, 0x64, 0x64,
  0x00, 0x00, 0x00, 0x00, 0x02, 0x00, 0x00, 0x00, 0x01, 0x00, 0x00, 0x00,
  0x40, 0x00, 0x00, 0x00, 0x96, 0xfd, 0xff, 0xff, 0x00, 0x00, 0x00, 0x01,
  0x14, 0x00, 0x00, 0x00, 0x1c, 0x00, 0x00, 0x00, 0x1c, 0x00, 0x00, 0x00,
  0x08, 0x00, 0x00, 0x00, 0x60, 0x00, 0x00, 0x00, 0x02, 0x00, 0x00, 0x00,
  0xff, 0xff, 0xff, 0xff, 0x20, 0x00, 0x00, 0x00, 0x80, 0xfd, 0xff, 0xff,
  0x46, 0x00, 0x00, 0x00, 0x73, 0x65, 0x71, 0x75, 0x65, 0x6e, 0x74, 0x69,
  0x61, 0x6c, 0x2f, 0x64, 0x65, 0x6e, 0x73, 0x65, 0x2f, 0x4d, 0x61, 0x74,
  0x4d, 0x75, 0x6c, 0x3b, 0x73, 0x65, 0x71, 0x75, 0x65, 0x6e, 0x74, 0x69,
  0x61, 0x6c, 0x2f, 0x64, 0x65, 0x6e, 0x73, 0x65, 0x2f, 0x52, 0x65, 0x6c,
  0x75, 0x3b, 0x73, 0x65, 0x71, 0x75, 0x65, 0x6e, 0x74, 0x69, 0x61, 0x6c,
  0x2f, 0x64, 0x65, 0x6e, 0x73, 0x65, 0x2f, 0x42, 0x69, 0x61, 0x73, 0x41,
  0x64, 0x64, 0x00, 0x00, 0x02, 0x00, 0x00, 0x00, 0x01, 0x00, 0x00, 0x00,
  0x20, 0x00, 0x00, 0x00, 0x86, 0xfe, 0xff, 0xff, 0x00, 0x00, 0x00, 0x01,
  0x10, 0x00, 0x00, 0x00, 0x10, 0x00, 0x00, 0x00, 0x07, 0x00, 0x00, 0x00,
  0x28, 0x00, 0x00, 0x00, 0xf4, 0xfd, 0xff, 0xff, 0x19, 0x00, 0x00, 0x00,
  0x73, 0x65, 0x71, 0x75, 0x65, 0x6e, 0x74, 0x69, 0x61, 0x6c, 0x2f, 0x64,
  0x65, 0x6e, 0x73, 0x65, 0x5f, 0x32, 0x2f, 0x4d, 0x61, 0x74, 0x4d, 0x75,
  0x6c, 0x00, 0x00, 0x00, 0x02, 0x00, 0x00, 0x00, 0x05, 0x00, 0x00, 0x00,
  0x40, 0x00, 0x00, 0x00, 0xce, 0xfe, 0xff, 0xff, 0x00, 0x00, 0x00, 0x01,
  0x10, 0x00, 0x00, 0x00, 0x10, 0x00, 0x00, 0x00, 0x06, 0x00, 0x00, 0x00,
  0x28, 0x00, 0x00, 0x00, 0x3c, 0xfe, 0xff, 0xff, 0x19, 0x00, 0x00, 0x00,
  0x73, 0x65, 0x71, 0x75, 0x65, 0x6e, 0x74, 0x69, 0x61, 0x6c, 0x2f, 0x64,
  0x65, 0x6e, 0x73, 0x65, 0x5f, 0x31, 0x2f, 0x4d, 0x61, 0x74, 0x4d, 0x75,
  0x6c, 0x00, 0x00, 0x00, 0x02, 0x00, 0x00, 0x00, 0x40, 0x00, 0x00, 0x00,
  0x20, 0x00, 0x00, 0x00, 0x16, 0xff, 0xff, 0xff, 0x00, 0x00, 0x00, 0x01,
  0x10, 0x00, 0x00, 0x00, 0x10, 0x00, 0x00, 0x00, 0x05, 0x00, 0x00, 0x00,
  0x24, 0x00, 0x00, 0x00, 0x84, 0xfe, 0xff, 0xff, 0x17, 0x00, 0x00, 0x00,
  0x73, 0x65, 0x71, 0x75, 0x65, 0x6e, 0x74, 0x69, 0x61, 0x6c, 0x2f, 0x64,
  0x65, 0x6e, 0x73, 0x65, 0x2f, 0x4d, 0x61, 0x74, 0x4d, 0x75, 0x6c, 0x00,
  0x02, 0x00, 0x00, 0x00, 0x20, 0x00, 0x00, 0x00, 0x08, 0x00, 0x00, 0x00,
  0x5a, 0xff, 0xff, 0xff, 0x00, 0x00, 0x00, 0x01, 0x10, 0x00, 0x00, 0x00,
  0x10, 0x00, 0x00, 0x00, 0x04, 0x00, 0x00, 0x00, 0x34, 0x00, 0x00, 0x00,
  0xc8, 0xfe, 0xff, 0xff, 0x27, 0x00, 0x00, 0x00, 0x73, 0x65, 0x71, 0x75,
  0x65, 0x6e, 0x74, 0x69, 0x61, 0x6c, 0x2f, 0x64, 0x65, 0x6e, 0x73, 0x65,
  0x2f, 0x42, 0x69, 0x61, 0x73, 0x41, 0x64, 0x64, 0x2f, 0x52, 0x65, 0x61,
  0x64, 0x56, 0x61, 0x72, 0x69, 0x61, 0x62, 0x6c, 0x65, 0x4f, 0x70, 0x00,
  0x01, 0x00, 0x00, 0x00, 0x20, 0x00, 0x00, 0x00, 0xaa, 0xff, 0xff, 0xff,
  0x00, 0x00, 0x00, 0x01, 0x10, 0x00, 0x00, 0x00, 0x10, 0x00, 0x00, 0x00,
  0x03, 0x00, 0x00, 0x00, 0x38, 0x00, 0x00, 0x00, 0x18, 0xff, 0xff, 0xff,
  0x29, 0x00, 0x00, 0x00, 0x73, 0x65, 0x71, 0x75, 0x65, 0x6e, 0x74, 0x69,
  0x61, 0x6c, 0x2f, 0x64, 0x65, 0x6e, 0x73, 0x65, 0x5f, 0x32, 0x2f, 0x42,
  0x69, 0x61, 0x73, 0x41, 0x64, 0x64, 0x2f, 0x52, 0x65, 0x61, 0x64, 0x56,
  0x61, 0x72, 0x69, 0x61, 0x62, 0x6c, 0x65, 0x4f, 0x70, 0x00, 0x00, 0x00,
  0x01, 0x00, 0x00, 0x00, 0x05, 0x00, 0x00, 0x00, 0x00, 0x00, 0x16, 0x00,
  0x18, 0x00, 0x14, 0x00, 0x00, 0x00, 0x10, 0x00, 0x0c, 0x00, 0x08, 0x00,
  0x00, 0x00, 0x00, 0x00, 0x00, 0x00, 0x07, 0x00, 0x16, 0x00, 0x00, 0x00,
  0x00, 0x00, 0x00, 0x01, 0x10, 0x00, 0x00, 0x00, 0x10, 0x00, 0x00, 0x00,
  0x02, 0x00, 0x00, 0x00, 0x38, 0x00, 0x00, 0x00, 0x84, 0xff, 0xff, 0xff,
  0x29, 0x00, 0x00, 0x00, 0x73, 0x65, 0x71, 0x75, 0x65, 0x6e, 0x74, 0x69,
  0x61, 0x6c, 0x2f, 0x64, 0x65, 0x6e, 0x73, 0x65, 0x5f, 0x31, 0x2f, 0x42,
  0x69, 0x61, 0x73, 0x41, 0x64, 0x64, 0x2f, 0x52, 0x65, 0x61, 0x64, 0x56,
  0x61, 0x72, 0x69, 0x61, 0x62, 0x6c, 0x65, 0x4f, 0x70, 0x00, 0x00, 0x00,
  0x01, 0x00, 0x00, 0x00, 0x40, 0x00, 0x00, 0x00, 0x00, 0x00, 0x16, 0x00,
  0x1c, 0x00, 0x18, 0x00, 0x00, 0x00, 0x14, 0x00, 0x10, 0x00, 0x0c, 0x00,
  0x00, 0x00, 0x00, 0x00, 0x08, 0x00, 0x07, 0x00, 0x16, 0x00, 0x00, 0x00,
  0x00, 0x00, 0x00, 0x01, 0x14, 0x00, 0x00, 0x00, 0x20, 0x00, 0x00, 0x00,
  0x20, 0x00, 0x00, 0x00, 0x01, 0x00, 0x00, 0x00, 0x3c, 0x00, 0x00, 0x00,
  0x02, 0x00, 0x00, 0x00, 0xff, 0xff, 0xff, 0xff, 0x08, 0x00, 0x00, 0x00,
  0x04, 0x00, 0x04, 0x00, 0x04, 0x00, 0x00, 0x00, 0x1d, 0x00, 0x00, 0x00,
  0x73, 0x65, 0x72, 0x76, 0x69, 0x6e, 0x67, 0x5f, 0x64, 0x65, 0x66, 0x61,
  0x75, 0x6c, 0x74, 0x5f, 0x64, 0x65, 0x6e, 0x73, 0x65, 0x5f, 0x69, 0x6e,
  0x70, 0x75, 0x74, 0x3a, 0x30, 0x00, 0x00, 0x00, 0x02, 0x00, 0x00, 0x00,
  0x01, 0x00, 0x00, 0x00, 0x08, 0x00, 0x00, 0x00, 0x02, 0x00, 0x00, 0x00,
  0x20, 0x00, 0x00, 0x00, 0x04, 0x00, 0x00, 0x00, 0xf4, 0xff, 0xff, 0xff,
  0x19, 0x00, 0x00, 0x00, 0x00, 0x00, 0x00, 0x19, 0x0c, 0x00, 0x0c, 0x00,
  0x0b, 0x00, 0x00, 0x00, 0x00, 0x00, 0x04, 0x00, 0x0c, 0x00, 0x00, 0x00,
  0x09, 0x00, 0x00, 0x00, 0x00, 0x00, 0x00, 0x09
};
