const unsigned char model[] = {
  0x1c, 0x00, 0x00, 0x00, 0x54, 0x46, 0x4c, 0x33, 0x14, 0x00, 0x20, 0x00,
  0x1c, 0x00, 0x18, 0x00, 0x14, 0x00, 0x10, 0x00, 0x0c, 0x00, 0x00, 0x00,
  0x08, 0x00, 0x04, 0x00, 0x14, 0x00, 0x00, 0x00, 0x1c, 0x00, 0x00, 0x00,
  0x98, 0x00, 0x00, 0x00, 0xf0, 0x00, 0x00, 0x00, 0x98, 0x2c, 0x00, 0x00,
  0xa8, 0x2c, 0x00, 0x00, 0xa4, 0x32, 0x00, 0x00, 0x03, 0x00, 0x00, 0x00,
  0x01, 0x00, 0x00, 0x00, 0x10, 0x00, 0x00, 0x00, 0x00, 0x00, 0x0a, 0x00,
  0x10, 0x00, 0x0c, 0x00, 0x08, 0x00, 0x04, 0x00, 0x0a, 0x00, 0x00, 0x00,
  0x0c, 0x00, 0x00, 0x00, 0x1c, 0x00, 0x00, 0x00, 0x3c, 0x00, 0x00, 0x00,
  0x0f, 0x00, 0x00, 0x00, 0x73, 0x65, 0x72, 0x76, 0x69, 0x6e, 0x67, 0x5f,
  0x64, 0x65, 0x66, 0x61, 0x75, 0x6c, 0x74, 0x00, 0x01, 0x00, 0x00, 0x00,
  0x04, 0x00, 0x00, 0x00, 0x90, 0xff, 0xff, 0xff, 0x0a, 0x00, 0x00, 0x00,
  0x04, 0x00, 0x00, 0x00, 0x08, 0x00, 0x00, 0x00, 0x64, 0x65, 0x6e, 0x73,
  0x65, 0x5f, 0x31, 0x32, 0x00, 0x00, 0x00, 0x00, 0x01, 0x00, 0x00, 0x00,
  0x04, 0x00, 0x00, 0x00, 0x4e, 0xd3, 0xff, 0xff, 0x04, 0x00, 0x00, 0x00,
  0x0e, 0x00, 0x00, 0x00, 0x64, 0x65, 0x6e, 0x73, 0x65, 0x5f, 0x31, 0x30,
  0x5f, 0x69, 0x6e, 0x70, 0x75, 0x74, 0x00, 0x00, 0x02, 0x00, 0x00, 0x00,
  0x34, 0x00, 0x00, 0x00, 0x04, 0x00, 0x00, 0x00, 0xdc, 0xff, 0xff, 0xff,
  0x0d, 0x00, 0x00, 0x00, 0x04, 0x00, 0x00, 0x00, 0x13, 0x00, 0x00, 0x00,
  0x43, 0x4f, 0x4e, 0x56, 0x45, 0x52, 0x53, 0x49, 0x4f, 0x4e, 0x5f, 0x4d,
  0x45, 0x54, 0x41, 0x44, 0x41, 0x54, 0x41, 0x00, 0x08, 0x00, 0x0c, 0x00,
  0x08, 0x00, 0x04, 0x00, 0x08, 0x00, 0x00, 0x00, 0x0c, 0x00, 0x00, 0x00,
  0x04, 0x00, 0x00, 0x00, 0x13, 0x00, 0x00, 0x00, 0x6d, 0x69, 0x6e, 0x5f,
  0x72, 0x75, 0x6e, 0x74, 0x69, 0x6d, 0x65, 0x5f, 0x76, 0x65, 0x72, 0x73,
  0x69, 0x6f, 0x6e, 0x00, 0x0e, 0x00, 0x00, 0x00, 0xa4, 0x2b, 0x00, 0x00,
  0x9c, 0x2b, 0x00, 0x00, 0x78, 0x2b, 0x00, 0x00, 0x68, 0x2a, 0x00, 0x00,
  0xd8, 0x29, 0x00, 0x00, 0xc8, 0x25, 0x00, 0x00, 0xb8, 0x05, 0x00, 0x00,
  0xa8, 0x00, 0x00, 0x00, 0xa0, 0x00, 0x00, 0x00, 0x98, 0x00, 0x00, 0x00,
  0x90, 0x00, 0x00, 0x00, 0x88, 0x00, 0x00, 0x00, 0x68, 0x00, 0x00, 0x00,
  0x04, 0x00, 0x00, 0x00, 0x02, 0xd4, 0xff, 0xff, 0x04, 0x00, 0x00, 0x00,
  0x54, 0x00, 0x00, 0x00, 0x0c, 0x00, 0x00, 0x00, 0x08, 0x00, 0x0e, 0x00,
  0x08, 0x00, 0x04, 0x00, 0x08, 0x00, 0x00, 0x00, 0x10, 0x00, 0x00, 0x00,
  0x24, 0x00, 0x00, 0x00, 0x00, 0x00, 0x06, 0x00, 0x08, 0x00, 0x04, 0x00,
  0x06, 0x00, 0x00, 0x00, 0x04, 0x00, 0x00, 0x00, 0x00, 0x00, 0x00, 0x00,
  0x00, 0x00, 0x0a, 0x00, 0x10, 0x00, 0x0c, 0x00, 0x08, 0x00, 0x04, 0x00,
  0x0a, 0x00, 0x00, 0x00, 0x02, 0x00, 0x00, 0x00, 0x02, 0x00, 0x00, 0x00,
  0x04, 0x00, 0x00, 0x00, 0x06, 0x00, 0x00, 0x00, 0x32, 0x2e, 0x31, 0x34,
  0x2e, 0x30, 0x00, 0x00, 0x62, 0xd4, 0xff, 0xff, 0x04, 0x00, 0x00, 0x00,
  0x10, 0x00, 0x00, 0x00, 0x31, 0x2e, 0x35, 0x2e, 0x30, 0x00, 0x00, 0x00,
  0x00, 0x00, 0x00, 0x00, 0x00, 0x00, 0x00, 0x00, 0x34, 0xcf, 0xff, 0xff,
  0x38, 0xcf, 0xff, 0xff, 0x3c, 0xcf, 0xff, 0xff, 0x40, 0xcf, 0xff, 0xff,
  0x8e, 0xd4, 0xff, 0xff, 0x04, 0x00, 0x00, 0x00, 0x00, 0x05, 0x00, 0x00,
  0x44, 0x84, 0x07, 0xbf, 0x5c, 0x6c, 0x70, 0xbc, 0xb3, 0x86, 0xe1, 0x3e,
  0xc7, 0x23, 0x63, 0xbd, 0x10, 0xa9, 0x15, 0xbf, 0x08, 0x29, 0xab, 0xbe,
  0xad, 0xa5, 0x07, 0xbf, 0x4c, 0xd6, 0x30, 0xbe, 0xb0, 0x0f, 0xbb, 0x3d,
  0xe2, 0xb6, 0x9a, 0x3e, 0xeb, 0x85, 0x6d, 0xbf, 0x7f, 0x84, 0xbc, 0x3d,
  0x51, 0xd5, 0x17, 0xbe, 0xd0, 0x1d, 0x23, 0x3f, 0x3c, 0x2d, 0xaf, 0x3e,
  0xd4, 0x24, 0x6e, 0xbd, 0x24, 0x96, 0x6a, 0x3e, 0x47, 0x1c, 0x4d, 0xbe,
  0xf8, 0x97, 0x5c, 0x3e, 0xb1, 0x53, 0x85, 0x3e, 0x4f, 0xc6, 0x00, 0x3e,
  0xcf, 0x91, 0x62, 0xbe, 0xe2, 0xbc, 0x5c, 0xbe, 0xbc, 0x55, 0xcb, 0x3e,
  0x70, 0x38, 0x0e, 0xbf, 0x24, 0x4d, 0x23, 0xbf, 0x13, 0xab, 0x75, 0x3e,
  0x4f, 0xd2, 0x83, 0xbe, 0x79, 0xc5, 0x8d, 0xbe, 0x0f, 0x9c, 0xe0, 0x3d,
  0xf7, 0x5e, 0x88, 0x3e, 0x88, 0xf3, 0x77, 0x3e, 0xc6, 0x42, 0x77, 0xbe,
  0x75, 0x5c, 0x20, 0xbf, 0x54, 0x09, 0xd1, 0x3e, 0x64, 0x28, 0x5a, 0x3d,
  0xcd, 0x82, 0x40, 0xbe, 0x76, 0x4c, 0x71, 0x3e, 0x85, 0x5f, 0x45, 0x3e,
  0x67, 0x95, 0x55, 0x3d, 0xa8, 0x26, 0x00, 0x3f, 0xa0, 0xaf, 0x80, 0x3e,
  0xc4, 0x16, 0x88, 0x3e, 0x73, 0x6f, 0xae, 0x3e, 0x26, 0x27, 0x53, 0x3d,
  0x85, 0x4f, 0x57, 0xbe, 0xbb, 0xe8, 0x07, 0x3d, 0x7d, 0x65, 0xcc, 0x3e,
  0x3e, 0xff, 0x4e, 0xbe, 0xba, 0x74, 0x60, 0xbf, 0x46, 0xc6, 0x7b, 0xbe,
  0x6b, 0x23, 0x47, 0xbe, 0x28, 0x78, 0x8b, 0xbd, 0x60, 0x5e, 0x5f, 0xbc,
  0xcd, 0xd7, 0x54, 0xbe, 0x44, 0x24, 0x22, 0xbf, 0x3a, 0xf3, 0x4a, 0x3c,
  0x44, 0x64, 0xc7, 0x3e, 0x39, 0x8b, 0xf0, 0x3c, 0xd2, 0x01, 0x34, 0xbf,
  0x72, 0x94, 0x7c, 0xbe, 0x91, 0x09, 0x20, 0x3e, 0x93, 0x5b, 0xc2, 0xbd,
  0x51, 0x01, 0x8f, 0xbe, 0x2e, 0xc4, 0x7c, 0xbe, 0x52, 0x4c, 0x5a, 0x3e,
  0xf4, 0x03, 0xeb, 0x3d, 0x24, 0x4d, 0x5a, 0x3e, 0x32, 0x9f, 0x04, 0xbe,
  0xf8, 0x08, 0x5b, 0xb7, 0x40, 0x2d, 0xd4, 0xbd, 0x75, 0x70, 0x7d, 0xbf,
  0xf7, 0x19, 0x67, 0xbe, 0x68, 0xb3, 0xe3, 0xbe, 0x6d, 0x77, 0x5f, 0xbf,
  0xd4, 0x4c, 0x13, 0x3e, 0xec, 0xac, 0xe8, 0x3e, 0x92, 0x99, 0x0c, 0xbe,
  0xf7, 0x85, 0x58, 0xbf, 0xbd, 0xeb, 0x4b, 0x3e, 0x7e, 0x48, 0xbf, 0x3e,
  0xe8, 0x3b, 0x8d, 0x3e, 0xbf, 0x35, 0x29, 0xbe, 0xa4, 0x79, 0x31, 0xbe,
  0x34, 0x21, 0x16, 0xbe, 0xc3, 0x85, 0xd4, 0xbe, 0x9a, 0x39, 0xcd, 0x3d,
  0x5b, 0x2b, 0x88, 0x3d, 0xac, 0x0d, 0x41, 0xbf, 0xd5, 0x41, 0x14, 0xbc,
  0xd8, 0x82, 0xaf, 0xbe, 0x04, 0x44, 0x7d, 0xbe, 0x64, 0x30, 0xd2, 0x3d,
  0xa1, 0x7f, 0xa3, 0x3e, 0x36, 0xb1, 0xe2, 0xbe, 0x3f, 0x2b, 0x65, 0xbf,
  0x27, 0x40, 0x6b, 0xbe, 0xc1, 0xa2, 0xf0, 0xbc, 0x9c, 0x33, 0x09, 0x3f,
  0x20, 0x2c, 0x49, 0xbe, 0x4c, 0x74, 0x7f, 0x3d, 0xdc, 0x3e, 0x83, 0xbf,
  0xe2, 0xc9, 0xc1, 0xbe, 0xd0, 0xa3, 0xc0, 0xbe, 0x61, 0xbd, 0xf0, 0x3e,
  0x07, 0x63, 0xed, 0xbc, 0x4e, 0xea, 0xc6, 0x3e, 0xe5, 0xad, 0x8f, 0xbe,
  0xc7, 0x6b, 0x78, 0xbf, 0xae, 0x63, 0x83, 0xbd, 0x6c, 0xf9, 0x52, 0x3e,
  0x59, 0xce, 0x2b, 0xbe, 0x82, 0x14, 0x99, 0xbe, 0x52, 0x28, 0xc4, 0xbd,
  0x09, 0xc4, 0x62, 0xbd, 0x00, 0x5b, 0x30, 0xbf, 0x95, 0x63, 0x8f, 0xbd,
  0xaa, 0xbe, 0x5e, 0xbe, 0x1a, 0x23, 0x1e, 0x3e, 0x9f, 0xa4, 0x47, 0xbf,
  0xbc, 0x64, 0x93, 0x3e, 0xbc, 0x95, 0x02, 0xbe, 0x37, 0x3a, 0x93, 0x3d,
  0x57, 0x5f, 0x9b, 0xbe, 0xba, 0xe1, 0x8c, 0xbc, 0x75, 0xc9, 0xf0, 0xbe,
  0xb1, 0x59, 0x48, 0x3e, 0xe5, 0x08, 0x96, 0x3d, 0x68, 0x70, 0x4c, 0x3e,
  0x59, 0x13, 0x1c, 0x3e, 0xa2, 0xd1, 0xb8, 0x3e, 0x77, 0x69, 0x95, 0xbe,
  0xe6, 0xf4, 0xa1, 0xbe, 0x2a, 0x7a, 0xba, 0xbe, 0x35, 0x66, 0x96, 0xbd,
  0xf3, 0xfb, 0x38, 0xbf, 0x82, 0x87, 0x2b, 0xbf, 0xd7, 0x3b, 0x9b, 0xbd,
  0x6b, 0xb6, 0xab, 0xbe, 0xc0, 0x91, 0x84, 0xbe, 0x65, 0xf8, 0x47, 0xbb,
  0xba, 0x26, 0x17, 0xbe, 0xce, 0x81, 0x9e, 0xbe, 0x52, 0xca, 0x8a, 0xbd,
  0x51, 0x9a, 0xa3, 0xbe, 0x92, 0x1b, 0x59, 0xbd, 0xce, 0x44, 0x3c, 0x3e,
  0x17, 0xcb, 0xec, 0xbe, 0xca, 0x76, 0x41, 0xbe, 0x0c, 0x9b, 0x5b, 0xbf,
  0x3e, 0x7f, 0x70, 0x3e, 0x2d, 0x87, 0xde, 0xbb, 0xe6, 0xcc, 0xfc, 0xbd,
  0xc6, 0xeb, 0x95, 0x3e, 0xff, 0x42, 0x13, 0x3e, 0x0f, 0x02, 0x37, 0x3e,
  0x6a, 0x6d, 0xd7, 0x3e, 0x18, 0xa8, 0xfa, 0xbd, 0xff, 0xe6, 0x34, 0xbb,
  0x97, 0x9d, 0xde, 0xbe, 0xf5, 0x59, 0x5f, 0xbe, 0x22, 0x5d, 0xfe, 0xbd,
  0x5f, 0xe6, 0xff, 0xbe, 0x26, 0x0d, 0x5e, 0x3e, 0x9c, 0x91, 0x18, 0xbe,
  0x9d, 0x8a, 0x2a, 0x3e, 0x22, 0xe8, 0x84, 0x3e, 0x44, 0xee, 0xd7, 0x3d,
  0x51, 0xa2, 0x21, 0xbf, 0x9a, 0xa6, 0x2e, 0x3e, 0x64, 0x34, 0x44, 0x3e,
  0x75, 0x85, 0x82, 0x3e, 0x14, 0x96, 0xa4, 0xbe, 0x1c, 0x49, 0x7b, 0xbd,
  0xdb, 0x1a, 0xdd, 0xbd, 0x1d, 0x73, 0x21, 0x3e, 0x16, 0xae, 0x4c, 0x3e,
  0x03, 0x3e, 0xb1, 0xbc, 0xae, 0xda, 0x8e, 0x3e, 0xe8, 0xef, 0xea, 0xbd,
  0x79, 0xf7, 0x84, 0x3e, 0xcd, 0x1b, 0xc3, 0x3e, 0x4c, 0x53, 0x6d, 0xbd,
  0x23, 0xef, 0x7f, 0xbe, 0xb1, 0x49, 0x9b, 0xbe, 0xd6, 0xb2, 0xa2, 0x3e,
  0x58, 0x87, 0xe0, 0xbd, 0x4c, 0x54, 0x82, 0x3b, 0xda, 0x02, 0x6b, 0xbe,
  0x7c, 0x97, 0x4f, 0x3e, 0x5f, 0xec, 0x3f, 0x3e, 0x75, 0x28, 0x1c, 0xbe,
  0x08, 0x3e, 0x29, 0xbf, 0xa9, 0x9d, 0xd4, 0x3d, 0x09, 0x51, 0x1f, 0xbf,
  0xcb, 0x55, 0x9f, 0xbd, 0x81, 0x6a, 0x3b, 0x3e, 0x84, 0xdb, 0x3b, 0xbf,
  0xce, 0x98, 0x49, 0xbe, 0x40, 0xe5, 0x64, 0xbe, 0x5d, 0xfb, 0x62, 0x3f,
  0xd4, 0xc1, 0x34, 0xbe, 0x0a, 0xfd, 0x8b, 0x3e, 0xcb, 0x92, 0xbe, 0xbe,
  0x8f, 0x0f, 0x9a, 0xbd, 0x42, 0xe3, 0x5a, 0xbe, 0x69, 0x0c, 0x68, 0xbf,
  0x94, 0x38, 0xaa, 0xbd, 0xf0, 0x73, 0x5e, 0xbf, 0x7c, 0x00, 0x45, 0x3e,
  0xa8, 0xfc, 0x60, 0xbd, 0x2e, 0xce, 0xc8, 0xbe, 0xaa, 0x9b, 0x99, 0xbd,
  0x4f, 0xb9, 0x2a, 0x3f, 0xc8, 0x48, 0xc0, 0xbb, 0x5d, 0xd3, 0x84, 0x3c,
  0xb8, 0xdd, 0x73, 0x3e, 0xe1, 0xcd, 0x08, 0xbf, 0xb8, 0x6e, 0xc3, 0x3d,
  0x19, 0xe9, 0x77, 0x3e, 0x94, 0xfc, 0x90, 0x3e, 0x22, 0x04, 0x7c, 0xbe,
  0xd9, 0x04, 0x6b, 0xbf, 0x07, 0xd3, 0x9f, 0xbe, 0xa1, 0xd2, 0x60, 0xbd,
  0x18, 0xd7, 0x82, 0xbe, 0x9c, 0xdf, 0xf5, 0xbe, 0xe1, 0x15, 0x5f, 0x3e,
  0xa5, 0x05, 0x88, 0xbe, 0x31, 0xc4, 0x2d, 0xbe, 0x95, 0xef, 0xb6, 0xbd,
  0x8f, 0x19, 0x56, 0x3e, 0x2e, 0xb0, 0x8b, 0xbe, 0xf1, 0x5b, 0x30, 0x3e,
  0xd1, 0x07, 0x81, 0xbe, 0x05, 0x65, 0x80, 0xbd, 0x60, 0xe7, 0x97, 0x3e,
  0x48, 0xe0, 0xa9, 0xbe, 0xe8, 0x6f, 0x8a, 0x3e, 0x0d, 0xbc, 0x1c, 0x3e,
  0xc2, 0xad, 0x56, 0x3e, 0xd7, 0xd1, 0x1e, 0x3e, 0x91, 0x4e, 0xec, 0xbe,
  0xec, 0x43, 0x2d, 0x3e, 0x68, 0xf8, 0x05, 0xbf, 0x5d, 0xdc, 0x3f, 0xbf,
  0x8a, 0x5f, 0x80, 0x3e, 0x56, 0xe4, 0xae, 0x3d, 0x4d, 0x72, 0x6d, 0xbf,
  0xa9, 0x94, 0x73, 0x3e, 0x98, 0xff, 0x84, 0x3e, 0x4b, 0xef, 0xae, 0xbe,
  0xa2, 0x8f, 0xa8, 0x3e, 0x2e, 0x7c, 0xa8, 0xbd, 0x51, 0x63, 0x3f, 0x3d,
  0x06, 0x9a, 0x88, 0x3e, 0xcf, 0xf2, 0x35, 0x3e, 0x37, 0xef, 0x82, 0x3e,
  0xa4, 0xb7, 0x8b, 0xbf, 0x31, 0xc3, 0x50, 0x3e, 0x0e, 0x1d, 0x68, 0x3e,
  0x9e, 0xb7, 0xc6, 0x3e, 0xdd, 0xc8, 0x39, 0x3e, 0x9e, 0x92, 0x19, 0x3f,
  0x81, 0x7f, 0x6b, 0xbf, 0xe9, 0x83, 0x0e, 0xbf, 0x41, 0x0e, 0xd2, 0x3d,
  0xc7, 0xda, 0x98, 0xbf, 0xf7, 0x17, 0x93, 0xbf, 0xe7, 0x9a, 0x7d, 0xbe,
  0xd6, 0xf3, 0x42, 0x3f, 0xf6, 0x89, 0x45, 0x3e, 0x8e, 0x6f, 0xce, 0xbe,
  0x2d, 0x9f, 0x73, 0xbe, 0x42, 0x5b, 0xc8, 0xbd, 0x0a, 0x70, 0xc9, 0x3d,
  0x5c, 0x0f, 0x07, 0xbd, 0xd9, 0xf3, 0x81, 0xbe, 0x5c, 0x23, 0xc2, 0xbd,
  0x6b, 0xdb, 0x37, 0xbf, 0xb5, 0x78, 0x71, 0xbd, 0x3c, 0x85, 0xcd, 0x3c,
  0x11, 0x8f, 0x4d, 0xbe, 0x30, 0x68, 0x10, 0x3e, 0xcb, 0xa9, 0xc5, 0xbe,
  0x0b, 0x8e, 0x91, 0xbf, 0x34, 0x52, 0x3a, 0xbe, 0x95, 0xb9, 0xf9, 0x3e,
  0x9d, 0xed, 0x05, 0xbc, 0xd8, 0xa1, 0x5a, 0x3e, 0x84, 0x71, 0xb3, 0xbe,
  0x71, 0x55, 0x43, 0x3e, 0x30, 0xb9, 0x02, 0xbc, 0xf2, 0x0a, 0xa7, 0x3e,
  0xcd, 0x62, 0x2f, 0xbf, 0x7f, 0x11, 0x0c, 0xbf, 0xb1, 0xb8, 0x23, 0xbd,
  0xcf, 0x97, 0x4d, 0xbf, 0xbe, 0x66, 0x8c, 0xbf, 0x5b, 0x6d, 0x18, 0xbf,
  0x7d, 0xdb, 0xcc, 0xbd, 0x45, 0x7e, 0xc0, 0x3d, 0xfe, 0x62, 0x23, 0x3e,
  0x8d, 0x76, 0x31, 0xbf, 0x2b, 0x7b, 0x5f, 0xbe, 0x4f, 0x80, 0x76, 0xbd,
  0xc4, 0x21, 0xbf, 0xbd, 0x9d, 0x72, 0xa6, 0x3b, 0xdf, 0x53, 0xce, 0x3e,
  0xf4, 0xa7, 0x78, 0xbf, 0xce, 0x8d, 0x40, 0x3e, 0x4b, 0xb8, 0x1d, 0xbd,
  0x52, 0x5f, 0x5b, 0x3e, 0x16, 0x42, 0x32, 0xbf, 0xb1, 0x82, 0x60, 0xba,
  0x45, 0xa1, 0x26, 0xbb, 0x51, 0x52, 0x10, 0x3e, 0x0b, 0xdc, 0x89, 0xbf,
  0xd2, 0x23, 0x74, 0xbd, 0xd5, 0x8c, 0x50, 0xbd, 0x9a, 0xd9, 0xff, 0xff,
  0x04, 0x00, 0x00, 0x00, 0x00, 0x20, 0x00, 0x00, 0x1e, 0x8d, 0x9c, 0xbd,
  0x15, 0x70, 0x08, 0x3e, 0x3b, 0x44, 0x88, 0xbc, 0x2c, 0x69, 0x07, 0x3f,
  0x95, 0xc9, 0x06, 0xbe, 0x98, 0x2e, 0x3b, 0xbe, 0x2e, 0x94, 0xe5, 0xbd,
  0xc6, 0x86, 0xd3, 0x3e, 0xaa, 0xec, 0x1f, 0xbe, 0xbb, 0x0b, 0x9c, 0x3e,
  0x1a, 0xc2, 0x82, 0x3e, 0xe1, 0xc2, 0xd1, 0x3e, 0x41, 0xc1, 0x08, 0xbe,
  0x37, 0xa4, 0xcb, 0x3d, 0x43, 0x36, 0xa7, 0x3d, 0x80, 0x0d, 0x63, 0xbe,
  0x52, 0x7a, 0xd6, 0xbd, 0x81, 0x04, 0x50, 0x3d, 0xc4, 0x10, 0xcf, 0xbd,
  0x25, 0x01, 0x7b, 0x3d, 0xb7, 0x29, 0x28, 0x3e, 0xe6, 0x2b, 0x48, 0xbd,
  0x80, 0xcd, 0x89, 0x3e, 0xac, 0x69, 0x7e, 0x3e, 0x09, 0x96, 0x3d, 0x3d,
  0x23, 0xbb, 0x1a, 0xbf, 0x38, 0x30, 0x98, 0x3d, 0x66, 0x90, 0x10, 0x3e,
  0xcd, 0x45, 0x84, 0x3e, 0x81, 0x5b, 0x8e, 0x3e, 0x0d, 0xee, 0xd6, 0xbe,
  0x9f, 0xe2, 0x8a, 0xbe, 0x30, 0xaf, 0xb6, 0x3d, 0xfb, 0x00, 0x9a, 0xbd,
  0xc1, 0x98, 0x00, 0x3e, 0x5a, 0xed, 0x52, 0xbe, 0xc3, 0x1b, 0x2e, 0x3d,
  0x25, 0x84, 0x0e, 0xbe, 0x96, 0x0c, 0x19, 0x3e, 0x74, 0x41, 0x88, 0xbe,
  0x88, 0x2e, 0x2c, 0x3e, 0x5a, 0x0e, 0x82, 0x3c, 0x4a, 0xd6, 0xd3, 0xbd,
  0xe8, 0x5e, 0x51, 0x3e, 0xdf, 0x5b, 0x63, 0xbe, 0x54, 0x0a, 0x40, 0xbe,
  0x1c, 0xac, 0x67, 0xbe, 0xb4, 0xcb, 0x70, 0xbc, 0xe7, 0x6f, 0x4c, 0xbd,
  0x3d, 0xb3, 0x27, 0x39, 0xb6, 0x2d, 0x40, 0xbe, 0x6e, 0x65, 0x86, 0x3d,
  0xde, 0x0c, 0x18, 0x3b, 0xd9, 0xad, 0x3f, 0xbc, 0xec, 0xd9, 0x1d, 0xbd,
  0x0e, 0xd5, 0x01, 0x3e, 0x9c, 0xe6, 0xef, 0x3d, 0x5e, 0x40, 0x6f, 0xbe,
  0x68, 0x51, 0x37, 0x3e, 0xae, 0xcc, 0xf6, 0xbc, 0xd8, 0x25, 0x68, 0xbe,
  0xe5, 0x3b, 0x7e, 0xbe, 0x94, 0x09, 0x82, 0xbe, 0x49, 0x02, 0x82, 0x3d,
  0xd8, 0x81, 0xa1, 0x3d, 0xfd, 0x47, 0x24, 0x3d, 0x23, 0xbb, 0x3c, 0x3d,
  0x82, 0x5b, 0xcf, 0xbd, 0x5d, 0xb2, 0x03, 0x3e, 0xa8, 0xf1, 0x93, 0x3e,
  0x7d, 0xda, 0x4e, 0x3e, 0x4e, 0x60, 0x20, 0x3d, 0xfc, 0xce, 0x55, 0xbe,
  0xcb, 0xd9, 0xa4, 0x3d, 0x77, 0x1b, 0x7c, 0x3e, 0xad, 0x26, 0x07, 0x3e,
  0x80, 0x9f, 0x32, 0x3f, 0xa9, 0x9d, 0xa8, 0xbe, 0x8d, 0x2c, 0x29, 0x3e,
  0xd7, 0x80, 0x11, 0x3f, 0xd0, 0x63, 0x50, 0xbe, 0xf4, 0x04, 0x06, 0x3f,
  0x22, 0x52, 0x3d, 0x3e, 0xb9, 0x45, 0xd5, 0x3d, 0x11, 0xba, 0x68, 0xbe,
  0x85, 0x70, 0x29, 0x3c, 0x6e, 0x82, 0xdc, 0x3d, 0x22, 0x80, 0x18, 0xbe,
  0x09, 0x97, 0xa2, 0x3e, 0x55, 0xdf, 0xef, 0x3c, 0x42, 0x14, 0x1d, 0x3f,
  0x06, 0x34, 0x2b, 0x3e, 0xb0, 0x61, 0x68, 0x3e, 0x19, 0x63, 0x1e, 0x3f,
  0xc4, 0xde, 0x58, 0x3e, 0x94, 0x8b, 0x56, 0x3e, 0x3f, 0x67, 0x4a, 0xbd,
  0x66, 0x01, 0x29, 0xbe, 0xb9, 0x49, 0x23, 0x3e, 0x20, 0x02, 0x0e, 0x3e,
  0x33, 0x2b, 0x08, 0xbe, 0x58, 0xaf, 0x4a, 0x3e, 0x50, 0x2e, 0x6d, 0xbe,
  0x86, 0x04, 0x35, 0xbe, 0x60, 0x6c, 0x7a, 0x3e, 0xd1, 0xca, 0x1d, 0x3e,
  0x5c, 0x82, 0x31, 0x3e, 0xbd, 0xa5, 0x38, 0xbe, 0xb2, 0x03, 0xed, 0xbd,
  0xfc, 0x98, 0x6d, 0xbe, 0x66, 0xdd, 0x71, 0xbd, 0x41, 0x9c, 0x32, 0x3e,
  0x83, 0x5f, 0x58, 0xbd, 0xcc, 0xf0, 0x4d, 0xbe, 0xc1, 0x19, 0x55, 0x3e,
  0xca, 0x06, 0x3a, 0x3c, 0x55, 0xd0, 0x28, 0x3e, 0x54, 0x5b, 0xad, 0x3d,
  0x14, 0x3a, 0x07, 0xbe, 0xbb, 0x34, 0x1c, 0xbe, 0x6a, 0x37, 0x31, 0xbe,
  0xbe, 0x91, 0x47, 0xbe, 0xf3, 0x2c, 0x14, 0x3e, 0x1d, 0xc0, 0x4e, 0xbd,
  0x3b, 0xe2, 0x23, 0x3d, 0x1a, 0x04, 0xe6, 0x3c, 0x68, 0x16, 0x22, 0xbe,
  0x18, 0xfc, 0x1f, 0x3d, 0xec, 0x31, 0xf6, 0x3d, 0x4e, 0x1f, 0x7e, 0xbe,
  0xba, 0xfb, 0xeb, 0xbd, 0x50, 0x2f, 0x69, 0xbe, 0xfd, 0x97, 0x8d, 0xbe,
  0x91, 0xbd, 0x4e, 0x3e, 0x4f, 0x01, 0xbb, 0x3e, 0x11, 0xcc, 0x5b, 0x3e,
  0x4d, 0x18, 0x2a, 0x3e, 0xa1, 0x9a, 0xba, 0x3e, 0x33, 0x40, 0x16, 0xbe,
  0x6e, 0x32, 0xa8, 0xbd, 0xee, 0x05, 0x90, 0xbe, 0x2b, 0x6b, 0x4a, 0x3e,
  0x97, 0x7c, 0x0f, 0xbc, 0x71, 0x22, 0x1f, 0xbd, 0xa5, 0x6e, 0x21, 0x3e,
  0x40, 0x9c, 0xd5, 0xbe, 0x23, 0x2f, 0x64, 0xbe, 0x29, 0x41, 0x2f, 0x3e,
  0x6b, 0xb4, 0x2a, 0x3e, 0x4c, 0xe5, 0xc8, 0x3d, 0x3c, 0xe9, 0xfa, 0xbd,
  0x18, 0x39, 0x26, 0x3f, 0xf8, 0x73, 0x25, 0xbe, 0xa0, 0xbb, 0x22, 0x3e,
  0x1a, 0x2e, 0xb5, 0xbe, 0x2c, 0x9d, 0x72, 0xbe, 0x1f, 0x86, 0x1c, 0xbd,
  0x3b, 0x60, 0xe0, 0x3a, 0xad, 0x83, 0xd8, 0xbc, 0x53, 0x11, 0x0d, 0x3d,
  0x35, 0x5d, 0x7f, 0x3c, 0x5d, 0xa9, 0x8a, 0xbd, 0x62, 0x0f, 0x47, 0xbe,
  0x53, 0x74, 0xd5, 0xbd, 0x93, 0x93, 0x73, 0xbe, 0x73, 0xee, 0xbc, 0x3d,
  0x8d, 0xf2, 0x45, 0xbd, 0x23, 0x3c, 0x7b, 0x3c, 0x1c, 0xfc, 0x8f, 0xbe,
  0x04, 0x81, 0x7c, 0x3e, 0x61, 0x40, 0xa1, 0x3e, 0x9f, 0x22, 0xca, 0x3e,
  0xaf, 0x2f, 0x2b, 0xbe, 0x28, 0x9b, 0xf8, 0x3d, 0xd7, 0x2a, 0x57, 0x3e,
  0x99, 0xdb, 0x35, 0xbe, 0x84, 0x9c, 0x0c, 0xbe, 0xa1, 0x6f, 0x04, 0xbf,
  0xc2, 0xbf, 0x34, 0xbe, 0x83, 0x97, 0x05, 0xbd, 0xd0, 0x1e, 0x5a, 0x3d,
  0x93, 0x30, 0x43, 0xbc, 0x21, 0x4d, 0x09, 0x3f, 0xf9, 0x72, 0xaa, 0x3e,
  0xff, 0xde, 0x1c, 0x3e, 0x2d, 0xc3, 0x28, 0xbf, 0x74, 0x40, 0xe2, 0xbe,
  0xe0, 0x06, 0x01, 0xbe, 0x8c, 0x04, 0x3a, 0xbe, 0x13, 0x37, 0x84, 0x3e,
  0x1a, 0xe6, 0x42, 0x3d, 0x8a, 0x98, 0x1a, 0xbe, 0xa8, 0xef, 0x9f, 0x3c,
  0x4f, 0x53, 0x58, 0xbd, 0x36, 0x8a, 0xa2, 0xbe, 0x54, 0xc9, 0x9b, 0x3e,
  0xb0, 0xf9, 0xbe, 0x3d, 0x1f, 0x65, 0x31, 0x3e, 0x9a, 0x1c, 0x06, 0xbe,
  0xe7, 0x9a, 0x5a, 0x3e, 0xc1, 0x24, 0x2c, 0x3e, 0x64, 0x59, 0x04, 0x3d,
  0x58, 0x44, 0xb6, 0x3e, 0x51, 0x12, 0x49, 0x3d, 0x80, 0x3a, 0x5a, 0xbe,
  0x1f, 0xec, 0x83, 0x3e, 0x19, 0xf6, 0xb1, 0xbd, 0x42, 0x35, 0x06, 0xbe,
  0x5a, 0xd4, 0xe0, 0xbc, 0x71, 0x53, 0x64, 0xbe, 0xf8, 0x8e, 0x1d, 0xbd,
  0x81, 0x37, 0x2d, 0x3e, 0x85, 0xb8, 0x42, 0xbd, 0x2e, 0xe5, 0x3d, 0xbe,
  0xcb, 0x2f, 0xa5, 0x3e, 0x07, 0x0f, 0xad, 0x3e, 0x34, 0x50, 0x1d, 0xbe,
  0xe8, 0x53, 0xf6, 0xbe, 0x0b, 0xf0, 0x8a, 0xbc, 0x8b, 0xba, 0x05, 0xbe,
  0xc8, 0x89, 0x0b, 0xbe, 0x42, 0xb3, 0x3d, 0xbc, 0x62, 0x37, 0xa8, 0xbe,
  0x10, 0xc8, 0x32, 0xbe, 0x2e, 0x6a, 0x81, 0xbe, 0xe6, 0xd3, 0x84, 0x3d,
  0xf6, 0x34, 0xbc, 0xbd, 0xfb, 0xa5, 0x27, 0x3c, 0x46, 0x6a, 0x2e, 0x3c,
  0x3b, 0x85, 0x32, 0xbf, 0xf1, 0x5a, 0x27, 0x3e, 0x25, 0xc5, 0x83, 0x3e,
  0xbc, 0xa6, 0xb2, 0xbd, 0x29, 0xaa, 0x98, 0x3e, 0x1e, 0xf3, 0xbd, 0x3e,
  0x46, 0xb0, 0x10, 0x3e, 0x7f, 0x90, 0x4a, 0xbf, 0x5c, 0x89, 0x0f, 0x3d,
  0x5b, 0xa5, 0x7d, 0xbe, 0x12, 0x2b, 0x17, 0xbf, 0x40, 0x0e, 0x18, 0xbd,
  0x54, 0x40, 0x19, 0xbf, 0xb6, 0xff, 0x49, 0x3d, 0xf7, 0xca, 0x09, 0x3e,
  0x60, 0xa1, 0x98, 0xbd, 0x71, 0xf6, 0xea, 0x3d, 0x77, 0xd5, 0x95, 0x3d,
  0x4a, 0xda, 0x03, 0x3e, 0x2a, 0xf3, 0x07, 0xbe, 0xef, 0x47, 0x03, 0xbf,
  0x9a, 0xdb, 0x37, 0xbf, 0x80, 0xf9, 0x57, 0xbe, 0x51, 0x26, 0x14, 0xbf,
  0x54, 0x67, 0xe0, 0x3e, 0xcb, 0xf1, 0xc0, 0x3d, 0x90, 0x8b, 0x1a, 0x3d,
  0x08, 0x50, 0x92, 0x3e, 0xa8, 0x31, 0x50, 0xbe, 0x2b, 0x92, 0xc7, 0xbd,
  0x51, 0x38, 0xce, 0xbe, 0xb7, 0x13, 0xb4, 0x3e, 0xb6, 0x3d, 0xc0, 0x3e,
  0xdb, 0x85, 0x93, 0x3e, 0x9d, 0x74, 0xd9, 0xbe, 0xca, 0x80, 0x37, 0x3e,
  0x54, 0x29, 0x06, 0x3b, 0xd5, 0x9c, 0x68, 0xbe, 0x1c, 0x51, 0xb1, 0xbe,
  0x87, 0x3a, 0x70, 0xbd, 0xa3, 0x1b, 0xe2, 0x3c, 0x35, 0xa9, 0x80, 0x3d,
  0x7c, 0xe4, 0x0a, 0x3f, 0xb9, 0x8c, 0x08, 0xbe, 0xc1, 0xd9, 0xe2, 0x3d,
  0x64, 0xc0, 0xb3, 0x3e, 0xbf, 0x9f, 0x72, 0x3e, 0x3d, 0xf8, 0x6e, 0x3d,
  0xff, 0x03, 0x4c, 0x3d, 0x4b, 0xcb, 0xe6, 0xbe, 0xa2, 0xa9, 0xc2, 0x3d,
  0x2d, 0x68, 0x5d, 0x3e, 0xb6, 0xd2, 0x18, 0x3f, 0x0c, 0x85, 0xb8, 0x3e,
  0xcf, 0x2e, 0x24, 0x3e, 0xbf, 0x6c, 0x11, 0x3d, 0x97, 0x65, 0x4f, 0xbf,
  0x0e, 0x5f, 0x36, 0x3e, 0x05, 0xbd, 0x83, 0x3e, 0xed, 0x1a, 0x0f, 0x3e,
  0xa1, 0xf7, 0x9c, 0x3e, 0x66, 0x06, 0x1d, 0xbd, 0x79, 0xeb, 0x0c, 0x3e,
  0x50, 0x90, 0xb6, 0x3e, 0x36, 0x88, 0xdd, 0x3d, 0x15, 0xbb, 0x47, 0x3e,
  0x50, 0xcc, 0x56, 0x3b, 0x37, 0xfd, 0xe8, 0xbd, 0xd1, 0x37, 0x1f, 0xbd,
  0xff, 0x17, 0xca, 0xbd, 0xa9, 0xc1, 0x16, 0xbe, 0xdd, 0x74, 0x84, 0x3d,
  0x1b, 0x92, 0x88, 0xbd, 0xb7, 0xf5, 0x3a, 0xbe, 0x4d, 0x35, 0x30, 0x3e,
  0xeb, 0x00, 0x89, 0x3c, 0xca, 0xe1, 0xe5, 0x3e, 0x29, 0xb0, 0x51, 0x3d,
  0x93, 0x0e, 0xa3, 0x3e, 0xdf, 0x67, 0x32, 0x3e, 0xc0, 0x96, 0xb9, 0x3e,
  0xad, 0xcf, 0x3b, 0xbe, 0x27, 0x3c, 0xab, 0xbe, 0x2f, 0x5d, 0x04, 0x3c,
  0x83, 0x0f, 0x35, 0xbe, 0x20, 0x3e, 0xcb, 0x3e, 0x5d, 0x09, 0x05, 0x3e,
  0xd7, 0x82, 0x5d, 0x3e, 0x9d, 0x5c, 0xaa, 0x3b, 0xfa, 0xfd, 0xab, 0x3d,
  0x73, 0xd5, 0xa3, 0x3d, 0x64, 0x9c, 0xc1, 0xbd, 0xc9, 0x3b, 0x16, 0x3e,
  0xf7, 0x3b, 0x8f, 0xbe, 0x1a, 0xa3, 0x02, 0xbd, 0x3b, 0x1f, 0x7e, 0xbe,
  0x15, 0x0f, 0x73, 0xbe, 0x1d, 0xbc, 0xaa, 0x3e, 0xb1, 0x2f, 0x28, 0xbd,
  0x15, 0xbf, 0x0e, 0x3f, 0x7e, 0x6b, 0xdc, 0x3d, 0xfc, 0x74, 0x2a, 0x3e,
  0xca, 0xaf, 0x5b, 0xbe, 0x7f, 0x19, 0x3d, 0xbf, 0x9f, 0x1f, 0xc5, 0x3e,
  0x3b, 0x8f, 0xfc, 0xbc, 0x87, 0xda, 0x0d, 0x3d, 0x60, 0x14, 0xe8, 0x3e,
  0x91, 0xc6, 0xd9, 0xbe, 0x98, 0x4b, 0xb6, 0x3d, 0xac, 0xfc, 0xc3, 0x3e,
  0x76, 0x21, 0xbe, 0xbd, 0x72, 0xcb, 0xa6, 0x3d, 0xbb, 0xc1, 0x77, 0xbe,
  0x99, 0x7f, 0xc3, 0x3e, 0x1b, 0xa4, 0x06, 0xbc, 0x1e, 0x87, 0x22, 0x3f,
  0x22, 0xb7, 0xe4, 0xbe, 0x9e, 0x57, 0x44, 0xbe, 0x4c, 0xa6, 0xd1, 0xbe,
  0x43, 0x92, 0xb7, 0xbe, 0xef, 0x1f, 0x94, 0xbe, 0x22, 0xfe, 0x9e, 0x3d,
  0x0e, 0x71, 0xf7, 0xbd, 0xe1, 0xec, 0x7a, 0x3e, 0x01, 0xa4, 0x7d, 0x3d,
  0xf7, 0x23, 0x42, 0xbe, 0xc4, 0xf0, 0x6a, 0xbc, 0xc3, 0x99, 0x2a, 0x3f,
  0xd5, 0xf9, 0x2e, 0x3d, 0x5f, 0x5c, 0x1c, 0xbe, 0x39, 0xac, 0x65, 0xbe,
  0x03, 0x77, 0x44, 0xbe, 0x19, 0xdc, 0xa9, 0x3e, 0x06, 0x97, 0x0b, 0x3f,
  0xe4, 0xef, 0x27, 0x3f, 0x6f, 0xc4, 0x4e, 0xbe, 0x91, 0x40, 0xbc, 0xbc,
  0x4d, 0xeb, 0x0f, 0x3f, 0xe2, 0x37, 0x85, 0xbe, 0x9e, 0xd1, 0x7f, 0x3d,
  0xbe, 0xfd, 0x32, 0x3b, 0x72, 0x96, 0x19, 0xbe, 0xe1, 0x0d, 0x1c, 0xbe,
  0xa2, 0xee, 0x35, 0x3e, 0xcb, 0xb9, 0xf9, 0x3e, 0x0b, 0x58, 0xbe, 0x3e,
  0xb6, 0x01, 0xa3, 0x3e, 0x2d, 0xd5, 0x0e, 0x3f, 0x3a, 0x7a, 0x20, 0x3f,
  0xa2, 0x1d, 0x5d, 0x3e, 0x75, 0x81, 0xe5, 0xbc, 0x7e, 0xdd, 0xa7, 0x3e,
  0x82, 0x0f, 0xbf, 0x3d, 0x2c, 0x87, 0x77, 0xbd, 0xf8, 0xa2, 0x81, 0xbe,
  0x16, 0xfc, 0x7e, 0xbe, 0x1f, 0x56, 0x81, 0xbe, 0xf6, 0x0e, 0x1d, 0xbe,
  0xcd, 0xa5, 0x89, 0xbe, 0xa6, 0x7c, 0xf8, 0x3e, 0x54, 0x8a, 0x37, 0x3e,
  0x4d, 0xb6, 0xe8, 0xbd, 0x82, 0x9c, 0x9d, 0xbe, 0x4e, 0xb9, 0x96, 0xbd,
  0xd8, 0x6f, 0x7a, 0x3e, 0x62, 0xfe, 0x84, 0x3e, 0x82, 0x6d, 0x59, 0x3f,
  0x41, 0x6e, 0xa5, 0x3d, 0x10, 0xbf, 0x74, 0xbe, 0x0a, 0x96, 0x27, 0x3f,
  0x36, 0x57, 0x9e, 0xbe, 0x44, 0x3f, 0x01, 0xbe, 0x66, 0x81, 0x0b, 0xbd,
  0x07, 0x44, 0x92, 0xbe, 0xd4, 0xa2, 0x26, 0x3e, 0xa5, 0x7d, 0x5d, 0xbe,
  0xb1, 0x4b, 0xed, 0x3e, 0xd4, 0x37, 0x99, 0x3e, 0xf0, 0xdb, 0x82, 0xbe,
  0xc2, 0xa4, 0x05, 0x3e, 0x3c, 0x6c, 0x43, 0x3f, 0x27, 0xf6, 0x35, 0xbe,
  0x61, 0x4a, 0x0e, 0x3e, 0xf3, 0xc2, 0xee, 0xbd, 0x8d, 0x14, 0x51, 0xbe,
  0x2c, 0x48, 0x24, 0x3e, 0xb5, 0x53, 0xef, 0x3d, 0xd8, 0x61, 0x64, 0x3e,
  0xab, 0x9d, 0xc6, 0x3b, 0xd1, 0x5e, 0x83, 0xbe, 0x3b, 0x4c, 0x08, 0x3d,
  0xe2, 0x34, 0x9a, 0xbe, 0xc5, 0xee, 0x39, 0x3e, 0xf6, 0xa9, 0x52, 0xbd,
  0x25, 0x73, 0xdc, 0xbe, 0xd9, 0x4b, 0x07, 0xbe, 0x0f, 0x73, 0x5d, 0x3c,
  0xa1, 0x0e, 0xb2, 0x3d, 0xdc, 0x7c, 0xe0, 0x3d, 0xc2, 0x52, 0x58, 0xbe,
  0x0b, 0xf0, 0x0e, 0x3e, 0xde, 0x13, 0xc5, 0x3e, 0xff, 0x05, 0xdb, 0xbd,
  0x94, 0x60, 0x9f, 0x3e, 0xe1, 0x16, 0xc4, 0x3e, 0x5a, 0x72, 0xd2, 0xbd,
  0x73, 0x8d, 0x71, 0xbe, 0xba, 0x0c, 0x7b, 0x3e, 0x10, 0xf9, 0x48, 0x3d,
  0xc7, 0x66, 0xd5, 0xbd, 0x64, 0x83, 0x26, 0xbc, 0x94, 0xbf, 0x1d, 0xbe,
  0xa3, 0xd6, 0xa6, 0x3e, 0x79, 0x68, 0x93, 0x3c, 0x9b, 0x5b, 0x4d, 0x3d,
  0xc8, 0x55, 0x91, 0x3e, 0x5d, 0x44, 0x9a, 0x3d, 0x3b, 0x81, 0x8e, 0xbd,
  0xc7, 0x22, 0xaf, 0xbd, 0xa4, 0x49, 0xcf, 0x3b, 0xdb, 0x7c, 0x84, 0x3e,
  0x16, 0xa1, 0xa9, 0xbd, 0x53, 0x41, 0xd1, 0x3e, 0xd0, 0xe1, 0x39, 0xbf,
  0xb9, 0x69, 0x2a, 0x3e, 0x24, 0x35, 0xcc, 0x3d, 0x2a, 0x15, 0x86, 0x3c,
  0x21, 0xa5, 0x54, 0x3e, 0xbc, 0xa6, 0xc7, 0x3e, 0xd0, 0xeb, 0xc6, 0x3e,
  0xb6, 0x6f, 0xfc, 0xbe, 0xf0, 0xcc, 0x7e, 0xbe, 0xbc, 0x7e, 0x5b, 0x3e,
  0xae, 0xe9, 0xa8, 0xbe, 0xb7, 0x44, 0xd9, 0xbd, 0x85, 0xcb, 0xaa, 0xbe,
  0xc3, 0x87, 0x95, 0x3e, 0xa6, 0xca, 0x83, 0x3a, 0x3f, 0x8c, 0xfd, 0xb9,
  0x36, 0x47, 0x63, 0x3e, 0x63, 0x04, 0xc5, 0x3e, 0xcf, 0x2c, 0x0e, 0x3d,
  0xa3, 0x0b, 0xfb, 0xbd, 0x3b, 0x96, 0x06, 0xbf, 0x3f, 0x56, 0x83, 0xbe,
  0xc1, 0xab, 0x76, 0x3e, 0xb2, 0x95, 0x9d, 0xbe, 0xfc, 0xc3, 0xce, 0x3e,
  0x0b, 0xcb, 0xd5, 0x3e, 0xc4, 0xaa, 0x45, 0x3e, 0x98, 0x19, 0x57, 0xbe,
  0x56, 0xa2, 0x55, 0xbe, 0x93, 0x5b, 0x0b, 0xbe, 0xcc, 0x1e, 0x14, 0x3e,
  0x00, 0x39, 0x47, 0x3c, 0x02, 0xbb, 0xf6, 0x3c, 0x80, 0x7d, 0xdf, 0x3b,
  0xd0, 0x45, 0x38, 0xbe, 0xe0, 0x49, 0x98, 0x3d, 0x00, 0x55, 0x57, 0xbd,
  0x72, 0x37, 0x02, 0xbc, 0x00, 0x9d, 0x4c, 0xbe, 0xc0, 0xf5, 0x29, 0x3e,
  0x14, 0x98, 0x28, 0xbe, 0xb0, 0x50, 0x67, 0x3e, 0xa1, 0xd8, 0xef, 0xbc,
  0x40, 0x03, 0xe7, 0xbc, 0xf8, 0x18, 0x46, 0x3e, 0x18, 0x78, 0xd0, 0xbd,
  0xe9, 0xc8, 0x9e, 0x3d, 0xc7, 0x1c, 0xfc, 0x3d, 0x00, 0x45, 0xbc, 0xbb,
  0xc8, 0x76, 0x64, 0x3e, 0x00, 0x86, 0x2f, 0x3c, 0xeb, 0x0d, 0x0f, 0xbe,
  0x6f, 0x12, 0x26, 0xbe, 0x5e, 0x2c, 0x43, 0xbe, 0x86, 0x70, 0x61, 0x3e,
  0xcc, 0xb0, 0x4a, 0xbe, 0x0a, 0x26, 0x4f, 0xbd, 0xb8, 0x31, 0x7a, 0x3e,
  0x99, 0xbd, 0xc5, 0xbd, 0x37, 0x17, 0xc0, 0xbc, 0x5e, 0x30, 0x60, 0x3d,
  0x25, 0xd8, 0x83, 0xbd, 0x50, 0x7b, 0x4d, 0x3e, 0x97, 0x78, 0x01, 0x3b,
  0xd0, 0x80, 0x75, 0x3e, 0x75, 0xd3, 0xee, 0x3c, 0xbc, 0x06, 0xa6, 0xbc,
  0x81, 0x0c, 0xf3, 0xbe, 0xc1, 0x13, 0x1b, 0xbd, 0xd2, 0xd9, 0x27, 0x3d,
  0xd4, 0xb9, 0xdd, 0x3e, 0xa1, 0xf0, 0x8c, 0x3e, 0x24, 0x28, 0x5a, 0xbe,
  0x5a, 0x3a, 0x6f, 0xbe, 0x0a, 0x84, 0x38, 0x3e, 0x39, 0x7f, 0xb4, 0xbe,
  0xac, 0x09, 0x81, 0x3b, 0xaf, 0xde, 0xc0, 0x3c, 0x6d, 0x61, 0xa9, 0x3d,
  0x4e, 0x20, 0x18, 0x3e, 0xe7, 0x95, 0x77, 0x3e, 0x7a, 0x27, 0xe6, 0x3e,
  0x87, 0xfc, 0x6e, 0x3e, 0x5a, 0x54, 0xb6, 0x3e, 0xbc, 0x64, 0x48, 0x3e,
  0x0e, 0x95, 0x06, 0x3f, 0x8c, 0xc0, 0x9d, 0x3d, 0xc7, 0x84, 0x20, 0xbe,
  0x0b, 0x88, 0x6c, 0x3e, 0x52, 0x4e, 0xca, 0x3e, 0xce, 0x65, 0x71, 0x3d,
  0x32, 0xbc, 0x76, 0xbe, 0xa1, 0x2b, 0x66, 0x3e, 0x01, 0x59, 0x68, 0xbc,
  0x64, 0x43, 0x79, 0xbe, 0x38, 0x8d, 0x7a, 0xbe, 0xf8, 0xa7, 0x6a, 0xbe,
  0x60, 0x7e, 0xa7, 0xbd, 0x68, 0x3d, 0x2e, 0xbe, 0xd8, 0xc3, 0x63, 0x3e,
  0xe0, 0x3f, 0xf6, 0xbd, 0xa6, 0x14, 0x8a, 0xbe, 0x10, 0x88, 0xa9, 0xbd,
  0x64, 0xf8, 0x2f, 0xbe, 0x40, 0x1a, 0x9d, 0x3c, 0xf8, 0x4a, 0x02, 0x3e,
  0x49, 0x68, 0x01, 0x3e, 0x08, 0x8e, 0xda, 0xbd, 0x5b, 0x93, 0x10, 0xbe,
  0x88, 0x4c, 0x5b, 0x3e, 0xc7, 0xd3, 0x11, 0xbe, 0xc8, 0xd2, 0x5a, 0x3e,
  0xe8, 0x09, 0x44, 0xbe, 0xc0, 0x00, 0xfc, 0x3c, 0x50, 0x9d, 0xbc, 0x3d,
  0x41, 0xe8, 0x1a, 0x3e, 0x1f, 0xac, 0x97, 0x3d, 0x98, 0x43, 0xa5, 0xbd,
  0xdb, 0x55, 0x39, 0x3e, 0x24, 0xcf, 0x57, 0xbe, 0xa4, 0x6d, 0x35, 0x3e,
  0x93, 0xcb, 0x02, 0xbd, 0x53, 0x32, 0x28, 0x3e, 0x68, 0x32, 0x6d, 0xbe,
  0xc0, 0x7f, 0xfe, 0xbc, 0x08, 0x34, 0xc7, 0xbd, 0x48, 0xe6, 0xc2, 0x3d,
  0x44, 0x77, 0x03, 0x3e, 0x68, 0x38, 0xea, 0xbd, 0xe8, 0x82, 0x14, 0xbe,
  0x6c, 0xbf, 0x75, 0xbe, 0x58, 0x65, 0x2b, 0xbe, 0x38, 0xcd, 0xf4, 0xbd,
  0xe8, 0x91, 0x06, 0x3e, 0x40, 0xa8, 0xa5, 0xbc, 0x00, 0x5f, 0xc9, 0xbd,
  0xc0, 0x89, 0xd7, 0xbd, 0xb8, 0x27, 0x7f, 0x3e, 0x30, 0x93, 0xb3, 0xbd,
  0x88, 0x65, 0xaa, 0x3d, 0xb8, 0x49, 0x83, 0x3d, 0x90, 0xb2, 0xde, 0xbd,
  0x44, 0x6d, 0x7f, 0xbe, 0x20, 0xa8, 0x9a, 0xbc, 0xe0, 0x67, 0x20, 0x3e,
  0xe0, 0xae, 0x3b, 0x3d, 0xa8, 0x30, 0x28, 0x3e, 0x80, 0x17, 0x49, 0x3d,
  0x40, 0xeb, 0x8d, 0xbd, 0xf0, 0xa0, 0x92, 0x3d, 0x10, 0x6c, 0x7d, 0xbd,
  0x90, 0xf4, 0x44, 0x3e, 0x38, 0x8f, 0x38, 0xbe, 0x8c, 0x7f, 0x6d, 0x3e,
  0x00, 0x6d, 0x90, 0xbc, 0xc8, 0x4e, 0xbe, 0x3e, 0xe4, 0xa7, 0x8d, 0x3e,
  0x9b, 0x66, 0xc4, 0x3d, 0xe6, 0x71, 0x05, 0x3e, 0x6f, 0xb3, 0xd2, 0x3b,
  0x2d, 0xb6, 0xa7, 0x3c, 0x98, 0x33, 0x59, 0x3e, 0x92, 0xe8, 0x71, 0xbd,
  0x08, 0x4f, 0xd8, 0xbe, 0xac, 0x1d, 0x41, 0xbe, 0x12, 0x87, 0x36, 0x3e,
  0x3b, 0x0c, 0x61, 0x3d, 0xa7, 0x9b, 0x14, 0x3e, 0x54, 0x36, 0x94, 0xbe,
  0x7e, 0x2d, 0x0a, 0xbc, 0x87, 0x72, 0xe1, 0x3d, 0x24, 0x9c, 0x8a, 0xbd,
  0x76, 0x34, 0x6b, 0x3e, 0x39, 0xce, 0x70, 0x3e, 0xa7, 0x18, 0x92, 0x3e,
  0xd9, 0xb7, 0xfd, 0x3d, 0x32, 0xcb, 0x35, 0x3e, 0x81, 0x02, 0xef, 0x3d,
  0xdf, 0x10, 0x27, 0xbc, 0xdd, 0x64, 0x16, 0x3e, 0x72, 0x86, 0x74, 0xbe,
  0x5a, 0x11, 0xb3, 0x3e, 0x9d, 0x91, 0x00, 0xbe, 0x1f, 0x6a, 0x2b, 0xbe,
  0xcf, 0x89, 0x9a, 0xbd, 0x37, 0xae, 0x72, 0x3e, 0xb1, 0xbb, 0x1a, 0x3e,
  0xfd, 0xb7, 0x2d, 0x3e, 0xd2, 0xf9, 0xdf, 0xbd, 0xbc, 0x16, 0x89, 0x3e,
  0x5c, 0x0f, 0x73, 0xbd, 0x67, 0x34, 0x4e, 0xbe, 0x8d, 0xe1, 0x37, 0xbe,
  0x38, 0x4d, 0x05, 0xbe, 0x02, 0x70, 0x68, 0xbe, 0x6d, 0xd4, 0x93, 0x3c,
  0x0a, 0xe1, 0x45, 0xbe, 0x1e, 0x90, 0x20, 0x3d, 0xac, 0x30, 0x86, 0x3e,
  0x31, 0x1f, 0x1c, 0x3e, 0x12, 0x45, 0x55, 0x3e, 0xcd, 0x16, 0xca, 0xbd,
  0x54, 0xa9, 0xb9, 0xbd, 0xcd, 0x34, 0x67, 0xbe, 0x14, 0xb6, 0x17, 0xbd,
  0x9a, 0xc6, 0x88, 0x3e, 0x64, 0x30, 0x18, 0x3e, 0x63, 0x28, 0x32, 0x3e,
  0x52, 0x66, 0x32, 0xbe, 0x0b, 0xad, 0x89, 0x3d, 0x59, 0x5a, 0x29, 0xbd,
  0xde, 0xdb, 0x46, 0xbd, 0x7b, 0xc3, 0x8e, 0xbc, 0xbd, 0xdf, 0x8b, 0x3d,
  0xf8, 0xdb, 0x80, 0x3e, 0xbe, 0xad, 0xa7, 0xbc, 0xec, 0xf3, 0x5b, 0xbd,
  0x75, 0x22, 0x89, 0xbd, 0x01, 0x91, 0x1d, 0x3e, 0x10, 0xb2, 0x50, 0xbe,
  0xb8, 0x08, 0x75, 0xbe, 0x2c, 0x3e, 0xf7, 0xbd, 0x81, 0x6f, 0xd1, 0xbe,
  0x0b, 0xf5, 0xe4, 0x3d, 0x51, 0x41, 0x88, 0x3e, 0xc5, 0x03, 0x17, 0x3e,
  0xf9, 0x47, 0xc4, 0xbd, 0xb6, 0x26, 0x5e, 0x3e, 0x9b, 0xb0, 0x53, 0x3d,
  0x0a, 0x46, 0xd4, 0xbe, 0x90, 0xfd, 0x33, 0xbe, 0xc3, 0x9e, 0x24, 0xbe,
  0x73, 0xee, 0xa5, 0x3d, 0xb1, 0xc9, 0x68, 0x3d, 0x21, 0x81, 0xbf, 0x3d,
  0xd0, 0xfa, 0x89, 0x3e, 0x6c, 0x7f, 0xf0, 0xbd, 0x0a, 0xf8, 0x09, 0xbe,
  0x90, 0xcb, 0x47, 0xbd, 0x90, 0xc5, 0x0c, 0xbe, 0x62, 0x42, 0xee, 0x3d,
  0xdd, 0x7b, 0x4d, 0xbe, 0x06, 0x49, 0x9b, 0x3e, 0x19, 0x7a, 0x32, 0xbe,
  0x7f, 0xf3, 0x40, 0x3f, 0xde, 0x70, 0x22, 0x3c, 0xa0, 0x99, 0xad, 0xbd,
  0x35, 0x4b, 0xfb, 0xbd, 0xcd, 0x6f, 0x41, 0xbf, 0xc4, 0x03, 0x1e, 0xbd,
  0x30, 0xfd, 0xdf, 0xbd, 0xf1, 0xe7, 0x54, 0xbe, 0xdb, 0xf3, 0x5d, 0x3e,
  0xc3, 0x4b, 0x93, 0x3c, 0x12, 0x75, 0xae, 0xbd, 0x3c, 0xc8, 0x85, 0xbe,
  0x4f, 0x44, 0x5d, 0x3e, 0xe8, 0xde, 0xdc, 0x3d, 0x02, 0x21, 0x48, 0xbe,
  0x88, 0x77, 0x42, 0x3e, 0xb5, 0xc9, 0x40, 0xbe, 0xdc, 0x5c, 0x55, 0x3e,
  0xdc, 0x30, 0x68, 0xbd, 0xdf, 0xf2, 0xc4, 0x3d, 0x18, 0x55, 0x5e, 0xbe,
  0xb0, 0x74, 0x40, 0x3e, 0x7f, 0x0b, 0xb4, 0x3d, 0x42, 0xc1, 0x69, 0xbc,
  0x2c, 0x15, 0x56, 0xbe, 0x9b, 0x3f, 0xda, 0x3d, 0x05, 0x19, 0x9f, 0xbd,
  0x50, 0x76, 0x1e, 0xbd, 0xc8, 0x5c, 0x85, 0xbe, 0x4f, 0x53, 0x65, 0xbe,
  0x9c, 0x9a, 0xaa, 0xbc, 0xa4, 0x31, 0x1b, 0x3e, 0x5b, 0xf3, 0x82, 0xbd,
  0x3b, 0x89, 0x15, 0x3d, 0x68, 0xe7, 0xf9, 0xbd, 0x7c, 0x3b, 0x50, 0xbe,
  0x11, 0xcd, 0x80, 0xbd, 0x2e, 0xc7, 0x87, 0x3d, 0xfd, 0xfc, 0x50, 0x3e,
  0xbd, 0x18, 0x0f, 0x3d, 0x38, 0x8d, 0x39, 0x3e, 0x4f, 0x4a, 0xa0, 0xbc,
  0xdd, 0x1d, 0x49, 0xbe, 0xd6, 0x67, 0xb1, 0x3e, 0x5e, 0x9d, 0x43, 0x3e,
  0x43, 0xc0, 0xd0, 0xbd, 0x6f, 0x00, 0x8e, 0x3d, 0x3a, 0xa0, 0x40, 0x3d,
  0xeb, 0x2e, 0xb5, 0xba, 0x1a, 0x09, 0x3c, 0xbc, 0x20, 0x44, 0xa3, 0x3b,
  0x6f, 0xb9, 0x37, 0x3e, 0xd9, 0xce, 0xae, 0x3d, 0x32, 0xcf, 0x6d, 0x3e,
  0xd6, 0x11, 0xa1, 0x3e, 0xf8, 0x2d, 0x13, 0xbe, 0xe7, 0xe8, 0xd2, 0x3d,
  0x14, 0xac, 0xa6, 0x3e, 0x68, 0x8a, 0x29, 0x3e, 0x00, 0xd2, 0x32, 0x3e,
  0xc9, 0x5b, 0xb8, 0x3e, 0xa4, 0x5a, 0x8a, 0xbe, 0xb7, 0x4d, 0x4e, 0xbe,
  0xe9, 0x4e, 0x9a, 0x3e, 0x8b, 0x15, 0x52, 0x3e, 0x48, 0xe3, 0xe2, 0x3e,
  0x92, 0x5e, 0xc3, 0xbd, 0x34, 0x51, 0xdc, 0x3e, 0x36, 0x59, 0x1e, 0xbd,
  0xa6, 0xe0, 0xed, 0x3e, 0x4a, 0x32, 0x07, 0x3e, 0x75, 0x05, 0xb0, 0x3d,
  0x41, 0xab, 0x14, 0xbe, 0xf9, 0xbf, 0x9e, 0xbc, 0x38, 0x02, 0x71, 0x3d,
  0x00, 0x24, 0x0f, 0xbe, 0x21, 0x47, 0x1f, 0x3d, 0xf4, 0xfc, 0x2d, 0x3e,
  0x87, 0x8c, 0x30, 0x3e, 0xa3, 0x68, 0xf8, 0x3e, 0x28, 0x43, 0x04, 0x3e,
  0x48, 0x5a, 0x26, 0x3e, 0xa1, 0x9d, 0x8a, 0xbe, 0xb1, 0x2f, 0x82, 0xbe,
  0x97, 0x9a, 0x9e, 0x3e, 0x5a, 0xb9, 0x9f, 0xbd, 0xa0, 0x93, 0xff, 0x3c,
  0xb2, 0x82, 0x42, 0x3e, 0xb1, 0x72, 0x80, 0x3c, 0x41, 0x0d, 0x26, 0x3e,
  0x68, 0xb0, 0x5c, 0x3e, 0x40, 0x75, 0x58, 0xbd, 0xe9, 0xf2, 0x32, 0xbe,
  0x21, 0x27, 0xd9, 0xbe, 0x2e, 0xc0, 0x47, 0xbd, 0xb8, 0x1f, 0x5e, 0xbe,
  0x36, 0x03, 0x40, 0x3f, 0xbc, 0x1c, 0x92, 0xbe, 0xd7, 0x25, 0xca, 0xbd,
  0x60, 0x90, 0x9e, 0xbd, 0x9c, 0x11, 0xc9, 0xbe, 0x74, 0x99, 0x7a, 0x3c,
  0x80, 0x78, 0x80, 0xbb, 0x57, 0x8c, 0xc8, 0xbc, 0x82, 0x81, 0xcb, 0x3d,
  0xef, 0xd0, 0x65, 0xbe, 0x70, 0x1c, 0x88, 0x3e, 0x8d, 0xa2, 0xc1, 0xbe,
  0x85, 0x6c, 0x86, 0x3e, 0x49, 0xbc, 0x7b, 0xbe, 0xa6, 0xc0, 0x06, 0x3e,
  0x40, 0xb1, 0xc5, 0xbd, 0xa8, 0x6e, 0xad, 0x3e, 0x5f, 0x07, 0xb6, 0x3e,
  0x3a, 0x83, 0xd8, 0x3e, 0xe5, 0x98, 0xea, 0x3d, 0x78, 0x99, 0xc2, 0x39,
  0x90, 0x9e, 0x21, 0xbe, 0x4d, 0x15, 0xf1, 0xbd, 0xb3, 0x1a, 0x2b, 0x3e,
  0x97, 0x84, 0xa4, 0xbd, 0xbc, 0xa4, 0x54, 0xbd, 0x6d, 0x1a, 0x91, 0xbc,
  0xe0, 0x60, 0x40, 0x3e, 0x0c, 0x7d, 0x80, 0xbd, 0xf7, 0xe5, 0x8d, 0x3e,
  0x41, 0x8d, 0x09, 0x3e, 0x29, 0x8b, 0x4e, 0xbe, 0x70, 0xee, 0x98, 0xbe,
  0xa1, 0x90, 0x27, 0xbe, 0x3b, 0x0b, 0x91, 0x3d, 0x99, 0xf8, 0x59, 0x3e,
  0xdf, 0x42, 0x43, 0x3c, 0x9c, 0xdc, 0x86, 0xbe, 0xf0, 0x85, 0x6b, 0x3d,
  0x80, 0x9f, 0xeb, 0xbc, 0xc5, 0x70, 0x1b, 0x3e, 0x4d, 0x50, 0x22, 0x3e,
  0x2d, 0xf3, 0x81, 0x3d, 0xa1, 0xe0, 0x03, 0x3e, 0x42, 0x12, 0x31, 0xbc,
  0xc0, 0x2e, 0x6b, 0xbb, 0x63, 0x45, 0x54, 0xbd, 0x67, 0xa2, 0x77, 0xbe,
  0xc1, 0x9c, 0x86, 0xbe, 0x2a, 0x8f, 0xfd, 0xbd, 0xff, 0xc9, 0xf9, 0xbd,
  0xcc, 0x13, 0x5f, 0x3e, 0x3b, 0x76, 0x70, 0xbd, 0xe9, 0x03, 0x05, 0xbe,
  0x17, 0x15, 0x0d, 0x3d, 0x23, 0x3f, 0x28, 0x3e, 0xfb, 0x83, 0xda, 0x3d,
  0xca, 0x48, 0x3e, 0x3e, 0x82, 0x67, 0xd1, 0xbd, 0x8f, 0xad, 0x3b, 0x3e,
  0xbb, 0x28, 0xa2, 0x3d, 0x78, 0xa3, 0x87, 0x3e, 0xff, 0x31, 0x2a, 0xbe,
  0x99, 0x40, 0xec, 0x3c, 0xeb, 0x65, 0x8d, 0x3e, 0x95, 0x5c, 0x45, 0x3e,
  0xc4, 0x75, 0x13, 0x3e, 0x64, 0x30, 0xf4, 0xbc, 0xb1, 0x88, 0x34, 0x3e,
  0x00, 0xad, 0x14, 0xbd, 0xee, 0x57, 0x80, 0x3e, 0x98, 0xf9, 0x22, 0xbd,
  0xcd, 0xc6, 0x36, 0xbd, 0xaf, 0x3e, 0x21, 0xbd, 0xc2, 0xf9, 0x22, 0x3e,
  0xa0, 0xf4, 0x11, 0x3d, 0xa4, 0x35, 0x0a, 0x3e, 0xcd, 0xb0, 0xc4, 0x3d,
  0x7b, 0x35, 0x20, 0x3e, 0x70, 0x28, 0x89, 0xbd, 0x59, 0x8b, 0x4e, 0xbd,
  0xa6, 0xc8, 0x9f, 0xbd, 0x88, 0x71, 0xb3, 0xbd, 0x50, 0x96, 0x39, 0x3d,
  0x52, 0xbd, 0x08, 0xbd, 0x4f, 0x71, 0xdc, 0xbd, 0xd0, 0x88, 0x77, 0xbd,
  0x08, 0xde, 0x77, 0xbe, 0x47, 0xfe, 0x3c, 0xbe, 0x78, 0x3c, 0xa6, 0xbd,
  0xc5, 0x43, 0x60, 0x3d, 0x80, 0x20, 0xba, 0xbc, 0xb2, 0xb3, 0x14, 0xbe,
  0xcc, 0x3b, 0xf2, 0xbd, 0xbc, 0x90, 0x3a, 0xbe, 0x49, 0x73, 0x24, 0x3e,
  0x00, 0xa6, 0xee, 0x3c, 0x88, 0x2d, 0xfb, 0xbd, 0xcb, 0xc2, 0xdd, 0x3d,
  0x19, 0x83, 0x8a, 0xbd, 0x20, 0x36, 0x47, 0x3e, 0x5b, 0x2b, 0x2f, 0xbe,
  0xf4, 0x93, 0x56, 0x3e, 0x88, 0xe2, 0xb0, 0xbd, 0x25, 0x4d, 0x02, 0xbe,
  0x83, 0xd0, 0x61, 0xbe, 0x30, 0xaf, 0x6f, 0x3e, 0x10, 0xa1, 0xb4, 0xbd,
  0xce, 0xf3, 0xba, 0x3d, 0x47, 0x1d, 0x95, 0xbe, 0x89, 0x5f, 0x5a, 0x3e,
  0x53, 0x10, 0x2c, 0x3e, 0x3d, 0xb1, 0x32, 0xbe, 0x33, 0x69, 0x4a, 0x3e,
  0x9b, 0xa3, 0xdf, 0xbe, 0x8a, 0xae, 0xa4, 0xbd, 0x2a, 0x1d, 0x0b, 0x3d,
  0x83, 0xba, 0x0c, 0x3e, 0xa0, 0x7d, 0xb9, 0x3d, 0x8c, 0xcb, 0xa6, 0x3e,
  0x6e, 0xe7, 0xc9, 0x3e, 0xbc, 0x64, 0x7b, 0xbe, 0x70, 0x90, 0xbf, 0x3e,
  0x7c, 0xd4, 0x6f, 0xbe, 0x43, 0x2f, 0x26, 0xbe, 0x60, 0x1c, 0xdc, 0xbe,
  0x0b, 0x42, 0xbf, 0xbe, 0x37, 0xa8, 0x82, 0xbe, 0x70, 0xd9, 0x94, 0x3e,
  0x68, 0x81, 0x3f, 0xbe, 0x5e, 0xd3, 0x65, 0xbe, 0x95, 0xce, 0xa2, 0x3e,
  0xec, 0x10, 0xf3, 0xbe, 0x10, 0x8a, 0xc5, 0xbd, 0xc2, 0x15, 0x22, 0x3e,
  0x61, 0x54, 0x4e, 0xbe, 0xf0, 0xdb, 0x8f, 0x3e, 0xd6, 0xf0, 0x4d, 0xbd,
  0x93, 0x95, 0x8c, 0xbd, 0xc0, 0xc6, 0x89, 0xb5, 0x6c, 0x31, 0x3c, 0x3f,
  0x4e, 0xfc, 0xae, 0x3d, 0x32, 0x21, 0xce, 0x3d, 0x88, 0xec, 0xd4, 0xbe,
  0x64, 0x69, 0xf9, 0xbc, 0xd2, 0x92, 0xa0, 0x3e, 0x95, 0x0c, 0xe9, 0x3e,
  0x30, 0xb0, 0x42, 0x3f, 0x46, 0x21, 0x46, 0x3d, 0xe2, 0x90, 0x54, 0x3e,
  0xfb, 0xea, 0xe7, 0x3e, 0x35, 0x07, 0xd9, 0xbe, 0xac, 0x26, 0x01, 0xbe,
  0x07, 0x7b, 0x9b, 0x3d, 0x70, 0xfe, 0x89, 0xbe, 0xcf, 0x3c, 0x32, 0x3e,
  0xc2, 0x72, 0xa5, 0xbd, 0x8e, 0x68, 0x03, 0x3f, 0xc3, 0x02, 0xc2, 0xbd,
  0xff, 0x67, 0xe5, 0x3d, 0xb0, 0xfa, 0xe9, 0x3e, 0x5e, 0x63, 0x1d, 0x3f,
  0x8b, 0x4c, 0x73, 0x3e, 0x6c, 0xf8, 0x02, 0x3e, 0xe8, 0x6a, 0xb0, 0x3e,
  0x0f, 0xce, 0xdf, 0x3e, 0x52, 0xba, 0x39, 0x3d, 0xfd, 0xd4, 0x10, 0xbd,
  0xa6, 0x22, 0xbe, 0xbd, 0x42, 0xf6, 0x4f, 0x3e, 0xd4, 0x90, 0x42, 0x3e,
  0x43, 0x4b, 0x34, 0x3e, 0xaa, 0x9b, 0xbe, 0xbe, 0x84, 0x5b, 0xc4, 0xbd,
  0x05, 0xb4, 0x9f, 0x3e, 0xe6, 0x5f, 0x2c, 0xbe, 0x20, 0xa6, 0x34, 0x3d,
  0x12, 0xe2, 0x9e, 0x3e, 0xda, 0x55, 0x0b, 0x3e, 0xbc, 0x54, 0x42, 0x3d,
  0x77, 0xa7, 0xd2, 0xbc, 0xa7, 0xf8, 0x19, 0xbe, 0x6d, 0xf6, 0x4e, 0xbe,
  0x8c, 0x3c, 0x9e, 0xbd, 0x40, 0xd0, 0xfe, 0x3e, 0x75, 0x7f, 0x6c, 0xbd,
  0x72, 0x07, 0xee, 0x3d, 0x50, 0x84, 0x5f, 0xbe, 0x9e, 0xce, 0xc2, 0x3e,
  0x78, 0x82, 0xd4, 0x3e, 0x75, 0x65, 0x88, 0xbc, 0xec, 0xbf, 0x92, 0x3e,
  0xd7, 0x47, 0x56, 0xbe, 0x76, 0xb6, 0x9f, 0x3e, 0x9e, 0x70, 0x1f, 0x3e,
  0x1a, 0xee, 0xf3, 0xbd, 0x55, 0x5b, 0x04, 0x3f, 0x2c, 0xe1, 0xb5, 0xbc,
  0xce, 0x74, 0xcb, 0xbd, 0xa9, 0x0c, 0xe9, 0x3d, 0x8b, 0x18, 0x06, 0x3c,
  0x0b, 0xd5, 0xbc, 0x3e, 0xb8, 0xf8, 0xe0, 0xbd, 0x5b, 0x12, 0x1f, 0x3e,
  0xc8, 0x24, 0xf2, 0xbe, 0xd2, 0xd2, 0x1c, 0x3e, 0x75, 0x3d, 0x09, 0x3d,
  0xc9, 0x41, 0x16, 0x3e, 0x25, 0x26, 0xed, 0x3d, 0xbf, 0xb0, 0x72, 0x3e,
  0xc8, 0xd7, 0x24, 0x3e, 0x33, 0x5d, 0x01, 0xbf, 0x66, 0x56, 0x14, 0xbe,
  0x49, 0x8e, 0xc6, 0xbd, 0xf3, 0x50, 0xbc, 0xbd, 0x65, 0xba, 0x0e, 0xbd,
  0x47, 0x61, 0x10, 0xbe, 0x45, 0x99, 0xc1, 0x3d, 0xca, 0x40, 0x94, 0x3c,
  0x94, 0xb4, 0x18, 0x3e, 0x9a, 0xb7, 0xc3, 0x3e, 0xe7, 0x55, 0x7f, 0x3d,
  0x4b, 0xaa, 0x9e, 0x3e, 0x40, 0x20, 0xbf, 0xbd, 0x55, 0x1e, 0x1a, 0xbf,
  0x16, 0xf0, 0xdd, 0xbe, 0xed, 0x24, 0x48, 0x3c, 0x1b, 0x7c, 0xd8, 0xbe,
  0xe3, 0x75, 0xd6, 0x3e, 0x15, 0x78, 0xa8, 0x3e, 0x0d, 0xb5, 0x48, 0xbe,
  0xe4, 0xe6, 0xd4, 0x3d, 0x5f, 0x3a, 0x2f, 0x3e, 0x74, 0xcc, 0x44, 0xbe,
  0x08, 0x19, 0x2a, 0xbe, 0x5b, 0x4b, 0x75, 0x3c, 0x1f, 0xa1, 0xc6, 0xbd,
  0x8c, 0x1c, 0x05, 0xbe, 0x27, 0x46, 0xb2, 0x3d, 0xc0, 0xa1, 0x2c, 0xbd,
  0x4a, 0x75, 0x70, 0xbe, 0x56, 0x24, 0x5b, 0xbe, 0x53, 0x1b, 0x7b, 0x3d,
  0xdc, 0xa5, 0x28, 0x3d, 0x61, 0xf4, 0x15, 0x3e, 0xb4, 0x3b, 0x27, 0x3e,
  0x95, 0x83, 0x54, 0x3d, 0xde, 0x0b, 0x11, 0x3e, 0x87, 0xbc, 0x1c, 0x3e,
  0xa3, 0xf6, 0x1d, 0x3e, 0x94, 0x67, 0xe0, 0xbd, 0x75, 0x2d, 0x5f, 0x3e,
  0xc5, 0x42, 0x41, 0xbe, 0x10, 0x0b, 0x1c, 0xbe, 0x8d, 0x57, 0x05, 0xbe,
  0x9b, 0x0b, 0x5f, 0x3e, 0xf9, 0xc5, 0x00, 0xbe, 0x16, 0x04, 0x26, 0x3e,
  0x48, 0x8c, 0x3f, 0x3e, 0x98, 0x3a, 0xba, 0xbd, 0x70, 0x1a, 0xd0, 0x3c,
  0xfd, 0x61, 0x9e, 0xbd, 0x2e, 0xa1, 0x1e, 0x3e, 0x9e, 0x18, 0x7f, 0xbe,
  0xef, 0x1c, 0x8e, 0x3d, 0x94, 0xf7, 0xe9, 0x3d, 0xf5, 0x64, 0x62, 0x3e,
  0xf3, 0x74, 0x0b, 0xbe, 0xaa, 0x27, 0x63, 0x3e, 0xfa, 0xbe, 0xf7, 0xbd,
  0xdd, 0xa7, 0x90, 0x3e, 0x6b, 0x92, 0xbd, 0x3d, 0x0e, 0x8e, 0x1b, 0x3e,
  0xd4, 0xfb, 0x47, 0x3e, 0x8c, 0xff, 0xb3, 0x3d, 0x94, 0xab, 0x34, 0xbd,
  0xb8, 0xc3, 0xa1, 0x3e, 0xf8, 0x67, 0xcf, 0x3d, 0xfa, 0x18, 0xc1, 0x3c,
  0x48, 0xe7, 0x62, 0x3c, 0xc0, 0x87, 0xcf, 0xbe, 0xfb, 0xde, 0x2c, 0x3e,
  0xc4, 0xae, 0xf0, 0xbc, 0x99, 0xd4, 0x13, 0x3e, 0xa4, 0x8f, 0x22, 0xbd,
  0xbb, 0xbe, 0x48, 0x3e, 0x4e, 0x5f, 0xac, 0x3d, 0x08, 0x8e, 0x9e, 0xbc,
  0x4c, 0x2b, 0xed, 0xbe, 0xc8, 0x62, 0x05, 0xbe, 0x45, 0x0f, 0x94, 0x3d,
  0xba, 0xfd, 0xca, 0xbe, 0xa2, 0xd6, 0xaf, 0x3e, 0x1b, 0x94, 0x9e, 0xbe,
  0x75, 0xe5, 0x32, 0xbe, 0x9c, 0x3e, 0x74, 0x3e, 0xb8, 0x14, 0x7b, 0x3e,
  0x75, 0xe8, 0x64, 0xbc, 0xd2, 0xf2, 0x66, 0xbe, 0xd3, 0x08, 0xc3, 0xbd,
  0xce, 0x85, 0x62, 0x3e, 0x3c, 0xe0, 0xe0, 0x3c, 0xd9, 0x03, 0x5e, 0xbe,
  0x6a, 0x7d, 0xaf, 0xbe, 0xe9, 0x80, 0xfe, 0x3d, 0x0d, 0x04, 0xbd, 0xbc,
  0xe7, 0xf5, 0xe4, 0x3e, 0x99, 0x43, 0xc6, 0x3e, 0xd9, 0x88, 0xcf, 0xbe,
  0xc7, 0x7b, 0x7e, 0x3d, 0xe5, 0x7a, 0xda, 0x3d, 0x29, 0x83, 0xa2, 0xbe,
  0x10, 0x13, 0x5f, 0x3e, 0xdc, 0x76, 0x0f, 0x3e, 0x70, 0xe6, 0x96, 0xbc,
  0x38, 0xa0, 0x0a, 0x3e, 0xf4, 0xb7, 0x97, 0x3e, 0xbe, 0x35, 0xa6, 0x3e,
  0x6d, 0x31, 0x5e, 0xbc, 0xaa, 0x4b, 0x31, 0x3d, 0x20, 0x12, 0x8b, 0xbd,
  0x30, 0xe8, 0xf9, 0x3e, 0xdc, 0x6d, 0x93, 0x3e, 0xb4, 0xef, 0x86, 0xbd,
  0x47, 0xe7, 0x94, 0x3e, 0x2c, 0x77, 0x77, 0x3e, 0x82, 0xd8, 0x1a, 0x3e,
  0x19, 0x87, 0x8a, 0xbc, 0xf2, 0x83, 0xdf, 0x3d, 0xbe, 0x7d, 0x65, 0xbd,
  0x0c, 0x4d, 0xbf, 0xbd, 0x74, 0xa0, 0x08, 0xbe, 0x32, 0xa4, 0x71, 0xbe,
  0x90, 0x4e, 0x5b, 0xbb, 0xa2, 0xf7, 0x13, 0x3e, 0x00, 0x02, 0xa0, 0xba,
  0xc8, 0x9c, 0xd6, 0xbd, 0xd2, 0x5d, 0x5c, 0x3d, 0x78, 0x6c, 0x38, 0xbe,
  0xfc, 0x98, 0x3e, 0x3e, 0x24, 0x5f, 0x53, 0xbe, 0x83, 0xb1, 0x00, 0x3e,
  0xad, 0x0f, 0x09, 0xbe, 0xc4, 0xd0, 0x51, 0xbe, 0xc1, 0x08, 0x0d, 0x3e,
  0x70, 0xb7, 0x87, 0xbd, 0xe9, 0x2c, 0x35, 0x3d, 0x2a, 0xe9, 0xa6, 0xbd,
  0xac, 0xc9, 0xd6, 0xbd, 0x90, 0x40, 0x7a, 0xbe, 0x28, 0x57, 0x23, 0xbe,
  0xca, 0x46, 0x21, 0xbe, 0x63, 0x87, 0xbf, 0xbd, 0x64, 0x97, 0xe7, 0x3c,
  0x2f, 0x9f, 0x59, 0xbe, 0x91, 0x53, 0x90, 0x3c, 0x24, 0xb6, 0xcd, 0xbd,
  0x10, 0x84, 0xa9, 0x3d, 0x76, 0x37, 0x16, 0xbe, 0x9f, 0xc0, 0xdb, 0x3d,
  0x25, 0xff, 0x7a, 0xbe, 0xd3, 0x3d, 0x8f, 0xbe, 0x85, 0xf3, 0x7f, 0x3d,
  0x82, 0x97, 0xe0, 0x3d, 0xf7, 0xf7, 0x33, 0x3e, 0x6f, 0xfc, 0x83, 0x3d,
  0x7a, 0x72, 0x2b, 0xbe, 0xa0, 0xce, 0xb5, 0x3d, 0xd9, 0x3b, 0x05, 0x3e,
  0x65, 0x00, 0x76, 0xbe, 0x9b, 0x52, 0xa3, 0x3d, 0xc8, 0x7f, 0x63, 0xbd,
  0x37, 0x00, 0x73, 0xbe, 0xe8, 0x72, 0x36, 0x3e, 0xb0, 0x2e, 0x86, 0x3b,
  0xe6, 0xd4, 0x4f, 0xbe, 0x69, 0xc0, 0xa2, 0x3d, 0xb3, 0x1b, 0xfb, 0x3d,
  0x23, 0x49, 0x0e, 0xbd, 0xb0, 0x42, 0x4d, 0xbd, 0x2f, 0x91, 0x2d, 0xbd,
  0x8a, 0x88, 0x36, 0xbe, 0x1a, 0x74, 0x34, 0xbe, 0x4d, 0x61, 0x8d, 0xbd,
  0x56, 0xfd, 0x11, 0xbe, 0x83, 0xad, 0xef, 0x3d, 0xd0, 0xca, 0xb1, 0x3d,
  0xf0, 0x6a, 0xc5, 0xbd, 0xe4, 0x8b, 0x88, 0x3c, 0x82, 0x08, 0x39, 0x3e,
  0xfa, 0xed, 0x2e, 0xbd, 0x50, 0x88, 0x46, 0xbc, 0xf8, 0x44, 0x6f, 0x3e,
  0xe9, 0x19, 0x62, 0x3e, 0x07, 0x6b, 0x88, 0x3e, 0x19, 0xf8, 0x08, 0x3e,
  0x61, 0x3c, 0xe6, 0xbe, 0x7f, 0xb9, 0xf2, 0xbd, 0x43, 0xf1, 0x8a, 0x3e,
  0x73, 0x94, 0x4f, 0x3e, 0xf0, 0x4f, 0xb6, 0x3e, 0xa1, 0x61, 0xff, 0x3e,
  0xef, 0x17, 0x38, 0xbe, 0x17, 0x00, 0xe9, 0xbe, 0x64, 0x59, 0xd4, 0x3d,
  0xec, 0xf3, 0x3d, 0xbd, 0x36, 0x8b, 0x58, 0xbe, 0x37, 0x5b, 0xa2, 0x3e,
  0x52, 0x3a, 0xeb, 0x3e, 0x65, 0xfd, 0x05, 0x3e, 0x64, 0xea, 0x99, 0x3e,
  0x02, 0xd0, 0x58, 0xbe, 0xcc, 0xa6, 0xf9, 0xbd, 0xd7, 0x3a, 0x8c, 0xbd,
  0xe3, 0x1a, 0x3e, 0xbd, 0xef, 0xa0, 0x78, 0x3e, 0xe3, 0x83, 0x04, 0xbf,
  0x62, 0xc7, 0xbe, 0xbe, 0x5a, 0x32, 0x82, 0x3b, 0x7e, 0x29, 0x45, 0xbd,
  0xb4, 0x6f, 0x35, 0x3f, 0x6e, 0xdf, 0x30, 0x3d, 0x98, 0x4c, 0xc5, 0xbd,
  0x94, 0xac, 0x34, 0x3e, 0xe1, 0xf9, 0x22, 0xbd, 0x77, 0x7b, 0xe5, 0xbd,
  0x64, 0xcd, 0x8f, 0x3c, 0xbe, 0xf1, 0x7e, 0xbd, 0xb0, 0x9a, 0x4e, 0x3e,
  0xc8, 0x34, 0x55, 0xbe, 0x47, 0x2e, 0x69, 0x3e, 0xdd, 0xce, 0x41, 0xbe,
  0xa3, 0x6f, 0xcb, 0xbd, 0x2f, 0xbb, 0x53, 0x3e, 0xd8, 0x7f, 0x4d, 0xbe,
  0x79, 0xe1, 0x88, 0x3e, 0x47, 0xbc, 0x2d, 0x3e, 0x1c, 0x8a, 0x15, 0x3d,
  0x0f, 0x9d, 0xb6, 0x3e, 0x3f, 0x3f, 0x60, 0x3d, 0xb3, 0xa3, 0x52, 0x3f,
  0x32, 0x2d, 0x28, 0xbd, 0xcc, 0x5c, 0xb0, 0x3e, 0xc3, 0xf3, 0x89, 0xbd,
  0xef, 0xce, 0xed, 0x3d, 0xa7, 0x04, 0xb1, 0xbe, 0x37, 0x43, 0x7c, 0xbe,
  0x72, 0xa2, 0xa9, 0xbd, 0x03, 0x8c, 0xb7, 0xbc, 0x27, 0xc0, 0x34, 0x3e,
  0xf4, 0x20, 0xcb, 0xbd, 0xad, 0x02, 0x11, 0x3f, 0xf5, 0x09, 0x30, 0xbd,
  0xe5, 0xea, 0x38, 0xbe, 0x67, 0x3c, 0xc8, 0x3c, 0xb4, 0xa1, 0xf6, 0xba,
  0x9c, 0x51, 0x0c, 0xbe, 0xa1, 0xdc, 0xa2, 0x3e, 0x9f, 0xe7, 0x5d, 0x3d,
  0xe6, 0x1c, 0x9b, 0x3d, 0x44, 0x3c, 0x03, 0x3e, 0xe8, 0x8a, 0xed, 0x3d,
  0xfd, 0x1a, 0xb3, 0xbd, 0x6a, 0x9c, 0x63, 0x3e, 0x94, 0xb8, 0x08, 0x3e,
  0xc5, 0xec, 0x86, 0x3d, 0x8a, 0x03, 0x8e, 0xbe, 0x51, 0x1b, 0x28, 0x3e,
  0x47, 0x3a, 0x15, 0xbe, 0xbd, 0x01, 0x56, 0x3e, 0x3d, 0x61, 0xdd, 0x3e,
  0xd4, 0x2a, 0xc6, 0xbb, 0xea, 0x55, 0xf6, 0x3e, 0xeb, 0xe6, 0x18, 0xbd,
  0x2c, 0x1d, 0x94, 0x3e, 0x18, 0xef, 0x25, 0x3e, 0xb4, 0xbe, 0xf8, 0x3d,
  0x71, 0x4b, 0x08, 0xbe, 0x98, 0x53, 0x17, 0xbd, 0x1d, 0xdb, 0x33, 0x3e,
  0xca, 0x31, 0x3e, 0x3f, 0x5d, 0xc8, 0x09, 0x3f, 0xcf, 0xf6, 0xec, 0xbc,
  0xfe, 0xdc, 0x00, 0x3f, 0x3b, 0x82, 0xca, 0xbe, 0x01, 0x75, 0xc7, 0x3c,
  0x70, 0x6e, 0x13, 0xbd, 0xa4, 0xc2, 0x69, 0xbd, 0x2e, 0x1c, 0xe0, 0xbd,
  0x9e, 0x1c, 0xba, 0x3e, 0xfa, 0x61, 0xa2, 0xbc, 0xa4, 0xd8, 0x33, 0x3e,
  0x68, 0x96, 0x80, 0xbc, 0x80, 0x9b, 0x66, 0xbe, 0x26, 0x5d, 0xd9, 0xbd,
  0x41, 0x95, 0x82, 0xbe, 0xae, 0x5b, 0x43, 0xbe, 0xcc, 0x3c, 0x76, 0x3e,
  0xe0, 0x6c, 0x92, 0x3e, 0x91, 0x38, 0xa8, 0x3e, 0xef, 0xba, 0x7e, 0xbd,
  0xf9, 0xda, 0xe5, 0x3d, 0x6c, 0x74, 0xc9, 0x3e, 0xd5, 0x6a, 0xa4, 0xbe,
  0x56, 0x00, 0xba, 0x3e, 0x5b, 0xd7, 0x2f, 0xbe, 0x48, 0x35, 0x1f, 0xbd,
  0xfc, 0xc5, 0x1b, 0x3e, 0x0c, 0x04, 0xd8, 0x3e, 0x7f, 0x47, 0x3d, 0x3e,
  0x91, 0xf1, 0x11, 0x3e, 0x43, 0x63, 0xab, 0x3e, 0xb5, 0xf3, 0xae, 0xbd,
  0xd2, 0x16, 0x4d, 0x3e, 0x92, 0x69, 0x3b, 0xbd, 0x21, 0xe0, 0x21, 0xbd,
  0x59, 0x48, 0xfe, 0x3d, 0x60, 0xb7, 0x8c, 0x3e, 0x05, 0x5a, 0xd9, 0xbd,
  0x59, 0x12, 0x24, 0x3e, 0x1d, 0x22, 0x29, 0xbe, 0xd8, 0xca, 0xd0, 0xbc,
  0xad, 0x0a, 0x33, 0x3e, 0xa5, 0xba, 0x76, 0x3e, 0xb8, 0x1f, 0x2d, 0xbd,
  0x6e, 0xc3, 0xc7, 0xbd, 0xfb, 0x8b, 0xe0, 0x3d, 0xac, 0x22, 0x3d, 0x3e,
  0x0e, 0xf3, 0x22, 0xbe, 0x11, 0x13, 0x90, 0xbe, 0x85, 0xd2, 0x82, 0xbe,
  0x41, 0xf7, 0xf2, 0xbd, 0xbf, 0x77, 0x5c, 0x3e, 0x2f, 0x28, 0x3e, 0xbd,
  0x29, 0x4d, 0xd9, 0x3e, 0xb0, 0xb4, 0x33, 0x3e, 0xd1, 0x57, 0x10, 0x3f,
  0x45, 0xc2, 0x1f, 0xbe, 0x1b, 0x86, 0x93, 0x3e, 0xb5, 0x6c, 0x72, 0xbd,
  0x45, 0xaf, 0xe4, 0xbd, 0xed, 0xbb, 0xdc, 0xbe, 0x77, 0xa3, 0xb7, 0xbe,
  0x31, 0x93, 0x3d, 0x3d, 0xf0, 0x68, 0xb8, 0x3d, 0x0d, 0xaf, 0x3c, 0x3e,
  0xac, 0xf2, 0xec, 0xbd, 0xb7, 0x68, 0xe3, 0x3e, 0xfb, 0xfc, 0x06, 0xbf,
  0x0b, 0x11, 0x2e, 0xbe, 0xb4, 0x02, 0x4f, 0xbe, 0x36, 0x2c, 0x25, 0xbd,
  0x5d, 0x42, 0xaf, 0xbd, 0x2a, 0xae, 0x05, 0x3e, 0x85, 0xd2, 0x53, 0x3d,
  0x59, 0x87, 0x1f, 0x3e, 0x3a, 0xa5, 0xe8, 0x3e, 0x5a, 0xd9, 0xa5, 0x3c,
  0x24, 0xf3, 0x8d, 0x3e, 0x34, 0x6b, 0xae, 0xbe, 0xec, 0xb3, 0xd7, 0xbd,
  0x8e, 0xfd, 0x0a, 0x3e, 0xdf, 0xa5, 0x11, 0x3f, 0xa3, 0xdb, 0x27, 0x3f,
  0x45, 0xfa, 0xa1, 0xbc, 0x1d, 0xce, 0x5a, 0xbe, 0x12, 0x33, 0x2c, 0x3f,
  0xf7, 0xa2, 0x85, 0xbe, 0x52, 0x5e, 0xbb, 0x3e, 0x12, 0xec, 0xe8, 0xbc,
  0x93, 0x95, 0xa5, 0xbe, 0xe8, 0x93, 0x1d, 0x3e, 0xc3, 0xcb, 0x50, 0x3e,
  0x65, 0x04, 0x15, 0x3f, 0x45, 0xca, 0x13, 0x3d, 0xb2, 0xe1, 0xea, 0x3d,
  0x57, 0x51, 0x80, 0x3e, 0x91, 0x8c, 0x66, 0x3f, 0x36, 0xa4, 0x75, 0xbd,
  0x90, 0x15, 0x0f, 0x3e, 0x75, 0x1d, 0xfc, 0x3e, 0x45, 0x22, 0xe7, 0x3d,
  0xf9, 0x2b, 0x14, 0x3e, 0xdf, 0x92, 0x24, 0xbe, 0xc3, 0x1d, 0x01, 0x3e,
  0x57, 0x68, 0x00, 0x3d, 0xb1, 0x3e, 0x82, 0x3e, 0x14, 0x7c, 0x36, 0xbe,
  0x49, 0x8d, 0x1e, 0xbe, 0xfa, 0xb8, 0x16, 0xbe, 0x13, 0xd6, 0xe9, 0x3c,
  0xa1, 0x90, 0x42, 0xbe, 0x64, 0x63, 0x20, 0x3e, 0xa9, 0x71, 0xd6, 0xbc,
  0xb7, 0x51, 0xe0, 0x3c, 0xb0, 0x19, 0xcb, 0x3c, 0xad, 0xf7, 0x0f, 0x3c,
  0x06, 0x1e, 0x09, 0x3b, 0x37, 0x3d, 0x56, 0x3d, 0x86, 0x0e, 0xda, 0x3d,
  0xa7, 0x97, 0x0b, 0x3f, 0x5b, 0xdb, 0x49, 0x3c, 0xa4, 0x9e, 0xd8, 0x3e,
  0x91, 0x80, 0x18, 0x3c, 0x93, 0xd2, 0x73, 0x3e, 0xec, 0x7a, 0x09, 0xbf,
  0xff, 0xcb, 0xd8, 0xbe, 0xc0, 0x6f, 0xef, 0xbc, 0xbb, 0x97, 0x4b, 0xbe,
  0x69, 0x02, 0x78, 0x3d, 0x8c, 0x15, 0x57, 0x3d, 0xd6, 0x8d, 0x04, 0x3f,
  0x5e, 0xcf, 0x03, 0x3d, 0x85, 0x49, 0x47, 0x3e, 0x4b, 0x2f, 0x3b, 0x3e,
  0xaa, 0xd0, 0xc4, 0x3e, 0xb8, 0xd1, 0x05, 0xbe, 0xdc, 0xf9, 0x97, 0x3e,
  0x00, 0xed, 0x04, 0xbf, 0x41, 0x8f, 0x28, 0x3e, 0xdd, 0x1f, 0xb2, 0xbe,
  0xdd, 0x6c, 0x7f, 0x3d, 0xcd, 0x12, 0x37, 0x3d, 0x5f, 0x6b, 0xb0, 0x3e,
  0x25, 0x74, 0x1e, 0x3e, 0xfe, 0x7f, 0xe0, 0xbd, 0xed, 0xfd, 0xe1, 0xbd,
  0xc2, 0x9c, 0x92, 0xbe, 0x12, 0xda, 0x83, 0xbd, 0x82, 0x36, 0x5c, 0x3e,
  0x7b, 0x24, 0xc6, 0x3e, 0x9f, 0x78, 0x5e, 0x3e, 0x89, 0xf8, 0x01, 0xbe,
  0x66, 0x4a, 0xfc, 0x3d, 0x43, 0x28, 0x90, 0x3e, 0x19, 0x6a, 0x80, 0xbd,
  0x44, 0x5b, 0x3d, 0x3e, 0xda, 0x2d, 0x34, 0xbe, 0x9c, 0xd4, 0x0d, 0x3e,
  0xc3, 0x00, 0x09, 0xbc, 0xa1, 0xbb, 0x18, 0x3f, 0x8e, 0xc4, 0x5a, 0xbe,
  0x98, 0xda, 0x64, 0x3e, 0x28, 0x5a, 0x29, 0x3c, 0x0d, 0x3c, 0xe0, 0xbe,
  0x8a, 0xed, 0xd3, 0x3e, 0xbc, 0x92, 0x36, 0x3e, 0x0e, 0xe8, 0x40, 0xbe,
  0x30, 0xf8, 0x15, 0xbd, 0x09, 0x01, 0x0d, 0x3e, 0x15, 0x3e, 0x04, 0xbd,
  0xc9, 0xa6, 0x37, 0x3e, 0xfd, 0x6e, 0x97, 0xbc, 0x0f, 0xb2, 0x15, 0xbe,
  0x24, 0x23, 0x9e, 0xbd, 0x99, 0x63, 0x85, 0x3d, 0x54, 0xde, 0x08, 0x3e,
  0xe7, 0x75, 0x71, 0xbe, 0x9e, 0xab, 0xe6, 0x3d, 0xc9, 0x2b, 0x62, 0xbe,
  0xeb, 0xe2, 0x12, 0xbe, 0xf0, 0xdb, 0xc1, 0x3d, 0xcf, 0x53, 0x1d, 0x3e,
  0x58, 0x36, 0x05, 0x3e, 0x49, 0xe4, 0x08, 0xbe, 0x94, 0x03, 0x30, 0xbc,
  0xcc, 0xfa, 0x06, 0x3c, 0x60, 0x52, 0x82, 0xbd, 0x2d, 0x9a, 0xc8, 0xbd,
  0xc4, 0x29, 0x58, 0xbe, 0x7f, 0xbc, 0x71, 0x3e, 0x00, 0xca, 0x36, 0x3d,
  0xd8, 0xf5, 0xbf, 0xbd, 0x27, 0x88, 0x1e, 0xbe, 0xb8, 0x59, 0x18, 0xbe,
  0xcc, 0x18, 0xc5, 0xbd, 0x60, 0xa3, 0x90, 0x3d, 0xcb, 0x2b, 0x50, 0x3e,
  0x60, 0xa8, 0x72, 0x3d, 0x32, 0x92, 0x34, 0x3c, 0x2d, 0x3f, 0xa3, 0xbd,
  0x57, 0xd0, 0x33, 0xbe, 0x91, 0x26, 0x99, 0x3d, 0xa4, 0x46, 0x6c, 0x3e,
  0x94, 0xbc, 0x3d, 0xbe, 0x76, 0xef, 0x30, 0xbe, 0x18, 0x1f, 0x44, 0x3e,
  0x48, 0xb9, 0x25, 0xbe, 0x16, 0xfa, 0x85, 0xbe, 0x16, 0x4d, 0x47, 0x3e,
  0x5a, 0xf8, 0x6f, 0xbe, 0x92, 0x2d, 0x5e, 0xbd, 0x44, 0xfa, 0x21, 0x3e,
  0x09, 0x60, 0x72, 0x3e, 0xa8, 0xc6, 0x4b, 0xbe, 0x0c, 0x44, 0x04, 0xbe,
  0xae, 0x5c, 0x39, 0xbe, 0x24, 0xd7, 0x2f, 0x3e, 0xf6, 0x54, 0x6e, 0xbd,
  0xd4, 0xc9, 0x22, 0xbe, 0xe2, 0xd6, 0x09, 0x3e, 0x6c, 0x9b, 0x41, 0x3c,
  0xb7, 0xd7, 0x5e, 0xbe, 0xa1, 0xdb, 0xf1, 0x3d, 0x00, 0xd0, 0xf4, 0x3d,
  0x47, 0x9c, 0xc5, 0xbd, 0xcd, 0x35, 0x0d, 0x3e, 0xd5, 0x85, 0x69, 0x3e,
  0x7e, 0xb2, 0x2b, 0x3e, 0xcb, 0x5e, 0x69, 0x3e, 0x20, 0xae, 0xd7, 0xbd,
  0x2e, 0xd9, 0x88, 0xbd, 0x3f, 0x05, 0x83, 0x3d, 0x42, 0x5c, 0x50, 0x3d,
  0xa4, 0x9d, 0x9d, 0xbd, 0xaa, 0x0f, 0x16, 0x3e, 0x4c, 0xed, 0x90, 0xbc,
  0x39, 0xe8, 0xd6, 0xbd, 0xaf, 0xf7, 0x3f, 0xbe, 0x49, 0xe5, 0x1b, 0xbe,
  0x6e, 0xaa, 0x26, 0x3e, 0xf4, 0xee, 0x0d, 0xbe, 0x1b, 0xa3, 0x8f, 0xbd,
  0xe0, 0xd7, 0x98, 0x3e, 0x8d, 0x61, 0x00, 0x3e, 0x97, 0x03, 0x66, 0x3e,
  0x49, 0xac, 0x03, 0x3f, 0xa1, 0x95, 0x17, 0xbe, 0x4f, 0xaf, 0xd4, 0x3e,
  0xc0, 0x4f, 0x00, 0x3e, 0x47, 0xd3, 0xc6, 0x3e, 0x97, 0x54, 0x03, 0xbe,
  0xb5, 0x50, 0x7c, 0xbd, 0x2d, 0x2b, 0xc0, 0xbe, 0x09, 0x7e, 0x46, 0xbe,
  0xe7, 0xe3, 0xee, 0x3d, 0x38, 0x2a, 0xb1, 0x3e, 0x37, 0x95, 0x87, 0x3e,
  0xfb, 0x7f, 0x23, 0x3c, 0xee, 0x1f, 0x70, 0x3e, 0x7b, 0x7d, 0x69, 0x3d,
  0x3f, 0x54, 0x4b, 0x3d, 0x92, 0x50, 0x12, 0xbe, 0xc9, 0xe8, 0xc0, 0xbd,
  0xdb, 0xba, 0x4c, 0xbe, 0x58, 0xea, 0x8a, 0xbc, 0xd4, 0xb0, 0x6b, 0xbe,
  0x83, 0x4c, 0x84, 0xbe, 0x10, 0x2a, 0x18, 0x3e, 0x8e, 0xd2, 0xf5, 0x3d,
  0x33, 0x9f, 0xe0, 0xbd, 0x65, 0x46, 0x5c, 0xbe, 0x69, 0x33, 0xe1, 0xbd,
  0x54, 0x46, 0x73, 0x3d, 0x7b, 0x77, 0xfe, 0x3d, 0xba, 0x40, 0x87, 0xbd,
  0x58, 0x1e, 0x79, 0xbd, 0x40, 0x48, 0x1b, 0xbe, 0xd5, 0x95, 0x32, 0xbe,
  0x0f, 0xfe, 0xb0, 0xbd, 0x17, 0xc6, 0x43, 0x3c, 0x4d, 0x36, 0xf8, 0xbd,
  0x06, 0x71, 0x98, 0x3d, 0xef, 0x7d, 0x7c, 0xbe, 0x80, 0x98, 0x1f, 0x3e,
  0xe1, 0x2b, 0x5f, 0xbe, 0x74, 0x78, 0x30, 0x3e, 0xfa, 0x52, 0x68, 0x3e,
  0x56, 0x7d, 0x22, 0xbd, 0xc3, 0x40, 0x35, 0x3e, 0x1c, 0xd0, 0x88, 0xbe,
  0xdc, 0x44, 0x47, 0x3e, 0x70, 0x21, 0x84, 0xbd, 0xd4, 0x7e, 0x6a, 0xbd,
  0x4d, 0x21, 0x66, 0x3d, 0x3a, 0xd7, 0xe6, 0xbc, 0x43, 0x83, 0xc4, 0xbd,
  0xeb, 0x09, 0xa8, 0xbe, 0xb9, 0xb3, 0x43, 0x3e, 0x46, 0xbe, 0xb5, 0xbe,
  0xf6, 0x7f, 0x2d, 0x3f, 0xf5, 0x12, 0x59, 0x3e, 0xf1, 0xc0, 0xa2, 0x3d,
  0xaf, 0xf2, 0x8d, 0x3d, 0xd7, 0x6d, 0x75, 0x3e, 0xc5, 0xff, 0xe9, 0x3b,
  0xfb, 0x35, 0x75, 0x3e, 0x6c, 0xb3, 0xdc, 0x3d, 0xd2, 0x27, 0xcd, 0x3e,
  0x80, 0x4d, 0x29, 0xbe, 0x7d, 0xe2, 0x4a, 0xbe, 0x05, 0xdc, 0xb2, 0x3e,
  0x1e, 0x0a, 0x22, 0xbe, 0x4a, 0xaf, 0x81, 0xbe, 0x93, 0xb8, 0x5d, 0x3e,
  0x94, 0xab, 0x55, 0x3e, 0xfc, 0x6d, 0xfa, 0xbd, 0xd7, 0x30, 0xb7, 0x3d,
  0xfb, 0xd6, 0x1c, 0x3e, 0x61, 0x9f, 0x5d, 0xbd, 0xa7, 0x3e, 0x16, 0x3f,
  0xd2, 0x3b, 0x2d, 0xbe, 0x72, 0xbf, 0x67, 0x3c, 0x99, 0x28, 0x3b, 0x3d,
  0x61, 0x3a, 0x0d, 0xbe, 0xe4, 0x12, 0x8a, 0xbe, 0x28, 0x47, 0x39, 0x3e,
  0x96, 0x19, 0xd6, 0x3d, 0xd4, 0x60, 0xbc, 0xbd, 0x0f, 0x66, 0x2f, 0x3e,
  0xcc, 0x3c, 0x8d, 0x3e, 0xb9, 0x45, 0x05, 0xbe, 0x85, 0xf8, 0xa6, 0x3d,
  0xdb, 0x95, 0x57, 0xbe, 0x22, 0x8c, 0x49, 0xbe, 0xe2, 0x4c, 0xc1, 0x3d,
  0x96, 0x96, 0x5e, 0x3e, 0x35, 0xbc, 0x69, 0xbe, 0x2a, 0x58, 0xb0, 0xbd,
  0x2e, 0xea, 0x35, 0xbd, 0x51, 0xf5, 0x8a, 0x3e, 0x74, 0x88, 0x8b, 0x3d,
  0x18, 0x16, 0xdf, 0x3d, 0x21, 0xeb, 0x25, 0xbe, 0x51, 0x14, 0xb2, 0x3d,
  0x85, 0xef, 0x6d, 0xbc, 0xe1, 0x44, 0x20, 0xbd, 0xdb, 0xbf, 0x04, 0x3d,
  0xec, 0x6c, 0xfc, 0x3d, 0x3a, 0x84, 0x97, 0xbe, 0x16, 0x23, 0xac, 0xbe,
  0x4c, 0xfe, 0xce, 0xbd, 0x7b, 0x5f, 0x0b, 0x3d, 0xb7, 0xcc, 0x5a, 0x3d,
  0xf3, 0x7e, 0x0e, 0x3e, 0x6b, 0xc2, 0xc1, 0x3d, 0x5f, 0xe4, 0x2f, 0xbe,
  0x99, 0xa3, 0x3e, 0x3c, 0x02, 0xcb, 0xb4, 0x3d, 0x91, 0xc5, 0xcb, 0x3d,
  0x9f, 0xa5, 0x4d, 0xbe, 0x0a, 0x4c, 0x5c, 0x3e, 0x9d, 0xe7, 0x0a, 0xbe,
  0xc9, 0xb6, 0x99, 0x3d, 0x37, 0x0e, 0x22, 0xbd, 0x1c, 0xdc, 0x34, 0x3d,
  0x18, 0xb4, 0x2f, 0xbe, 0x62, 0x94, 0x08, 0x3d, 0xc4, 0x46, 0x65, 0x3e,
  0x36, 0xce, 0x38, 0x3c, 0x0b, 0xcb, 0x86, 0xbe, 0x5a, 0x38, 0x1f, 0xbe,
  0x31, 0x36, 0xa3, 0x3e, 0x2f, 0xbc, 0x67, 0xbd, 0xa5, 0x48, 0x5a, 0xbe,
  0x52, 0x48, 0x79, 0x3e, 0x31, 0xc2, 0x27, 0x3e, 0xaa, 0x42, 0x0e, 0xbe,
  0x72, 0xbc, 0xf9, 0x3d, 0xdd, 0x5e, 0x44, 0x3e, 0x6c, 0xb7, 0x3d, 0x3e,
  0xd3, 0xf1, 0x5f, 0xbe, 0x90, 0xdd, 0xf5, 0x3d, 0x6d, 0x6a, 0x9a, 0xbc,
  0xc9, 0x0d, 0xea, 0x3e, 0x3a, 0x4b, 0xc2, 0xbd, 0x62, 0x83, 0x1a, 0x3e,
  0xfa, 0x08, 0x5e, 0xbe, 0xd7, 0xb7, 0x6d, 0xbe, 0x53, 0xf7, 0x3d, 0xbe,
  0x23, 0x73, 0x50, 0xbe, 0x7c, 0x59, 0xf7, 0x3c, 0x9e, 0x1b, 0x11, 0xbe,
  0xd9, 0x49, 0x87, 0xbd, 0x78, 0xe9, 0x78, 0x3e, 0x33, 0x0d, 0x00, 0x3e,
  0xd2, 0x07, 0x94, 0xbe, 0x9f, 0xda, 0x44, 0x3e, 0x81, 0x0a, 0xcd, 0x3d,
  0x85, 0x0c, 0x2a, 0x3e, 0xda, 0xaa, 0xbc, 0x3e, 0xc2, 0xb5, 0x6e, 0x3e,
  0xd1, 0x65, 0xff, 0x3e, 0x05, 0xf8, 0x52, 0xbe, 0x2e, 0x35, 0x4d, 0x3d,
  0x1a, 0x34, 0x05, 0xbe, 0xd4, 0x31, 0xaf, 0xbe, 0xd8, 0x19, 0x04, 0xbe,
  0x31, 0x12, 0x82, 0x3e, 0x0d, 0xec, 0xfe, 0x3d, 0x26, 0x02, 0x94, 0xbd,
  0x4e, 0xb3, 0xe0, 0xbc, 0xae, 0x93, 0x83, 0xbd, 0x92, 0xfc, 0xa4, 0x3e,
  0x67, 0xec, 0x78, 0x3c, 0xdb, 0x69, 0xaa, 0xbd, 0xc5, 0xdb, 0x30, 0xbf,
  0x89, 0x7a, 0xe6, 0xbd, 0x57, 0x2d, 0x44, 0x3e, 0x34, 0x79, 0xc7, 0x3a,
  0x2b, 0x3e, 0x2b, 0x3f, 0x1e, 0x3e, 0xa2, 0xbe, 0xd3, 0xdc, 0x1a, 0xbe,
  0x1d, 0xc2, 0x5a, 0x3e, 0xad, 0xb2, 0x24, 0x3e, 0x27, 0x56, 0x98, 0x3c,
  0xd1, 0xec, 0xc3, 0x3e, 0x86, 0x7c, 0xa9, 0x3e, 0x3c, 0x62, 0x26, 0xbe,
  0x19, 0x38, 0xf9, 0x3d, 0x84, 0xfb, 0x37, 0x3d, 0x4a, 0x6a, 0x78, 0xbe,
  0xd5, 0xce, 0x68, 0x3e, 0x83, 0xa3, 0x8f, 0x3d, 0x59, 0xd1, 0x17, 0x3e,
  0x65, 0xba, 0xc0, 0x3e, 0x99, 0xd4, 0x6d, 0xbe, 0x07, 0xe9, 0x3e, 0x3e,
  0x3a, 0x1c, 0xec, 0x3e, 0x7b, 0x80, 0x7d, 0xbd, 0x1f, 0x2c, 0xd5, 0x3e,
  0xf1, 0xd2, 0xfc, 0xbd, 0x47, 0x57, 0x9d, 0xbc, 0xbe, 0xd2, 0xbd, 0x3c,
  0xb1, 0x09, 0x06, 0x3e, 0x5c, 0xda, 0x1e, 0x3e, 0xcd, 0xf9, 0x54, 0xbe,
  0x67, 0xe6, 0xed, 0x3c, 0x56, 0x8c, 0xf7, 0x3c, 0xdd, 0xf7, 0x54, 0x3e,
  0x81, 0x50, 0xee, 0x3d, 0xca, 0x15, 0xcc, 0x3e, 0x5b, 0x24, 0x55, 0xbd,
  0x8d, 0x1d, 0x93, 0xbe, 0x4b, 0x15, 0x21, 0x3d, 0x70, 0x4d, 0xd8, 0xbd,
  0x40, 0x14, 0x19, 0xbd, 0x84, 0xd2, 0x16, 0xbe, 0xa0, 0xd2, 0xd8, 0x3c,
  0xc0, 0x23, 0x0a, 0xbe, 0x44, 0x7a, 0x5a, 0x3e, 0x4c, 0xd4, 0x6a, 0xbe,
  0x18, 0x37, 0xc8, 0xbd, 0x80, 0x01, 0x5f, 0x3d, 0x20, 0xb3, 0x7b, 0xbe,
  0x10, 0x54, 0x20, 0xbe, 0x50, 0x2a, 0x7a, 0x3d, 0x10, 0x60, 0x47, 0xbd,
  0x38, 0x60, 0x96, 0x3d, 0x50, 0x7f, 0xe6, 0x3d, 0x80, 0x12, 0xf8, 0x3d,
  0x74, 0xb1, 0x74, 0xbe, 0xb0, 0xc2, 0x24, 0xbe, 0x78, 0xd4, 0xb4, 0x3d,
  0x30, 0xfb, 0xb3, 0x3d, 0xc0, 0x43, 0x37, 0x3c, 0x20, 0x1e, 0xf3, 0xbc,
  0x84, 0x78, 0x5b, 0xbe, 0x50, 0xfb, 0x8d, 0xbd, 0xd8, 0x2f, 0x63, 0xbe,
  0x80, 0x02, 0x35, 0x3c, 0xd8, 0x4f, 0x11, 0x3e, 0x30, 0x07, 0x10, 0x3e,
  0xd4, 0x02, 0x02, 0x3e, 0xc8, 0xb2, 0x9b, 0xbd, 0x90, 0xca, 0xfb, 0xbd,
  0x18, 0xf3, 0xbe, 0x3d, 0xeb, 0xcc, 0xb0, 0x3d, 0x3e, 0x55, 0x0d, 0x3d,
  0x16, 0xfc, 0xef, 0xbb, 0xfa, 0x4a, 0x22, 0xbc, 0x97, 0xa4, 0xb5, 0xbd,
  0xb4, 0xb4, 0x5a, 0xbe, 0x3d, 0xb0, 0xb1, 0x3e, 0xa6, 0x14, 0x59, 0x3e,
  0xa4, 0x6e, 0x08, 0x3f, 0x63, 0x8c, 0xab, 0x3e, 0x1d, 0x22, 0x09, 0xbb,
  0x70, 0x74, 0x15, 0xbe, 0x91, 0x8b, 0xac, 0xbd, 0x47, 0xe0, 0x6f, 0x3d,
  0x82, 0x29, 0x77, 0x3e, 0x28, 0xf3, 0x92, 0xbe, 0xab, 0xb1, 0x35, 0x3e,
  0x4b, 0x91, 0xa3, 0xbe, 0x85, 0x43, 0x78, 0x3a, 0xc1, 0x34, 0x43, 0x3e,
  0xc0, 0xd3, 0x65, 0xbe, 0xeb, 0xb6, 0x69, 0xbe, 0xde, 0x90, 0xb7, 0xbe,
  0xd6, 0x57, 0xdf, 0x3c, 0xb0, 0x1a, 0x45, 0x3e, 0xa9, 0xfd, 0xe0, 0x3e,
  0x36, 0xae, 0x80, 0xbe, 0x85, 0x8b, 0xc1, 0xbd, 0xef, 0xd5, 0x93, 0xbe,
  0xd4, 0x04, 0xc8, 0xbe, 0x3b, 0x5a, 0xd8, 0xbd, 0x80, 0xe3, 0x96, 0xbb,
  0x74, 0xbc, 0x41, 0x3e, 0x49, 0x02, 0xbd, 0xbd, 0xba, 0x45, 0x80, 0xbe,
  0x74, 0x3c, 0x46, 0x3e, 0x46, 0xcd, 0x09, 0x3e, 0x3f, 0x13, 0x91, 0x3d,
  0x8a, 0x90, 0x56, 0x3e, 0x99, 0x73, 0x84, 0x3b, 0xb2, 0x31, 0xf9, 0xbd,
  0x14, 0x4c, 0x51, 0x3e, 0xa1, 0x8e, 0xff, 0x3d, 0x7b, 0xcb, 0x0b, 0x3f,
  0xdf, 0x8d, 0x0e, 0x3e, 0xff, 0xb3, 0x93, 0xbd, 0xc4, 0x1d, 0x00, 0x3e,
  0xa4, 0xde, 0x10, 0xbd, 0xb7, 0xeb, 0x87, 0xbe, 0xfc, 0x96, 0xd6, 0xbd,
  0xc1, 0x68, 0x6e, 0xbe, 0x91, 0xde, 0x36, 0xbe, 0xc1, 0x43, 0x46, 0xbe,
  0xbf, 0x5f, 0x7a, 0x3e, 0x12, 0x62, 0x03, 0x3f, 0xc5, 0x25, 0x80, 0x3e,
  0x1f, 0x3d, 0xa6, 0x3d, 0x83, 0xa9, 0x19, 0xbf, 0x19, 0xe9, 0xe7, 0xbc,
  0xb0, 0xbc, 0x41, 0xbe, 0x05, 0xdd, 0xae, 0xbe, 0x4e, 0xe3, 0x1f, 0x3f,
  0x35, 0x85, 0x05, 0x3e, 0x58, 0x5c, 0x2c, 0x3d, 0x8d, 0x39, 0x3c, 0x3e,
  0xb1, 0xbc, 0x16, 0x3e, 0xb4, 0x40, 0x37, 0x3d, 0x75, 0x2b, 0x83, 0xbd,
  0xb9, 0x02, 0xd4, 0x3e, 0x42, 0x9c, 0x06, 0x3c, 0xc7, 0xa9, 0x23, 0x3e,
  0x85, 0x90, 0x25, 0x3e, 0xa8, 0x27, 0x74, 0x3e, 0x1d, 0x0e, 0xa7, 0x3d,
  0x93, 0x97, 0xb8, 0xbd, 0xac, 0x15, 0x47, 0x3e, 0x1a, 0x4c, 0x0b, 0x3f,
  0x77, 0xeb, 0xbd, 0xbd, 0xfd, 0xbe, 0x52, 0xbe, 0x71, 0x31, 0x20, 0x3f,
  0x92, 0x4f, 0x03, 0x3d, 0x88, 0xbf, 0x28, 0x3f, 0xd9, 0x90, 0x0a, 0xbc,
  0x80, 0x6b, 0x2d, 0x3e, 0xa3, 0x16, 0xc1, 0x3d, 0x33, 0xd5, 0xcf, 0xba,
  0xa6, 0xd4, 0xf4, 0xbe, 0x8d, 0x57, 0x84, 0xbe, 0xa0, 0x0f, 0xd7, 0xbd,
  0x8d, 0x75, 0xab, 0x3e, 0x9c, 0x9b, 0x39, 0x3f, 0x62, 0xfa, 0x8c, 0x3e,
  0xd6, 0x9d, 0xb5, 0x3e, 0xea, 0xd7, 0xa6, 0xbe, 0xfe, 0x59, 0xac, 0x3e,
  0xf3, 0xf5, 0x5c, 0x3e, 0x8e, 0x7e, 0x30, 0x3e, 0x63, 0xc7, 0xb5, 0x3d,
  0x2b, 0x04, 0x43, 0x3e, 0xa2, 0xd7, 0x90, 0xbb, 0x90, 0xbd, 0x4b, 0xbd,
  0xb8, 0xf2, 0x53, 0xbe, 0x74, 0xb9, 0x37, 0xbe, 0xf0, 0x8d, 0x85, 0xbe,
  0x80, 0xa9, 0x9b, 0xbd, 0x48, 0xac, 0x2b, 0x3e, 0x25, 0xad, 0x87, 0x3d,
  0x04, 0xf0, 0xe6, 0xbd, 0x2c, 0x02, 0x05, 0xbe, 0x3f, 0x31, 0xdf, 0xbd,
  0xc0, 0xe9, 0x7d, 0xbd, 0x38, 0x9e, 0xff, 0xbd, 0xa9, 0x0c, 0xf3, 0x3d,
  0x83, 0xfd, 0xa1, 0xbd, 0x24, 0x53, 0x01, 0xbe, 0x63, 0xa1, 0x67, 0xbd,
  0x80, 0xb1, 0xe3, 0xbb, 0x4b, 0xe5, 0xdd, 0x3d, 0x91, 0x48, 0xa0, 0xba,
  0xb3, 0x01, 0xa2, 0x3c, 0x2d, 0x26, 0x38, 0xbe, 0x38, 0x55, 0x34, 0xbe,
  0x8c, 0x63, 0x04, 0xbe, 0xf3, 0x2d, 0x67, 0x3e, 0x5d, 0xcd, 0x59, 0x3e,
  0x14, 0x32, 0x1f, 0xbe, 0x0b, 0x73, 0x1d, 0x3e, 0x78, 0x7e, 0x94, 0x3d,
  0xba, 0x2e, 0x87, 0xbe, 0x38, 0xa4, 0x5f, 0xbe, 0x3d, 0x4a, 0x25, 0xbc,
  0xc3, 0xde, 0x90, 0x3d, 0x18, 0x25, 0x6d, 0xbe, 0x8a, 0x08, 0x41, 0x3e,
  0x8c, 0xb6, 0xcf, 0x3d, 0xfd, 0x8a, 0x5f, 0xbd, 0x62, 0x5e, 0x66, 0x3d,
  0x85, 0x21, 0xbc, 0x3e, 0xf1, 0x4d, 0xa6, 0x3e, 0xcb, 0x6a, 0x7d, 0x3e,
  0x37, 0x77, 0xfd, 0xbd, 0x1a, 0xac, 0xf8, 0x3d, 0xc9, 0x76, 0x01, 0xbe,
  0xd0, 0xd3, 0x5d, 0xbe, 0x95, 0x5e, 0x33, 0x3e, 0x3b, 0x87, 0x73, 0xbd,
  0x4b, 0x10, 0x79, 0xbd, 0xee, 0x3d, 0x8a, 0xbc, 0xa0, 0xaa, 0xba, 0xbd,
  0x10, 0xad, 0x35, 0xbe, 0xdd, 0xaf, 0x73, 0x3e, 0x65, 0x9c, 0x5c, 0x3d,
  0x17, 0xbe, 0x98, 0x3b, 0xfc, 0xe8, 0x55, 0xbe, 0xee, 0xa3, 0xdf, 0xbd,
  0x66, 0x5e, 0x86, 0xbe, 0x7a, 0xd9, 0xd2, 0x3d, 0xb0, 0xc0, 0x90, 0x3e,
  0x5f, 0x2c, 0x4b, 0xbe, 0x60, 0x1b, 0x6e, 0xbe, 0x44, 0x2b, 0x58, 0xbd,
  0x31, 0x4b, 0x76, 0x3d, 0x4e, 0xaf, 0xce, 0xbd, 0x73, 0x53, 0x25, 0x3e,
  0xab, 0x4e, 0x0a, 0xbe, 0x99, 0x1e, 0xbe, 0x3c, 0x4d, 0xad, 0x94, 0x3e,
  0x9b, 0x4a, 0x0e, 0xbe, 0xb0, 0x7d, 0x6f, 0x3e, 0xac, 0xbe, 0x76, 0xbe,
  0x44, 0x20, 0x1e, 0x3e, 0x1a, 0xd3, 0x9e, 0xbd, 0x7f, 0xdf, 0xbd, 0x3d,
  0xb4, 0x49, 0xb5, 0x3d, 0x53, 0xab, 0xbe, 0xbd, 0xff, 0x20, 0x93, 0x3d,
  0xc5, 0x75, 0xbc, 0xbd, 0x23, 0x2b, 0x84, 0xbc, 0x71, 0x01, 0x3b, 0x3d,
  0xae, 0x62, 0x3c, 0x3e, 0xaa, 0x96, 0xce, 0x3d, 0x0a, 0x2b, 0x61, 0x3d,
  0xc4, 0xc0, 0x96, 0xbe, 0xf7, 0xc0, 0x59, 0xbc, 0xf3, 0xd8, 0x5d, 0xbe,
  0x47, 0x9f, 0x7b, 0x3e, 0xb1, 0x1b, 0xe7, 0x3c, 0x4c, 0x93, 0x87, 0x3d,
  0x11, 0x80, 0xeb, 0xbd, 0xf0, 0x6a, 0x8f, 0xbe, 0xd0, 0x12, 0x34, 0x3e,
  0x90, 0xfa, 0xf8, 0xbc, 0x50, 0x55, 0xe5, 0xbd, 0x46, 0x87, 0x83, 0x3d,
  0x54, 0x05, 0xef, 0xbd, 0x02, 0xb7, 0x85, 0x3e, 0x0a, 0xa9, 0xb0, 0xbd,
  0xc4, 0x6b, 0x63, 0x3d, 0x6e, 0x5f, 0xfe, 0xbd, 0x35, 0x3a, 0x1a, 0xbe,
  0x87, 0x4b, 0x1a, 0x3e, 0x47, 0x25, 0xea, 0xbd, 0x83, 0x63, 0x37, 0xbd,
  0xaa, 0x4e, 0xc3, 0xbe, 0xb6, 0xb6, 0x44, 0x3e, 0xa0, 0x5b, 0xf4, 0x3d,
  0xc2, 0xf8, 0x16, 0xbe, 0x99, 0xc3, 0x14, 0x3f, 0x71, 0xe1, 0x80, 0x3e,
  0xb3, 0x87, 0x39, 0x3f, 0x0b, 0xd7, 0x57, 0xbe, 0xfe, 0xf3, 0xdb, 0x3e,
  0x3e, 0x2b, 0x6e, 0x3d, 0x1f, 0xb0, 0x8a, 0x3e, 0x06, 0xe8, 0x38, 0xbf,
  0x9c, 0x5c, 0xc7, 0xbe, 0x0c, 0xf0, 0x6a, 0x3e, 0x1f, 0x6a, 0x29, 0xbd,
  0xc2, 0xf9, 0x21, 0x3e, 0x13, 0x56, 0xc5, 0xbd, 0xcc, 0xcb, 0x24, 0x3f,
  0x56, 0x4e, 0xd0, 0xbe, 0x8b, 0xaa, 0x8c, 0x3e, 0xa4, 0x0b, 0xef, 0xbd,
  0xd4, 0x3b, 0x27, 0xbc, 0xa0, 0x7c, 0x08, 0x3e, 0x21, 0x05, 0x59, 0xbe,
  0xe8, 0xa4, 0xc4, 0xbd, 0xf0, 0x76, 0x20, 0x3e, 0xcb, 0xe7, 0x84, 0xbe,
  0xc7, 0xe2, 0x04, 0x3d, 0xf5, 0xbd, 0xfd, 0xbd, 0x60, 0xb8, 0x40, 0x3e,
  0x60, 0x40, 0x1b, 0xbe, 0x7b, 0xb3, 0xa7, 0xbd, 0xc9, 0x97, 0xf5, 0x3d,
  0x0a, 0xb0, 0xee, 0xbc, 0xc0, 0x40, 0xe6, 0x3d, 0x00, 0x56, 0x2d, 0x3e,
  0x43, 0xf0, 0x42, 0x3e, 0xea, 0x19, 0x5f, 0xbe, 0xd1, 0x7b, 0x18, 0x3d,
  0x64, 0x54, 0xc9, 0xbd, 0xba, 0x7e, 0x7d, 0xbe, 0x02, 0x05, 0x99, 0xbd,
  0xf8, 0xca, 0x9a, 0x3d, 0xc3, 0x77, 0x49, 0xbd, 0x94, 0x2d, 0x81, 0xbe,
  0xd9, 0x9f, 0x45, 0x3d, 0x97, 0xd0, 0x80, 0xbe, 0x24, 0x54, 0x59, 0x3e,
  0x8e, 0xb8, 0x3f, 0xbe, 0x20, 0xf9, 0x7b, 0xbd, 0x4c, 0xe0, 0xaf, 0x3d,
  0x77, 0xb3, 0xb9, 0x3c, 0x2e, 0x08, 0x60, 0x3e, 0x6f, 0x5c, 0x0e, 0x3d,
  0xa5, 0x2c, 0x0f, 0xbe, 0xc0, 0x96, 0x76, 0xbe, 0xa0, 0x64, 0x50, 0xbe,
  0xeb, 0x77, 0x35, 0xbe, 0xcb, 0x08, 0x5b, 0x3e, 0x15, 0x86, 0xc0, 0x3d,
  0xe7, 0x38, 0x0a, 0xbd, 0x0e, 0xcc, 0x47, 0xbd, 0xfd, 0x4b, 0x31, 0xbe,
  0x02, 0x07, 0x05, 0x3e, 0xba, 0x95, 0x5e, 0x3e, 0x10, 0x92, 0x24, 0x3d,
  0x77, 0x85, 0x28, 0x3e, 0x40, 0x88, 0x97, 0x3c, 0x15, 0x1d, 0x89, 0x3c,
  0xba, 0xc3, 0x20, 0xbe, 0xce, 0x01, 0x8d, 0xbd, 0x06, 0xd7, 0x2d, 0xbe,
  0xd7, 0xd1, 0x65, 0xbe, 0x40, 0x40, 0x56, 0x3c, 0x99, 0xa6, 0x50, 0xbe,
  0x78, 0x55, 0x54, 0xbe, 0xe7, 0xbf, 0xec, 0xbd, 0x85, 0x64, 0x0d, 0xbe,
  0x10, 0x3b, 0x68, 0x3e, 0x22, 0x2b, 0x72, 0xbd, 0x00, 0xca, 0x2b, 0xbc,
  0x38, 0x8e, 0x3d, 0x3e, 0xe1, 0x96, 0xec, 0x3d, 0x94, 0x06, 0x56, 0xbc,
  0x00, 0xa6, 0xb2, 0x3a, 0xa6, 0xf9, 0xff, 0xff, 0x04, 0x00, 0x00, 0x00,
  0x00, 0x04, 0x00, 0x00, 0x97, 0x67, 0x5d, 0xbd, 0x1d, 0xb2, 0x48, 0xbe,
  0x1b, 0x62, 0xc2, 0xbe, 0xa6, 0x7f, 0xf6, 0xbc, 0xec, 0xa2, 0xfe, 0xbe,
  0x76, 0x8d, 0xb3, 0xbe, 0x5a, 0xe1, 0xc9, 0xbc, 0xa0, 0x13, 0xcb, 0x3e,
  0x45, 0x20, 0x85, 0xbe, 0x87, 0x22, 0xc8, 0xbd, 0x10, 0x4d, 0x9b, 0x3e,
  0x3c, 0xe6, 0xdd, 0xbe, 0x33, 0xb7, 0x9b, 0xbe, 0x3c, 0x97, 0xbb, 0xbd,
  0xef, 0x14, 0xf2, 0xbb, 0xd3, 0x23, 0x98, 0x3d, 0x42, 0xdb, 0xb2, 0x3e,
  0xb6, 0x0c, 0x79, 0x3e, 0xa3, 0x65, 0x8e, 0x3d, 0xaa, 0x8c, 0x3c, 0x3c,
  0x59, 0x16, 0xac, 0xbd, 0x5b, 0xaa, 0xcc, 0xbe, 0xe3, 0x7c, 0xcb, 0x3e,
  0xe8, 0x25, 0x02, 0x3f, 0xf9, 0xc4, 0xa5, 0x3d, 0x7d, 0x67, 0x22, 0xbe,
  0x3a, 0x01, 0x1b, 0x3f, 0x11, 0x0b, 0xf3, 0x3e, 0xd7, 0x75, 0x8e, 0x3e,
  0x62, 0xa8, 0xd6, 0x3d, 0x67, 0x3c, 0xb8, 0xbd, 0x73, 0x0b, 0xa4, 0x3d,
  0x5f, 0x36, 0x7e, 0x3c, 0x53, 0xc8, 0x9b, 0xbe, 0x76, 0x0a, 0x1f, 0xbf,
  0x28, 0xe6, 0x7e, 0xbd, 0x54, 0xb2, 0xc7, 0xbe, 0xd7, 0x5e, 0xb7, 0x3e,
  0xc7, 0xbc, 0xa6, 0xbd, 0xd3, 0x28, 0xc3, 0x3e, 0x98, 0x46, 0x03, 0xbe,
  0xa9, 0xab, 0xd8, 0x3e, 0xb1, 0xb2, 0x93, 0xbf, 0x18, 0x6f, 0x1d, 0xbb,
  0xb0, 0x20, 0xe3, 0xbe, 0xa5, 0x96, 0xfe, 0xbe, 0xe5, 0xdd, 0x6a, 0x3e,
  0x8f, 0xba, 0x85, 0xbd, 0x19, 0xaa, 0xeb, 0x3e, 0xdb, 0x86, 0x17, 0x3f,
  0xe8, 0x71, 0x11, 0xbf, 0x5f, 0x3e, 0xb1, 0xbd, 0x46, 0x82, 0x19, 0xbe,
  0xad, 0x4a, 0x29, 0x3e, 0x13, 0x35, 0xc3, 0xbe, 0x4f, 0xcb, 0x55, 0xbd,
  0xaa, 0x1e, 0x0e, 0x3e, 0xf9, 0xce, 0xd2, 0xbd, 0xce, 0x0d, 0x33, 0x3f,
  0x96, 0x80, 0x01, 0x3f, 0x69, 0x70, 0x86, 0xbe, 0x7b, 0x8e, 0x82, 0x3d,
  0xb8, 0x17, 0xa2, 0xbe, 0x9f, 0xf1, 0x98, 0x3d, 0x08, 0x19, 0x40, 0xbe,
  0xab, 0x48, 0x72, 0x3d, 0xb2, 0x05, 0x09, 0xbf, 0xeb, 0xb8, 0xc3, 0xbd,
  0x0e, 0xb3, 0xc5, 0x3e, 0x0f, 0x21, 0x2a, 0x3f, 0xb1, 0x35, 0x85, 0xbe,
  0x59, 0xda, 0xee, 0xbe, 0x0c, 0x82, 0x9f, 0x3e, 0x5f, 0xc3, 0x18, 0x3d,
  0x17, 0xdd, 0x3e, 0x3f, 0x6a, 0xf4, 0x07, 0x3f, 0x84, 0xf1, 0xf1, 0xbd,
  0x55, 0xe6, 0xd7, 0x3e, 0x11, 0x3a, 0xff, 0xbe, 0xb3, 0xb6, 0x8a, 0xbd,
  0x1d, 0x86, 0x81, 0x3d, 0x8d, 0x14, 0xd2, 0x3e, 0x14, 0x4a, 0x94, 0x3f,
  0xac, 0x68, 0x22, 0xba, 0xfa, 0xab, 0x48, 0xbf, 0x9d, 0x81, 0xa9, 0xbe,
  0xae, 0x7e, 0x92, 0xbe, 0x98, 0x9e, 0x65, 0xbd, 0xfe, 0xd8, 0x99, 0x3d,
  0xc9, 0xb3, 0x43, 0x3e, 0x52, 0x5d, 0xa4, 0xbe, 0xe0, 0x04, 0xc6, 0x3c,
  0x21, 0xb0, 0x6a, 0xbf, 0x0e, 0xfe, 0xe7, 0xbe, 0x38, 0x4a, 0xc5, 0xbe,
  0x99, 0x51, 0xb2, 0x3e, 0x27, 0xff, 0x1b, 0x3e, 0xf9, 0x03, 0x90, 0x3e,
  0x6f, 0x4f, 0x5a, 0xbf, 0xf7, 0xed, 0x2d, 0xbe, 0x0e, 0x75, 0x6a, 0xbf,
  0xe1, 0x8a, 0x8d, 0xbd, 0x7b, 0x05, 0x4c, 0xbe, 0x35, 0x9f, 0xc1, 0x3e,
  0x03, 0x57, 0x4f, 0xbd, 0x41, 0x7d, 0xbd, 0x3e, 0x86, 0xfd, 0x90, 0xbe,
  0xf4, 0xbf, 0x8b, 0x3d, 0x8e, 0x07, 0x87, 0x3e, 0x1c, 0xcc, 0xe7, 0x3e,
  0xa2, 0xe5, 0xc9, 0xbe, 0x80, 0x71, 0xff, 0xbe, 0x30, 0x2c, 0xc8, 0xbe,
  0xdf, 0x14, 0x17, 0x3e, 0x57, 0x14, 0xb3, 0x3e, 0xcc, 0xc6, 0x5e, 0xbe,
  0x4e, 0x52, 0x61, 0x3e, 0x69, 0x38, 0x09, 0x3e, 0x90, 0x76, 0xd0, 0xbd,
  0x17, 0xa2, 0xe3, 0x3d, 0x75, 0x8c, 0x0b, 0x3f, 0x68, 0xcf, 0x24, 0xbd,
  0x15, 0xe1, 0x45, 0xbf, 0x2c, 0x5d, 0xf9, 0xbd, 0xcb, 0x6f, 0xc5, 0xbe,
  0xc7, 0x5a, 0x94, 0x3e, 0x29, 0x34, 0x8b, 0x3e, 0xa4, 0xf0, 0x71, 0x3e,
  0x10, 0x19, 0xa7, 0x3e, 0x50, 0xda, 0xbc, 0xbe, 0x96, 0x2f, 0xbb, 0xbe,
  0xc9, 0x13, 0xbd, 0x3e, 0x18, 0x84, 0x3a, 0x3f, 0xdb, 0x12, 0x62, 0x3f,
  0x4a, 0x74, 0xe2, 0xbe, 0xc0, 0x46, 0x22, 0x3c, 0xe3, 0xf8, 0xcf, 0x3d,
  0xdf, 0xfa, 0xf6, 0xbe, 0x74, 0x0c, 0x34, 0x3f, 0x41, 0x74, 0x79, 0xbd,
  0x0e, 0xcf, 0xa3, 0xbe, 0x55, 0xd4, 0x7e, 0x3e, 0x9e, 0x0f, 0x94, 0x3e,
  0x7f, 0x9a, 0xba, 0xbe, 0x33, 0x5d, 0xea, 0x3d, 0xb7, 0x90, 0x2b, 0xbd,
  0xf3, 0x85, 0xba, 0xbe, 0x20, 0x0b, 0x3b, 0xbc, 0x4d, 0x4e, 0xdd, 0xbd,
  0x6b, 0x3c, 0x87, 0xbe, 0x41, 0xcd, 0xf5, 0xbd, 0xeb, 0x9b, 0xe8, 0x3e,
  0xf7, 0x20, 0x77, 0x3e, 0x8c, 0x04, 0x8e, 0xbe, 0x73, 0x9e, 0x3b, 0x3e,
  0xde, 0xc3, 0x73, 0xbe, 0x05, 0x0f, 0xe6, 0x3e, 0x13, 0xec, 0xd5, 0x3e,
  0x42, 0x94, 0x59, 0xbc, 0x2a, 0x50, 0xfd, 0xbe, 0x4b, 0xb1, 0xa5, 0xbe,
  0x6e, 0x7d, 0x8f, 0x3e, 0x19, 0xf7, 0x82, 0x3e, 0xe8, 0x94, 0x00, 0xbe,
  0x1f, 0x9e, 0xb2, 0x3e, 0xd1, 0xae, 0x69, 0x3e, 0x2b, 0x9e, 0xbb, 0x3e,
  0x51, 0xbc, 0x38, 0x3e, 0x52, 0x7c, 0x56, 0x3d, 0x98, 0x84, 0x83, 0xbe,
  0xa6, 0x4e, 0x66, 0xbe, 0xc6, 0x96, 0xf8, 0xbe, 0xe2, 0xf7, 0xaf, 0xbe,
  0x2f, 0x07, 0x05, 0xbf, 0x86, 0x91, 0xa4, 0xbe, 0x20, 0xd9, 0x57, 0x3d,
  0x6d, 0xa8, 0xba, 0x3c, 0x1f, 0xb5, 0xe9, 0x3e, 0xb6, 0xed, 0xe2, 0xbd,
  0x93, 0xa6, 0x66, 0x3e, 0xbd, 0x3b, 0x8a, 0xbf, 0x03, 0x90, 0x7a, 0xbe,
  0xea, 0x5b, 0xe8, 0xbd, 0x4a, 0x57, 0xa0, 0x3e, 0xff, 0x80, 0xed, 0xbd,
  0x77, 0x81, 0x16, 0x3f, 0xa5, 0x3f, 0xb2, 0xbe, 0x50, 0xd2, 0xba, 0x3e,
  0x5c, 0xcc, 0xc8, 0xbe, 0x6a, 0x2a, 0x0e, 0x3e, 0xac, 0x17, 0x36, 0xbe,
  0xfb, 0xd3, 0xf7, 0x3d, 0xc6, 0x0c, 0x1d, 0xbe, 0xf3, 0x44, 0xdb, 0x3c,
  0x44, 0x52, 0x46, 0x3e, 0x08, 0x58, 0xb8, 0xbe, 0xb3, 0xb5, 0xe5, 0xbe,
  0x98, 0x9d, 0x2b, 0xbe, 0xa1, 0xe7, 0xe8, 0x3d, 0x8b, 0xea, 0x79, 0xbe,
  0xca, 0xbe, 0xc2, 0x3e, 0x0a, 0x19, 0xb6, 0x3e, 0x4e, 0xfa, 0x8b, 0xbf,
  0xd3, 0x85, 0xc3, 0xbe, 0xd8, 0xc0, 0x2c, 0x3f, 0xfa, 0x23, 0xbc, 0x3e,
  0x72, 0xad, 0x12, 0xbb, 0x2d, 0xe0, 0xdd, 0x3d, 0x67, 0x65, 0x06, 0x3f,
  0x19, 0x7b, 0xff, 0x3d, 0xda, 0xca, 0x1e, 0xbf, 0x26, 0x05, 0xa3, 0x3d,
  0xea, 0x3a, 0xf1, 0xbe, 0xad, 0xdc, 0x05, 0xbe, 0x93, 0xff, 0xa0, 0x3e,
  0xd1, 0x06, 0x9e, 0x3e, 0xb0, 0x94, 0x42, 0xbe, 0xc9, 0xbb, 0x9a, 0x3d,
  0x39, 0x33, 0xdb, 0x3e, 0x39, 0xb8, 0x07, 0xbe, 0x26, 0x70, 0x0e, 0xbe,
  0x08, 0xca, 0x24, 0x3e, 0x57, 0x9c, 0xca, 0x3e, 0xb4, 0xe2, 0xaf, 0x3e,
  0x95, 0xad, 0x97, 0xbe, 0xca, 0x80, 0xb4, 0xbe, 0x20, 0x96, 0x24, 0x3f,
  0xf2, 0x9c, 0x62, 0x3d, 0x31, 0x3f, 0xfd, 0x3e, 0x26, 0x19, 0x01, 0x3f,
  0x9d, 0xb5, 0x6f, 0xbc, 0x94, 0xbb, 0x80, 0xbe, 0x5a, 0x08, 0x0c, 0xbe,
  0x2c, 0xfa, 0xc3, 0x3e, 0x2f, 0xfd, 0x5f, 0x3f, 0xa8, 0xe6, 0x4f, 0xbe,
  0x3f, 0x0b, 0x8d, 0xbf, 0xeb, 0xef, 0xce, 0xbe, 0x05, 0x08, 0xed, 0xbd,
  0x66, 0x4b, 0x74, 0x3d, 0x1d, 0x6a, 0x9b, 0x3d, 0x43, 0x36, 0xe1, 0x3d,
  0x08, 0xbe, 0x99, 0x3e, 0x47, 0x4c, 0xd7, 0xbc, 0xbc, 0x02, 0x13, 0xbf,
  0x4f, 0x21, 0x74, 0x3e, 0xe0, 0xf0, 0x56, 0x3e, 0xe1, 0x7e, 0x65, 0x3e,
  0x6a, 0xd7, 0x42, 0x3d, 0xca, 0x1d, 0x11, 0xbe, 0x44, 0xd9, 0x46, 0x3d,
  0x7d, 0x88, 0x1b, 0xbe, 0x26, 0xef, 0x68, 0x3e, 0x94, 0x1d, 0x80, 0x3e,
  0xdc, 0x9f, 0x62, 0x3e, 0x09, 0x2b, 0x71, 0x3e, 0xb2, 0xfd, 0xff, 0xff,
  0x04, 0x00, 0x00, 0x00, 0x80, 0x00, 0x00, 0x00, 0xc1, 0x80, 0x0f, 0x3e,
  0x34, 0xf6, 0x7c, 0x3d, 0xd2, 0xdc, 0x9d, 0x3d, 0xa7, 0xa4, 0x24, 0x3d,
  0xb7, 0x14, 0xce, 0x3d, 0x9b, 0xd4, 0x3d, 0xbc, 0xa5, 0x92, 0x39, 0x3e,
  0x1d, 0x45, 0x80, 0x3c, 0xeb, 0xd1, 0xc2, 0x3d, 0xd4, 0x5f, 0x91, 0x3d,
  0xa4, 0x35, 0xae, 0x3d, 0xf5, 0xf4, 0x0b, 0x3e, 0x60, 0x87, 0xfd, 0x3c,
  0x54, 0xe0, 0x96, 0x3d, 0x72, 0xa8, 0xa8, 0xbb, 0x41, 0x3b, 0x34, 0x3e,
  0x1b, 0xe8, 0x83, 0x3d, 0xca, 0x36, 0x14, 0x3e, 0x61, 0xa3, 0xb3, 0x3d,
  0xc6, 0x84, 0xcb, 0x3d, 0x95, 0x97, 0x9f, 0xbc, 0x16, 0x3a, 0x23, 0x3e,
  0xe4, 0xbb, 0xaa, 0x3b, 0xf9, 0x0b, 0x64, 0x3d, 0xea, 0x66, 0x25, 0x3e,
  0xe8, 0x3b, 0x8f, 0x3d, 0x05, 0x2d, 0x07, 0x3e, 0xe1, 0x98, 0xa5, 0x3d,
  0x3a, 0x8d, 0xbd, 0x3d, 0xf7, 0xe3, 0xd9, 0x3d, 0xec, 0x49, 0xdd, 0x3d,
  0xdc, 0x35, 0xd1, 0x3c, 0x3e, 0xfe, 0xff, 0xff, 0x04, 0x00, 0x00, 0x00,
  0x00, 0x01, 0x00, 0x00, 0x84, 0x48, 0x82, 0x3d, 0x41, 0x77, 0x40, 0xbd,
  0xb4, 0xbd, 0x47, 0x3d, 0x4d, 0x78, 0x67, 0xbd, 0xf8, 0x5b, 0x15, 0x3e,
  0x66, 0x3e, 0xaf, 0x3c, 0x5e, 0x8c, 0x85, 0x3c, 0x49, 0x6b, 0xb8, 0x3c,
  0x2d, 0xed, 0xa9, 0xbc, 0x72, 0x75, 0x94, 0x3d, 0x9c, 0xfb, 0x21, 0x3e,
  0x82, 0x10, 0xa8, 0x3d, 0x5e, 0x5d, 0x84, 0x3c, 0x0f, 0x8c, 0xcc, 0x3d,
  0x2a, 0x9d, 0xdc, 0x3b, 0xf5, 0xe0, 0x19, 0xbc, 0xca, 0xf2, 0xb0, 0x3d,
  0xd3, 0xda, 0xe4, 0xbc, 0x00, 0x00, 0x00, 0x00, 0x9c, 0xca, 0x04, 0x3d,
  0x55, 0x6d, 0x7b, 0x3d, 0xa2, 0xc7, 0x0c, 0x3b, 0x8f, 0xed, 0x06, 0xbd,
  0x41, 0x30, 0xec, 0x3d, 0xb5, 0x0d, 0x05, 0x3e, 0x6b, 0x04, 0x6d, 0x3c,
  0xda, 0xcd, 0x2b, 0x3d, 0x04, 0x8c, 0xbf, 0xbb, 0xe4, 0x84, 0x20, 0x3d,
  0x02, 0x4d, 0x14, 0x3d, 0x5d, 0x9f, 0x77, 0x3d, 0x1c, 0xe0, 0xd7, 0x3c,
  0xe6, 0x20, 0x4d, 0xbd, 0xf2, 0xdb, 0x61, 0x3d, 0xd8, 0x8a, 0xda, 0xbb,
  0xbd, 0xaf, 0xf9, 0xbc, 0x4b, 0xcd, 0xc5, 0xbd, 0x0a, 0xdb, 0xe9, 0x3d,
  0x2e, 0x15, 0x96, 0x3d, 0x71, 0xb5, 0xef, 0x3c, 0xd0, 0x8d, 0x51, 0x3d,
  0x1d, 0xb1, 0x2d, 0x3d, 0x81, 0x85, 0x17, 0x3d, 0xfe, 0x74, 0xbb, 0x3d,
  0x91, 0x19, 0x92, 0x3d, 0x9d, 0x75, 0x81, 0xbd, 0xd9, 0x1f, 0x94, 0xbc,
  0x2c, 0x4e, 0x0f, 0x3e, 0x3a, 0xad, 0x4e, 0xbd, 0x54, 0x10, 0x24, 0x3e,
  0x1d, 0x85, 0x0f, 0xbc, 0x95, 0x82, 0xa4, 0x3d, 0xa2, 0xac, 0x4f, 0x3d,
  0xc9, 0x98, 0x94, 0xbc, 0x00, 0x00, 0x00, 0x00, 0x06, 0x5d, 0x02, 0x3e,
  0xd4, 0xdd, 0xb1, 0x3d, 0x02, 0x13, 0x01, 0x3e, 0xb0, 0xeb, 0x85, 0xbc,
  0x3a, 0x35, 0x19, 0x3d, 0x3b, 0x20, 0x84, 0xbc, 0x6a, 0xab, 0x58, 0x3d,
  0xaa, 0x1e, 0x00, 0xbd, 0x57, 0xfe, 0xa9, 0x3c, 0x4a, 0xff, 0xff, 0xff,
  0x04, 0x00, 0x00, 0x00, 0x14, 0x00, 0x00, 0x00, 0xe6, 0x2b, 0x2c, 0xbe,
  0x69, 0x15, 0x50, 0xbe, 0x04, 0x07, 0x11, 0xbe, 0x3e, 0xb5, 0x87, 0xbd,
  0x7b, 0xe1, 0x32, 0xbd, 0x20, 0xfa, 0xff, 0xff, 0x24, 0xfa, 0xff, 0xff,
  0x0f, 0x00, 0x00, 0x00, 0x4d, 0x4c, 0x49, 0x52, 0x20, 0x43, 0x6f, 0x6e,
  0x76, 0x65, 0x72, 0x74, 0x65, 0x64, 0x2e, 0x00, 0x01, 0x00, 0x00, 0x00,
  0x14, 0x00, 0x00, 0x00, 0x00, 0x00, 0x0e, 0x00, 0x18, 0x00, 0x14, 0x00,
  0x10, 0x00, 0x0c, 0x00, 0x08, 0x00, 0x04, 0x00, 0x0e, 0x00, 0x00, 0x00,
  0x14, 0x00, 0x00, 0x00, 0x1c, 0x00, 0x00, 0x00, 0x24, 0x01, 0x00, 0x00,
  0x28, 0x01, 0x00, 0x00, 0x2c, 0x01, 0x00, 0x00, 0x04, 0x00, 0x00, 0x00,
  0x6d, 0x61, 0x69, 0x6e, 0x00, 0x00, 0x00, 0x00, 0x04, 0x00, 0x00, 0x00,
  0xcc, 0x00, 0x00, 0x00, 0x84, 0x00, 0x00, 0x00, 0x50, 0x00, 0x00, 0x00,
  0x14, 0x00, 0x00, 0x00, 0x00, 0x00, 0x0e, 0x00, 0x1a, 0x00, 0x14, 0x00,
  0x10, 0x00, 0x0c, 0x00, 0x0b, 0x00, 0x04, 0x00, 0x0e, 0x00, 0x00, 0x00,
  0x1c, 0x00, 0x00, 0x00, 0x00, 0x00, 0x00, 0x09, 0x1c, 0x00, 0x00, 0x00,
  0x20, 0x00, 0x00, 0x00, 0x01, 0x00, 0x00, 0x00, 0x00, 0x00, 0x06, 0x00,
  0x08, 0x00, 0x04, 0x00, 0x06, 0x00, 0x00, 0x00, 0x00, 0x00, 0x80, 0x3f,
  0x01, 0x00, 0x00, 0x00, 0x0a, 0x00, 0x00, 0x00, 0x01, 0x00, 0x00, 0x00,
  0x09, 0x00, 0x00, 0x00, 0x9a, 0xff, 0xff, 0xff, 0x10, 0x00, 0x00, 0x00,
  0x00, 0x00, 0x00, 0x08, 0x0c, 0x00, 0x00, 0x00, 0x10, 0x00, 0x00, 0x00,
  0xe8, 0xfa, 0xff, 0xff, 0x01, 0x00, 0x00, 0x00, 0x09, 0x00, 0x00, 0x00,
  0x03, 0x00, 0x00, 0x00, 0x08, 0x00, 0x00, 0x00, 0x06, 0x00, 0x00, 0x00,
  0x01, 0x00, 0x00, 0x00, 0xca, 0xff, 0xff, 0xff, 0x10, 0x00, 0x00, 0x00,
  0x00, 0x00, 0x00, 0x08, 0x10, 0x00, 0x00, 0x00, 0x14, 0x00, 0x00, 0x00,
  0xba, 0xff, 0xff, 0xff, 0x00, 0x00, 0x00, 0x01, 0x01, 0x00, 0x00, 0x00,
  0x08, 0x00, 0x00, 0x00, 0x03, 0x00, 0x00, 0x00, 0x07, 0x00, 0x00, 0x00,
  0x05, 0x00, 0x00, 0x00, 0x02, 0x00, 0x00, 0x00, 0x00, 0x00, 0x0e, 0x00,
  0x16, 0x00, 0x00, 0x00, 0x10, 0x00, 0x0c, 0x00, 0x0b, 0x00, 0x04, 0x00,
  0x0e, 0x00, 0x00, 0x00, 0x18, 0x00, 0x00, 0x00, 0x00, 0x00, 0x00, 0x08,
  0x18, 0x00, 0x00, 0x00, 0x1c, 0x00, 0x00, 0x00, 0x00, 0x00, 0x06, 0x00,
  0x08, 0x00, 0x07, 0x00, 0x06, 0x00, 0x00, 0x00, 0x00, 0x00, 0x00, 0x01,
  0x01, 0x00, 0x00, 0x00, 0x07, 0x00, 0x00, 0x00, 0x03, 0x00, 0x00, 0x00,
  0x00, 0x00, 0x00, 0x00, 0x04, 0x00, 0x00, 0x00, 0x03, 0x00, 0x00, 0x00,
  0x01, 0x00, 0x00, 0x00, 0x0a, 0x00, 0x00, 0x00, 0x01, 0x00, 0x00, 0x00,
  0x00, 0x00, 0x00, 0x00, 0x0b, 0x00, 0x00, 0x00, 0x40, 0x04, 0x00, 0x00,
  0xcc, 0x03, 0x00, 0x00, 0x58, 0x03, 0x00, 0x00, 0xfc, 0x02, 0x00, 0x00,
  0xac, 0x02, 0x00, 0x00, 0x5c, 0x02, 0x00, 0x00, 0x0c, 0x02, 0x00, 0x00,
  0x74, 0x01, 0x00, 0x00, 0xdc, 0x00, 0x00, 0x00, 0x60, 0x00, 0x00, 0x00,
  0x04, 0x00, 0x00, 0x00, 0x02, 0xfc, 0xff, 0xff, 0x00, 0x00, 0x00, 0x01,
  0x14, 0x00, 0x00, 0x00, 0x1c, 0x00, 0x00, 0x00, 0x1c, 0x00, 0x00, 0x00,
  0x0b, 0x00, 0x00, 0x00, 0x34, 0x00, 0x00, 0x00, 0x02, 0x00, 0x00, 0x00,
  0xff, 0xff, 0xff, 0xff, 0x05, 0x00, 0x00, 0x00, 0xec, 0xfb, 0xff, 0xff,
  0x19, 0x00, 0x00, 0x00, 0x53, 0x74, 0x61, 0x74, 0x65, 0x66, 0x75, 0x6c,
  0x50, 0x61, 0x72, 0x74, 0x69, 0x74, 0x69, 0x6f, 0x6e, 0x65, 0x64, 0x43,
  0x61, 0x6c, 0x6c, 0x3a, 0x30, 0x00, 0x00, 0x00, 0x02, 0x00, 0x00, 0x00,
  0x01, 0x00, 0x00, 0x00, 0x05, 0x00, 0x00, 0x00, 0x5a, 0xfc, 0xff, 0xff,
  0x00, 0x00, 0x00, 0x01, 0x14, 0x00, 0x00, 0x00, 0x1c, 0x00, 0x00, 0x00,
  0x1c, 0x00, 0x00, 0x00, 0x0a, 0x00, 0x00, 0x00, 0x54, 0x00, 0x00, 0x00,
  0x02, 0x00, 0x00, 0x00, 0xff, 0xff, 0xff, 0xff, 0x05, 0x00, 0x00, 0x00,
  0x44, 0xfc, 0xff, 0xff, 0x3a, 0x00, 0x00, 0x00, 0x73, 0x65, 0x71, 0x75,
  0x65, 0x6e, 0x74, 0x69, 0x61, 0x6c, 0x5f, 0x33, 0x2f, 0x64, 0x65, 0x6e,
  0x73, 0x65, 0x5f, 0x31, 0x32, 0x2f, 0x4d, 0x61, 0x74, 0x4d, 0x75, 0x6c,
  0x3b, 0x73, 0x65, 0x71, 0x75, 0x65, 0x6e, 0x74, 0x69, 0x61, 0x6c, 0x5f,
  0x33, 0x2f, 0x64, 0x65, 0x6e, 0x73, 0x65, 0x5f, 0x31, 0x32, 0x2f, 0x42,
  0x69, 0x61, 0x73, 0x41, 0x64, 0x64, 0x00, 0x00, 0x02, 0x00, 0x00, 0x00,
  0x01, 0x00, 0x00, 0x00, 0x05, 0x00, 0x00, 0x00, 0xd2, 0xfc, 0xff, 0xff,
  0x00, 0x00, 0x00, 0x01, 0x14, 0x00, 0x00, 0x00, 0x1c, 0x00, 0x00, 0x00,
  0x1c, 0x00, 0x00, 0x00, 0x09, 0x00, 0x00, 0x00, 0x70, 0x00, 0x00, 0x00,
  0x02, 0x00, 0x00, 0x00, 0xff, 0xff, 0xff, 0xff, 0x40, 0x00, 0x00, 0x00,
  0xbc, 0xfc, 0xff, 0xff, 0x55, 0x00, 0x00, 0x00, 0x73, 0x65, 0x71, 0x75,
  0x65, 0x6e, 0x74, 0x69, 0x61, 0x6c, 0x5f, 0x33, 0x2f, 0x64, 0x65, 0x6e,
  0x73, 0x65, 0x5f, 0x31, 0x31, 0x2f, 0x4d, 0x61, 0x74, 0x4d, 0x75, 0x6c,
  0x3b, 0x73, 0x65, 0x71, 0x75, 0x65, 0x6e, 0x74, 0x69, 0x61, 0x6c, 0x5f,
  0x33, 0x2f, 0x64, 0x65, 0x6e, 0x73, 0x65, 0x5f, 0x31, 0x31, 0x2f, 0x52,
  0x65, 0x6c, 0x75, 0x3b, 0x73, 0x65, 0x71, 0x75, 0x65, 0x6e, 0x74, 0x69,
  0x61, 0x6c, 0x5f, 0x33, 0x2f, 0x64, 0x65, 0x6e, 0x73, 0x65, 0x5f, 0x31,
  0x31, 0x2f, 0x42, 0x69, 0x61, 0x73, 0x41, 0x64, 0x64, 0x00, 0x00, 0x00,
  0x02, 0x00, 0x00, 0x00, 0x01, 0x00, 0x00, 0x00, 0x40, 0x00, 0x00, 0x00,
  0x66, 0xfd, 0xff, 0xff, 0x00, 0x00, 0x00, 0x01, 0x14, 0x00, 0x00, 0x00,
  0x1c, 0x00, 0x00, 0x00, 0x1c, 0x00, 0x00, 0x00, 0x08, 0x00, 0x00, 0x00,
  0x70, 0x00, 0x00, 0x00, 0x02, 0x00, 0x00, 0x00, 0xff, 0xff, 0xff, 0xff,
  0x20, 0x00, 0x00, 0x00, 0x50, 0xfd, 0xff, 0xff, 0x55, 0x00, 0x00, 0x00,
  0x73, 0x65, 0x71, 0x75, 0x65, 0x6e, 0x74, 0x69, 0x61, 0x6c, 0x5f, 0x33,
  0x2f, 0x64, 0x65, 0x6e, 0x73, 0x65, 0x5f, 0x31, 0x30, 0x2f, 0x4d, 0x61,
  0x74, 0x4d, 0x75, 0x6c, 0x3b, 0x73, 0x65, 0x71, 0x75, 0x65, 0x6e, 0x74,
  0x69, 0x61, 0x6c, 0x5f, 0x33, 0x2f, 0x64, 0x65, 0x6e, 0x73, 0x65, 0x5f,
  0x31, 0x30, 0x2f, 0x52, 0x65, 0x6c, 0x75, 0x3b, 0x73, 0x65, 0x71, 0x75,
  0x65, 0x6e, 0x74, 0x69, 0x61, 0x6c, 0x5f, 0x33, 0x2f, 0x64, 0x65, 0x6e,
  0x73, 0x65, 0x5f, 0x31, 0x30, 0x2f, 0x42, 0x69, 0x61, 0x73, 0x41, 0x64,
  0x64, 0x00, 0x00, 0x00, 0x02, 0x00, 0x00, 0x00, 0x01, 0x00, 0x00, 0x00,
  0x20, 0x00, 0x00, 0x00, 0x6a, 0xfe, 0xff, 0xff, 0x00, 0x00, 0x00, 0x01,
  0x10, 0x00, 0x00, 0x00, 0x10, 0x00, 0x00, 0x00, 0x07, 0x00, 0x00, 0x00,
  0x2c, 0x00, 0x00, 0x00, 0xd4, 0xfd, 0xff, 0xff, 0x1c, 0x00, 0x00, 0x00,
  0x73, 0x65, 0x71, 0x75, 0x65, 0x6e, 0x74, 0x69, 0x61, 0x6c, 0x5f, 0x33,
  0x2f, 0x64, 0x65, 0x6e, 0x73, 0x65, 0x5f, 0x31, 0x32, 0x2f, 0x4d, 0x61,
  0x74, 0x4d, 0x75, 0x6c, 0x00, 0x00, 0x00, 0x00, 0x02, 0x00, 0x00, 0x00,
  0x05, 0x00, 0x00, 0x00, 0x40, 0x00, 0x00, 0x00, 0xb6, 0xfe, 0xff, 0xff,
  0x00, 0x00, 0x00, 0x01, 0x10, 0x00, 0x00, 0x00, 0x10, 0x00, 0x00, 0x00,
  0x06, 0x00, 0x00, 0x00, 0x2c, 0x00, 0x00, 0x00, 0x20, 0xfe, 0xff, 0xff,
  0x1c, 0x00, 0x00, 0x00, 0x73, 0x65, 0x71, 0x75, 0x65, 0x6e, 0x74, 0x69,
  0x61, 0x6c, 0x5f, 0x33, 0x2f, 0x64, 0x65, 0x6e, 0x73, 0x65, 0x5f, 0x31,
  0x31, 0x2f, 0x4d, 0x61, 0x74, 0x4d, 0x75, 0x6c, 0x00, 0x00, 0x00, 0x00,
  0x02, 0x00, 0x00, 0x00, 0x40, 0x00, 0x00, 0x00, 0x20, 0x00, 0x00, 0x00,
  0x02, 0xff, 0xff, 0xff, 0x00, 0x00, 0x00, 0x01, 0x10, 0x00, 0x00, 0x00,
  0x10, 0x00, 0x00, 0x00, 0x05, 0x00, 0x00, 0x00, 0x2c, 0x00, 0x00, 0x00,
  0x6c, 0xfe, 0xff, 0xff, 0x1c, 0x00, 0x00, 0x00, 0x73, 0x65, 0x71, 0x75,
  0x65, 0x6e, 0x74, 0x69, 0x61, 0x6c, 0x5f, 0x33, 0x2f, 0x64, 0x65, 0x6e,
  0x73, 0x65, 0x5f, 0x31, 0x30, 0x2f, 0x4d, 0x61, 0x74, 0x4d, 0x75, 0x6c,
  0x00, 0x00, 0x00, 0x00, 0x02, 0x00, 0x00, 0x00, 0x20, 0x00, 0x00, 0x00,
  0x08, 0x00, 0x00, 0x00, 0x4e, 0xff, 0xff, 0xff, 0x00, 0x00, 0x00, 0x01,
  0x10, 0x00, 0x00, 0x00, 0x10, 0x00, 0x00, 0x00, 0x04, 0x00, 0x00, 0x00,
  0x3c, 0x00, 0x00, 0x00, 0xb8, 0xfe, 0xff, 0xff, 0x2c, 0x00, 0x00, 0x00,
  0x73, 0x65, 0x71, 0x75, 0x65, 0x6e, 0x74, 0x69, 0x61, 0x6c, 0x5f, 0x33,
  0x2f, 0x64, 0x65, 0x6e, 0x73, 0x65, 0x5f, 0x31, 0x30, 0x2f, 0x42, 0x69,
  0x61, 0x73, 0x41, 0x64, 0x64, 0x2f, 0x52, 0x65, 0x61, 0x64, 0x56, 0x61,
  0x72, 0x69, 0x61, 0x62, 0x6c, 0x65, 0x4f, 0x70, 0x00, 0x00, 0x00, 0x00,
  0x01, 0x00, 0x00, 0x00, 0x20, 0x00, 0x00, 0x00, 0xa6, 0xff, 0xff, 0xff,
  0x00, 0x00, 0x00, 0x01, 0x10, 0x00, 0x00, 0x00, 0x10, 0x00, 0x00, 0x00,
  0x03, 0x00, 0x00, 0x00, 0x3c, 0x00, 0x00, 0x00, 0x10, 0xff, 0xff, 0xff,
  0x2c, 0x00, 0x00, 0x00, 0x73, 0x65, 0x71, 0x75, 0x65, 0x6e, 0x74, 0x69,
  0x61, 0x6c, 0x5f, 0x33, 0x2f, 0x64, 0x65, 0x6e, 0x73, 0x65, 0x5f, 0x31,
  0x31, 0x2f, 0x42, 0x69, 0x61, 0x73, 0x41, 0x64, 0x64, 0x2f, 0x52, 0x65,
  0x61, 0x64, 0x56, 0x61, 0x72, 0x69, 0x61, 0x62, 0x6c, 0x65, 0x4f, 0x70,
  0x00, 0x00, 0x00, 0x00, 0x01, 0x00, 0x00, 0x00, 0x40, 0x00, 0x00, 0x00,
  0x00, 0x00, 0x16, 0x00, 0x18, 0x00, 0x14, 0x00, 0x00, 0x00, 0x10, 0x00,
  0x0c, 0x00, 0x08, 0x00, 0x00, 0x00, 0x00, 0x00, 0x00, 0x00, 0x07, 0x00,
  0x16, 0x00, 0x00, 0x00, 0x00, 0x00, 0x00, 0x01, 0x10, 0x00, 0x00, 0x00,
  0x10, 0x00, 0x00, 0x00, 0x02, 0x00, 0x00, 0x00, 0x3c, 0x00, 0x00, 0x00,
  0x80, 0xff, 0xff, 0xff, 0x2c, 0x00, 0x00, 0x00, 0x73, 0x65, 0x71, 0x75,
  0x65, 0x6e, 0x74, 0x69, 0x61, 0x6c, 0x5f, 0x33, 0x2f, 0x64, 0x65, 0x6e,
  0x73, 0x65, 0x5f, 0x31, 0x32, 0x2f, 0x42, 0x69, 0x61, 0x73, 0x41, 0x64,
  0x64, 0x2f, 0x52, 0x65, 0x61, 0x64, 0x56, 0x61, 0x72, 0x69, 0x61, 0x62,
  0x6c, 0x65, 0x4f, 0x70, 0x00, 0x00, 0x00, 0x00, 0x01, 0x00, 0x00, 0x00,
  0x05, 0x00, 0x00, 0x00, 0x00, 0x00, 0x16, 0x00, 0x1c, 0x00, 0x18, 0x00,
  0x00, 0x00, 0x14, 0x00, 0x10, 0x00, 0x0c, 0x00, 0x00, 0x00, 0x00, 0x00,
  0x08, 0x00, 0x07, 0x00, 0x16, 0x00, 0x00, 0x00, 0x00, 0x00, 0x00, 0x01,
  0x14, 0x00, 0x00, 0x00, 0x20, 0x00, 0x00, 0x00, 0x20, 0x00, 0x00, 0x00,
  0x01, 0x00, 0x00, 0x00, 0x40, 0x00, 0x00, 0x00, 0x02, 0x00, 0x00, 0x00,
  0xff, 0xff, 0xff, 0xff, 0x08, 0x00, 0x00, 0x00, 0x04, 0x00, 0x04, 0x00,
  0x04, 0x00, 0x00, 0x00, 0x20, 0x00, 0x00, 0x00, 0x73, 0x65, 0x72, 0x76,
  0x69, 0x6e, 0x67, 0x5f, 0x64, 0x65, 0x66, 0x61, 0x75, 0x6c, 0x74, 0x5f,
  0x64, 0x65, 0x6e, 0x73, 0x65, 0x5f, 0x31, 0x30, 0x5f, 0x69, 0x6e, 0x70,
  0x75, 0x74, 0x3a, 0x30, 0x00, 0x00, 0x00, 0x00, 0x02, 0x00, 0x00, 0x00,
  0x01, 0x00, 0x00, 0x00, 0x08, 0x00, 0x00, 0x00, 0x02, 0x00, 0x00, 0x00,
  0x20, 0x00, 0x00, 0x00, 0x04, 0x00, 0x00, 0x00, 0xf4, 0xff, 0xff, 0xff,
  0x19, 0x00, 0x00, 0x00, 0x00, 0x00, 0x00, 0x19, 0x0c, 0x00, 0x0c, 0x00,
  0x0b, 0x00, 0x00, 0x00, 0x00, 0x00, 0x04, 0x00, 0x0c, 0x00, 0x00, 0x00,
  0x09, 0x00, 0x00, 0x00, 0x00, 0x00, 0x00, 0x09
};
