const unsigned char model[] = {
  0x1c, 0x00, 0x00, 0x00, 0x54, 0x46, 0x4c, 0x33, 0x14, 0x00, 0x20, 0x00,
  0x1c, 0x00, 0x18, 0x00, 0x14, 0x00, 0x10, 0x00, 0x0c, 0x00, 0x00, 0x00,
  0x08, 0x00, 0x04, 0x00, 0x14, 0x00, 0x00, 0x00, 0x1c, 0x00, 0x00, 0x00,
  0x98, 0x00, 0x00, 0x00, 0xf0, 0x00, 0x00, 0x00, 0x40, 0x16, 0x00, 0x00,
  0x50, 0x16, 0x00, 0x00, 0x3c, 0x1c, 0x00, 0x00, 0x03, 0x00, 0x00, 0x00,
  0x01, 0x00, 0x00, 0x00, 0x10, 0x00, 0x00, 0x00, 0x00, 0x00, 0x0a, 0x00,
  0x10, 0x00, 0x0c, 0x00, 0x08, 0x00, 0x04, 0x00, 0x0a, 0x00, 0x00, 0x00,
  0x0c, 0x00, 0x00, 0x00, 0x1c, 0x00, 0x00, 0x00, 0x3c, 0x00, 0x00, 0x00,
  0x0f, 0x00, 0x00, 0x00, 0x73, 0x65, 0x72, 0x76, 0x69, 0x6e, 0x67, 0x5f,
  0x64, 0x65, 0x66, 0x61, 0x75, 0x6c, 0x74, 0x00, 0x01, 0x00, 0x00, 0x00,
  0x04, 0x00, 0x00, 0x00, 0x90, 0xff, 0xff, 0xff, 0x0a, 0x00, 0x00, 0x00,
  0x04, 0x00, 0x00, 0x00, 0x08, 0x00, 0x00, 0x00, 0x64, 0x65, 0x6e, 0x73,
  0x65, 0x5f, 0x31, 0x31, 0x00, 0x00, 0x00, 0x00, 0x01, 0x00, 0x00, 0x00,
  0x04, 0x00, 0x00, 0x00, 0xa6, 0xe9, 0xff, 0xff, 0x04, 0x00, 0x00, 0x00,
  0x0d, 0x00, 0x00, 0x00, 0x64, 0x65, 0x6e, 0x73, 0x65, 0x5f, 0x39, 0x5f,
  0x69, 0x6e, 0x70, 0x75, 0x74, 0x00, 0x00, 0x00, 0x02, 0x00, 0x00, 0x00,
  0x34, 0x00, 0x00, 0x00, 0x04, 0x00, 0x00, 0x00, 0xdc, 0xff, 0xff, 0xff,
  0x0d, 0x00, 0x00, 0x00, 0x04, 0x00, 0x00, 0x00, 0x13, 0x00, 0x00, 0x00,
  0x43, 0x4f, 0x4e, 0x56, 0x45, 0x52, 0x53, 0x49, 0x4f, 0x4e, 0x5f, 0x4d,
  0x45, 0x54, 0x41, 0x44, 0x41, 0x54, 0x41, 0x00, 0x08, 0x00, 0x0c, 0x00,
  0x08, 0x00, 0x04, 0x00, 0x08, 0x00, 0x00, 0x00, 0x0c, 0x00, 0x00, 0x00,
  0x04, 0x00, 0x00, 0x00, 0x13, 0x00, 0x00, 0x00, 0x6d, 0x69, 0x6e, 0x5f,
  0x72, 0x75, 0x6e, 0x74, 0x69, 0x6d, 0x65, 0x5f, 0x76, 0x65, 0x72, 0x73,
  0x69, 0x6f, 0x6e, 0x00, 0x0e, 0x00, 0x00, 0x00, 0x4c, 0x15, 0x00, 0x00,
  0x44, 0x15, 0x00, 0x00, 0xf8, 0x14, 0x00, 0x00, 0xd4, 0x14, 0x00, 0x00,
  0xfc, 0x13, 0x00, 0x00, 0xac, 0x0d, 0x00, 0x00, 0xe4, 0x01, 0x00, 0x00,
  0xa8, 0x00, 0x00, 0x00, 0xa0, 0x00, 0x00, 0x00, 0x98, 0x00, 0x00, 0x00,
  0x90, 0x00, 0x00, 0x00, 0x88, 0x00, 0x00, 0x00, 0x68, 0x00, 0x00, 0x00,
  0x04, 0x00, 0x00, 0x00, 0x5a, 0xea, 0xff, 0xff, 0x04, 0x00, 0x00, 0x00,
  0x54, 0x00, 0x00, 0x00, 0x0c, 0x00, 0x00, 0x00, 0x08, 0x00, 0x0e, 0x00,
  0x08, 0x00, 0x04, 0x00, 0x08, 0x00, 0x00, 0x00, 0x10, 0x00, 0x00, 0x00,
  0x24, 0x00, 0x00, 0x00, 0x00, 0x00, 0x06, 0x00, 0x08, 0x00, 0x04, 0x00,
  0x06, 0x00, 0x00, 0x00, 0x04, 0x00, 0x00, 0x00, 0x00, 0x00, 0x00, 0x00,
  0x00, 0x00, 0x0a, 0x00, 0x10, 0x00, 0x0c, 0x00, 0x08, 0x00, 0x04, 0x00,
  0x0a, 0x00, 0x00, 0x00, 0x02, 0x00, 0x00, 0x00, 0x02, 0x00, 0x00, 0x00,
  0x04, 0x00, 0x00, 0x00, 0x06, 0x00, 0x00, 0x00, 0x32, 0x2e, 0x31, 0x33,
  0x2e, 0x30, 0x00, 0x00, 0xba, 0xea, 0xff, 0xff, 0x04, 0x00, 0x00, 0x00,
  0x10, 0x00, 0x00, 0x00, 0x31, 0x2e, 0x35, 0x2e, 0x30, 0x00, 0x00, 0x00,
  0x00, 0x00, 0x00, 0x00, 0x00, 0x00, 0x00, 0x00, 0x98, 0xe5, 0xff, 0xff,
  0x9c, 0xe5, 0xff, 0xff, 0xa0, 0xe5, 0xff, 0xff, 0xa4, 0xe5, 0xff, 0xff,
  0xe6, 0xea, 0xff, 0xff, 0x04, 0x00, 0x00, 0x00, 0x2c, 0x01, 0x00, 0x00,
  0x3d, 0xc1, 0xab, 0xbe, 0x20, 0xdc, 0x97, 0xbf, 0xc6, 0x8c, 0xd3, 0xbe,
  0x1f, 0x2d, 0xe2, 0xbe, 0xf3, 0x68, 0x77, 0x3f, 0xce, 0x3a, 0x8c, 0xbe,
  0x8d, 0xa7, 0x39, 0xbf, 0xcc, 0x72, 0x82, 0xbf, 0x52, 0xa5, 0x32, 0x3f,
  0x75, 0x9e, 0x93, 0xbe, 0x8d, 0xc5, 0xd1, 0xbe, 0x1f, 0xd6, 0xae, 0xbe,
  0xbc, 0x1b, 0x16, 0xbf, 0x54, 0xe0, 0x5b, 0x3f, 0x69, 0x84, 0xbd, 0xbf,
  0xde, 0x9d, 0xbc, 0xbf, 0x28, 0x44, 0xad, 0xbf, 0xaa, 0x5c, 0xc1, 0x3e,
  0x89, 0x55, 0x1e, 0xbe, 0xb4, 0x37, 0x84, 0x3e, 0x89, 0xc2, 0x93, 0x3f,
  0xd9, 0xaa, 0xc3, 0xbf, 0x11, 0x09, 0xaf, 0xbf, 0x53, 0xd4, 0x09, 0xbf,
  0x27, 0x9a, 0x72, 0xbe, 0xd2, 0x7a, 0xec, 0x3e, 0x87, 0xae, 0xa7, 0xbe,
  0xe2, 0x99, 0x74, 0x3e, 0x1f, 0x9a, 0x5b, 0xbf, 0x11, 0x19, 0x9f, 0xbf,
  0x84, 0x1d, 0x56, 0x3f, 0x29, 0x97, 0x72, 0xbf, 0xfa, 0x93, 0x8b, 0xbf,
  0xd9, 0xcc, 0x30, 0x3e, 0x72, 0xe2, 0xf3, 0xbe, 0x8b, 0xd5, 0x68, 0x3d,
  0x49, 0x6b, 0x4c, 0x3f, 0x57, 0x37, 0x59, 0x3f, 0x8c, 0x48, 0x79, 0xbd,
  0xd4, 0xe5, 0xf2, 0xbe, 0x72, 0x0a, 0x85, 0x3d, 0xec, 0xa1, 0x4d, 0xbe,
  0x0a, 0x3d, 0x2f, 0x3e, 0xca, 0xa2, 0x58, 0x3f, 0x0f, 0x3f, 0x8d, 0xbe,
  0x7e, 0xa2, 0x57, 0xbf, 0x62, 0x64, 0x8d, 0xbe, 0x54, 0xea, 0x4f, 0x3f,
  0xba, 0x94, 0x2a, 0x3e, 0x37, 0xda, 0x02, 0xbe, 0x64, 0xa4, 0x86, 0xbf,
  0x4c, 0x23, 0x92, 0xbd, 0x28, 0x8b, 0x02, 0x3e, 0xba, 0xc5, 0x93, 0xbf,
  0xe3, 0x9b, 0xa8, 0x3e, 0x54, 0xdc, 0x08, 0xbf, 0xc8, 0x0d, 0x0c, 0x3f,
  0xf7, 0x9a, 0x08, 0x3f, 0x3a, 0x9e, 0xb0, 0xbf, 0x2f, 0x81, 0x98, 0x3e,
  0xe5, 0x0f, 0x0c, 0xbf, 0x92, 0x87, 0x3a, 0x3f, 0x01, 0xda, 0x99, 0xbd,
  0x0a, 0x14, 0x0c, 0xbe, 0x1d, 0x2e, 0x31, 0x3e, 0xc9, 0x98, 0x9e, 0xbe,
  0x93, 0x46, 0xa0, 0xbe, 0xa1, 0x0d, 0xc1, 0xbe, 0x5c, 0xbd, 0xf7, 0xbd,
  0x23, 0x68, 0xc7, 0x3e, 0xfd, 0xdb, 0xc7, 0x3e, 0xb9, 0x47, 0xa7, 0x3e,
  0xce, 0xe5, 0xe5, 0xbf, 0xdf, 0x4d, 0xdb, 0xbe, 0xb9, 0x4b, 0x40, 0x3f,
  0x1e, 0xec, 0xff, 0xff, 0x04, 0x00, 0x00, 0x00, 0xb8, 0x0b, 0x00, 0x00,
  0x22, 0xa5, 0x3e, 0xbf, 0xcb, 0xec, 0x3b, 0xbe, 0xfa, 0xa9, 0x73, 0xbe,
  0x18, 0xd3, 0x80, 0x3c, 0xa1, 0xca, 0x91, 0xbe, 0x90, 0xdf, 0x30, 0xbd,
  0xdf, 0xa8, 0xc2, 0x3e, 0x70, 0xb6, 0x1e, 0xbe, 0x18, 0x57, 0x20, 0x3f,
  0xae, 0x5a, 0x55, 0x3e, 0xb8, 0xea, 0xd7, 0x3e, 0x78, 0x16, 0x93, 0x3e,
  0x76, 0x67, 0xc7, 0x3e, 0x46, 0xd9, 0x8a, 0x3e, 0x0f, 0x9c, 0x17, 0xbe,
  0x68, 0x3f, 0xb9, 0x3e, 0x34, 0x03, 0x37, 0x3f, 0xc5, 0xd3, 0x6b, 0xbe,
  0x41, 0x60, 0x83, 0xbe, 0xf8, 0xa4, 0x46, 0xbe, 0xec, 0xab, 0x0a, 0xbf,
  0x72, 0x05, 0x07, 0xbe, 0xba, 0x79, 0x6d, 0x3f, 0x4f, 0x74, 0x7e, 0x3e,
  0x45, 0xf2, 0x55, 0x3d, 0xa0, 0x46, 0xca, 0x3e, 0xb7, 0xef, 0xa6, 0x3e,
  0xce, 0x11, 0x95, 0xbe, 0xa3, 0xe0, 0x05, 0x3f, 0x08, 0xee, 0x5d, 0xbe,
  0xb4, 0x2a, 0x3b, 0x3e, 0x0c, 0x9a, 0x33, 0x3e, 0x21, 0xee, 0xf3, 0xbd,
  0x24, 0x0a, 0x8b, 0x3f, 0x5c, 0xfb, 0xca, 0xbe, 0x5e, 0xd2, 0x71, 0x3d,
  0xe6, 0xdb, 0x87, 0xbe, 0x68, 0x9f, 0xd6, 0x3d, 0x2c, 0xed, 0x9f, 0x3d,
  0xf0, 0xaa, 0x92, 0xbe, 0x0e, 0x49, 0x91, 0x3e, 0x84, 0x85, 0x4c, 0x3a,
  0x6b, 0x7b, 0x38, 0x3e, 0x7e, 0x01, 0xc0, 0xba, 0xa3, 0x2b, 0x95, 0x3e,
  0x8b, 0x6e, 0x27, 0x3c, 0x6b, 0xf3, 0xe8, 0x3d, 0xac, 0x0a, 0x50, 0x3d,
  0xc0, 0x0a, 0x71, 0x3d, 0xac, 0xc4, 0xdc, 0xbd, 0x01, 0xf4, 0xd6, 0x3c,
  0xc2, 0x35, 0x99, 0x3e, 0xc8, 0x11, 0x6c, 0xbe, 0x57, 0xbe, 0xc3, 0xbe,
  0xca, 0xd2, 0x39, 0xbe, 0xb6, 0x57, 0x00, 0x3e, 0x5a, 0x84, 0x60, 0x3e,
  0x07, 0x66, 0xb1, 0x3e, 0xc6, 0xfb, 0x8b, 0xbf, 0x4d, 0x6d, 0xb9, 0x3c,
  0x0c, 0x93, 0x90, 0xbf, 0x56, 0xb0, 0x89, 0x3e, 0x42, 0x8e, 0x49, 0xbf,
  0x07, 0x57, 0x9a, 0x3d, 0x6e, 0x4c, 0x9b, 0xbe, 0xbd, 0x4e, 0x23, 0x3e,
  0x31, 0x59, 0x4c, 0xbe, 0x3d, 0xa8, 0xfe, 0xbd, 0x1c, 0xe7, 0xdb, 0x3e,
  0xfb, 0x1b, 0x78, 0xbe, 0xcf, 0x32, 0x21, 0xbe, 0xd3, 0xe7, 0xc2, 0xbc,
  0x4a, 0x74, 0x08, 0xbf, 0xd5, 0x21, 0x83, 0xbf, 0x3b, 0xaf, 0x1f, 0x3d,
  0x15, 0xd1, 0x3d, 0xbd, 0xf1, 0xa6, 0x0d, 0x3e, 0xd8, 0x86, 0x5c, 0x3e,
  0x32, 0x13, 0xca, 0xbc, 0x1c, 0x9c, 0x2a, 0x3e, 0x5e, 0x82, 0x07, 0xbf,
  0x43, 0x35, 0xfb, 0x3d, 0xee, 0x93, 0x35, 0x3c, 0xfa, 0x64, 0x06, 0xbf,
  0x8b, 0xee, 0xe5, 0x3e, 0x1c, 0x61, 0x8c, 0xbd, 0x47, 0x5c, 0xd5, 0x3d,
  0xb4, 0xfc, 0x71, 0x3e, 0xe0, 0xf3, 0x82, 0x3e, 0x8f, 0x6d, 0x84, 0x3e,
  0x07, 0x3f, 0x99, 0xbe, 0x5f, 0x8c, 0x9c, 0xbd, 0x05, 0xe9, 0xb9, 0x3d,
  0x52, 0x3b, 0x2c, 0x3e, 0x75, 0x7e, 0xca, 0xbe, 0xa8, 0x37, 0x0f, 0x3c,
  0xb8, 0x93, 0x98, 0x3e, 0x9f, 0x1b, 0xf9, 0xbe, 0x78, 0x66, 0x83, 0x3e,
  0xdb, 0xfc, 0x8d, 0x3e, 0x71, 0x04, 0x0f, 0x3f, 0x12, 0xa7, 0xc5, 0xbe,
  0x36, 0x4c, 0x86, 0xbd, 0x3b, 0x9f, 0x1e, 0xbf, 0xf4, 0xd5, 0xd0, 0x3e,
  0x50, 0xa8, 0xfd, 0xbc, 0x0a, 0xe3, 0x13, 0x3e, 0x73, 0xb0, 0x53, 0x3d,
  0xad, 0xf1, 0x08, 0xbe, 0x84, 0xa2, 0x61, 0xbe, 0x74, 0x61, 0xc5, 0xbe,
  0xe3, 0x1b, 0x8e, 0xbe, 0xe6, 0x49, 0x83, 0xbe, 0x88, 0x6b, 0x81, 0xbe,
  0x54, 0x65, 0x2c, 0x3e, 0x9a, 0x9f, 0x52, 0xbe, 0xb4, 0x81, 0x28, 0xbf,
  0x8c, 0xa7, 0xc3, 0xbe, 0x71, 0xab, 0xc5, 0x3e, 0x14, 0xa0, 0x64, 0xbe,
  0x79, 0xf0, 0x45, 0x3f, 0xf5, 0xb0, 0xb2, 0x3d, 0x8a, 0x78, 0x70, 0xbf,
  0x33, 0x2a, 0x8d, 0x3d, 0xb8, 0xe2, 0x21, 0x3e, 0x2e, 0x5f, 0x2c, 0xbe,
  0x7e, 0x2a, 0xe1, 0xbe, 0x9c, 0xc5, 0xcb, 0xbd, 0x5f, 0x71, 0x8e, 0xbe,
  0x93, 0x69, 0x3e, 0xbe, 0x9d, 0xda, 0x0c, 0xbf, 0x75, 0x0c, 0xb3, 0x3e,
  0x87, 0xa8, 0x0d, 0xbf, 0xe7, 0x59, 0x9f, 0xbe, 0x62, 0xaa, 0x0f, 0x3c,
  0xb0, 0xee, 0x7a, 0x3e, 0x16, 0x7d, 0x87, 0x3e, 0x6a, 0x95, 0x28, 0x3e,
  0x43, 0x27, 0x0e, 0xbe, 0x9b, 0xbe, 0x30, 0x3f, 0x98, 0x91, 0x17, 0xbe,
  0x0f, 0xc5, 0xfa, 0x3c, 0xc0, 0x6a, 0xe7, 0x3b, 0xdd, 0x56, 0x27, 0x3f,
  0x99, 0x36, 0xd4, 0xbb, 0xe4, 0xe0, 0x2f, 0xbe, 0x6a, 0x85, 0xfe, 0x3e,
  0x58, 0xff, 0xcb, 0x3e, 0xa0, 0x69, 0x9a, 0xbc, 0xc8, 0x3d, 0xb0, 0x3e,
  0x51, 0xf8, 0xc9, 0xbd, 0x45, 0x2e, 0x76, 0xbe, 0xf0, 0x8e, 0x3b, 0x3e,
  0x4d, 0x43, 0x4b, 0x3e, 0x10, 0xad, 0x64, 0x3d, 0x0f, 0xbe, 0x05, 0xbe,
  0x40, 0xe1, 0x90, 0x3e, 0xce, 0x9b, 0x8a, 0xbe, 0x18, 0x81, 0x6b, 0x3e,
  0xe1, 0xd5, 0x1f, 0xbe, 0x33, 0x31, 0x06, 0x3e, 0x45, 0xeb, 0x38, 0x3e,
  0x76, 0xd5, 0x2c, 0xbe, 0x06, 0xc3, 0x31, 0xbe, 0xe4, 0x23, 0x31, 0xbe,
  0xe5, 0x9a, 0x36, 0x3e, 0xac, 0xb5, 0xa2, 0x3d, 0x10, 0x2f, 0x93, 0x3e,
  0xee, 0xec, 0x8c, 0x3d, 0x64, 0x35, 0x54, 0x3e, 0x7e, 0x22, 0x96, 0xbe,
  0x13, 0x61, 0xcb, 0xbc, 0xa4, 0xae, 0x22, 0xbe, 0x7a, 0x20, 0xeb, 0x3b,
  0x94, 0xf3, 0x98, 0xbe, 0xcc, 0x60, 0xa1, 0x3c, 0x08, 0x67, 0x4e, 0xbd,
  0x12, 0xeb, 0x7c, 0xbe, 0xc7, 0x5b, 0x22, 0xbe, 0x54, 0x1e, 0x97, 0x3e,
  0x51, 0x2e, 0x4a, 0x3e, 0x9a, 0x33, 0x1d, 0xbe, 0x5c, 0x9e, 0xa5, 0x3b,
  0xf4, 0x40, 0xd1, 0x3b, 0xea, 0x25, 0x91, 0x3e, 0x40, 0x69, 0x92, 0x3d,
  0x8a, 0xc2, 0x10, 0xbe, 0x4b, 0xe0, 0xc2, 0x3d, 0xa8, 0xc0, 0x6f, 0xbe,
  0x87, 0x7d, 0x98, 0xbe, 0x3c, 0x41, 0x97, 0xbe, 0x49, 0x7e, 0x1a, 0x3d,
  0xfe, 0xa2, 0x8c, 0xbe, 0x9c, 0x2a, 0x90, 0xbd, 0xd8, 0x13, 0xd6, 0xbc,
  0xba, 0x19, 0x8c, 0xbe, 0x06, 0xd6, 0x98, 0xbe, 0x6b, 0x46, 0x56, 0x3e,
  0xe8, 0xeb, 0xa8, 0xbd, 0x88, 0x9d, 0x88, 0xbd, 0x6c, 0xf3, 0x96, 0x3f,
  0xce, 0x02, 0xd4, 0x3e, 0x4c, 0xdb, 0x2e, 0x3e, 0x29, 0x99, 0xd1, 0x3e,
  0x8c, 0xd1, 0x45, 0x3f, 0x9e, 0x55, 0xef, 0xbd, 0x47, 0xa8, 0xc5, 0x3e,
  0xc2, 0xb5, 0x65, 0x3e, 0x77, 0xbd, 0x5e, 0x3e, 0x85, 0x60, 0xbf, 0xbe,
  0x09, 0xb5, 0x1c, 0x3f, 0x40, 0xb0, 0x70, 0x3c, 0x15, 0xfc, 0x74, 0xbc,
  0xa1, 0x34, 0xcb, 0xbe, 0x90, 0xeb, 0xc0, 0xbd, 0x96, 0x62, 0xe0, 0xbd,
  0xe0, 0x07, 0x97, 0xbd, 0x79, 0x35, 0xe0, 0x3e, 0x5c, 0xb7, 0xdc, 0x3e,
  0xd4, 0xd6, 0x81, 0x3e, 0xe1, 0xfd, 0x2a, 0x3f, 0x33, 0x6e, 0x8b, 0x3e,
  0x9d, 0x09, 0x24, 0xbe, 0x07, 0xac, 0x91, 0xbc, 0x86, 0x80, 0xaf, 0x3d,
  0x87, 0xc8, 0xc4, 0x3e, 0x79, 0xbc, 0x0d, 0x3e, 0x46, 0x64, 0x02, 0x3e,
  0x9c, 0xcc, 0xe8, 0xbd, 0xe7, 0x57, 0x52, 0xbd, 0x3b, 0x3d, 0x42, 0x3f,
  0x50, 0x9f, 0xc8, 0xbc, 0xfe, 0x21, 0x05, 0x3f, 0x7c, 0xe4, 0x9b, 0xbe,
  0xbd, 0xd0, 0x3e, 0x3e, 0xd5, 0xd9, 0xed, 0x3c, 0x81, 0xf2, 0x8e, 0x3e,
  0x8e, 0x61, 0xc0, 0xbd, 0xa9, 0xeb, 0x80, 0xbe, 0x6f, 0x11, 0x50, 0x3f,
  0x76, 0x24, 0x31, 0x3e, 0xb9, 0x7a, 0x26, 0x3f, 0x1e, 0x35, 0x0f, 0x3d,
  0x3e, 0x02, 0x69, 0x3e, 0xc7, 0xea, 0xc0, 0x3e, 0x4d, 0xa1, 0xb5, 0xbc,
  0xe2, 0x7e, 0x95, 0x3e, 0xe9, 0xa0, 0xcf, 0x3c, 0x08, 0x48, 0x64, 0xbe,
  0x23, 0x41, 0x09, 0x3f, 0x18, 0xdb, 0x3b, 0x3d, 0xe7, 0x97, 0x16, 0xbe,
  0x4a, 0x8b, 0xdd, 0xbd, 0xae, 0xdc, 0x3c, 0xbd, 0xaf, 0x35, 0x04, 0x3f,
  0x9d, 0x23, 0x2d, 0xbe, 0x8c, 0xed, 0x8e, 0xbe, 0x66, 0x30, 0x36, 0xbe,
  0xf5, 0x4f, 0x79, 0x3d, 0x13, 0xa2, 0x02, 0xbf, 0x86, 0x12, 0x26, 0x3f,
  0x78, 0x40, 0x20, 0x3e, 0x1e, 0x3a, 0x3b, 0x3e, 0x6e, 0x92, 0x14, 0xbe,
  0x28, 0x29, 0x4d, 0xbd, 0x16, 0x4c, 0x47, 0xbe, 0x78, 0x34, 0x0a, 0xbf,
  0xbb, 0x04, 0xbc, 0x3e, 0x79, 0x77, 0xfc, 0x3c, 0x32, 0xb0, 0x97, 0x3e,
  0x73, 0x94, 0xdc, 0x3e, 0xa0, 0x00, 0xa1, 0xbe, 0x11, 0x09, 0x06, 0x3d,
  0xf9, 0xe5, 0x01, 0x3f, 0x68, 0xd3, 0xd3, 0x3d, 0x69, 0x71, 0xbd, 0xbe,
  0x8f, 0xe9, 0xd8, 0xbe, 0xc8, 0xc2, 0x17, 0xbe, 0x76, 0x20, 0xea, 0xbe,
  0x8a, 0xc6, 0x89, 0xbe, 0xd2, 0xed, 0x08, 0x3e, 0xce, 0x79, 0x4c, 0xbe,
  0xe2, 0x6e, 0xc4, 0xbe, 0x22, 0x43, 0x02, 0x3e, 0x75, 0x62, 0x8c, 0xbd,
  0x90, 0x86, 0xfd, 0xbd, 0xa8, 0x1b, 0x6d, 0x3e, 0x64, 0x3c, 0x88, 0x3e,
  0x20, 0xaf, 0x6c, 0xbe, 0xed, 0xe5, 0xa3, 0xbd, 0x94, 0xae, 0xd9, 0x3d,
  0x34, 0xf8, 0x74, 0xbe, 0x67, 0x66, 0x83, 0xbe, 0xbe, 0x32, 0x8d, 0x3e,
  0x81, 0x84, 0xed, 0x3e, 0xc8, 0xea, 0x69, 0x3e, 0x89, 0xf6, 0xc0, 0x3d,
  0x61, 0x8b, 0x06, 0x3d, 0x04, 0xf2, 0x27, 0x3e, 0xc7, 0x4b, 0xb2, 0xbc,
  0x8b, 0x6d, 0xfd, 0xbe, 0x1f, 0x36, 0x4c, 0xbe, 0x49, 0x81, 0x56, 0xbe,
  0xc9, 0xb5, 0x34, 0xbe, 0x3b, 0x97, 0xa7, 0x3d, 0x62, 0xf7, 0x96, 0x3e,
  0x48, 0x1a, 0xba, 0x3e, 0x74, 0xc0, 0xa0, 0x3e, 0xab, 0xc5, 0xfa, 0x3e,
  0x25, 0xed, 0x9a, 0x3e, 0x2c, 0xd1, 0x5b, 0x3d, 0x32, 0x35, 0x3e, 0xbe,
  0xe2, 0xff, 0xfc, 0xbd, 0xe0, 0x0c, 0x04, 0x3f, 0xe0, 0xe1, 0xc6, 0xbc,
  0xe3, 0x95, 0xec, 0x3e, 0xed, 0x58, 0x0f, 0x3f, 0xa6, 0xf4, 0x99, 0xbe,
  0x37, 0xe2, 0xb5, 0xbe, 0x8c, 0xa9, 0x1f, 0xbe, 0x4f, 0x07, 0x93, 0xbe,
  0x0a, 0x46, 0xbe, 0xbd, 0xd7, 0x76, 0x07, 0x3f, 0xff, 0x26, 0x1a, 0x3f,
  0x53, 0x70, 0x19, 0xbe, 0x4b, 0x4e, 0x1b, 0xbe, 0x85, 0xf3, 0x52, 0x3c,
  0x92, 0xb1, 0xde, 0xbe, 0x85, 0xc9, 0xc9, 0x3e, 0xbd, 0x5f, 0x50, 0x3e,
  0x18, 0x7b, 0x60, 0xbe, 0x96, 0x5d, 0xcc, 0x3e, 0xdd, 0x3a, 0x16, 0xbe,
  0x4f, 0xaa, 0xf8, 0x3e, 0x85, 0x82, 0xa0, 0x3d, 0x16, 0xc0, 0x12, 0x3e,
  0xc2, 0x2b, 0x1e, 0x3e, 0x45, 0x77, 0xd0, 0x3d, 0x50, 0x86, 0x5d, 0x3d,
  0x9d, 0x28, 0x1c, 0xbe, 0x40, 0x9f, 0x55, 0x3d, 0x13, 0x36, 0x9b, 0x3d,
  0xf3, 0x1a, 0x34, 0x3e, 0xd6, 0xb1, 0x41, 0xbe, 0xe7, 0x2e, 0x5f, 0x3e,
  0x69, 0x77, 0x7a, 0x3e, 0x7d, 0x7d, 0x25, 0xbe, 0x22, 0x1d, 0xdd, 0x3e,
  0x88, 0x02, 0x6a, 0x3d, 0xd4, 0xdb, 0x64, 0xbe, 0x4d, 0xe6, 0x36, 0xbf,
  0xf4, 0xc1, 0x8a, 0xbe, 0xe0, 0x59, 0x66, 0xbe, 0xe3, 0x89, 0x4e, 0xbe,
  0xe6, 0x55, 0x39, 0xbe, 0xf4, 0x9d, 0x3d, 0xbe, 0xee, 0x02, 0x93, 0x3e,
  0x12, 0x33, 0x49, 0x3e, 0x8c, 0xfe, 0x1c, 0x3f, 0xd3, 0xfd, 0x88, 0x3e,
  0xbe, 0x23, 0x1e, 0x3e, 0x83, 0x69, 0x4d, 0x3e, 0x10, 0x64, 0xe7, 0x3d,
  0x62, 0x48, 0x21, 0x3f, 0x00, 0x5f, 0xf0, 0x3d, 0x68, 0xa2, 0x5e, 0x3e,
  0x0e, 0x4c, 0x47, 0x3e, 0x94, 0xd2, 0xe0, 0x3d, 0x6f, 0x38, 0xd7, 0xbe,
  0x06, 0xac, 0x8e, 0xbe, 0x8e, 0xe2, 0xad, 0xbe, 0x93, 0xfd, 0xf9, 0xbd,
  0x2c, 0x0b, 0x84, 0x3e, 0xec, 0x39, 0x8b, 0x3e, 0xf0, 0x86, 0xc7, 0x3b,
  0xdc, 0xa8, 0x7a, 0xbc, 0xcd, 0xad, 0xdc, 0xbe, 0x3b, 0xf8, 0x1d, 0xbf,
  0x3d, 0x22, 0x64, 0x3e, 0xd7, 0xe4, 0x58, 0x3d, 0xc5, 0x32, 0xc4, 0x3d,
  0x9f, 0xca, 0x80, 0x3e, 0x0e, 0xbf, 0x42, 0xbe, 0x88, 0x6b, 0xcb, 0x3e,
  0xb5, 0x96, 0x5c, 0xbe, 0x60, 0x2f, 0xff, 0x3a, 0xa7, 0xfa, 0x50, 0xbd,
  0xa4, 0x56, 0x63, 0x3e, 0x30, 0x5e, 0x00, 0x3d, 0x67, 0xca, 0x26, 0xbe,
  0x48, 0xe0, 0x63, 0x3d, 0x52, 0x7c, 0xcd, 0xbe, 0x2c, 0x26, 0x73, 0x3e,
  0x1a, 0x0c, 0x77, 0xbe, 0xc6, 0x21, 0xb9, 0xbc, 0x6c, 0x94, 0x5f, 0xbe,
  0x1d, 0x70, 0x83, 0x3e, 0xaf, 0x1d, 0xee, 0x3e, 0xda, 0x1d, 0x22, 0x3e,
  0xbb, 0xf8, 0x1d, 0x3d, 0xa1, 0x45, 0x06, 0x3f, 0xa4, 0xfa, 0xe4, 0x3e,
  0x9a, 0xa3, 0x15, 0xbe, 0x28, 0x60, 0x28, 0x3f, 0xdb, 0xc6, 0x86, 0x3d,
  0x08, 0x44, 0x74, 0x3e, 0x30, 0xb3, 0xac, 0xbe, 0x03, 0x55, 0xc7, 0xbe,
  0x8a, 0xdb, 0xaf, 0x3d, 0x95, 0xed, 0x8a, 0xbe, 0xb6, 0x26, 0x01, 0x3e,
  0x64, 0x7b, 0xda, 0x3d, 0xd9, 0x42, 0xae, 0x3e, 0xc6, 0x78, 0x0b, 0xbe,
  0x80, 0xcc, 0x46, 0xbd, 0xed, 0x24, 0x84, 0x3d, 0xb9, 0xee, 0xc6, 0xbd,
  0x76, 0x04, 0x7b, 0x3e, 0x37, 0x77, 0x98, 0xbe, 0xc5, 0x1c, 0x9a, 0xbe,
  0x35, 0x5c, 0x77, 0x3e, 0xc4, 0x1c, 0xd6, 0x3e, 0x09, 0xbd, 0x9c, 0x3e,
  0xe3, 0x52, 0x1d, 0x3e, 0x82, 0xd1, 0xaa, 0x3e, 0x91, 0xf0, 0xc1, 0x3e,
  0x65, 0x9a, 0x7c, 0x3c, 0xa0, 0xe6, 0x48, 0x3e, 0x8f, 0x46, 0xa7, 0xbe,
  0x18, 0xa3, 0xb2, 0xbc, 0xed, 0x65, 0x11, 0x3f, 0xc6, 0x8e, 0xa7, 0x3c,
  0xbd, 0xc6, 0x69, 0x3e, 0x07, 0x2f, 0x58, 0x3e, 0x85, 0x99, 0x75, 0x3b,
  0x22, 0x7b, 0x13, 0x3e, 0x2c, 0x6f, 0x4e, 0xbe, 0x50, 0x9d, 0x36, 0x3c,
  0x2a, 0x62, 0x26, 0xbe, 0xa5, 0x1f, 0x23, 0x3e, 0x98, 0xfe, 0xa4, 0x3d,
  0xf2, 0xfe, 0xc4, 0x3e, 0x0a, 0xb6, 0x51, 0x3e, 0xab, 0x84, 0x44, 0x3d,
  0xb5, 0x13, 0x80, 0x3e, 0xde, 0x72, 0xf1, 0xbd, 0xd7, 0x2e, 0x04, 0x3d,
  0xb9, 0x43, 0x0b, 0xbe, 0x50, 0x48, 0x77, 0xbe, 0xad, 0xc9, 0x5e, 0x3e,
  0x53, 0x25, 0x59, 0x3e, 0x8d, 0x30, 0x86, 0xbe, 0x0c, 0x7a, 0xb1, 0xbd,
  0x09, 0x33, 0x51, 0xbe, 0x4a, 0x02, 0x4b, 0xbc, 0x9f, 0xa0, 0x13, 0xbe,
  0x98, 0xe6, 0x82, 0xbe, 0xe0, 0x0d, 0x32, 0x3e, 0x20, 0x5b, 0x42, 0x3e,
  0x1f, 0x1e, 0x18, 0x3e, 0x22, 0xa7, 0x8a, 0xbe, 0x2b, 0xbb, 0xaf, 0x3d,
  0x84, 0x52, 0xff, 0xbd, 0x92, 0xbe, 0xe5, 0x3d, 0xf2, 0x07, 0x8a, 0x3e,
  0x5f, 0xf5, 0x3a, 0xbe, 0xe5, 0x46, 0x90, 0xbe, 0x0b, 0x51, 0xb4, 0x3d,
  0x66, 0x1a, 0x40, 0xbe, 0x74, 0x21, 0x95, 0xbd, 0x80, 0x6f, 0xda, 0xbc,
  0x5e, 0x27, 0xc2, 0x3b, 0xc9, 0xb6, 0x6f, 0xbd, 0x11, 0xfa, 0x5f, 0xbe,
  0x50, 0x8a, 0x8d, 0xbe, 0x9b, 0x9b, 0x01, 0x3e, 0x7b, 0x0b, 0x00, 0x3d,
  0x60, 0xd4, 0x94, 0xbe, 0xc0, 0x35, 0x91, 0x3e, 0x44, 0x37, 0xac, 0x3d,
  0xdb, 0xfd, 0x2b, 0x3d, 0xe2, 0xb2, 0x2e, 0x3d, 0xd4, 0x63, 0x5e, 0x3d,
  0x56, 0x46, 0x2f, 0xbd, 0x65, 0x81, 0x75, 0xbe, 0xf9, 0x4f, 0x7b, 0xbd,
  0x0a, 0x07, 0xab, 0xbd, 0x40, 0xf6, 0xf0, 0x3b, 0x2a, 0x6c, 0xaa, 0xbd,
  0xf6, 0xca, 0x0c, 0xbe, 0xfc, 0x6f, 0x5a, 0x3e, 0xca, 0x5b, 0xae, 0xbe,
  0xe8, 0x62, 0x71, 0x3e, 0x10, 0xc7, 0xec, 0xbc, 0x40, 0x81, 0x8e, 0xbc,
  0xe0, 0x77, 0xbe, 0x3d, 0xf5, 0x42, 0x52, 0xbe, 0xe2, 0x03, 0x32, 0x3e,
  0x71, 0x32, 0x06, 0xbe, 0xf6, 0xd8, 0xaa, 0xbe, 0x72, 0xf5, 0x4f, 0xbe,
  0xcf, 0x09, 0xde, 0x3d, 0x08, 0x1e, 0xd8, 0x3d, 0xe3, 0xc8, 0xbb, 0x3d,
  0xb4, 0xc5, 0x40, 0xbe, 0xf4, 0x51, 0x3a, 0x3e, 0x0d, 0xf2, 0x13, 0x3e,
  0x71, 0x31, 0xd3, 0x3e, 0x5a, 0xe4, 0xb3, 0xbe, 0x4b, 0x03, 0x1b, 0xbe,
  0x80, 0xdd, 0xcf, 0x3e, 0xcb, 0xb0, 0xdc, 0xbc, 0x6a, 0x84, 0x81, 0x3e,
  0x05, 0x1e, 0xfe, 0xbe, 0x94, 0x7b, 0x50, 0x3e, 0x0b, 0x8f, 0x38, 0x3d,
  0x58, 0x75, 0x13, 0x3f, 0xa3, 0x21, 0x23, 0x3e, 0xec, 0x3b, 0x68, 0x3e,
  0x32, 0xa5, 0x37, 0xbe, 0x94, 0x45, 0x42, 0xbd, 0x8c, 0xf6, 0xe0, 0xbd,
  0x9d, 0x74, 0x24, 0x3f, 0xc3, 0xb7, 0xbd, 0xbd, 0xb0, 0x54, 0xce, 0xbc,
  0x7e, 0x7f, 0xfd, 0x3d, 0x39, 0x57, 0xc3, 0xbe, 0xbe, 0xc0, 0x10, 0x3f,
  0x42, 0x4c, 0xd9, 0xbd, 0xbd, 0x43, 0x2f, 0x3e, 0xb2, 0xfe, 0xbe, 0xbe,
  0x68, 0xd5, 0x8b, 0x3e, 0x89, 0x91, 0xf4, 0x3e, 0xed, 0x43, 0xa4, 0xbd,
  0x87, 0x4d, 0x73, 0x3e, 0xa6, 0xed, 0x59, 0xbe, 0xfc, 0xa0, 0x93, 0x3c,
  0x36, 0xdb, 0xa5, 0x3c, 0x06, 0x9f, 0x96, 0x3e, 0x36, 0x97, 0x84, 0xbe,
  0xe2, 0x3f, 0x31, 0xbe, 0x4b, 0x9c, 0xcb, 0xbd, 0xb3, 0x78, 0xee, 0x3d,
  0x54, 0xbb, 0xf5, 0x3d, 0x9f, 0xa6, 0x9f, 0x3e, 0xdb, 0xf8, 0xb2, 0x3c,
  0x37, 0x9e, 0xb4, 0x3e, 0x19, 0xcf, 0xbe, 0xbe, 0xee, 0x93, 0x92, 0xbd,
  0x68, 0x47, 0x8d, 0x3e, 0x93, 0x98, 0xa1, 0xba, 0x9c, 0x50, 0x9d, 0x3d,
  0x78, 0xdf, 0x0d, 0x3e, 0xee, 0xf0, 0x6d, 0xbe, 0x3f, 0xab, 0x58, 0x3e,
  0x4c, 0x38, 0x2b, 0xbe, 0xf1, 0x60, 0xeb, 0x3d, 0x16, 0xb5, 0x4c, 0x3e,
  0xa0, 0x5c, 0x08, 0xbe, 0xb3, 0x7d, 0x92, 0xbe, 0xb5, 0xbb, 0x45, 0x3e,
  0x8c, 0xe8, 0x6e, 0xbe, 0xbc, 0xb0, 0x92, 0xbe, 0xd2, 0x83, 0x7b, 0x3d,
  0x46, 0x51, 0x2c, 0x3e, 0xcc, 0x18, 0x87, 0xbe, 0x3f, 0xaf, 0x3f, 0xbe,
  0x82, 0xf3, 0x4a, 0x3e, 0x3f, 0xb1, 0x01, 0xbe, 0xac, 0xc4, 0x08, 0x3e,
  0x97, 0x83, 0x39, 0xbe, 0xc9, 0x36, 0x24, 0x3e, 0x30, 0x7b, 0x21, 0x3e,
  0x17, 0x18, 0x8b, 0xbe, 0xb0, 0x21, 0x41, 0xbe, 0x51, 0xc7, 0x70, 0x3e,
  0x40, 0xa0, 0xcf, 0x3c, 0xcf, 0x7f, 0x5c, 0xbe, 0xaf, 0x89, 0xb8, 0x3c,
  0x2e, 0x3d, 0xd0, 0xbd, 0x3e, 0x70, 0xc7, 0x3d, 0x70, 0xc2, 0x7d, 0x3c,
  0x69, 0x5e, 0x9a, 0xbe, 0xe5, 0x98, 0xf6, 0xbd, 0x21, 0x5a, 0x73, 0x3e,
  0x7c, 0xfc, 0x34, 0xbe, 0x48, 0xfd, 0x16, 0x3d, 0x8c, 0x07, 0xe7, 0xbd,
  0x78, 0x26, 0x77, 0x3e, 0x6c, 0xb2, 0x1f, 0xbc, 0x00, 0x75, 0x32, 0x3e,
  0x4b, 0x26, 0x41, 0xbe, 0x95, 0x8a, 0xa2, 0x3d, 0x0a, 0xc2, 0x46, 0xbe,
  0xa5, 0x7c, 0x0a, 0xbe, 0xb8, 0xa2, 0xa7, 0xbd, 0x36, 0x27, 0x8b, 0xbe,
  0x58, 0x96, 0xf0, 0x3c, 0x98, 0x17, 0x0b, 0x3e, 0x44, 0x98, 0xfe, 0x3d,
  0xc2, 0x6a, 0x96, 0x3e, 0x43, 0xcd, 0xc0, 0xbe, 0xa0, 0xb6, 0x72, 0xbc,
  0x01, 0xb9, 0xc6, 0xbe, 0x55, 0x54, 0x3e, 0x3f, 0xbc, 0xcc, 0x96, 0x3e,
  0x94, 0x8e, 0x10, 0x3d, 0xd4, 0xa8, 0x8f, 0x3b, 0x7b, 0xa8, 0x00, 0xbf,
  0x2c, 0xd6, 0x4d, 0xbe, 0xd8, 0x7b, 0x2d, 0x3f, 0x2c, 0x96, 0x99, 0x3e,
  0x96, 0xf5, 0x60, 0x3f, 0x0c, 0x16, 0xe7, 0x3c, 0xe3, 0xdf, 0x62, 0xbe,
  0xc6, 0xb2, 0x84, 0x3c, 0x9c, 0x2b, 0x2b, 0xbf, 0x37, 0xfc, 0x85, 0xbe,
  0xbd, 0x1b, 0x61, 0xbe, 0x90, 0x6c, 0x94, 0xbd, 0x30, 0x16, 0x1c, 0x3f,
  0x2d, 0x93, 0x7c, 0x3d, 0xab, 0xe6, 0x27, 0xbf, 0x77, 0x87, 0x9c, 0x3f,
  0x9d, 0x06, 0x03, 0x3f, 0x9d, 0x3f, 0xc5, 0xbe, 0x00, 0x22, 0x1a, 0xbf,
  0xc8, 0xb5, 0xe7, 0xbd, 0xd6, 0xf9, 0xa2, 0xbc, 0xd6, 0xcd, 0x9f, 0xbd,
  0x8c, 0xfb, 0x02, 0xbf, 0x28, 0xcd, 0xcc, 0x3e, 0xad, 0x46, 0x39, 0xbf,
  0x9d, 0x60, 0x26, 0xbb, 0x7d, 0x3c, 0xaa, 0xbe, 0xca, 0x15, 0x83, 0x3e,
  0x9c, 0x21, 0x49, 0xbe, 0x90, 0xd2, 0x93, 0xbd, 0x44, 0x97, 0xda, 0xbd,
  0xca, 0x20, 0x88, 0xbd, 0x62, 0xdb, 0x1e, 0xbe, 0x79, 0x61, 0x5f, 0xbf,
  0xd2, 0xe6, 0x6c, 0x3e, 0xca, 0x52, 0xd9, 0x3e, 0x3d, 0x1f, 0xd1, 0x3e,
  0x82, 0x27, 0x22, 0x3e, 0xd9, 0x50, 0xd3, 0x3e, 0x8d, 0x4a, 0x69, 0x3f,
  0xc5, 0xc5, 0x8b, 0xbe, 0xab, 0x8b, 0xb7, 0x3d, 0xbf, 0xb1, 0x55, 0xbe,
  0x4c, 0x1c, 0xd7, 0x3e, 0xf8, 0x2d, 0x21, 0xbd, 0x1d, 0x7c, 0x0d, 0x3f,
  0x7a, 0x58, 0xbf, 0xbe, 0xe5, 0xa5, 0x45, 0xbe, 0xf6, 0x6b, 0x00, 0x3e,
  0x5e, 0xb6, 0xdb, 0xbd, 0x02, 0xa6, 0x8e, 0x3f, 0x29, 0x3f, 0x06, 0x3f,
  0xa0, 0x93, 0x22, 0x3f, 0x24, 0xdf, 0xc9, 0xbd, 0xd0, 0xea, 0xbb, 0x3e,
  0xce, 0x4c, 0x04, 0x3e, 0xe6, 0x45, 0x9a, 0x3e, 0xb8, 0x63, 0xcf, 0x3e,
  0x83, 0xb4, 0x44, 0x3f, 0x42, 0x1c, 0x73, 0x3e, 0x63, 0x4e, 0x72, 0xbe,
  0x10, 0x3f, 0xaf, 0xbc, 0xe9, 0x8d, 0x13, 0xbf, 0x53, 0x3b, 0xa4, 0x3e,
  0x92, 0x64, 0x7a, 0x3f, 0x8c, 0xf4, 0xe3, 0x3c, 0x24, 0x5e, 0x1e, 0x3e,
  0x1e, 0x2d, 0x19, 0x3f, 0xd7, 0xdc, 0x0e, 0x3e, 0x3b, 0x51, 0x10, 0xbe,
  0x21, 0x42, 0xc3, 0x3e, 0x5d, 0xd8, 0x3a, 0x3d, 0x16, 0xa0, 0xac, 0x3e,
  0xca, 0xc6, 0x8c, 0xbe, 0x02, 0xeb, 0x07, 0x3f, 0x57, 0xad, 0x89, 0x3f,
  0xfa, 0x13, 0xed, 0xbe, 0x35, 0xd0, 0x59, 0x3e, 0xbd, 0xcf, 0x1d, 0xbe,
  0x9f, 0x54, 0x32, 0x3c, 0xf6, 0x1c, 0x0d, 0x3e, 0xbb, 0xb1, 0xa3, 0xbc,
  0x82, 0xe5, 0x96, 0x3e, 0x61, 0x5c, 0x09, 0x3f, 0x27, 0x64, 0x17, 0xbe,
  0x55, 0x5e, 0xb6, 0xbe, 0x90, 0x2a, 0x95, 0x3d, 0x81, 0xc0, 0x8c, 0xbe,
  0x4a, 0x76, 0x79, 0x3d, 0xbe, 0xb8, 0x6d, 0x3e, 0x88, 0xe1, 0x3a, 0x3e,
  0xbb, 0xf6, 0xb2, 0x3d, 0xa1, 0xd4, 0x1c, 0xbd, 0x0c, 0x26, 0x1f, 0x3e,
  0x4c, 0xe8, 0x98, 0x3e, 0x29, 0x10, 0xbe, 0xbe, 0x32, 0x31, 0xa9, 0xbc,
  0x18, 0x18, 0x66, 0x3e, 0x74, 0x34, 0x35, 0x3e, 0x12, 0x02, 0xc2, 0x3e,
  0x0a, 0xaa, 0xe9, 0xbe, 0xe6, 0xfc, 0x95, 0x3e, 0x7a, 0x48, 0x7d, 0xbf,
  0x7a, 0x23, 0x0a, 0x3e, 0x83, 0xe1, 0x39, 0xbf, 0xa6, 0xff, 0xd7, 0x3e,
  0xc0, 0x5a, 0x8b, 0x3c, 0x29, 0xcc, 0xae, 0x3e, 0x8c, 0x18, 0xd8, 0xbe,
  0x2c, 0xdb, 0x11, 0xbf, 0x40, 0xe6, 0xb5, 0x3e, 0xcc, 0xce, 0x23, 0xbe,
  0x8d, 0x36, 0xdd, 0xba, 0x8e, 0x5c, 0x09, 0xbf, 0x73, 0x9f, 0x32, 0xbf,
  0x75, 0x3b, 0xa4, 0xbe, 0x83, 0xaa, 0x82, 0xbe, 0x58, 0x01, 0xed, 0xbd,
  0x2f, 0x48, 0x89, 0xbe, 0xea, 0xae, 0x2e, 0x3e, 0xcd, 0x35, 0x31, 0x3e,
  0xa5, 0x5a, 0x3b, 0x3e, 0x0a, 0xa6, 0xd3, 0xbe, 0x83, 0x51, 0x8a, 0x3e,
  0x4f, 0x0f, 0x13, 0x3d, 0xdd, 0xef, 0x26, 0xbf, 0xaf, 0x0b, 0xa3, 0x3e,
  0x1c, 0x97, 0x52, 0xbe, 0x49, 0x54, 0x06, 0x3f, 0xca, 0x4a, 0xba, 0xbd,
  0xb0, 0x6b, 0xad, 0x3d, 0x99, 0x65, 0x89, 0xbe, 0x4c, 0x65, 0x6c, 0x3e,
  0x64, 0x2b, 0xd1, 0x3c, 0x41, 0x43, 0x8a, 0x3e, 0x33, 0x61, 0x2a, 0x3e,
  0x87, 0x79, 0x01, 0xbe, 0x87, 0x64, 0x8f, 0xbe, 0xf9, 0x8c, 0x8f, 0x3e,
  0xd4, 0xa5, 0x1e, 0xbf, 0x9a, 0x7d, 0x48, 0xbe, 0x1b, 0x4a, 0x2d, 0x3e,
  0xe2, 0xf7, 0xff, 0xff, 0x04, 0x00, 0x00, 0x00, 0x40, 0x06, 0x00, 0x00,
  0x8f, 0x24, 0x6e, 0x3e, 0x16, 0x74, 0x62, 0x3c, 0x13, 0x1e, 0x39, 0x3f,
  0x4b, 0xd8, 0xb0, 0x3e, 0xce, 0xae, 0xb0, 0xbf, 0xf8, 0x57, 0x4a, 0xbe,
  0x29, 0xad, 0x56, 0x3e, 0x0c, 0x12, 0xf1, 0x3c, 0x02, 0xd8, 0x5b, 0x3e,
  0xe1, 0x1c, 0xe4, 0xbe, 0x74, 0x27, 0x98, 0xbe, 0xd1, 0xa5, 0xe5, 0x3c,
  0x48, 0xc3, 0x9f, 0xbe, 0xf1, 0xc9, 0xcd, 0x3e, 0xcb, 0x60, 0x13, 0x3e,
  0x01, 0x2b, 0xce, 0x3e, 0x3e, 0x18, 0xa5, 0xbd, 0xa2, 0x03, 0x0e, 0x3e,
  0xfa, 0x70, 0xa7, 0xbd, 0xaa, 0xb2, 0x24, 0x3e, 0x30, 0x12, 0x92, 0x3e,
  0x38, 0x3f, 0x86, 0xbe, 0x70, 0x55, 0x65, 0x3e, 0xfc, 0xfa, 0xc2, 0x3d,
  0x04, 0x48, 0xfc, 0x3e, 0x06, 0xf6, 0x00, 0xbe, 0x99, 0xb0, 0x45, 0x3e,
  0x42, 0x66, 0x39, 0xbe, 0xb4, 0x2e, 0x3c, 0xbf, 0xc3, 0x9e, 0x38, 0xbe,
  0x5a, 0xfc, 0x64, 0x3e, 0x5d, 0x5c, 0x56, 0x3e, 0xbb, 0xe6, 0xa2, 0x3b,
  0x96, 0x86, 0xd3, 0x3e, 0x75, 0x68, 0x98, 0xbd, 0x95, 0x07, 0x35, 0x3d,
  0x58, 0x2d, 0x8f, 0xbf, 0xc9, 0xd4, 0x43, 0xbf, 0xcb, 0x89, 0x5a, 0x3d,
  0x13, 0x04, 0x87, 0x3b, 0xfe, 0xec, 0x6f, 0xbe, 0xe0, 0x78, 0x2e, 0x3d,
  0xd8, 0xc9, 0x90, 0xbd, 0x5a, 0xaf, 0xdf, 0xbd, 0xe8, 0x48, 0x88, 0x3e,
  0xda, 0x0d, 0xa2, 0x3e, 0x8c, 0x50, 0x5f, 0x3e, 0x80, 0xf8, 0xc4, 0x3b,
  0xe6, 0x48, 0x89, 0x3e, 0xc7, 0xea, 0xcf, 0x3e, 0x1e, 0x23, 0xcb, 0xbe,
  0x2b, 0x83, 0x17, 0x3e, 0xdd, 0x04, 0xed, 0x3e, 0xaf, 0xe2, 0xf9, 0x3e,
  0x38, 0x09, 0xbe, 0xbe, 0x91, 0x81, 0xbd, 0xbe, 0xfb, 0x44, 0x90, 0x3e,
  0x16, 0x88, 0x89, 0x3e, 0x1a, 0x55, 0x13, 0x3f, 0x3d, 0x7c, 0x09, 0x3f,
  0xf2, 0xb7, 0x97, 0x3e, 0x22, 0xc9, 0x53, 0x3e, 0xf3, 0xc8, 0xc1, 0xbe,
  0x79, 0xb9, 0x6a, 0xbe, 0xda, 0xb0, 0x81, 0x3e, 0x54, 0xf7, 0x6b, 0xbe,
  0xa2, 0xdc, 0xda, 0x3e, 0xba, 0xf9, 0xed, 0xbe, 0xc1, 0xc5, 0xd5, 0x3e,
  0xb8, 0x93, 0x62, 0x3e, 0x4a, 0x15, 0xed, 0x3e, 0xd7, 0xf8, 0xe3, 0xbe,
  0x8d, 0x38, 0x48, 0x3c, 0x32, 0xfa, 0x9f, 0x3e, 0x9c, 0x6b, 0xdb, 0xbd,
  0xa1, 0x14, 0x81, 0xbe, 0x28, 0x86, 0x91, 0x3f, 0x83, 0x21, 0x6c, 0x3e,
  0xed, 0x8b, 0x43, 0x3e, 0x4a, 0x5c, 0xb9, 0xbe, 0x4c, 0xbe, 0x65, 0x3e,
  0xe1, 0x05, 0xe1, 0x3d, 0xef, 0x0e, 0xd1, 0xbf, 0x81, 0xf4, 0x5e, 0x3e,
  0xb1, 0xc9, 0xc2, 0xbe, 0xa0, 0x28, 0xe6, 0xbd, 0xaa, 0xbc, 0xcb, 0xbd,
  0x6f, 0x07, 0x98, 0x3e, 0xcc, 0x6a, 0x2e, 0xbe, 0x4a, 0x8e, 0x00, 0x3d,
  0xdc, 0xd6, 0x45, 0x3e, 0x3a, 0x8e, 0x84, 0x3e, 0x8a, 0xfa, 0x52, 0x3e,
  0x22, 0xdb, 0x8e, 0xbe, 0x2a, 0xb8, 0x28, 0x3e, 0xd4, 0xb1, 0x47, 0x3e,
  0x6e, 0xd8, 0x3d, 0x3e, 0x6b, 0x01, 0x37, 0x3e, 0x06, 0x56, 0x96, 0xbf,
  0xa3, 0xe0, 0x93, 0x3e, 0xbf, 0xe7, 0xab, 0xbe, 0xab, 0x6b, 0xc9, 0xbd,
  0x55, 0x85, 0xae, 0x3d, 0xa3, 0x73, 0x44, 0x3e, 0x5c, 0xb8, 0xaf, 0x3e,
  0x91, 0x54, 0x9b, 0x3e, 0x03, 0x19, 0x66, 0xbd, 0x7d, 0xf2, 0xe4, 0xbe,
  0xe7, 0x20, 0x50, 0x3f, 0xa0, 0xf7, 0x3e, 0xbd, 0x10, 0x04, 0x1b, 0x3d,
  0xa3, 0x16, 0x2f, 0xbe, 0xd3, 0xd3, 0x02, 0xbe, 0x2c, 0xb3, 0x5a, 0x3e,
  0xdc, 0x6c, 0x3e, 0x3e, 0x3c, 0x48, 0x07, 0x3e, 0xb0, 0x61, 0x66, 0x3e,
  0x00, 0xf3, 0xd0, 0x3b, 0x40, 0x22, 0xe0, 0x3d, 0x08, 0x22, 0x16, 0x3e,
  0xdf, 0xd2, 0xcd, 0x3d, 0x33, 0xed, 0xce, 0xbc, 0x6e, 0xcc, 0x0f, 0xbe,
  0xb3, 0x74, 0xb4, 0xbd, 0x29, 0x91, 0x93, 0x3f, 0xc9, 0x4e, 0x27, 0x3e,
  0x4b, 0xf7, 0x95, 0xbe, 0xff, 0xe6, 0x6c, 0xbe, 0x14, 0x7e, 0xe4, 0xbd,
  0x89, 0x8d, 0x09, 0x3d, 0x63, 0x37, 0x0e, 0xbf, 0xcb, 0xd1, 0x96, 0xbe,
  0xc0, 0xdd, 0xfd, 0x3f, 0x3d, 0xd0, 0x00, 0x3f, 0x24, 0x7d, 0x66, 0xbe,
  0xcd, 0xdc, 0x73, 0xbe, 0xda, 0xc3, 0x39, 0x3d, 0x36, 0x45, 0x61, 0x3e,
  0xa2, 0x69, 0x7b, 0x3e, 0x11, 0x64, 0x97, 0x3d, 0x28, 0xa2, 0xcf, 0xbe,
  0xa8, 0x2c, 0x91, 0xbe, 0x62, 0xfd, 0xdb, 0x3e, 0xfa, 0xd7, 0xa8, 0x3d,
  0x88, 0xec, 0xb0, 0xbc, 0x58, 0x96, 0xf2, 0x3d, 0x26, 0xe3, 0x28, 0x3f,
  0x25, 0xa2, 0xe3, 0x3e, 0x85, 0x93, 0x1d, 0xbf, 0x34, 0xb7, 0x4c, 0x3e,
  0x0a, 0xb9, 0xa9, 0xbe, 0x84, 0x96, 0x3e, 0x3e, 0x76, 0xdb, 0x73, 0xbe,
  0xb0, 0x92, 0x69, 0x3d, 0x50, 0x7c, 0xec, 0xbc, 0x18, 0xc7, 0x26, 0xbe,
  0x8c, 0xd5, 0x97, 0x3e, 0x40, 0x61, 0x94, 0x3e, 0x40, 0x47, 0x6c, 0xbd,
  0x1a, 0x17, 0x9b, 0x3e, 0xb8, 0xbf, 0x4a, 0xbd, 0xa6, 0x22, 0xdd, 0x3e,
  0xdc, 0xe2, 0x92, 0x3d, 0x80, 0x37, 0xe6, 0x3e, 0x03, 0x16, 0x9a, 0xbf,
  0xbe, 0xdd, 0x36, 0xbf, 0xd7, 0x8f, 0x33, 0x3e, 0x56, 0x21, 0x41, 0x3d,
  0x70, 0x47, 0x94, 0x3d, 0x34, 0xa8, 0xfa, 0x3c, 0x96, 0x69, 0xe2, 0x3e,
  0x03, 0x6e, 0x9a, 0x3e, 0x8d, 0xb0, 0xc5, 0xbe, 0xa0, 0x68, 0xbf, 0x3d,
  0x9b, 0x15, 0x93, 0x3e, 0x1e, 0x13, 0x13, 0x3e, 0x95, 0x78, 0x03, 0xbe,
  0xaa, 0x48, 0x9d, 0x3e, 0x7c, 0x1d, 0x22, 0xbf, 0x62, 0xff, 0xa2, 0xbe,
  0x1c, 0x20, 0xc9, 0x3f, 0xc9, 0x7e, 0x06, 0x3f, 0xa8, 0xae, 0x94, 0x3e,
  0x30, 0xdd, 0xa2, 0xbe, 0x67, 0x45, 0x8e, 0x3e, 0xbd, 0x1e, 0xf6, 0x3e,
  0x90, 0x67, 0xb4, 0xbf, 0x59, 0x7b, 0x0a, 0xbe, 0xfb, 0x74, 0x3a, 0xbf,
  0x64, 0x0e, 0x64, 0xbf, 0xe5, 0xcf, 0x6f, 0x3e, 0x76, 0xd2, 0x57, 0xbd,
  0x08, 0xc6, 0x78, 0x3d, 0x71, 0x31, 0x68, 0x3e, 0xe3, 0x60, 0x66, 0xbf,
  0x6f, 0x74, 0xa4, 0xbe, 0xb9, 0x78, 0x50, 0xbf, 0x25, 0x52, 0x39, 0xbe,
  0xd9, 0x3e, 0x64, 0xbd, 0xb9, 0x69, 0x8b, 0xbd, 0xba, 0xe1, 0x58, 0x3e,
  0x66, 0x1d, 0x85, 0xbc, 0x2e, 0x24, 0xa2, 0x3d, 0x54, 0x55, 0x2f, 0xbe,
  0x45, 0x23, 0xef, 0x3e, 0xa5, 0x56, 0x26, 0x3f, 0x40, 0x9b, 0xa7, 0x3e,
  0xaa, 0x05, 0xc3, 0xbe, 0x17, 0x2b, 0xa9, 0xbd, 0x8b, 0x46, 0xfd, 0xbd,
  0x3a, 0xc4, 0x12, 0xbf, 0x78, 0xd6, 0xa5, 0xbe, 0x8c, 0x0a, 0xbc, 0xbe,
  0xed, 0x14, 0xce, 0x3e, 0x3e, 0x55, 0xd5, 0x3e, 0x18, 0x1f, 0xa3, 0xbe,
  0x7c, 0x04, 0x94, 0xbe, 0x78, 0x62, 0x86, 0xbb, 0x22, 0x4c, 0xe6, 0x3e,
  0xe1, 0x0c, 0xe5, 0x3e, 0x70, 0x5a, 0xbe, 0xbd, 0x63, 0x62, 0x46, 0x3e,
  0x96, 0x7e, 0x87, 0xbe, 0xa0, 0xc6, 0x41, 0x3e, 0xfd, 0x17, 0x71, 0xbd,
  0xa5, 0xd5, 0x9d, 0x3e, 0x5e, 0x93, 0xac, 0xbe, 0xce, 0x8b, 0xa8, 0xbe,
  0x64, 0x0e, 0x89, 0x3f, 0xa3, 0xe6, 0xfe, 0x3e, 0xd4, 0x86, 0x44, 0xbe,
  0x85, 0x92, 0x56, 0xbe, 0xd8, 0x2b, 0x1a, 0x3d, 0xe4, 0x78, 0x53, 0x3e,
  0x56, 0x0b, 0x6b, 0x3e, 0x84, 0x3d, 0xdc, 0x3b, 0xcc, 0x09, 0x03, 0x3e,
  0xc3, 0x1c, 0x96, 0x3e, 0x30, 0xb8, 0x4f, 0x3e, 0x72, 0x24, 0x49, 0x3e,
  0xa0, 0x24, 0x15, 0x3d, 0x38, 0x25, 0xba, 0xbe, 0xa4, 0xe6, 0xef, 0x3e,
  0xa7, 0xa5, 0x02, 0x3f, 0xf1, 0xe4, 0x2b, 0xbf, 0x4e, 0xcb, 0xaf, 0xbe,
  0x0a, 0xa5, 0xf0, 0x3d, 0x40, 0x24, 0xfb, 0x3d, 0xbe, 0x24, 0xf5, 0x3d,
  0x41, 0x11, 0xa8, 0x3e, 0x21, 0x56, 0x39, 0xbe, 0xc7, 0x5c, 0x73, 0xbe,
  0xa5, 0x4c, 0xb9, 0x3a, 0x01, 0xac, 0x09, 0xbf, 0x7e, 0x38, 0xd3, 0xbe,
  0x16, 0x2d, 0xcd, 0xbd, 0x1d, 0xa6, 0x51, 0xbe, 0x75, 0xab, 0x6d, 0xbe,
  0x2c, 0x22, 0x6e, 0x3f, 0xfe, 0x35, 0x2f, 0x3e, 0xd8, 0x9f, 0x92, 0x3f,
  0xf6, 0xf8, 0xb6, 0x3d, 0xf4, 0xe1, 0x0a, 0xbe, 0xa8, 0x88, 0x4c, 0xbe,
  0x70, 0xa3, 0x71, 0xbe, 0x41, 0x28, 0x5f, 0xbe, 0x80, 0xdc, 0xf1, 0x3e,
  0xf5, 0xfc, 0x9a, 0xbe, 0x6b, 0x4e, 0x83, 0x3f, 0xd6, 0x45, 0x87, 0xbe,
  0x0b, 0xfc, 0x8f, 0x3d, 0x5e, 0x2b, 0xe3, 0xbe, 0x1d, 0x9c, 0x4a, 0xbe,
  0xfd, 0x32, 0xca, 0xbd, 0xab, 0xd4, 0x46, 0x3f, 0x99, 0xea, 0xc3, 0x3e,
  0x12, 0x2d, 0x33, 0xbe, 0x7a, 0x7c, 0xd8, 0xbb, 0x8f, 0x1d, 0x4f, 0xbe,
  0xa7, 0x46, 0xba, 0xbd, 0x3b, 0x2d, 0x67, 0xbe, 0x17, 0x61, 0x96, 0xbd,
  0x9d, 0xd6, 0x2a, 0x3e, 0x95, 0xc6, 0x92, 0xbe, 0x2e, 0xe2, 0x2e, 0x3e,
  0xbb, 0x86, 0x0a, 0xbe, 0xa8, 0x19, 0x5c, 0x3e, 0xd8, 0xf4, 0x4e, 0x3e,
  0xca, 0xd3, 0x64, 0xbe, 0x9a, 0x87, 0xa6, 0xbc, 0x63, 0x16, 0x0b, 0x3f,
  0x38, 0xd6, 0x06, 0x3e, 0xd8, 0xb3, 0xe8, 0xbe, 0x14, 0xf0, 0x2d, 0xbe,
  0xa5, 0x5a, 0xb5, 0xbe, 0x1f, 0x9f, 0x90, 0xbe, 0xc5, 0x1c, 0x0e, 0xbe,
  0xed, 0xac, 0xc9, 0xbd, 0xc4, 0x7c, 0x97, 0x3e, 0xce, 0xd3, 0x96, 0x3e,
  0x67, 0xd9, 0x81, 0x3e, 0xa0, 0x08, 0x96, 0xbd, 0xa5, 0x20, 0x91, 0xbe,
  0x04, 0x06, 0xac, 0x3e, 0x5b, 0x35, 0x99, 0xbe, 0x58, 0xef, 0xa5, 0x3d,
  0x9d, 0x46, 0x18, 0xbe, 0x58, 0x1a, 0x00, 0x3d, 0x74, 0x22, 0x42, 0x3e,
  0xc4, 0x69, 0x38, 0xbe, 0xd7, 0xff, 0x8e, 0xbe, 0xf8, 0xb8, 0x4e, 0x3e,
  0xe8, 0x0d, 0x9b, 0x3c, 0xa4, 0x3d, 0x27, 0x3e, 0x9a, 0x30, 0x36, 0x3f,
  0x03, 0x29, 0xb3, 0x3d, 0x73, 0xf8, 0xd0, 0xbf, 0xbe, 0x41, 0xce, 0xbd,
  0xfc, 0x30, 0x15, 0x3e, 0x03, 0xe6, 0xa3, 0xbe, 0x44, 0xcf, 0xc9, 0xbd,
  0x9a, 0x57, 0x84, 0xbe, 0x18, 0xdf, 0x27, 0x3d, 0xd6, 0x44, 0x9d, 0xbe,
  0x9c, 0xe0, 0x69, 0x3e, 0xa0, 0x78, 0x58, 0xbd, 0x04, 0xae, 0x05, 0x3e,
  0x74, 0x09, 0x9c, 0x3e, 0xff, 0xe9, 0x92, 0x3e, 0x82, 0x0e, 0xb1, 0xbe,
  0x27, 0xc3, 0x3d, 0x3f, 0xab, 0x2f, 0x70, 0x3d, 0xbb, 0xd8, 0xa1, 0x3e,
  0xa9, 0xec, 0x03, 0x3f, 0xa7, 0x4e, 0xbd, 0x3e, 0x1a, 0xcb, 0x8b, 0xbe,
  0x30, 0x60, 0xbb, 0xbd, 0x24, 0xf2, 0xfd, 0x3d, 0x1c, 0x25, 0xb4, 0x3c,
  0x3a, 0x96, 0x1c, 0x3e, 0xea, 0xdb, 0xc7, 0xbc, 0x07, 0x61, 0x24, 0xbc,
  0x5f, 0x72, 0x10, 0xbd, 0x14, 0xa5, 0x48, 0x3e, 0x93, 0x81, 0x59, 0xbe,
  0xcf, 0x30, 0xfc, 0x3e, 0x02, 0xff, 0x1e, 0xbe, 0xd4, 0xd4, 0xb5, 0x3e,
  0x25, 0x8b, 0xac, 0xbf, 0x5c, 0xf7, 0x11, 0xbf, 0x1a, 0x7b, 0x7c, 0xbe,
  0xf4, 0xb2, 0xbd, 0xbd, 0xc5, 0xbd, 0xa0, 0x3e, 0x3c, 0x61, 0x7f, 0x3e,
  0x55, 0x89, 0x6f, 0xbf, 0x9c, 0xa2, 0x94, 0xbd, 0x32, 0x30, 0xef, 0xbe,
  0x68, 0xc5, 0x1e, 0xbd, 0x91, 0xdf, 0xe0, 0xbd, 0xf5, 0x7f, 0x8c, 0x3e,
  0x63, 0xa8, 0x41, 0x3e, 0xce, 0xe9, 0x91, 0xbe, 0xb6, 0x36, 0x61, 0xbe,
  0x17, 0x4e, 0x09, 0xbe, 0xa2, 0xff, 0x9c, 0x3e, 0x53, 0xfc, 0xa4, 0x3d,
  0x12, 0x88, 0x3d, 0x3e, 0x77, 0x5b, 0xe3, 0x3d, 0xb0, 0xed, 0xb8, 0x3e,
  0xd7, 0x3a, 0x12, 0x3f, 0x97, 0xbe, 0x49, 0x3e, 0xe9, 0x76, 0xf5, 0x3e,
  0x65, 0xcf, 0xf2, 0xbe, 0xb4, 0x66, 0x84, 0xbe, 0xf2, 0xac, 0x5b, 0xbe,
  0x3c, 0xda, 0x49, 0xbe, 0xe2, 0x5b, 0x91, 0x3e, 0xd6, 0x0d, 0x43, 0x3d,
  0xe9, 0x5e, 0x41, 0xbf, 0x77, 0x6a, 0x9b, 0xbe, 0x5d, 0x17, 0x54, 0xbf,
  0x17, 0x7a, 0x34, 0xbf, 0x30, 0x12, 0x47, 0xbe, 0x3e, 0x26, 0xff, 0xbb,
  0x97, 0xfc, 0x84, 0xbe, 0xb1, 0xe1, 0x31, 0xbe, 0x1e, 0x8b, 0x04, 0x3e,
  0x8e, 0xbd, 0x44, 0xbe, 0xde, 0xb4, 0x9d, 0x3e, 0xa4, 0xdb, 0xd6, 0x3d,
  0x5c, 0xe1, 0xd1, 0xbd, 0xa0, 0x0c, 0x54, 0x3d, 0xbd, 0x5d, 0xb5, 0x3e,
  0x97, 0x5a, 0x3b, 0x3e, 0x37, 0xf9, 0x04, 0x3f, 0x85, 0xd0, 0xc2, 0x3e,
  0xee, 0xca, 0x89, 0xbf, 0xdd, 0x8f, 0x83, 0xbe, 0xe7, 0xce, 0x4e, 0xbe,
  0x41, 0xd1, 0x6d, 0xbe, 0x2e, 0xfe, 0xff, 0xff, 0x04, 0x00, 0x00, 0x00,
  0xc8, 0x00, 0x00, 0x00, 0x26, 0xa1, 0xf3, 0x3d, 0x28, 0xde, 0x8f, 0x3e,
  0x00, 0x00, 0x00, 0x00, 0xb8, 0x0d, 0x71, 0x3e, 0xc1, 0xa4, 0x8f, 0x3d,
  0x00, 0x00, 0x00, 0x00, 0x89, 0xf4, 0x0b, 0x3e, 0x31, 0xc4, 0x53, 0x3d,
  0x15, 0x93, 0x07, 0x3e, 0xc8, 0x27, 0xac, 0x3d, 0xe2, 0x93, 0xd7, 0x3c,
  0x2a, 0x70, 0x6b, 0xbc, 0x76, 0x0a, 0x0c, 0xbc, 0xc1, 0x7d, 0x30, 0x3c,
  0x00, 0x00, 0x00, 0x00, 0xb0, 0x77, 0x07, 0x3d, 0x4f, 0xaf, 0xc2, 0x3d,
  0xc0, 0xa6, 0x4b, 0x3e, 0x21, 0x13, 0x83, 0x3c, 0x00, 0x00, 0x00, 0x00,
  0xed, 0xd5, 0x7f, 0x3d, 0x44, 0xa7, 0x6e, 0x3e, 0xe7, 0x80, 0x94, 0x3d,
  0x02, 0xe0, 0x25, 0xbd, 0x9f, 0xb4, 0x88, 0xbd, 0xc1, 0x56, 0x3b, 0x3e,
  0xed, 0x42, 0xd5, 0x3d, 0x39, 0xf4, 0x1e, 0xbd, 0xe6, 0xed, 0x34, 0x3d,
  0xa8, 0x95, 0x16, 0xbd, 0xe4, 0x13, 0x84, 0x3e, 0x24, 0xcb, 0x56, 0xbd,
  0x61, 0x08, 0x11, 0x3e, 0x1f, 0xc0, 0x26, 0x3d, 0x74, 0x3e, 0xa3, 0xbd,
  0x38, 0x74, 0x0c, 0x3d, 0xf3, 0x0c, 0x3f, 0x3d, 0x64, 0xd9, 0x78, 0xbc,
  0x00, 0x00, 0x00, 0x00, 0xa8, 0x7b, 0x94, 0x3e, 0x00, 0x00, 0x00, 0x00,
  0x5f, 0xfb, 0x77, 0x3e, 0x6c, 0x28, 0x62, 0xbd, 0xa6, 0x8e, 0x3a, 0x3d,
  0x22, 0x1e, 0x46, 0xbd, 0xfb, 0xcd, 0x16, 0xbd, 0x5e, 0x7f, 0x0c, 0x3e,
  0x0f, 0x8d, 0x36, 0xbd, 0x00, 0x00, 0x00, 0x00, 0xbf, 0x27, 0x03, 0x3e,
  0x02, 0xff, 0xff, 0xff, 0x04, 0x00, 0x00, 0x00, 0x14, 0x00, 0x00, 0x00,
  0x24, 0x46, 0x0a, 0x3e, 0x78, 0xb5, 0x41, 0xbe, 0xd8, 0x68, 0x6c, 0xbe,
  0xac, 0xd3, 0x6e, 0xbe, 0xc4, 0x84, 0xf3, 0xbd, 0x22, 0xff, 0xff, 0xff,
  0x04, 0x00, 0x00, 0x00, 0x3c, 0x00, 0x00, 0x00, 0xcb, 0xa2, 0xa3, 0x3d,
  0x39, 0xca, 0x4c, 0x3d, 0x47, 0x2c, 0xed, 0x3d, 0x9a, 0xb0, 0xa7, 0xbc,
  0xee, 0x82, 0x74, 0x3e, 0x4e, 0x5b, 0x6c, 0x3a, 0xaa, 0xcb, 0xb3, 0x3c,
  0xc0, 0x2e, 0x86, 0xbd, 0x11, 0xe4, 0xc6, 0x3d, 0x0a, 0x56, 0x16, 0xbd,
  0x4e, 0xea, 0xe9, 0x3d, 0x55, 0xd5, 0xe9, 0xbb, 0x45, 0x68, 0xed, 0x3c,
  0x09, 0xef, 0x04, 0x3e, 0xe0, 0x07, 0xf7, 0x3d, 0x2c, 0xfa, 0xff, 0xff,
  0x30, 0xfa, 0xff, 0xff, 0x0f, 0x00, 0x00, 0x00, 0x4d, 0x4c, 0x49, 0x52,
  0x20, 0x43, 0x6f, 0x6e, 0x76, 0x65, 0x72, 0x74, 0x65, 0x64, 0x2e, 0x00,
  0x01, 0x00, 0x00, 0x00, 0x14, 0x00, 0x00, 0x00, 0x00, 0x00, 0x0e, 0x00,
  0x18, 0x00, 0x14, 0x00, 0x10, 0x00, 0x0c, 0x00, 0x08, 0x00, 0x04, 0x00,
  0x0e, 0x00, 0x00, 0x00, 0x14, 0x00, 0x00, 0x00, 0x1c, 0x00, 0x00, 0x00,
  0x24, 0x01, 0x00, 0x00, 0x28, 0x01, 0x00, 0x00, 0x2c, 0x01, 0x00, 0x00,
  0x04, 0x00, 0x00, 0x00, 0x6d, 0x61, 0x69, 0x6e, 0x00, 0x00, 0x00, 0x00,
  0x04, 0x00, 0x00, 0x00, 0xcc, 0x00, 0x00, 0x00, 0x84, 0x00, 0x00, 0x00,
  0x50, 0x00, 0x00, 0x00, 0x14, 0x00, 0x00, 0x00, 0x00, 0x00, 0x0e, 0x00,
  0x1a, 0x00, 0x14, 0x00, 0x10, 0x00, 0x0c, 0x00, 0x0b, 0x00, 0x04, 0x00,
  0x0e, 0x00, 0x00, 0x00, 0x1c, 0x00, 0x00, 0x00, 0x00, 0x00, 0x00, 0x09,
  0x1c, 0x00, 0x00, 0x00, 0x20, 0x00, 0x00, 0x00, 0x01, 0x00, 0x00, 0x00,
  0x00, 0x00, 0x06, 0x00, 0x08, 0x00, 0x04, 0x00, 0x06, 0x00, 0x00, 0x00,
  0x00, 0x00, 0x80, 0x3f, 0x01, 0x00, 0x00, 0x00, 0x0a, 0x00, 0x00, 0x00,
  0x01, 0x00, 0x00, 0x00, 0x09, 0x00, 0x00, 0x00, 0x9a, 0xff, 0xff, 0xff,
  0x10, 0x00, 0x00, 0x00, 0x00, 0x00, 0x00, 0x08, 0x0c, 0x00, 0x00, 0x00,
  0x10, 0x00, 0x00, 0x00, 0xf4, 0xfa, 0xff, 0xff, 0x01, 0x00, 0x00, 0x00,
  0x09, 0x00, 0x00, 0x00, 0x03, 0x00, 0x00, 0x00, 0x08, 0x00, 0x00, 0x00,
  0x06, 0x00, 0x00, 0x00, 0x02, 0x00, 0x00, 0x00, 0xca, 0xff, 0xff, 0xff,
  0x10, 0x00, 0x00, 0x00, 0x00, 0x00, 0x00, 0x08, 0x10, 0x00, 0x00, 0x00,
  0x14, 0x00, 0x00, 0x00, 0xba, 0xff, 0xff, 0xff, 0x00, 0x00, 0x00, 0x01,
  0x01, 0x00, 0x00, 0x00, 0x08, 0x00, 0x00, 0x00, 0x03, 0x00, 0x00, 0x00,
  0x07, 0x00, 0x00, 0x00, 0x05, 0x00, 0x00, 0x00, 0x01, 0x00, 0x00, 0x00,
  0x00, 0x00, 0x0e, 0x00, 0x16, 0x00, 0x00, 0x00, 0x10, 0x00, 0x0c, 0x00,
  0x0b, 0x00, 0x04, 0x00, 0x0e, 0x00, 0x00, 0x00, 0x18, 0x00, 0x00, 0x00,
  0x00, 0x00, 0x00, 0x08, 0x18, 0x00, 0x00, 0x00, 0x1c, 0x00, 0x00, 0x00,
  0x00, 0x00, 0x06, 0x00, 0x08, 0x00, 0x07, 0x00, 0x06, 0x00, 0x00, 0x00,
  0x00, 0x00, 0x00, 0x01, 0x01, 0x00, 0x00, 0x00, 0x07, 0x00, 0x00, 0x00,
  0x03, 0x00, 0x00, 0x00, 0x00, 0x00, 0x00, 0x00, 0x04, 0x00, 0x00, 0x00,
  0x03, 0x00, 0x00, 0x00, 0x01, 0x00, 0x00, 0x00, 0x0a, 0x00, 0x00, 0x00,
  0x01, 0x00, 0x00, 0x00, 0x00, 0x00, 0x00, 0x00, 0x0b, 0x00, 0x00, 0x00,
  0x34, 0x04, 0x00, 0x00, 0xc0, 0x03, 0x00, 0x00, 0x4c, 0x03, 0x00, 0x00,
  0xf4, 0x02, 0x00, 0x00, 0xa8, 0x02, 0x00, 0x00, 0x58, 0x02, 0x00, 0x00,
  0x08, 0x02, 0x00, 0x00, 0x74, 0x01, 0x00, 0x00, 0xdc, 0x00, 0x00, 0x00,
  0x60, 0x00, 0x00, 0x00, 0x04, 0x00, 0x00, 0x00, 0x0e, 0xfc, 0xff, 0xff,
  0x00, 0x00, 0x00, 0x01, 0x14, 0x00, 0x00, 0x00, 0x1c, 0x00, 0x00, 0x00,
  0x1c, 0x00, 0x00, 0x00, 0x0b, 0x00, 0x00, 0x00, 0x34, 0x00, 0x00, 0x00,
  0x02, 0x00, 0x00, 0x00, 0xff, 0xff, 0xff, 0xff, 0x05, 0x00, 0x00, 0x00,
  0xf8, 0xfb, 0xff, 0xff, 0x19, 0x00, 0x00, 0x00, 0x53, 0x74, 0x61, 0x74,
  0x65, 0x66, 0x75, 0x6c, 0x50, 0x61, 0x72, 0x74, 0x69, 0x74, 0x69, 0x6f,
  0x6e, 0x65, 0x64, 0x43, 0x61, 0x6c, 0x6c, 0x3a, 0x30, 0x00, 0x00, 0x00,
  0x02, 0x00, 0x00, 0x00, 0x01, 0x00, 0x00, 0x00, 0x05, 0x00, 0x00, 0x00,
  0x66, 0xfc, 0xff, 0xff, 0x00, 0x00, 0x00, 0x01, 0x14, 0x00, 0x00, 0x00,
  0x1c, 0x00, 0x00, 0x00, 0x1c, 0x00, 0x00, 0x00, 0x0a, 0x00, 0x00, 0x00,
  0x54, 0x00, 0x00, 0x00, 0x02, 0x00, 0x00, 0x00, 0xff, 0xff, 0xff, 0xff,
  0x05, 0x00, 0x00, 0x00, 0x50, 0xfc, 0xff, 0xff, 0x3a, 0x00, 0x00, 0x00,
  0x73, 0x65, 0x71, 0x75, 0x65, 0x6e, 0x74, 0x69, 0x61, 0x6c, 0x5f, 0x33,
  0x2f, 0x64, 0x65, 0x6e, 0x73, 0x65, 0x5f, 0x31, 0x31, 0x2f, 0x4d, 0x61,
  0x74, 0x4d, 0x75, 0x6c, 0x3b, 0x73, 0x65, 0x71, 0x75, 0x65, 0x6e, 0x74,
  0x69, 0x61, 0x6c, 0x5f, 0x33, 0x2f, 0x64, 0x65, 0x6e, 0x73, 0x65, 0x5f,
  0x31, 0x31, 0x2f, 0x42, 0x69, 0x61, 0x73, 0x41, 0x64, 0x64, 0x00, 0x00,
  0x02, 0x00, 0x00, 0x00, 0x01, 0x00, 0x00, 0x00, 0x05, 0x00, 0x00, 0x00,
  0xde, 0xfc, 0xff, 0xff, 0x00, 0x00, 0x00, 0x01, 0x14, 0x00, 0x00, 0x00,
  0x1c, 0x00, 0x00, 0x00, 0x1c, 0x00, 0x00, 0x00, 0x09, 0x00, 0x00, 0x00,
  0x70, 0x00, 0x00, 0x00, 0x02, 0x00, 0x00, 0x00, 0xff, 0xff, 0xff, 0xff,
  0x0f, 0x00, 0x00, 0x00, 0xc8, 0xfc, 0xff, 0xff, 0x55, 0x00, 0x00, 0x00,
  0x73, 0x65, 0x71, 0x75, 0x65, 0x6e, 0x74, 0x69, 0x61, 0x6c, 0x5f, 0x33,
  0x2f, 0x64, 0x65, 0x6e, 0x73, 0x65, 0x5f, 0x31, 0x30, 0x2f, 0x4d, 0x61,
  0x74, 0x4d, 0x75, 0x6c, 0x3b, 0x73, 0x65, 0x71, 0x75, 0x65, 0x6e, 0x74,
  0x69, 0x61, 0x6c, 0x5f, 0x33, 0x2f, 0x64, 0x65, 0x6e, 0x73, 0x65, 0x5f,
  0x31, 0x30, 0x2f, 0x52, 0x65, 0x6c, 0x75, 0x3b, 0x73, 0x65, 0x71, 0x75,
  0x65, 0x6e, 0x74, 0x69, 0x61, 0x6c, 0x5f, 0x33, 0x2f, 0x64, 0x65, 0x6e,
  0x73, 0x65, 0x5f, 0x31, 0x30, 0x2f, 0x42, 0x69, 0x61, 0x73, 0x41, 0x64,
  0x64, 0x00, 0x00, 0x00, 0x02, 0x00, 0x00, 0x00, 0x01, 0x00, 0x00, 0x00,
  0x0f, 0x00, 0x00, 0x00, 0x72, 0xfd, 0xff, 0xff, 0x00, 0x00, 0x00, 0x01,
  0x14, 0x00, 0x00, 0x00, 0x1c, 0x00, 0x00, 0x00, 0x1c, 0x00, 0x00, 0x00,
  0x08, 0x00, 0x00, 0x00, 0x6c, 0x00, 0x00, 0x00, 0x02, 0x00, 0x00, 0x00,
  0xff, 0xff, 0xff, 0xff, 0x32, 0x00, 0x00, 0x00, 0x5c, 0xfd, 0xff, 0xff,
  0x52, 0x00, 0x00, 0x00, 0x73, 0x65, 0x71, 0x75, 0x65, 0x6e, 0x74, 0x69,
  0x61, 0x6c, 0x5f, 0x33, 0x2f, 0x64, 0x65, 0x6e, 0x73, 0x65, 0x5f, 0x39,
  0x2f, 0x4d, 0x61, 0x74, 0x4d, 0x75, 0x6c, 0x3b, 0x73, 0x65, 0x71, 0x75,
  0x65, 0x6e, 0x74, 0x69, 0x61, 0x6c, 0x5f, 0x33, 0x2f, 0x64, 0x65, 0x6e,
  0x73, 0x65, 0x5f, 0x39, 0x2f, 0x52, 0x65, 0x6c, 0x75, 0x3b, 0x73, 0x65,
  0x71, 0x75, 0x65, 0x6e, 0x74, 0x69, 0x61, 0x6c, 0x5f, 0x33, 0x2f, 0x64,
  0x65, 0x6e, 0x73, 0x65, 0x5f, 0x39, 0x2f, 0x42, 0x69, 0x61, 0x73, 0x41,
  0x64, 0x64, 0x00, 0x00, 0x02, 0x00, 0x00, 0x00, 0x01, 0x00, 0x00, 0x00,
  0x32, 0x00, 0x00, 0x00, 0x72, 0xfe, 0xff, 0xff, 0x00, 0x00, 0x00, 0x01,
  0x10, 0x00, 0x00, 0x00, 0x10, 0x00, 0x00, 0x00, 0x07, 0x00, 0x00, 0x00,
  0x2c, 0x00, 0x00, 0x00, 0xdc, 0xfd, 0xff, 0xff, 0x1c, 0x00, 0x00, 0x00,
  0x73, 0x65, 0x71, 0x75, 0x65, 0x6e, 0x74, 0x69, 0x61, 0x6c, 0x5f, 0x33,
  0x2f, 0x64, 0x65, 0x6e, 0x73, 0x65, 0x5f, 0x31, 0x31, 0x2f, 0x4d, 0x61,
  0x74, 0x4d, 0x75, 0x6c, 0x00, 0x00, 0x00, 0x00, 0x02, 0x00, 0x00, 0x00,
  0x05, 0x00, 0x00, 0x00, 0x0f, 0x00, 0x00, 0x00, 0xbe, 0xfe, 0xff, 0xff,
  0x00, 0x00, 0x00, 0x01, 0x10, 0x00, 0x00, 0x00, 0x10, 0x00, 0x00, 0x00,
  0x06, 0x00, 0x00, 0x00, 0x2c, 0x00, 0x00, 0x00, 0x28, 0xfe, 0xff, 0xff,
  0x1c, 0x00, 0x00, 0x00, 0x73, 0x65, 0x71, 0x75, 0x65, 0x6e, 0x74, 0x69,
  0x61, 0x6c, 0x5f, 0x33, 0x2f, 0x64, 0x65, 0x6e, 0x73, 0x65, 0x5f, 0x31,
  0x30, 0x2f, 0x4d, 0x61, 0x74, 0x4d, 0x75, 0x6c, 0x00, 0x00, 0x00, 0x00,
  0x02, 0x00, 0x00, 0x00, 0x0f, 0x00, 0x00, 0x00, 0x32, 0x00, 0x00, 0x00,
  0x0a, 0xff, 0xff, 0xff, 0x00, 0x00, 0x00, 0x01, 0x10, 0x00, 0x00, 0x00,
  0x10, 0x00, 0x00, 0x00, 0x05, 0x00, 0x00, 0x00, 0x28, 0x00, 0x00, 0x00,
  0x74, 0xfe, 0xff, 0xff, 0x1b, 0x00, 0x00, 0x00, 0x73, 0x65, 0x71, 0x75,
  0x65, 0x6e, 0x74, 0x69, 0x61, 0x6c, 0x5f, 0x33, 0x2f, 0x64, 0x65, 0x6e,
  0x73, 0x65, 0x5f, 0x39, 0x2f, 0x4d, 0x61, 0x74, 0x4d, 0x75, 0x6c, 0x00,
  0x02, 0x00, 0x00, 0x00, 0x32, 0x00, 0x00, 0x00, 0x08, 0x00, 0x00, 0x00,
  0x52, 0xff, 0xff, 0xff, 0x00, 0x00, 0x00, 0x01, 0x10, 0x00, 0x00, 0x00,
  0x10, 0x00, 0x00, 0x00, 0x04, 0x00, 0x00, 0x00, 0x38, 0x00, 0x00, 0x00,
  0xbc, 0xfe, 0xff, 0xff, 0x2b, 0x00, 0x00, 0x00, 0x73, 0x65, 0x71, 0x75,
  0x65, 0x6e, 0x74, 0x69, 0x61, 0x6c, 0x5f, 0x33, 0x2f, 0x64, 0x65, 0x6e,
  0x73, 0x65, 0x5f, 0x39, 0x2f, 0x42, 0x69, 0x61, 0x73, 0x41, 0x64, 0x64,
  0x2f, 0x52, 0x65, 0x61, 0x64, 0x56, 0x61, 0x72, 0x69, 0x61, 0x62, 0x6c,
  0x65, 0x4f, 0x70, 0x00, 0x01, 0x00, 0x00, 0x00, 0x32, 0x00, 0x00, 0x00,
  0xa6, 0xff, 0xff, 0xff, 0x00, 0x00, 0x00, 0x01, 0x10, 0x00, 0x00, 0x00,
  0x10, 0x00, 0x00, 0x00, 0x03, 0x00, 0x00, 0x00, 0x3c, 0x00, 0x00, 0x00,
  0x10, 0xff, 0xff, 0xff, 0x2c, 0x00, 0x00, 0x00, 0x73, 0x65, 0x71, 0x75,
  0x65, 0x6e, 0x74, 0x69, 0x61, 0x6c, 0x5f, 0x33, 0x2f, 0x64, 0x65, 0x6e,
  0x73, 0x65, 0x5f, 0x31, 0x31, 0x2f, 0x42, 0x69, 0x61, 0x73, 0x41, 0x64,
  0x64, 0x2f, 0x52, 0x65, 0x61, 0x64, 0x56, 0x61, 0x72, 0x69, 0x61, 0x62,
  0x6c, 0x65, 0x4f, 0x70, 0x00, 0x00, 0x00, 0x00, 0x01, 0x00, 0x00, 0x00,
  0x05, 0x00, 0x00, 0x00, 0x00, 0x00, 0x16, 0x00, 0x18, 0x00, 0x14, 0x00,
  0x00, 0x00, 0x10, 0x00, 0x0c, 0x00, 0x08, 0x00, 0x00, 0x00, 0x00, 0x00,
  0x00, 0x00, 0x07, 0x00, 0x16, 0x00, 0x00, 0x00, 0x00, 0x00, 0x00, 0x01,
  0x10, 0x00, 0x00, 0x00, 0x10, 0x00, 0x00, 0x00, 0x02, 0x00, 0x00, 0x00,
  0x3c, 0x00, 0x00, 0x00, 0x80, 0xff, 0xff, 0xff, 0x2c, 0x00, 0x00, 0x00,
  0x73, 0x65, 0x71, 0x75, 0x65, 0x6e, 0x74, 0x69, 0x61, 0x6c, 0x5f, 0x33,
  0x2f, 0x64, 0x65, 0x6e, 0x73, 0x65, 0x5f, 0x31, 0x30, 0x2f, 0x42, 0x69,
  0x61, 0x73, 0x41, 0x64, 0x64, 0x2f, 0x52, 0x65, 0x61, 0x64, 0x56, 0x61,
  0x72, 0x69, 0x61, 0x62, 0x6c, 0x65, 0x4f, 0x70, 0x00, 0x00, 0x00, 0x00,
  0x01, 0x00, 0x00, 0x00, 0x0f, 0x00, 0x00, 0x00, 0x00, 0x00, 0x16, 0x00,
  0x1c, 0x00, 0x18, 0x00, 0x00, 0x00, 0x14, 0x00, 0x10, 0x00, 0x0c, 0x00,
  0x00, 0x00, 0x00, 0x00, 0x08, 0x00, 0x07, 0x00, 0x16, 0x00, 0x00, 0x00,
  0x00, 0x00, 0x00, 0x01, 0x14, 0x00, 0x00, 0x00, 0x20, 0x00, 0x00, 0x00,
  0x20, 0x00, 0x00, 0x00, 0x01, 0x00, 0x00, 0x00, 0x3c, 0x00, 0x00, 0x00,
  0x02, 0x00, 0x00, 0x00, 0xff, 0xff, 0xff, 0xff, 0x08, 0x00, 0x00, 0x00,
  0x04, 0x00, 0x04, 0x00, 0x04, 0x00, 0x00, 0x00, 0x1f, 0x00, 0x00, 0x00,
  0x73, 0x65, 0x72, 0x76, 0x69, 0x6e, 0x67, 0x5f, 0x64, 0x65, 0x66, 0x61,
  0x75, 0x6c, 0x74, 0x5f, 0x64, 0x65, 0x6e, 0x73, 0x65, 0x5f, 0x39, 0x5f,
  0x69, 0x6e, 0x70, 0x75, 0x74, 0x3a, 0x30, 0x00, 0x02, 0x00, 0x00, 0x00,
  0x01, 0x00, 0x00, 0x00, 0x08, 0x00, 0x00, 0x00, 0x02, 0x00, 0x00, 0x00,
  0x20, 0x00, 0x00, 0x00, 0x04, 0x00, 0x00, 0x00, 0xf4, 0xff, 0xff, 0xff,
  0x19, 0x00, 0x00, 0x00, 0x00, 0x00, 0x00, 0x19, 0x0c, 0x00, 0x0c, 0x00,
  0x0b, 0x00, 0x00, 0x00, 0x00, 0x00, 0x04, 0x00, 0x0c, 0x00, 0x00, 0x00,
  0x09, 0x00, 0x00, 0x00, 0x00, 0x00, 0x00, 0x09
};
